7e
95
91
a7
25
36
99
d3
74
6c
c4
cd
9b
5a
69
76
2e
7a
5d
21
f1
28
09
79
25
10
68
c2
e4
aa
84
16
ce
64
f2
96
0a
a3
fb
c0
0e
b8
fd
d3
43
3b
81
3c
7d
08
c8
8e
8a
29
9b
35
10
33
e4
b6
1d
bd
af
7c
0b
99
ca
d3
f1
66
df
f0
3c
33
81
1e
61
f5
bc
06
38
10
b9
44
2e
0a
5b
46
b3
0f
06
7a
f3
72
16
cd
54
a7
67
b2
1d
f2
b2
91
e4
1d
3d
1d
7e
70
75
72
5b
d0
39
c3
c3
39
ab
02
88
84
12
d2
64
6d
d5
63
d2
32
31
72
b1
4b
ed
7f
b5
76
7f
e9
72
45
98
4b
db
0c
95
27
2f
cc
ff
f9
58
d8
73
b1
19
1c
82
b8
1e
7f
10
87
24
27
fb
56
39
b0
7d
b3
24
2a
bf
97
2b
a7
1c
02
82
83
79
79
4d
11
53
ec
de
5d
9f
72
74
54
20
b4
53
0a
78
c7
8b
7d
62
a3
c8
55
a7
63
e1
6b
8b
1e
5b
2b
07
e6
46
12
bf
13
21
44
71
f9
d7
0c
7a
4a
b2
55
f3
84
9d
db
8f
4a
57
12
f8
af
0d
22
92
f3
ca
07
8b
41
45
50
bf
0c
71
78
8e
47
62
59
f4
42
23
96
c9
cf
0f
22
44
76
14
5e
79
09
02
b7
e0
d5
1e
33
89
bf
66
8f
fc
5d
c8
0c
6c
58
8a
f7
f5
8c
a1
ea
90
e6
f7
b5
0c
dd
83
ac
51
2f
b2
8b
45
5b
02
3a
8a
22
8b
a4
ce
07
a7
0c
3c
6c
76
47
14
78
13
36
bf
7f
0f
ad
03
33
85
3e
1f
39
d3
7e
03
b0
87
54
53
5b
ed
f1
ef
67
f3
a7
17
48
3c
1d
95
cf
a4
f6
0f
24
5e
ba
98
71
0f
41
04
a7
cb
66
94
01
35
34
d1
b5
d6
d8
ab
28
7e
8b
5b
5f
25
4f
4a
26
61
9f
ed
d5
de
b2
12
28
f5
85
ad
f0
69
59
fc
3e
d1
f3
d8
88
e9
71
a7
48
45
1c
bb
e9
d0
82
1a
11
d5
9f
da
54
66
32
1a
52
97
e1
38
c6
b9
b6
13
33
13
97
22
b3
b6
01
e1
e2
cb
04
9d
e4
d1
e1
6f
d6
43
a0
c1
a9
0e
ed
5f
fd
b4
6a
47
4d
08
0c
ce
8f
ac
e4
b1
df
e4
ba
60
c5
9e
81
1c
5c
5e
01
48
cf
27
78
fd
76
2e
a6
d8
a1
d8
e8
cb
79
15
99
6e
22
bd
44
a5
71
2a
cd
34
23
ad
93
fc
66
ec
19
cc
74
db
f4
bb
4a
40
d4
a6
2e
07
4d
74
65
e1
2e
7c
84
27
98
42
12
4b
1d
2b
fe
04
ed
cf
94
fc
63
e9
da
5b
0a
f2
d5
8c
0f
a9
77
e8
7e
2f
b9
53
17
19
7f
99
8e
78
18
34
80
a7
40
ad
e0
e0
9e
4e
28
bc
fa
6e
5d
b2
26
52
fa
4a
12
c4
b1
8b
37
e6
e4
06
87
38
96
4c
f5
fe
8f
04
a1
3c
86
5c
9c
d6
26
b3
e9
96
ab
b4
31
47
a8
15
c9
41
a6
b9
70
85
8b
28
18
e3
91
dd
43
66
01
7a
2b
57
e8
c0
fd
b7
99
28
25
bb
b3
a3
28
a5
93
ad
c1
94
d4
ef
d0
c0
56
4b
7b
80
53
4b
31
9a
10
c5
26
ec
77
c0
42
12
7d
34
7f
77
42
fb
25
7e
2f
f1
2c
67
85
01
97
14
a2
d9
b0
86
2e
4b
f2
f0
d1
de
f5
58
da
96
f5
00
51
47
c2
0d
54
92
dc
ac
47
24
18
dd
3d
0e
8b
3f
13
10
c6
52
43
5d
2f
44
d7
7e
a8
2e
68
c9
f1
7a
7d
96
82
16
97
57
52
e4
32
68
18
ce
2a
b2
9d
aa
a6
47
b2
de
f0
d6
69
8c
c3
a3
0d
b1
a9
6b
09
b2
0e
9a
d0
3f
33
cb
24
2c
ca
c5
17
3c
ad
89
40
ce
78
ac
f2
42
02
6b
88
38
bf
d5
9a
32
f4
05
0b
4c
5d
2e
7e
76
c3
f3
c0
ff
b4
d0
5e
97
02
f2
6e
8b
84
92
44
ab
f8
f6
86
6e
e1
c7
60
ff
a1
e8
ad
97
c2
f0
1f
4a
e3
89
58
73
dd
52
bc
4e
c6
02
12
7f
ba
93
c6
e8
b5
61
17
40
a1
0e
9f
f0
20
c0
4b
26
76
2e
b2
08
67
66
ac
68
f5
0d
48
0c
3a
97
13
d1
0a
98
d8
5b
27
43
be
e7
a2
3e
4d
4a
1d
00
a2
07
87
f2
7d
c0
ca
e2
83
36
ed
b7
2d
24
bc
09
c8
24
3c
4f
e6
1f
4a
68
56
95
fe
ab
9c
0f
95
fa
e8
b6
69
3c
2e
c2
80
1d
69
93
2b
d1
5b
2d
55
d1
29
f1
9c
3c
0d
47
e3
8b
0d
02
c8
36
da
b0
ce
83
49
92
d0
96
22
c5
e5
0d
39
87
cd
a3
fd
8c
eb
3c
28
08
07
c1
fc
40
26
d0
cd
d8
ad
84
71
f2
15
b1
b1
0a
8e
33
86
0d
cd
e6
9a
51
21
e2
6e
27
4c
91
fd
e3
da
b3
37
fe
be
ab
29
c7
0a
c3
66
21
ee
55
b3
43
2e
04
34
2c
a6
8f
2d
81
bb
96
92
63
fd
43
c2
51
f1
cd
89
9e
ff
19
69
e7
77
4d
b7
6c
28
a7
0e
67
aa
f5
49
5c
d9
4c
e3
9f
e4
3c
20
8d
f7
b3
4c
b2
88
83
ef
7c
07
e3
58
c8
45
f9
b3
c2
a3
6f
d5
13
82
c0
48
1d
06
2d
09
34
7e
a3
67
43
c7
f6
a1
31
11
ac
2e
25
5c
ac
3f
00
11
50
59
91
b3
da
59
07
48
d6
58
fc
76
fb
25
70
25
d3
91
9c
f5
04
4a
8f
9d
f9
36
2b
22
2f
f1
92
b6
1a
a4
0d
88
ef
8e
0e
92
e2
c6
58
61
27
07
78
45
3b
6d
29
7b
14
1f
30
81
51
84
82
df
3c
1e
45
f3
6d
21
af
46
77
cf
9e
56
b6
ab
ea
dc
4e
64
1b
a7
97
ba
0b
e6
2a
ec
6d
7f
65
9f
f1
af
b6
c9
9a
e7
1a
29
b6
a7
a7
08
95
1e
60
cd
b0
b6
d0
5d
fa
85
ad
57
9c
9c
cb
0a
f4
ea
c0
5e
54
4e
a3
e4
ea
8f
c5
3e
8e
77
4b
84
8b
78
60
77
40
67
eb
40
d8
5b
10
7f
35
97
e4
22
7d
02
2e
96
81
02
61
65
15
78
f2
bd
c8
66
91
1a
3f
42
0f
dd
20
57
e8
91
67
13
9d
0f
b6
bd
cd
9c
19
1e
8d
43
2d
e9
96
e4
4b
1b
bb
78
74
3d
98
6a
ef
ca
5f
33
2f
c4
2d
46
ea
03
77
ab
c8
a4
fe
5d
1f
fa
34
ef
90
2a
35
65
b6
f7
ab
09
07
96
09
c8
f7
d2
9b
72
ac
c7
3d
77
0a
f2
99
9f
7c
27
0b
95
ac
e0
03
63
83
40
d1
da
73
9a
d1
7f
8d
af
4b
91
a4
a1
1a
92
62
9b
4c
c8
3f
0a
aa
96
c5
db
f6
63
4b
1f
31
cf
41
af
99
1a
2a
30
27
4d
67
61
fc
e4
65
cf
22
8b
1f
0b
25
a9
90
e9
64
73
16
7f
a7
05
46
04
ca
26
ef
9b
d4
bb
ae
f3
30
71
d7
cf
42
40
d7
d7
f0
5e
d4
ea
46
95
b4
18
76
0d
2e
f6
7a
0b
a9
54
2b
8e
de
dd
57
dd
cc
3e
0b
a5
a5
5d
43
e9
d5
8e
b3
29
e8
93
a0
ad
47
06
50
a7
04
88
88
b9
4d
1c
18
18
23
60
22
52
3b
d4
de
d1
55
fc
12
c4
5e
21
92
49
5f
95
09
52
12
7a
17
d8
d1
32
e5
67
2a
d5
6f
b1
3e
d7
3d
ff
9d
06
0e
52
14
e9
7e
60
aa
cf
61
45
58
88
e5
87
fe
5b
ee
31
f3
49
5a
d2
50
30
d8
e9
a7
a7
5c
e6
aa
e0
c1
e6
4b
32
fe
fb
14
c8
61
83
fc
81
29
54
7b
e7
ae
22
49
4a
e7
92
dd
41
91
54
a0
0d
10
92
d2
e2
99
24
64
6a
8b
3e
39
31
53
d9
ad
97
aa
05
0d
8f
62
e3
d9
78
6b
c6
88
8a
f8
7b
c8
d9
70
68
43
5b
04
7a
e2
25
3d
54
12
b7
f5
2e
ba
c7
10
49
b9
ab
fc
81
53
42
c3
19
49
94
eb
8f
fa
ff
45
41
9c
61
af
7d
25
1a
97
43
2c
5a
7a
e9
bc
a8
f1
f9
5b
98
68
3b
4a
12
dc
c9
11
fe
e1
b4
9e
24
c3
27
fc
88
b1
36
c3
f5
0c
4a
8f
38
21
99
c9
9e
1d
73
ab
ee
93
27
41
dc
39
12
cc
c1
ce
f2
0d
5b
1f
5a
ce
92
46
95
d2
1e
16
fb
04
0e
e0
6b
50
30
ba
87
55
a2
15
0b
32
24
b6
69
50
d3
e3
e1
7a
e7
54
d2
59
60
e2
1a
c3
98
0b
6d
68
02
96
bd
72
dd
a2
24
45
e7
d4
5d
ac
12
25
76
f0
14
0d
43
aa
f2
b5
3d
3f
c6
45
5a
7f
00
01
21
a8
1e
23
86
ee
61
16
e0
02
ba
fe
e6
bd
38
9b
a3
fd
02
9c
f7
79
5a
e5
6e
56
2e
7b
88
78
a8
93
73
de
03
73
6a
3c
67
87
34
68
01
1d
83
fa
3a
e3
52
2b
c0
f6
0d
71
ce
6c
da
dc
b1
97
70
75
1d
98
a8
b0
76
83
fe
e0
57
23
28
7f
45
ee
01
7e
8b
11
d3
66
42
34
82
73
98
21
65
a9
86
c9
a9
72
32
03
a7
7f
88
bb
0a
e8
8e
62
b0
bf
0f
d2
5b
76
76
87
71
cd
89
cb
18
3f
19
45
1b
7e
0b
a3
b4
17
af
43
bd
6a
65
e1
d4
09
75
ed
50
95
bb
35
12
a2
95
50
4d
50
44
e6
23
83
3d
a4
8b
68
d3
eb
0a
ae
db
19
5d
c5
77
cc
76
de
8c
b9
5e
1b
50
3e
fb
c3
1f
59
45
18
8b
ce
5b
75
67
6e
29
a6
d6
e2
f6
20
50
01
f3
6a
03
18
f1
67
b3
46
06
78
76
f8
6a
f1
92
6e
d7
7a
49
81
0a
5f
b1
52
6e
c1
2d
1a
ba
d8
d8
e3
c1
67
1f
22
7b
03
cd
ad
da
cb
d8
cc
e1
78
59
4d
fd
08
d6
f6
5b
d9
c9
f0
5b
17
c0
1d
23
b8
6f
d1
c5
78
20
5b
06
15
a6
ea
be
c2
66
fe
37
f9
dc
f5
e4
f8
28
61
57
a6
3a
2b
10
a6
97
73
39
c6
fd
ff
e7
f1
1f
f7
fa
b1
c4
ae
86
68
f4
84
4f
26
16
1c
a3
2a
ac
3a
fe
5f
f7
7a
4e
da
ac
af
85
94
9c
16
f8
09
de
e0
d9
7f
46
5e
3f
14
3e
9b
ff
54
05
fa
eb
4b
4d
82
f7
70
f4
32
a7
34
94
fc
67
3a
e6
2c
7b
50
37
98
87
0b
0b
c3
44
13
ce
07
49
ec
d7
1d
17
94
a4
f9
c6
c3
84
7e
41
59
2c
f0
50
67
47
79
13
2e
ef
7e
28
74
36
66
86
59
28
10
49
8d
13
0f
a1
9e
90
11
c1
dc
f3
96
66
43
af
99
ef
4e
95
5e
41
03
2c
6b
04
97
d4
e1
8b
8c
9e
ad
7e
65
86
2f
aa
8c
9d
09
e9
89
ca
5e
1c
53
7c
bf
28
33
d3
93
93
99
17
07
09
39
11
c7
8f
14
dc
d7
26
a3
df
63
b1
b9
9d
5b
f3
98
78
6a
3f
00
55
10
93
a8
e0
93
88
d8
85
1c
c8
c9
01
a8
1f
ce
65
23
1e
be
09
e0
6f
0c
38
9e
a0
da
29
d9
0b
73
be
22
ad
f0
e7
62
c1
66
8d
f5
31
a2
66
45
cf
00
a0
4a
b3
36
09
fa
5d
24
9d
fc
7a
cf
76
12
ea
87
d0
a9
01
1c
eb
8e
70
84
04
5e
89
b9
7e
fb
72
6b
2c
33
d2
f8
f0
c5
dd
e2
97
f1
c4
63
bd
6e
d8
3c
a1
bb
bd
91
fb
c0
59
63
b1
d3
b6
8a
ab
ef
c4
4f
58
ee
b0
84
f8
ed
15
61
e0
5e
62
f1
41
58
32
d8
7f
ef
c0
92
30
dc
7c
bd
95
0f
8f
2a
b1
62
98
96
4e
d0
7f
86
61
63
19
ee
bb
df
d0
63
c7
e3
5b
e2
58
a5
bd
32
88
8b
c4
7d
7e
eb
37
e0
19
09
93
b3
69
19
ae
bb
3b
47
df
6d
7d
14
e6
b9
8d
7c
d6
57
8d
9f
a3
a6
70
86
d7
bf
be
71
3e
01
98
54
ac
3a
db
c1
f0
ed
15
e3
30
af
6f
25
73
bc
ef
8e
d1
2a
f5
8f
73
b1
34
83
36
db
84
a9
93
46
b3
ed
ff
4a
92
6e
30
f0
99
0f
3e
01
02
e6
6a
5c
b1
f9
95
d1
1f
64
d3
3e
eb
2f
1c
de
06
a3
ae
4e
1e
62
5d
62
07
56
ca
f0
0e
e0
f8
d4
fb
95
50
10
c8
8c
db
39
af
a1
82
d7
1a
00
9a
ca
8d
d6
f6
7f
14
60
cf
aa
58
e7
d6
8a
72
72
0c
f6
9f
46
08
b0
74
a1
00
c5
90
02
fd
fb
86
76
ce
ea
bb
3c
b4
26
4c
fe
c5
4e
9f
2e
4c
85
6e
da
69
06
52
62
d4
2b
8b
f3
5c
61
62
59
0c
fc
54
6b
cd
f0
b6
b4
fa
2c
f2
8b
8d
eb
2e
ee
4e
ae
26
a3
83
f5
19
1f
4e
e5
ad
53
ea
f8
9e
7a
f4
6e
f4
a4
bc
17
48
66
04
aa
bd
90
df
df
9a
1d
6e
2a
cc
90
80
a7
ab
0a
0d
33
6a
d2
57
ba
63
12
4a
d9
3a
1e
e8
fa
64
45
c6
30
5c
51
45
b8
b8
a9
56
79
31
57
b7
e8
cb
f4
f1
99
e6
51
db
9d
34
2c
b9
f4
07
7d
6f
b4
1d
1a
6d
c9
4f
a9
2c
f6
90
1f
58
fc
bf
f8
16
3b
a2
1f
13
02
a7
25
7c
69
cc
b2
72
6e
c5
e3
16
4c
55
14
0a
fc
e5
5c
c3
26
ee
41
ec
ed
b3
99
18
89
a5
8b
c2
6f
ac
ea
6a
89
62
2c
17
b8
c4
a7
75
0f
75
bc
6e
98
34
aa
db
54
6a
83
04
58
d3
93
a1
c5
a5
35
b3
b1
b5
19
0f
a8
07
e0
7b
89
6f
17
14
bb
87
35
52
d1
dc
8c
c2
0a
cf
8c
5d
33
2e
f6
51
4b
27
1a
5e
41
4f
db
4a
5e
b1
4e
b0
ec
79
89
4f
77
ba
d2
cb
72
86
59
bc
9d
12
21
e2
55
27
13
0f
be
2b
74
f3
9d
87
de
46
a9
f0
d4
46
9e
2b
78
06
96
e7
36
2a
6f
d3
6b
f4
77
b9
16
62
66
25
76
46
f8
dc
59
98
71
34
b7
b6
a4
54
5f
00
ca
fd
58
8f
43
95
1e
95
76
36
23
c8
99
fd
2a
df
c7
84
7c
7f
6f
d5
a6
6f
1a
e6
51
dc
c1
e2
f2
98
48
7b
3c
80
fb
b1
3b
8f
57
30
ef
4c
b1
88
cc
c5
ef
e4
13
80
a0
fc
a2
86
b4
cf
82
75
ee
f0
e5
9f
85
5e
37
02
27
d7
b1
17
4c
dc
02
f5
f9
d8
c1
03
4e
51
1d
08
01
e8
64
f5
25
32
93
e0
ef
73
1f
6c
34
1e
9b
bf
5f
47
41
f6
0a
0a
9f
21
cf
2a
b1
4f
38
e9
52
2c
15
c5
db
54
91
80
d2
82
ed
64
22
8e
40
6d
04
a4
e0
a9
12
b2
cd
26
03
83
ab
25
a8
26
1c
50
08
7a
6e
c7
f5
e3
e2
a1
69
bd
78
b4
a1
e7
9a
11
a2
2f
b2
d1
28
37
4d
a0
0b
e1
ae
ab
0e
5f
cc
9f
11
17
1f
56
67
c1
97
9d
6b
d0
3e
22
7a
ba
4d
0d
75
67
4a
dc
97
92
4b
f5
cd
9b
18
f8
38
f8
ec
88
22
10
d8
7d
c2
a4
5a
0d
1d
4a
6c
43
0f
83
b5
19
19
82
22
80
7c
49
ca
56
42
ad
fd
b1
21
c8
d4
f1
37
f1
a3
c6
e5
58
de
6a
a6
7e
d7
aa
86
71
51
12
53
0f
f4
6d
09
11
a6
7c
dd
ee
15
d2
67
62
79
f1
04
22
c4
68
c0
a0
3f
ae
a7
f5
4f
6f
81
2a
75
16
df
76
ae
11
29
d1
ef
02
43
79
0e
1a
39
af
2f
3b
0f
80
47
a5
a8
a7
50
7f
38
5b
3e
f1
9d
da
60
5a
66
5d
99
42
10
cd
6a
ef
50
09
93
11
7c
8b
0d
cb
c7
6d
8c
f7
b0
08
cb
eb
b7
01
df
99
41
b1
18
e1
15
ef
01
4d
4e
5e
1d
d1
b8
45
c4
fc
15
6d
91
02
95
8a
bf
3b
ed
38
f5
dc
e6
d2
71
c1
1b
41
b8
3e
00
74
df
b5
4b
bb
50
7e
d5
dd
f0
9a
d2
a1
d3
b8
ca
ae
3a
0d
95
40
81
9e
18
87
99
27
5b
ac
09
84
cd
05
d9
95
67
a1
4d
41
51
58
e8
2d
e8
25
dc
82
91
95
8f
01
d2
03
d1
a3
ce
53
72
0e
82
85
d8
68
f0
a1
a1
2a
cf
02
8c
fa
db
d5
2f
79
e7
a9
49
a7
9f
45
32
72
c0
d5
7c
95
c9
d8
79
18
c6
c2
47
64
4f
ac
21
3c
f3
f5
67
7d
b2
fd
d4
64
c0
17
54
32
46
7c
e7
ba
42
b1
57
cf
5c
72
19
04
4b
69
6c
79
9a
a2
15
6f
87
b4
aa
a1
39
7b
6d
c9
ee
d1
c5
40
de
99
b9
16
c1
1b
48
06
7a
46
70
6e
f1
a7
78
67
51
a8
f6
9c
10
2f
35
9d
ac
cc
b4
f8
d3
f4
85
1b
0f
15
51
94
9f
cb
58
8b
3b
8c
76
8c
2d
a9
0b
28
96
79
4f
97
7f
aa
1f
3d
cd
91
ff
2d
95
e5
57
6d
7e
c1
66
60
93
83
c2
63
ea
c2
05
cf
68
a9
10
8e
b0
df
a1
90
85
6e
7d
30
f7
d6
19
c7
d6
48
2f
af
f9
c8
79
13
36
72
92
cc
59
51
60
3f
bc
2e
2e
19
07
9d
5a
61
26
58
40
3b
46
e7
d2
82
f3
c6
cd
2f
8e
d4
ae
95
f7
76
5d
66
5a
40
20
d3
31
8d
03
b6
c4
20
ae
ed
e2
5b
56
05
b6
64
37
ed
40
d2
50
d0
42
e4
48
ad
2e
f9
b1
d7
a9
77
ec
f9
0c
5e
44
89
e1
b9
a9
fe
de
4d
81
b2
49
ee
4a
ad
12
16
a9
d5
59
15
68
70
13
b5
62
c0
8e
30
cc
91
fb
e4
a6
73
a6
84
58
e9
7f
ff
d8
76
db
ab
90
fd
c7
0b
cf
c5
73
ef
94
8f
10
3a
13
83
82
b6
48
d7
56
5c
8c
8b
ed
86
8d
6b
f8
8c
e5
cd
40
25
75
ec
36
e6
47
20
34
4a
dd
f4
0e
9d
70
66
be
1e
66
12
84
85
41
41
1d
7b
5c
3b
0e
ae
82
29
10
05
e2
ec
66
2f
d3
7c
c0
c3
94
e5
eb
42
44
eb
4c
80
ca
f1
5a
c6
ed
c1
ef
4a
b1
05
21
b0
fc
58
9f
37
67
8e
ab
7f
94
18
d7
b4
7d
c6
a2
20
51
ca
0f
d9
e2
b4
e5
f5
79
8d
79
a4
2d
ca
5a
fc
5b
62
e2
42
ac
55
67
b2
b1
db
f4
cf
bf
fb
b2
1c
5c
82
04
28
88
ee
26
2f
48
8e
54
6b
49
33
48
51
12
36
52
0f
14
2b
17
f8
c9
1d
93
1f
bc
08
34
46
fa
88
c2
03
86
76
b8
8c
51
27
d8
bc
5d
d0
16
94
fb
5e
1b
1d
26
9f
63
55
fb
28
7a
d1
c4
41
8f
99
1a
de
58
35
0e
be
93
9f
0e
3d
39
5f
a2
2e
ff
87
6b
b6
77
41
e8
4a
05
ee
f9
12
ee
d4
c8
cc
30
e9
f0
53
7a
f5
59
39
54
1e
2d
ed
46
2b
d4
f2
0a
c9
d7
7d
0f
3b
cf
84
6f
89
a9
5b
2d
26
05
f7
87
06
27
24
b5
d8
e1
2d
87
da
e6
c5
52
3e
26
ec
10
b5
f9
b8
4e
2f
88
20
56
f7
69
c8
fd
c0
b3
56
e0
02
c6
8b
e0
f8
ba
07
cb
26
45
6f
62
b6
e6
d0
5a
b6
7c
1b
58
bd
ca
cd
5a
18
80
bd
66
88
d9
3d
b8
47
3e
1a
9e
61
87
5e
34
9c
76
52
a8
71
44
b1
b4
62
84
de
fb
69
73
23
da
96
90
58
67
69
c7
ea
a6
f2
a6
ca
2b
db
20
c5
d5
79
3a
04
32
f1
9b
62
04
fe
58
d6
ec
23
0b
85
38
9b
8a
cd
96
80
7c
09
8e
15
e4
c5
87
cd
f4
97
0d
47
1e
44
11
04
65
b6
a5
e9
d6
e8
26
02
70
f3
8e
fe
d8
13
7e
17
e0
a7
65
8a
5d
62
69
ff
2a
92
6d
6f
44
54
69
bc
4c
d4
98
f1
b1
f5
f4
73
29
53
a7
28
84
e0
c1
c8
b9
bb
b0
10
67
a7
a3
0c
f7
2c
e0
76
94
ed
72
b7
17
81
b0
58
55
79
f2
9d
fc
05
dd
c0
9f
5c
11
e4
e1
d2
cc
29
6d
ab
9d
26
36
5c
b5
8f
6c
f5
9c
77
5a
7e
28
b9
2c
a2
82
a1
13
74
eb
3d
7a
5a
0d
1d
c1
19
81
3b
6b
a2
43
bf
28
9a
36
f1
3f
b4
50
50
3d
31
76
c7
a0
c3
75
68
01
41
57
8c
1c
6d
af
e6
f4
92
8b
33
87
6b
31
d1
55
7a
d5
e8
80
bd
d3
11
cc
06
68
84
5b
73
14
ab
51
b8
c2
9e
2f
3b
13
2f
c1
e0
df
1d
87
c4
d1
42
94
53
b7
23
17
a9
21
d9
59
2a
c1
73
bf
0e
65
03
36
fa
48
b1
07
16
f4
4c
19
2c
28
17
64
32
a8
ac
3a
dc
16
02
de
ee
1d
2d
70
df
a2
df
33
80
24
32
f3
d4
75
c2
cd
43
b2
bb
a5
96
62
55
08
d1
35
84
ea
cf
a6
ec
fd
72
60
09
b1
c4
37
0b
67
30
9a
14
41
19
1c
c2
9c
15
fc
1c
3e
95
23
ab
bf
5c
44
a8
8d
c6
17
a4
9b
c1
0f
df
84
d7
93
e0
6e
a2
5e
31
f3
6e
b6
a1
8b
d6
9c
8e
81
6a
db
c8
ed
7e
54
5d
ef
84
37
ee
cd
28
08
1a
f8
ef
7d
5e
0a
ee
9a
25
7d
dc
96
77
f1
af
16
55
9c
fc
8b
ef
1d
8d
b6
1a
aa
f3
30
03
36
ec
7f
97
42
aa
01
c3
13
1b
65
19
1c
04
09
bb
c2
4f
f3
36
36
2f
3e
30
29
08
04
a8
77
99
7b
0b
0b
a6
4f
c2
78
8c
ee
ad
4b
1a
5d
61
49
37
7f
ba
65
fc
0a
ab
8e
eb
c3
d1
b4
96
0d
2e
85
c1
7c
fe
5d
76
e3
1a
8e
8f
56
b7
b1
10
5d
67
3f
c5
e7
54
39
69
05
e1
e3
b9
9c
50
e8
a2
db
d5
cb
66
58
38
14
7b
2f
b6
a1
38
85
84
9a
fd
da
55
ff
78
9d
62
bf
78
eb
fe
5b
39
f6
23
61
bf
f8
1f
ce
cd
12
5c
96
48
ff
31
91
23
23
8d
7f
69
34
fb
27
aa
36
41
ec
e5
5f
86
9e
e5
b6
be
a8
95
9e
f1
0b
76
02
41
8e
b8
dd
7d
05
2a
9d
8d
31
58
70
31
c4
34
02
b5
9f
1f
81
74
3b
10
43
63
5f
3c
1e
ad
dd
82
35
44
1b
cb
61
5a
48
e9
62
d4
52
3c
eb
61
6b
f5
0c
24
70
5d
16
d7
5e
44
44
9e
d0
8c
94
cd
0d
c4
9d
2d
7e
26
9f
52
97
ea
14
e3
00
e2
01
89
35
17
6f
b1
cd
ee
c6
2c
f3
ad
08
ca
b6
e7
ee
e6
00
10
b0
9c
d1
06
1e
11
90
1c
97
8c
ca
62
b2
55
f7
ab
89
3d
2a
96
0d
97
54
47
68
9f
f8
d8
f9
52
b2
06
64
e5
09
c6
41
eb
8a
cf
37
c1
60
4a
31
35
4e
6f
f4
37
87
88
89
a9
44
71
ca
5e
16
bd
a2
4a
5b
df
00
7e
ab
e3
51
51
aa
66
86
f4
a0
82
cf
9a
91
68
b6
f8
76
ef
91
a1
af
2d
63
db
3e
ec
77
eb
bb
5a
4b
84
3f
d3
3d
66
37
ce
f8
07
79
25
2f
16
9a
c3
8a
ea
a9
cf
89
95
a2
f0
c0
4e
24
d2
27
09
e8
95
68
d8
cf
cb
95
4b
1b
bd
12
b2
a3
77
a7
b6
d7
bf
6c
c2
5c
d8
0b
58
14
17
51
9c
39
06
c2
1a
b0
72
ca
33
89
66
02
cb
32
0d
6a
37
21
7a
48
51
33
ed
3f
9b
0b
c5
82
fe
93
06
9c
44
34
47
68
28
b3
c2
40
c6
6b
bd
0a
95
29
e1
e8
a5
11
9a
1c
ef
b5
09
ab
4a
0b
07
3a
2f
e7
67
df
2c
c8
6d
1a
44
ef
c6
08
fb
a9
53
cd
98
d5
36
26
eb
ed
c6
c7
ea
52
8c
5e
e3
6d
8b
9e
98
78
e5
df
69
bc
bd
42
6f
da
9b
e0
72
2d
ff
e6
25
50
96
5d
17
6c
23
ce
55
93
d6
c4
88
88
3c
ff
78
13
f1
4a
48
85
b5
01
74
21
73
d3
02
87
bf
d5
14
d6
69
f9
c4
51
9a
61
52
f9
ee
83
60
a7
23
2e
b4
96
42
7c
e1
67
da
ee
77
5b
a6
a8
2f
f7
7b
de
b8
04
12
45
5e
6b
43
9c
bc
f2
8e
4c
58
69
01
5a
43
df
cc
ea
b4
0f
bd
4f
15
24
77
da
9e
de
54
eb
60
e9
14
b7
07
11
32
8d
01
f3
ed
5c
e0
49
61
70
61
8a
c9
c8
24
90
c5
73
60
1f
2b
b6
95
45
7d
dc
0b
64
ed
cf
fc
f3
da
e3
38
5c
da
a7
53
8f
d5
c2
d0
08
d6
1f
eb
5d
09
bd
c4
6f
f1
ae
63
98
b6
25
77
f0
00
d8
51
87
96
5a
95
8d
ff
49
9f
52
61
2a
58
6e
47
a1
17
f0
54
95
60
0f
c1
8c
3b
aa
40
bc
b1
3f
96
24
53
cf
79
a0
79
06
10
b5
a7
f7
2d
86
e5
ea
e4
1d
c0
7a
18
8f
04
ce
a9
ec
bb
4b
17
85
56
cd
7d
1d
e7
5e
69
e0
c0
8f
2a
77
56
58
02
90
7f
5a
c6
cc
29
1d
67
f1
72
f6
83
81
a7
fa
d8
63
96
ea
d9
77
2a
1c
f6
24
7e
92
4d
06
b2
85
bb
b7
16
a2
a3
09
2a
e9
18
37
97
b9
cd
f6
86
4d
3d
a2
3c
1b
e0
c4
5f
fe
74
48
a0
bf
55
9b
7d
60
94
0e
8e
e8
10
55
d5
a3
99
32
99
e2
8c
de
7d
fe
a1
3e
e8
68
81
9e
65
10
0f
85
53
90
d7
7f
c4
1b
89
6f
cd
96
61
9a
17
28
77
ce
04
15
1b
aa
a2
11
58
e3
ab
c1
20
04
b1
77
c9
45
e1
9c
93
a0
31
4c
17
c4
6d
24
3c
a9
cb
60
fe
2e
c3
6b
f5
44
23
83
14
3f
fc
86
e0
53
c6
98
95
b6
24
66
1b
cf
73
93
6b
1a
d3
f6
47
0c
99
90
69
88
fc
15
f3
2d
9a
0a
6c
44
d0
34
31
ed
9c
40
31
88
1b
a8
56
90
3e
29
23
d0
97
01
42
28
e9
f2
76
e4
f7
b5
98
c0
ca
5c
08
01
62
e5
bd
78
68
61
d5
f6
dd
50
b4
27
c8
45
a1
97
c7
1e
d4
98
c1
8c
f1
2a
bb
23
e5
06
c4
69
4c
57
b1
47
a3
06
dc
9b
0c
f1
a7
d7
40
82
5a
61
b4
2d
a1
c5
2b
32
03
d9
bc
a5
3b
f3
34
f6
dc
ed
ba
25
42
a9
4c
80
60
81
74
a2
1b
29
9a
37
a6
0c
3f
cd
f6
b2
e3
a7
50
de
94
f9
55
d3
71
ad
3c
3c
77
aa
be
a3
9d
97
0e
19
30
c6
f2
c0
cb
85
d3
cd
fe
f7
28
4d
1d
6d
ce
0d
1d
db
97
c7
f7
da
62
a6
ff
2c
35
8f
b2
9f
cf
a5
78
e9
28
e4
f5
73
01
d8
14
be
45
ff
c6
25
23
08
80
8c
10
27
27
62
9a
fb
08
ec
de
53
16
3f
11
09
2e
62
11
a0
fe
24
32
6c
23
95
ef
35
97
20
26
62
21
fd
11
cf
3c
e1
03
98
ad
97
2f
93
a2
99
35
fb
df
c4
f0
da
0b
82
cc
4e
d4
55
2d
71
0c
18
39
4a
be
e5
6a
80
ea
19
65
ad
06
3c
1e
19
17
ab
e8
84
63
f3
92
70
7f
23
4f
4e
65
68
85
4b
34
1f
cf
d5
74
cc
06
e7
cf
98
53
c5
e5
8c
68
f3
93
87
85
40
8c
f8
45
a9
45
7f
bf
b4
ab
ba
ca
c1
50
fa
88
f8
c5
e7
f5
37
95
e2
bb
8f
6b
76
8a
c7
a5
9e
dd
1d
da
c7
7e
4d
9b
49
b6
3d
64
e8
88
30
42
06
cc
cb
f4
6c
1c
37
03
f4
ed
cf
c6
48
4f
a9
92
93
44
b9
04
65
a7
d9
f4
53
10
45
7a
d5
a3
0c
d0
d7
4d
83
b1
42
08
c4
63
da
9b
4f
23
90
8b
23
14
56
35
d2
f4
1b
0f
a2
45
e6
59
28
91
3b
57
36
df
73
d2
3c
b4
0e
7c
b9
3f
b1
14
fb
1e
9b
ab
7f
aa
22
64
a4
af
2b
e7
c9
f7
7a
5e
11
8b
29
75
29
26
60
51
3d
e2
3d
35
dc
ab
18
10
b8
2f
e9
2a
33
aa
88
03
a9
43
85
79
ed
94
49
fd
11
ed
cc
cc
ee
21
0f
74
fe
ac
a5
69
2f
b0
c0
e4
50
05
99
1b
0b
99
24
bd
0e
21
b5
4a
c3
7e
cf
1a
d0
f8
3e
1c
dc
e0
91
08
6f
9c
ce
ad
5f
90
c3
8e
af
48
dd
9b
57
c2
22
25
09
99
eb
f0
6e
67
99
1a
c8
ab
c5
71
1a
b1
42
47
df
d4
30
7d
47
3d
b2
c5
c1
12
73
4f
34
05
b8
0c
ad
92
ce
35
4d
73
19
47
af
6a
4a
4e
e7
71
a7
0e
fc
0a
b4
81
c3
e7
0a
00
86
8d
57
4d
e4
d0
cc
19
f5
a2
f6
94
d4
c1
15
09
2b
84
5d
e5
5e
2f
a9
3d
ba
f7
60
1f
aa
30
4f
c7
7c
c2
e5
d6
da
d7
89
54
18
9d
b8
7c
1d
25
69
c5
cf
27
40
b0
d3
6f
94
0a
a0
c7
65
4a
bd
58
07
67
c4
c5
fa
e2
49
c7
66
4f
ef
c2
0b
4b
6d
a5
27
55
9c
74
f9
5f
38
17
7c
8a
07
b0
0f
cf
ba
7d
2c
28
f4
e2
49
f6
47
b8
68
41
38
2c
c7
5c
fb
6f
eb
de
21
22
84
25
5b
31
25
13
4c
f8
62
32
74
a9
44
c7
1a
2f
0d
83
dc
87
40
43
71
cb
0f
dd
5c
25
ae
df
94
34
68
7f
e4
8c
d4
35
b5
c0
a3
4c
0e
ef
05
66
bb
4c
a9
68
5e
01
6e
16
44
67
e4
8b
17
e9
3b
cd
28
e7
2c
60
25
25
f3
ab
a9
c1
e6
00
bf
ed
41
3b
7b
11
29
19
8e
48
14
ac
a4
df
c7
d6
d1
da
6c
e1
8f
a8
f0
22
52
fb
b3
ae
a4
cd
e7
87
ce
a8
1a
7a
2d
ed
c1
23
74
1b
b1
70
63
3a
9b
3d
b7
b7
a8
9f
79
96
40
b5
72
73
0b
d4
30
a8
ba
89
cd
e4
49
fc
6a
e2
fc
ce
51
e0
fe
0d
48
86
42
d5
4f
89
7e
76
74
83
57
61
63
d3
65
e9
fb
2f
30
c5
80
ab
e3
2b
df
ef
34
05
4b
bc
09
17
6c
a3
0c
28
32
d0
06
af
6a
4e
b8
af
e2
e5
60
b9
cd
71
64
d7
dd
e3
b4
83
2b
72
bc
99
08
55
6a
fd
d4
fe
8d
2e
ce
84
98
44
51
0f
a2
e4
21
fc
b8
e6
55
05
2b
25
4f
11
58
9c
59
b3
2f
57
48
e5
bd
4d
ac
c2
48
18
5d
3f
ed
48
f3
46
4e
c3
ae
3c
8b
b0
2e
83
dd
13
b1
77
0d
5c
ac
e4
e1
88
c8
b4
ab
17
82
9b
d2
13
04
35
39
0c
21
2a
ef
36
18
41
89
e3
7d
5f
93
17
75
f8
b4
4c
eb
a5
81
92
bc
60
27
65
c3
c6
27
57
ca
0a
c3
7e
9f
30
cf
cc
70
a1
cc
33
13
db
63
7b
c3
ae
5f
50
0a
f6
38
41
a9
ff
ae
9f
10
83
32
32
4b
2e
e7
70
9d
8d
5b
d5
7f
3c
59
ad
48
a5
c8
0d
9a
f1
c9
36
56
17
8b
2c
c6
26
bb
f0
0f
d8
75
92
1d
ed
cd
7f
5f
d1
d4
c5
c1
1f
d6
95
97
35
48
a6
0f
59
89
6e
fc
e7
62
76
2a
d9
57
55
7a
1c
96
84
c1
84
93
f5
49
6a
68
3c
c8
28
3a
95
98
32
bc
a1
d6
1a
f7
48
13
e7
ec
d1
be
0e
8b
c4
98
d8
91
08
23
fc
bd
95
b4
7c
de
70
e4
2b
af
32
1a
21
cf
9a
ad
89
02
55
01
9e
b0
50
b5
4f
3f
81
52
09
3e
b0
b0
9e
79
c2
95
68
cd
4c
82
27
37
9a
55
f9
99
69
b8
d4
e5
27
61
13
16
13
82
c4
f8
40
67
19
64
c0
cb
d7
18
e9
69
ba
cc
2d
ad
51
cb
d3
9a
9c
80
01
78
71
80
6a
e0
d6
7e
9e
2d
54
d0
1f
c8
05
f9
95
f1
cd
00
1f
4c
52
b0
51
a3
be
a9
b2
77
cf
aa
26
27
0d
8c
33
ca
6e
8b
93
b3
e9
d7
94
ae
5e
0f
46
c3
0b
91
72
24
cb
0b
84
59
b7
dc
9e
0a
32
ec
fe
06
52
25
db
19
b2
5b
2c
ff
3f
73
24
85
ef
8d
9b
df
5d
69
ba
4a
48
7e
c1
5e
f8
80
7b
9d
9f
31
26
16
5e
30
e2
fb
9c
7e
af
34
71
4b
55
f5
50
52
eb
fa
5d
ec
39
cd
4e
e7
b8
aa
93
38
8c
3b
2e
51
79
54
a3
49
6c
29
74
b0
fd
d3
70
fc
6f
fb
db
5f
71
1f
7d
28
38
91
b9
38
61
c6
f6
71
81
fb
ae
5a
55
cd
be
e0
e0
4a
7a
7f
04
de
e4
c6
09
ad
bd
41
90
bd
dd
a0
c1
d3
e1
0c
c0
0f
a2
f1
6d
68
98
ea
8c
e8
3b
d7
59
df
92
9c
d0
40
b6
87
73
1a
2a
cc
29
72
6d
4f
ba
3b
bb
63
9f
31
ba
38
84
5f
79
c5
b6
7a
6d
52
cc
64
ee
de
50
db
6f
62
bf
0c
b9
0d
c7
2a
5a
dc
e6
04
a7
de
78
ca
4b
ae
29
af
42
70
d4
5d
57
ce
91
4d
f5
aa
ce
16
98
aa
9e
58
b0
c3
e0
0c
4b
95
cb
dd
59
4f
05
46
68
fa
14
de
dc
57
a5
b6
4d
92
84
db
31
bf
fe
ea
37
64
0b
43
99
ab
c2
88
59
dd
4a
a2
50
c2
a8
e2
9d
87
ba
a7
d0
0b
4b
94
57
11
35
ba
ef
ff
67
e8
c7
42
73
ed
4e
07
71
62
4e
c4
35
9a
6e
0f
13
a6
da
ae
69
5f
ac
5a
bf
b6
5d
91
0e
4c
a3
b3
94
cd
da
04
bf
56
41
39
e7
54
f5
63
34
e0
7e
35
59
16
94
47
f1
49
4a
47
39
4e
bb
9e
34
8e
75
d1
c8
28
dc
4a
c5
5e
4a
83
73
51
e9
4f
0b
0b
1d
20
ed
59
8f
b3
9e
b9
d1
7c
3f
25
f3
04
4a
68
80
0a
21
ea
2d
78
c1
21
bd
99
cc
66
74
9e
b0
34
1a
08
fc
a6
15
91
20
e3
eb
9d
06
1e
be
f2
7b
b2
d2
0a
2d
d3
61
c8
72
bc
ed
ec
99
f1
68
0f
91
38
96
d8
1c
f2
ce
0a
9a
8e
a1
0e
cf
7a
eb
24
b1
19
89
0f
d4
04
6d
22
06
a0
bf
59
5e
47
4b
d7
d2
73
64
16
e3
cf
d1
c8
e7
1b
02
85
39
e4
7f
fd
d7
30
d2
99
08
58
2b
85
e5
1c
fb
2c
f4
73
c9
89
a1
85
74
72
56
81
7c
be
06
8a
e3
97
e3
e9
1e
4f
2f
ab
20
62
c1
21
70
77
c5
a5
d4
79
31
0e
17
24
56
40
9a
09
25
3a
4d
93
b1
1d
a3
d8
90
c9
e5
41
67
e5
17
92
59
3c
48
44
d1
07
37
97
1b
80
1a
fa
48
e2
3a
89
7c
39
74
9d
50
cd
4a
0c
5d
0d
25
02
63
3b
f6
9d
ba
87
27
70
a0
7d
27
ec
c7
4e
ff
a3
43
ac
92
b7
6e
27
af
af
bf
6a
9e
04
33
59
c5
6a
d7
c9
5f
f2
08
0f
73
2d
06
36
61
d2
97
20
43
a0
35
0d
64
c4
5f
92
40
e5
75
e2
46
27
9c
08
f3
07
d5
dd
a6
45
47
d7
d1
42
32
2b
00
90
93
9c
21
95
e7
22
30
e9
70
6a
75
1b
be
6c
d0
dc
da
2d
40
da
d3
2e
9e
eb
10
f4
fd
36
d2
d2
f5
57
3b
50
27
e9
74
fc
04
41
04
9f
d8
67
86
f4
96
b5
7a
c1
f3
cb
de
7a
b8
c9
5a
70
23
e4
c9
7a
28
e1
3c
84
fa
82
2d
12
ac
46
1e
ca
a0
80
92
7a
b6
b4
75
37
19
d2
60
f7
a7
23
63
a9
7b
f6
7b
0f
34
3c
53
89
be
f0
0d
0f
2e
b9
48
e5
c9
4d
85
35
68
2b
6c
9c
bf
35
3c
5d
be
64
76
6f
4e
e3
62
0e
e1
14
17
ca
aa
22
17
3b
07
d2
ff
52
12
53
10
ef
41
ed
e5
d1
4f
1f
7a
74
0d
82
37
a7
de
f7
8e
2d
e2
5c
9c
57
8b
30
f0
69
a4
98
1d
d7
34
6e
b5
ae
c3
fe
e2
8a
ca
18
64
81
66
d3
15
38
b0
da
12
c5
05
aa
6f
ff
5c
96
78
bf
6a
94
20
69
6f
71
bc
d1
03
cd
ff
f2
37
41
8a
62
8c
1f
3e
22
53
cb
ff
33
36
e0
8d
27
37
cd
fb
4d
32
ad
9c
7f
f1
03
b9
20
67
ad
da
2e
6e
c2
d3
85
59
97
90
fb
17
84
ca
b8
a6
11
13
8e
83
23
43
74
b4
5d
80
51
0a
e3
85
17
61
d5
e7
1f
90
a1
0b
c3
91
31
c3
3d
e4
93
a8
17
c7
34
54
9a
2c
12
cf
f8
93
60
32
79
a6
2f
f2
7d
f0
c9
b3
bb
35
30
90
22
97
f5
18
64
3f
90
41
31
81
66
68
b3
3f
5e
1c
62
f6
8f
3a
e5
23
12
10
6c
09
f9
90
ef
bc
be
31
37
96
db
fc
cb
2f
3b
1b
61
98
c1
ca
d2
94
b0
8a
2e
02
45
7d
ea
30
6e
85
89
e4
3f
f6
07
6a
00
e8
91
fb
ef
80
c0
98
25
7c
8a
38
f3
32
6b
89
73
c9
47
46
20
64
50
17
76
3a
eb
99
33
59
ec
51
eb
dc
ea
9f
33
af
b4
1f
1c
bc
91
f6
4e
5b
88
b4
e3
47
bb
e2
de
4e
91
86
f5
7b
8a
b8
73
e1
b8
c7
51
a1
29
68
f3
dd
1e
8a
b1
fb
6f
13
5d
75
3f
0d
35
f5
f5
c9
73
c8
b3
e9
6c
d3
50
79
8d
33
d4
84
a6
0e
9b
f8
f0
d2
a5
8a
41
66
2c
c5
0a
1c
bd
bc
9a
73
f5
b1
5c
05
c4
a9
7e
92
46
c8
7f
d7
a7
d6
09
0c
96
c7
bf
05
d3
7f
a8
bd
55
68
a8
f6
93
99
12
b2
46
f1
f6
ee
ed
85
b5
04
eb
f5
91
3a
71
53
46
86
ad
02
ec
41
c3
3f
60
8f
4e
66
b3
cc
3b
68
d1
0a
cb
55
42
1e
67
66
37
63
46
67
15
00
a5
2a
c2
68
85
e5
ca
17
b9
4b
9b
0d
35
69
96
4b
04
31
01
fd
4f
b1
3a
31
20
50
1c
03
f9
a0
c6
88
d6
2d
91
76
e3
4c
23
44
91
bd
78
24
2d
fb
0f
90
3e
09
f6
62
f3
dc
3a
3d
82
0c
55
6c
50
c1
ff
b9
88
00
14
6c
f7
b4
3f
f7
0a
97
d1
f2
c3
23
83
ef
82
ef
28
0d
4a
1c
bd
ad
bb
5f
27
db
87
fb
ac
b9
3b
90
c9
32
29
00
ff
7f
36
f2
84
47
f8
ad
8f
9b
1e
59
9d
31
45
b6
c3
a4
4a
75
f7
f5
13
bf
af
3d
0e
b4
18
0d
b4
77
53
9b
23
10
ee
a4
83
3c
fd
87
d9
09
ff
b9
f4
6b
d6
aa
50
fc
00
1b
1b
98
58
b1
84
4d
aa
80
44
47
8e
33
53
8a
57
84
3c
98
96
99
b7
28
d6
81
d5
75
b5
ba
ee
e7
a9
13
dc
8a
a9
32
9c
e6
97
99
b1
a5
79
9d
0a
c4
a1
4c
2b
df
62
86
89
c1
2d
23
c0
17
89
91
9a
85
4a
37
ca
f1
ed
b8
c2
40
e5
dd
5b
25
2b
6b
c4
49
53
76
0a
9f
23
65
ed
6c
47
7a
b3
c0
64
3c
8c
73
01
f4
bf
1c
0b
71
ef
a8
af
d2
cf
e8
18
bf
41
51
e3
7b
c8
84
81
96
d3
8a
ea
c5
db
94
00
96
d9
e9
e7
f7
53
6b
77
69
8e
07
68
c7
c4
c2
34
fa
51
8c
a6
96
35
3f
23
dc
8e
e8
65
1c
47
cf
f1
72
e0
f3
d1
a2
bc
ee
95
2b
d9
e0
62
7d
60
f8
30
67
df
ff
28
e8
86
dc
ac
51
bc
f8
ab
11
23
ac
58
ef
3d
67
ad
94
f5
4a
96
98
25
b5
ef
9f
61
54
f7
6d
30
11
67
6c
4f
53
b1
73
e4
2b
8e
d6
11
92
e1
ec
9b
ee
8d
af
a5
79
86
68
93
d7
b5
f9
82
c2
6e
5f
26
2f
37
9b
b2
8b
d0
51
39
b2
8d
e5
db
42
29
2a
04
f9
1f
5e
8e
4b
0d
70
fa
7e
36
0c
3a
69
0d
81
83
28
41
91
bd
46
3d
e2
73
cc
2f
98
dc
e5
a3
1e
87
4e
c2
d0
d2
c0
67
23
26
ec
d2
cd
fc
f1
0f
52
87
c2
47
b1
b1
e5
dc
02
73
27
8d
ae
20
9c
4c
29
ea
03
79
89
b1
2e
e6
75
f0
a8
95
2a
12
e8
d4
fe
0a
d0
96
38
23
47
d4
c5
99
7b
d0
3a
67
47
e5
e7
a5
f8
b4
54
04
8d
59
68
50
2e
7f
7a
26
b5
b5
89
53
c9
31
60
3e
9b
7a
ff
ce
a8
27
7c
6e
54
a9
a0
e9
8b
57
41
26
96
b3
8f
15
3d
b1
81
5d
d7
9f
ed
ad
15
dd
d7
8a
46
82
20
af
3c
b7
73
94
ee
a9
f1
a0
e1
ba
6c
97
9f
e5
7e
5e
3c
0f
c0
8d
c5
f6
a9
c1
16
10
c7
ed
4e
6c
31
78
c8
51
fb
5b
07
6e
0e
7c
de
5a
4c
fc
1e
8c
0c
69
ab
3d
5f
fe
42
d0
db
53
7d
cc
71
41
41
64
d9
2d
f5
b5
fd
f3
cc
0b
fe
29
2d
b9
8a
db
5a
ad
e4
b1
e2
fe
0c
31
09
fb
28
70
16
1a
a5
e5
fc
32
3e
40
8d
d6
d5
8c
e5
e3
ae
68
0e
7a
7f
b4
46
0b
ec
d8
0e
bf
aa
b9
ba
bc
37
b1
aa
1b
13
b5
9f
00
2d
2d
4a
2c
4e
cc
ce
3b
6e
8b
6f
8f
e2
19
0a
8b
cf
8a
e6
cd
be
56
70
77
51
5c
29
eb
5f
e5
e3
5f
44
53
b2
6f
64
fb
94
64
ac
8d
87
4f
6c
de
73
19
64
d3
ea
c5
05
b2
50
3e
72
68
dc
ad
ca
e0
bd
84
a7
95
8b
7f
24
0c
08
d5
0c
22
b9
92
c0
e8
9c
8b
c9
b1
c8
e3
9d
d3
3b
c3
5c
fa
1d
94
96
31
d1
1c
e5
36
2f
65
39
46
60
66
00
d8
e2
7f
59
ff
b6
80
df
f9
c2
68
5a
dc
bf
1c
7e
01
33
e5
b0
28
78
03
af
82
3e
3f
79
be
f7
a5
70
dd
f1
56
26
07
32
75
5c
d3
a9
ee
19
e9
72
a0
66
22
1b
3c
26
8c
59
fc
04
50
96
e1
28
b6
39
1c
e7
40
c5
7a
ad
68
db
90
61
c4
91
0f
ed
e7
95
40
16
4f
ad
8a
e3
d4
4d
ee
68
e0
53
7f
93
4c
43
4a
64
10
4b
94
b7
1d
35
3a
8c
77
20
0b
a0
75
1c
c5
56
fd
11
4c
a3
ef
db
40
de
f8
2d
95
29
f7
0d
7c
0f
14
0d
37
ef
8a
e4
37
c4
95
81
ef
be
5e
f8
01
8c
fa
8a
cd
c4
d3
eb
98
3e
60
5f
07
ab
ff
1a
ca
97
94
85
1c
d6
7c
3e
66
20
60
0c
b8
cd
19
e2
1c
d5
a5
41
6a
4c
8a
7b
fa
84
04
f2
c0
ba
c5
d6
b9
00
7e
db
8f
42
e1
a2
2e
1f
2f
96
2a
50
c7
8d
00
c3
2a
62
2e
f7
18
1b
70
33
32
6b
8e
f7
a9
7f
82
3b
2e
f8
1b
16
3a
7e
15
c2
50
93
a8
72
21
ab
74
e6
ac
35
d6
6c
75
29
e9
da
32
1a
be
5d
85
67
bb
22
17
5c
27
0d
68
5f
f8
51
0f
b7
ca
32
d2
3e
d3
3b
1b
6c
4b
9b
dc
a2
0f
90
72
85
97
9f
95
97
d2
53
07
fb
19
77
43
ad
9e
f4
3f
8f
05
a3
e1
7c
f6
be
29
f5
9c
b8
e7
ca
dd
4b
a8
de
18
52
64
27
f8
5b
fa
6f
a8
c6
db
70
46
16
b9
53
78
1c
9e
c8
75
bd
57
3a
a8
05
14
13
76
05
dc
b5
ab
24
49
f8
89
2d
80
84
fc
66
2a
af
e3
52
b9
1b
c0
df
f9
b1
2b
6a
68
fa
60
bb
1f
24
be
34
e8
3e
2c
36
0d
12
47
18
12
d5
83
fd
f4
1d
c2
e7
35
ce
0d
b3
23
1f
c6
f1
e4
64
ea
e5
a3
77
40
e6
2a
7c
d6
f9
c5
a3
49
cc
b5
26
78
74
47
17
35
f4
8a
6a
c3
88
3c
9c
fc
2c
52
1b
43
af
a8
42
2f
a6
02
c2
6f
55
2b
72
f4
6e
b2
47
65
83
de
3d
5a
95
dd
1f
aa
49
aa
61
60
4b
1a
97
96
be
17
a7
a7
73
81
a3
ee
04
00
4e
99
77
04
97
5c
e9
0e
84
9b
da
aa
15
46
3f
50
ad
33
20
7d
3e
d6
5d
88
8a
7f
b2
db
22
b6
26
93
c5
6a
4e
95
da
bb
d7
fa
5a
3b
69
35
b4
7a
ef
08
7d
87
d5
4e
5d
cc
1a
6a
26
a1
4e
5b
b2
f0
b3
f3
fc
73
29
9d
fd
eb
18
e9
74
53
fb
bd
ae
49
89
41
c1
e5
97
f3
49
be
12
7d
13
5a
44
70
db
63
6f
ea
6b
8d
f7
5f
da
95
ff
a7
c3
c6
be
b7
6a
05
ea
ea
07
0b
c7
86
22
f1
f9
42
7c
7b
0e
60
38
b6
1d
92
64
bb
d0
ed
87
a2
63
5d
13
1b
7b
04
a4
b2
46
ea
f7
87
5f
9e
4e
11
ec
d8
ab
f2
b3
0e
ba
4c
b5
9d
c3
23
e7
37
86
e7
1a
bd
95
6a
d0
f5
70
f4
d2
56
4a
bc
10
40
85
6b
ef
2d
4c
e1
03
5a
c6
2e
67
c8
22
4c
3c
e9
1b
da
3e
d8
43
90
9b
4e
ea
d9
c5
89
f5
5d
8e
a0
33
4d
ef
8a
a5
d6
96
84
56
2a
f7
51
04
1a
34
9a
cf
13
d7
96
fc
75
38
84
fe
89
e1
a4
23
ba
fa
36
53
37
a8
5a
ca
d9
fa
ef
be
41
eb
89
38
af
d4
88
bb
37
35
54
08
29
47
a4
b7
d8
c1
8f
d8
c8
d2
b4
f6
9a
f4
b3
a2
df
00
b1
5c
78
d5
ff
92
28
5c
68
79
ea
0b
e5
91
f3
02
86
3a
94
d7
22
28
3f
0c
df
21
70
04
0f
40
ab
8f
15
1e
01
86
4a
25
bf
bc
99
01
5a
1c
70
f6
da
d9
5d
77
5a
62
80
90
90
c2
20
f6
44
88
00
5e
10
13
6e
9b
4a
ff
6c
1f
8b
7b
e0
7d
e4
b1
77
df
4c
4d
7a
ea
6f
f2
5b
ed
10
fc
1c
be
53
16
08
cf
2d
86
80
f0
2a
33
2c
1b
0e
9f
11
3d
bf
ac
03
f5
fc
6a
d6
2f
e5
cd
b8
57
20
11
03
6c
5e
1f
66
e3
2a
93
31
f1
7a
9f
d2
fd
99
a7
4f
13
c2
f7
83
f3
45
fa
35
4f
0e
15
01
d8
02
7e
a2
25
03
51
ee
8a
cb
63
19
ff
6f
19
b9
fc
ce
d1
a2
65
ea
71
cb
aa
39
1e
3a
30
d2
a8
52
8b
9b
f5
85
7f
cb
bc
13
a7
78
e5
19
8b
ee
70
77
46
54
7f
30
be
b1
04
42
c2
b9
d8
d1
7d
53
50
6a
f7
0a
f9
00
be
27
f5
1f
2a
b1
47
86
d6
e3
ee
3f
d3
60
c1
33
88
2f
0c
c9
16
a7
18
76
53
23
40
0c
9c
b8
b5
ec
9b
b8
d2
43
e2
28
ad
70
c7
a4
88
44
5e
3c
6b
2f
d2
c5
a5
5d
0d
00
21
79
00
6c
18
25
19
a3
b6
80
66
86
3b
fd
c9
0c
33
c2
ae
6c
81
50
6a
aa
2b
d9
9a
92
e3
da
11
dc
8f
3e
d2
9e
fb
ad
91
24
37
ad
55
02
57
12
64
61
a2
6e
60
dd
b4
56
a8
20
70
42
82
13
07
3c
ab
3d
74
e1
f8
81
7d
ed
c5
e7
ee
80
45
db
21
ef
31
fa
88
73
33
e6
4c
4b
7e
da
00
11
9f
35
2b
4f
6a
91
4a
cc
ec
08
2a
68
f1
55
af
f9
33
55
63
8e
39
45
7d
55
b6
2a
97
87
51
73
c9
03
56
8a
de
c4
e1
4f
14
f1
ce
5f
db
b9
10
83
4b
62
b6
b7
41
2d
6b
e0
d4
35
f1
3c
ed
b2
0f
b8
47
5e
00
1b
5e
da
01
75
5a
c6
f6
e7
dd
97
cd
bb
55
76
3b
17
e2
2b
37
30
e5
74
53
5b
57
d8
4b
6e
12
c7
e7
cf
d3
11
e8
01
18
27
36
48
ff
d2
5e
ee
fc
c1
ce
d4
ab
51
4a
06
18
b2
d7
49
5e
d9
fc
63
f5
ec
75
b9
45
9d
da
25
5d
83
b7
e1
5d
03
19
46
fa
48
43
df
03
60
8e
e9
63
41
2f
02
26
c1
4f
7f
75
34
c6
86
fe
28
eb
be
6e
ad
87
66
bc
bc
65
30
1c
9f
43
f1
08
7d
bd
ce
5e
3e
d1
79
11
2a
01
90
c6
d3
74
15
45
0f
0f
cc
25
65
dc
2b
78
36
36
d9
8c
55
3c
1a
fc
25
d3
18
73
38
2e
16
03
7c
7d
bb
19
8f
28
c2
1a
fe
09
2b
c8
e3
93
c9
d1
eb
ec
df
fa
dd
33
2c
b7
d1
e3
a5
2b
aa
2e
31
a3
7c
f6
a8
88
4e
d6
c4
af
d4
35
91
de
9b
34
5e
9b
71
4f
be
9a
d1
40
07
58
5b
89
f4
89
1a
eb
a3
d0
d7
fe
34
bf
c1
0f
35
6e
d9
87
3d
8d
ad
dd
26
22
6d
e7
f9
85
52
47
80
6b
ba
70
92
86
8c
b8
f1
e1
3a
b8
a9
ce
a5
b9
f2
83
32
11
67
8d
cb
75
86
87
d5
2a
c2
09
3e
d0
25
28
a6
49
72
e8
12
85
3f
8e
5d
c0
7f
73
60
a5
a7
08
dc
29
07
fd
cc
62
e4
4c
68
2c
1e
6f
15
09
42
d5
d0
fe
c4
2f
cc
19
f5
aa
78
69
39
f6
f9
7e
83
83
f9
ae
1a
02
cd
b3
62
1f
40
cb
93
62
48
77
e7
52
8c
79
f2
03
3f
06
14
e8
c2
25
08
64
1e
44
2b
44
32
74
6b
97
74
2b
24
1f
a9
e0
65
a0
43
89
32
df
3f
2d
a4
f6
4b
13
cf
45
f0
f4
73
a8
74
03
f4
5f
04
dc
f8
c9
88
23
67
35
0c
2e
c5
2a
21
8d
a5
0d
8f
1f
a9
e3
84
22
ec
bd
6e
fd
8b
52
eb
1e
33
cc
96
81
0e
4a
67
da
6e
ec
26
d1
09
58
8b
63
83
85
3a
0c
fd
54
fa
a7
d1
5d
e9
92
ab
0e
5a
10
12
c6
39
29
ba
b5
82
8f
e4
58
f1
1d
f7
a0
d6
23
1f
b5
a7
95
ad
5a
f9
64
c4
9d
3f
77
9b
ef
21
3b
a0
f3
e5
94
da
d3
f5
66
a9
2e
3c
d7
25
ca
73
41
24
99
65
52
35
2c
09
47
08
c6
3e
f4
33
5c
a4
b6
87
06
53
e8
08
03
ff
a2
8a
a8
6d
bb
97
6c
31
b9
4c
ed
da
5a
f5
e9
79
ba
94
e5
df
d0
27
02
18
29
5b
8c
6a
41
34
4b
ab
48
79
b0
b6
dd
ef
f9
99
b7
a5
53
7c
07
2e
d6
a2
3a
24
d3
bf
65
cf
1a
79
71
fa
48
02
f6
1a
91
eb
54
95
8d
f0
e8
f1
e6
d6
76
b1
96
80
17
e2
2a
40
a3
fb
2f
aa
6c
2d
94
75
45
13
aa
2f
14
f1
92
3c
77
e5
f3
01
be
49
3c
99
f4
33
61
fc
0a
0b
44
25
a5
5b
60
4e
ea
cd
51
e1
9c
ed
a9
99
ae
98
b1
d2
99
95
88
81
02
0b
58
60
fb
82
1d
88
00
a4
d3
62
a1
a6
04
e1
a8
a8
c6
9a
f8
32
07
3e
54
23
6c
a0
fb
77
b0
b1
aa
c7
ef
79
c6
a0
cf
c7
9c
21
46
87
b3
53
8e
d5
9d
85
49
32
b4
fc
35
23
b0
a3
b0
b7
d6
bc
ab
1e
1d
d6
07
6a
80
2e
42
3b
8c
4b
1e
ac
5a
16
d5
08
37
a6
65
ec
a2
4b
95
07
6d
5e
42
1f
9b
11
4e
9a
8f
74
67
b7
9c
e2
f5
eb
d1
ea
80
be
b7
8f
dd
c4
83
00
fc
32
db
3e
81
6e
29
d3
f6
82
e1
5d
e5
77
39
34
b3
98
fa
9c
3b
4c
a7
53
38
29
32
9c
fe
68
11
d7
df
2a
99
e6
5d
f1
9e
5c
42
88
cd
33
19
17
6e
75
67
f7
6a
9e
b8
9d
dd
12
3d
f8
2c
92
c2
34
6e
7e
41
48
06
33
ca
66
85
5a
8d
3b
ca
d4
0e
38
1c
8b
52
37
9f
fc
df
22
8c
8e
2c
21
07
ef
e4
e1
a1
17
39
20
19
2a
82
cf
f8
ea
02
60
15
47
00
db
57
66
6b
7e
e4
f3
be
4c
d7
68
e7
35
65
a4
0b
06
86
a4
ce
93
0e
35
ed
6a
e1
6c
73
5a
7d
4a
94
d4
d7
b1
ea
63
05
ad
2b
f0
24
71
6e
bf
c9
00
46
a1
2b
70
95
00
75
3d
54
a4
1f
85
73
81
c6
2c
57
7d
d1
64
b3
86
4c
a7
f1
c1
15
98
b7
99
5d
5d
fb
ac
3c
a1
8b
46
bd
7f
0e
b0
d3
51
05
b3
49
5f
98
a2
bb
ce
71
aa
0a
aa
da
e4
8b
f4
7f
0e
81
0c
c0
1f
c1
0e
40
3d
78
4a
68
9a
46
4a
7b
0d
8d
f8
94
66
79
ab
5b
f0
b5
d5
19
1c
bb
f0
41
a4
74
4a
cf
16
7a
4b
18
4a
81
b8
51
bd
3e
63
3b
be
4f
7f
99
2e
c7
c5
d1
a3
26
25
0c
d3
ab
03
40
83
26
a8
8f
80
e9
0a
bd
87
87
4a
29
35
ea
b2
39
ba
20
d5
ff
c5
e6
84
28
b3
64
90
4a
b7
51
03
c7
ab
e4
92
bb
19
38
36
e8
3c
58
12
cb
be
b8
b0
9b
2b
96
d2
03
52
9d
9d
76
75
0b
6e
c4
5f
5b
8e
a8
2a
a0
f1
c3
1d
ae
45
ec
2b
ab
1a
68
07
ca
72
7e
6c
b4
ab
bf
be
25
16
86
ad
6c
c6
b3
f6
6e
01
8b
c5
48
53
52
41
89
85
61
6f
a8
82
b1
01
8b
84
2d
29
08
39
a0
ce
59
67
72
50
30
fd
57
a8
8c
ae
17
91
1f
0f
fb
d2
5f
81
60
19
3f
da
36
a3
41
ae
84
66
08
c3
70
05
74
d4
71
5e
09
59
08
2f
a0
56
9e
a4
8c
87
6a
6f
18
e8
2a
e6
3f
a7
57
d1
4b
36
d7
b9
68
79
46
70
37
24
90
ff
9c
14
c2
6e
a8
93
b4
c5
33
d4
2d
f2
3e
f6
ff
ba
e3
01
4c
45
de
22
61
cf
fb
07
a3
c4
5f
d7
e6
11
32
a9
ee
58
ce
21
4e
09
36
a2
34
9e
71
3b
5d
f6
66
26
ab
a9
23
89
4d
85
f0
da
4a
97
42
5a
e7
a9
2e
b0
54
bb
31
4c
15
5a
a5
53
96
55
22
79
da
ca
10
21
2d
a0
63
2f
1e
7d
83
44
d8
a3
02
31
b4
46
7a
28
d1
a0
26
53
b8
59
87
42
8e
d0
7d
e3
ee
5d
77
23
62
c3
69
e7
14
e0
a1
06
c0
73
fd
52
23
5a
87
8c
d8
1b
11
d8
d8
2f
b6
16
62
22
d6
94
66
7d
00
9e
07
49
ea
c2
e4
1c
ee
c0
b6
6f
51
40
1f
5c
6a
7d
31
e7
75
1b
7b
39
f3
ef
82
b6
ed
40
58
7a
fb
f6
44
5a
24
02
cf
81
6b
d3
f9
7e
75
14
dc
33
5c
9a
09
1c
47
55
29
b6
27
0e
70
5e
6f
66
85
58
83
1c
c2
9a
07
cb
4c
f5
b6
47
bd
f6
9f
fd
53
97
b4
93
f0
ec
61
76
82
71
73
24
29
28
65
4b
e6
17
a4
04
37
b8
6c
59
b5
75
9b
c4
b2
e0
06
da
1e
a1
43
4f
f2
2e
17
de
f6
ca
d4
3a
fa
c3
20
6c
af
79
f4
3c
05
49
37
71
19
81
52
27
92
fc
fc
13
61
47
96
5d
61
d7
eb
59
4f
ca
9a
f7
ec
fc
d5
93
6e
84
e0
9d
55
6e
2e
47
7a
e2
0f
b8
80
24
43
63
12
49
8a
78
16
ef
bb
38
a2
67
71
3a
5c
d7
ee
3c
e3
9c
a4
17
ec
83
93
9d
99
c6
54
9e
d8
08
6c
85
c9
48
74
b9
28
63
a8
7c
4a
32
ef
68
e3
d0
17
60
b0
d1
86
53
e1
e1
3a
45
fc
b9
af
6b
3b
5b
ba
3f
d7
01
0c
c4
48
8c
b0
dc
cc
f4
e2
97
f5
73
cc
c6
06
72
ac
3a
9d
9e
08
4e
25
2f
ae
04
86
b1
c1
82
c8
24
8b
e3
27
ad
a4
31
90
be
e5
ef
1e
f6
03
ae
98
f9
05
d0
c3
1a
c6
39
1f
df
4b
6e
e8
ee
6d
78
52
ce
68
da
2c
bd
36
08
fe
2f
69
ad
1a
6f
d2
f2
00
5c
24
4d
d5
33
8f
77
b2
e4
73
88
2f
18
34
3e
00
87
19
ad
7d
f9
76
75
74
41
3f
0d
63
ab
11
b3
f7
07
8c
a1
68
e5
71
74
07
fa
cf
d7
e2
c3
ba
64
24
e8
a2
c4
7f
6f
8d
2f
00
1d
b1
ce
fe
ba
10
29
12
2f
40
30
d3
97
4b
de
c1
3b
ec
42
5c
03
92
72
64
66
f8
aa
b6
43
a0
50
5d
a2
c8
05
a7
64
cb
9d
48
9c
0c
73
fb
6a
20
3d
c5
df
7d
ca
d8
eb
cd
a6
03
21
c0
38
50
bf
89
79
c0
e0
c8
5a
89
d1
f0
51
88
99
92
45
c9
9a
ca
7b
c8
25
b7
82
81
75
1f
1b
46
01
fd
27
db
ba
8a
d8
81
29
c2
a2
9d
b1
51
43
b5
56
9c
2f
a4
41
ad
4d
9c
33
ef
ff
94
66
ec
f3
44
45
ea
86
4e
64
11
d0
7a
a4
b8
d3
70
94
a3
9b
43
a4
78
8d
65
80
88
37
08
6b
7d
6b
c4
d2
c3
df
99
13
80
b5
c8
47
36
b2
f3
76
7c
2c
a7
66
e7
45
83
dc
08
ff
76
58
fc
a1
86
3e
b8
aa
ed
86
07
49
fb
e6
da
c9
b4
07
a5
09
6c
cc
84
99
d6
62
a3
c1
4c
bd
0e
8e
ac
ab
e8
a0
f5
56
aa
be
1d
9c
8d
60
9e
37
21
00
14
ae
18
7e
ae
67
2b
85
66
d3
90
20
a4
0c
ef
f1
4a
ab
b3
86
e9
c3
c8
cc
f3
b8
93
30
f4
50
ed
64
7c
15
bb
85
25
9b
1f
de
0c
6b
37
97
bf
4a
da
19
6b
76
2c
ba
93
41
46
e7
74
f4
9a
0c
c8
79
7f
c9
33
ef
42
13
dd
62
de
8d
25
0a
b1
6b
da
8c
5a
2a
f4
7f
98
36
9e
00
a6
8d
3d
24
72
e0
7e
2f
52
2c
e0
5e
cc
0d
1e
ff
83
91
96
0a
17
79
cd
25
eb
8c
fe
51
73
9a
40
dd
3f
b6
49
be
e4
ee
56
e5
bc
a5
3b
c9
35
e3
11
ba
ec
fa
88
74
61
f7
82
b3
81
39
01
ae
88
02
12
59
f4
05
11
41
e9
ee
ce
a8
18
dd
3f
10
dd
71
74
6b
93
54
ba
c4
fe
50
0e
e7
5d
54
9d
39
49
a6
5b
26
f3
bf
24
58
7d
fb
45
49
f6
2d
fd
1f
f7
68
61
f1
bb
36
2f
67
b7
24
17
9b
eb
e1
58
1a
f0
f1
8d
0d
89
b5
97
11
57
18
41
5f
97
f7
d4
95
62
48
76
8d
f0
5c
36
e3
47
fb
8d
5a
f1
3f
0c
9d
1c
34
08
03
84
af
a9
e3
5c
52
0c
e7
6e
01
08
81
16
4c
34
a9
34
3e
f3
7f
83
05
11
13
8b
ad
76
7b
4d
b3
71
91
d2
47
62
3a
49
6d
75
df
39
84
55
4f
c7
a9
c6
9c
f5
b4
bc
95
ca
80
2f
d3
a8
bf
2e
a1
58
99
48
0d
57
79
af
b1
cd
ac
df
4c
de
bc
95
2f
f8
03
89
d5
7b
9a
f4
95
d8
7a
77
df
f8
81
a7
3b
09
d6
4f
f4
9f
0a
8a
ce
cd
0e
49
be
10
56
af
bf
c9
0a
b6
f5
02
52
58
56
75
72
8a
99
71
48
74
88
d2
f0
f2
0b
29
3b
d2
79
10
b5
2e
83
4f
4d
2a
ac
cb
d0
1d
46
ad
4d
e5
d2
0a
30
93
b3
7e
b0
71
f0
4c
3a
20
5b
32
87
71
e9
b5
11
2f
24
36
c6
0b
72
69
1c
6e
1f
f3
d6
0b
41
6b
a4
2b
2d
c5
9a
1f
cc
52
3a
92
d0
3c
af
70
e4
cc
04
30
8c
65
34
7f
4d
60
63
6f
71
0b
99
6d
b0
f2
59
e0
38
26
09
3f
2a
45
ab
4f
e3
38
ee
1c
96
29
0f
e9
b3
c6
ba
c3
fb
56
ad
85
ac
7c
94
82
4d
41
b1
5b
d2
37
cd
01
81
30
7a
4e
53
c1
5e
f5
76
5d
28
5e
a5
5c
49
99
0e
05
cc
82
55
82
d3
54
15
55
f2
66
d7
9b
cb
d2
bf
74
da
e9
c3
8d
77
0e
e0
6c
93
42
4c
59
4c
12
a5
ac
ab
2f
a2
0d
cc
bd
b3
dc
f4
22
f4
e9
33
c0
13
25
9c
69
05
8c
68
07
51
76
f7
12
dc
0b
e1
52
42
b3
a2
cf
74
38
9c
12
a0
aa
83
34
d1
02
43
8c
8f
dc
a9
07
0a
3b
09
7e
a0
b4
36
f3
58
9a
98
0c
ef
28
2e
b1
68
6e
7d
99
f4
be
da
b5
1b
28
7a
f9
7c
0b
8b
b1
92
af
38
2b
dc
55
38
f5
1a
3b
3e
6d
ab
5e
80
b5
fc
c4
06
d7
cf
10
07
95
7e
cc
62
54
42
6a
76
90
84
71
22
c8
b0
4e
21
48
d3
ac
d4
42
27
3b
b3
26
1a
2b
9a
d3
af
2d
30
e1
13
50
63
7d
fd
d6
92
3b
f1
9d
38
02
4e
a1
a7
e0
25
b2
e2
db
d0
fe
f1
e9
0c
d5
89
4c
19
8d
2f
ce
9b
26
c5
d1
aa
d1
ae
99
26
4e
b6
26
68
93
c1
0c
3c
25
9c
50
18
3e
4e
8f
ad
90
b6
a8
cc
88
c3
ff
b3
2d
27
ad
38
9e
e0
fd
e2
55
95
11
bd
c6
4c
5b
ec
fb
65
d4
72
1e
60
cf
29
cb
17
b5
c8
d2
56
4e
1d
34
c6
9f
54
5d
94
97
26
df
15
6e
74
ff
a8
a3
48
7b
61
8b
c3
12
98
48
19
6a
b4
61
73
6b
4d
d1
d6
e5
2a
30
98
7a
1d
63
d5
5f
a4
cc
11
03
cb
64
67
72
84
d5
7f
d0
4f
89
e5
a6
8a
b8
06
2b
ca
1f
30
04
75
d6
b6
c1
90
ee
c4
dd
bd
4a
38
bd
cf
95
83
4c
3f
f4
48
92
74
b8
ff
c0
cc
f9
de
79
82
10
08
7c
8d
86
d6
fc
8e
9e
c8
32
20
33
17
c7
f9
eb
91
e7
0f
53
b9
46
53
f0
6d
6d
26
3a
48
d1
c0
11
8b
58
a5
06
69
ec
3f
8a
85
7f
f3
32
af
1d
9d
92
6c
b6
87
6b
9b
b5
91
66
8b
e6
07
fa
89
d9
98
92
bc
fb
84
f5
90
ca
a7
9f
d2
8d
3b
7e
75
32
ca
78
f2
97
2b
42
14
57
dc
2e
26
d4
a3
fb
05
9c
4d
24
2d
33
0b
fd
c4
0f
9d
d9
0f
73
c3
b3
31
e4
08
27
8c
43
31
dd
04
7d
94
77
0c
94
ae
b2
99
98
1b
9b
d6
bc
17
e7
06
c3
b2
f7
a8
a7
a9
2c
84
34
84
04
e1
38
35
1e
30
17
4a
7d
c9
96
98
99
54
80
86
a3
43
39
73
95
b7
96
13
f5
1c
12
c5
c1
be
4d
9a
6a
12
0f
6a
fe
db
bc
e2
18
65
41
36
40
db
78
b0
9f
3f
35
ef
32
8e
ad
57
2a
17
7c
2c
a8
8f
42
3a
cb
f0
13
00
2e
7b
d3
30
8b
60
8a
5a
42
6a
26
0a
84
10
d8
72
e5
d1
22
0a
87
90
68
82
66
3d
c2
ea
7f
61
2d
72
73
53
cd
63
52
5d
9d
d7
ea
29
11
5b
66
09
c6
a5
2a
d6
ee
16
af
d2
57
0c
18
1a
0c
fa
c7
fa
f6
ec
16
7a
98
1c
66
d1
8d
87
98
ae
0c
d1
d1
15
e1
91
1b
8b
a7
b6
2b
01
be
f4
47
ac
a4
7b
8f
6a
07
ad
ca
34
54
a4
25
df
03
21
9e
06
78
6a
92
43
42
49
b4
87
07
a3
6f
0f
39
25
b2
31
ed
eb
81
a3
87
cd
85
ff
46
23
f1
0e
23
d1
36
07
93
40
13
10
87
53
4a
4f
e2
55
27
95
8f
8b
62
42
c4
61
d9
4a
6e
ae
94
a5
dc
69
69
0d
8b
60
b9
f2
4e
8a
e9
3d
91
f5
09
95
7e
d7
20
bb
5b
ec
24
9e
c1
7b
2a
c3
17
80
79
9a
aa
df
0b
24
1c
cf
93
34
9d
be
3f
dd
98
13
57
7b
45
2c
2e
db
81
30
81
de
2c
c8
a3
8a
10
4b
47
4c
f1
53
7d
32
85
41
68
08
6a
c5
32
4c
38
ad
fb
e7
40
cf
96
fd
d4
82
dc
fd
0d
1f
97
cb
50
df
a0
34
30
62
35
22
18
f3
7e
12
6f
6e
ba
c0
7c
cc
33
be
33
ad
96
cb
31
f8
4d
1b
01
d8
bc
1a
69
44
bb
03
18
91
d4
a4
97
77
a1
f3
16
f2
e0
29
52
27
45
62
ff
9f
23
99
fc
db
ef
f1
3c
54
0c
e1
8b
11
51
9b
f5
0c
46
a7
6e
53
41
e7
e7
45
d0
6f
52
95
af
d2
eb
f4
53
55
20
31
32
74
44
46
ec
53
99
91
c6
f5
ef
32
27
03
18
5a
6e
48
9d
d0
af
b5
4e
19
ab
f1
29
91
b8
33
03
55
31
16
d2
92
e9
f9
20
d5
6c
d0
77
52
2d
27
8b
fa
ac
c5
6a
d6
39
62
9f
b2
79
b1
7a
e2
5b
c1
ba
2b
f8
86
2c
cb
54
ff
a7
44
83
4e
3d
64
15
14
fd
1b
bd
f4
0b
0b
2d
02
f0
cc
d3
72
6d
e0
b3
8f
a9
7d
cf
6a
4a
13
15
bf
5a
6c
1d
92
b0
2a
83
bd
1c
15
72
7c
ee
fc
bd
19
67
7a
77
2c
84
30
35
0f
5c
84
b6
0e
b3
7d
01
32
30
17
15
12
01
3a
b1
a0
15
8f
c1
c3
88
48
3d
de
2c
1d
06
21
27
b5
82
12
0c
63
10
3e
73
08
de
1b
06
7b
09
d8
9d
20
d7
16
d7
95
0c
3f
b8
1d
71
30
5b
ee
52
dd
9e
b5
44
ba
1d
fc
f4
62
d2
99
96
a3
c4
f7
97
20
42
d2
2b
c7
42
13
16
96
0d
7e
14
3e
79
28
bf
2d
c6
df
8d
95
89
61
bf
0d
19
c4
2a
da
4e
74
8a
1a
db
47
5e
6d
70
60
ba
8d
58
bb
2c
71
88
81
d1
28
3f
9c
f5
96
25
43
50
4f
fe
93
48
96
25
01
d4
81
d4
62
83
f8
b4
00
6a
92
52
e0
64
f9
8b
0f
5c
a9
d3
e9
2c
4a
18
0f
67
a0
99
e0
35
30
a5
bd
50
22
3c
36
c7
02
2b
58
ae
ce
0e
55
fd
5e
9f
3f
a4
1e
86
79
8e
05
cd
e2
af
71
3b
c7
a1
2d
2e
82
73
54
f6
9d
df
56
56
b7
46
1d
b0
4d
c9
9c
f0
d0
eb
ef
8b
d8
4a
d4
0f
2c
d0
e9
cf
3d
4f
fa
cb
1c
4d
3c
f8
f8
d1
34
f9
4c
6d
58
67
89
d1
54
30
39
08
2d
99
a8
53
6a
02
75
05
08
fa
62
fb
76
25
2a
b4
dd
58
63
f3
5a
b8
74
c9
0c
d0
79
62
8c
3d
1b
db
ef
35
e2
22
28
6f
1a
f7
40
87
02
7b
44
d3
a5
95
f6
c8
10
76
50
69
50
d9
f8
c7
c4
3b
43
3f
8a
3e
2c
13
87
94
c1
71
ee
bc
be
9b
bc
13
20
fd
30
b4
1d
f5
1b
86
c4
93
a3
19
63
df
06
d1
71
70
1f
9f
02
47
f0
99
a8
d3
79
33
78
91
2d
a7
11
e4
9a
ba
32
01
8f
33
95
b2
6b
1c
64
8a
c4
26
c1
3d
d8
b8
91
9e
72
d5
cd
aa
42
f3
f1
30
cc
f4
20
92
ec
38
27
9d
f6
ff
ad
31
0e
72
d0
46
2d
c7
78
17
74
b7
87
c1
d7
28
b6
c5
79
6c
aa
70
c9
ad
d0
72
06
f1
16
7f
27
6b
d5
56
d8
0c
26
15
ec
18
5f
e8
68
a6
21
96
ee
66
73
7d
c2
a2
a2
26
46
63
2f
7d
54
c7
e8
5a
52
f5
49
39
a6
0b
4a
71
3c
6b
75
2c
3f
40
12
9f
a7
ea
ab
c1
19
16
51
f5
81
95
ae
6e
67
bf
93
cf
46
9b
b2
3e
f9
61
93
da
cf
ab
0b
ac
1c
3f
55
b2
67
47
8f
38
2a
6b
c7
23
22
c9
fe
c3
14
69
9b
15
0a
47
9d
5e
62
57
4a
48
9f
c5
1b
08
54
bd
15
83
a6
e6
cf
ee
84
2a
4b
91
9f
49
ac
91
73
5b
32
0c
3c
aa
a9
19
a1
39
0e
21
bb
6d
d6
9a
14
4d
53
4a
7f
1e
3b
3a
8d
3a
97
7c
b4
f3
c5
e0
99
cc
17
a1
2a
c1
e6
ef
b0
2e
7e
6c
b8
b4
e3
18
ba
3d
a8
dd
6f
17
2d
4b
0d
91
90
5a
99
8f
9f
5e
af
51
0b
b7
d7
29
d1
e5
b2
c9
e0
f7
7e
6e
26
44
0b
fb
7c
75
3e
7d
51
6f
a1
9a
a5
86
da
72
14
5c
9d
22
ac
a8
d4
2b
03
a4
d2
3d
2f
52
c1
18
af
60
8a
3b
68
0c
e1
13
9b
c1
10
6a
83
46
1d
05
57
ea
00
01
05
81
33
bf
f1
ca
ef
b2
96
02
df
9a
65
3b
df
8c
a8
6c
3a
c5
8e
59
b4
16
84
b0
19
14
e5
d0
e9
24
70
e3
0f
b4
ca
51
6a
3c
6d
73
05
27
3d
cb
62
99
45
b8
21
23
94
df
08
0e
87
e4
3f
60
b7
44
d8
ca
84
76
b6
83
93
fb
ab
d1
20
31
91
d4
74
71
2e
71
72
73
1f
e1
a4
50
db
2c
21
5e
14
fd
08
e8
d9
8e
54
a8
60
03
bd
32
b7
7a
c7
63
27
1f
00
63
86
ce
b8
16
7f
be
41
d2
c7
69
e0
89
5a
e4
5b
f8
90
4d
18
3d
7b
b3
0c
56
10
8b
3a
49
a9
85
5b
03
57
ad
24
c6
3a
3c
c8
97
66
d7
2c
40
f9
70
4e
37
97
93
38
4a
40
65
66
5b
3e
1d
0c
75
5a
d0
ca
a3
04
b8
47
18
fb
a5
27
7d
3f
29
4f
70
7c
90
8d
22
37
7b
d0
61
a6
83
c6
6b
d4
bc
7f
66
22
86
76
c2
ce
13
bb
98
c5
66
64
c4
f3
e1
78
80
41
7d
62
07
08
25
f7
d7
6b
70
7a
64
08
a5
4b
41
81
5c
10
e9
c6
2a
c7
a5
5f
a6
a3
e4
a8
83
71
81
48
d4
b3
c6
61
7b
38
20
b7
f0
f0
b2
cc
78
90
3e
db
61
bb
0f
f4
be
28
96
e2
d6
99
13
0c
13
38
79
3b
51
61
6c
cf
fd
fe
0c
0d
fd
89
cb
fe
28
51
14
15
1c
c2
a6
a8
5e
27
95
03
f6
30
26
9f
81
8f
eb
88
fc
82
36
79
31
4f
fc
58
df
ba
b6
ee
aa
a7
72
92
8a
fd
50
29
45
53
01
19
03
9e
d8
1e
0c
1f
a3
81
c9
57
1f
fb
40
e1
1e
55
4e
41
53
65
af
f5
7c
b7
3e
58
87
5e
72
f6
16
b0
bc
50
9d
97
cd
f6
e6
bc
c8
fe
ad
1e
67
1e
0a
1d
b5
a5
a0
93
74
ce
25
2f
d0
7a
4a
76
0d
93
3d
c7
7f
ae
3d
5f
ac
0c
1c
eb
b4
60
93
1b
eb
67
6f
46
63
be
94
88
1f
4b
86
7e
bb
02
6d
45
d6
bd
4a
d7
16
fb
e1
68
60
ce
2d
8d
56
b7
ba
c8
73
7b
c6
a8
f6
6f
3c
b5
97
0e
24
8a
6c
96
a4
6a
f4
e5
02
a4
6a
ca
57
74
4b
f7
62
c3
a8
bf
98
b5
15
36
2d
f5
90
0a
f5
ec
de
d0
14
43
e8
49
e7
83
10
e8
46
bd
f0
58
a8
6f
db
3c
a9
63
a7
a0
b5
3a
14
fd
65
0a
9a
9b
52
62
db
0e
e0
38
9b
45
02
47
ad
7d
da
a8
51
17
21
f8
d7
11
88
b8
7a
62
89
b1
f4
6a
fe
fc
3e
33
cb
d3
87
5b
0e
1b
d6
4e
f8
f2
46
d3
d8
4d
13
f0
2e
2e
f0
06
ec
95
f8
e6
78
be
87
2d
f8
de
3f
a0
73
7a
7f
51
d9
d5
82
d9
a0
4b
e7
4e
20
e4
d3
20
b5
4f
2c
ba
cd
c5
dd
c5
76
ac
3a
22
4e
73
c2
87
aa
fe
82
7f
24
e3
60
94
45
81
b9
b1
b0
cd
56
d2
ac
ac
81
40
a1
a0
3d
84
0d
a5
a9
fb
72
62
56
ee
79
85
8b
17
bc
0e
bc
2d
b1
d1
26
4d
0a
c3
26
89
38
a0
dc
aa
7a
4a
5d
39
ce
86
95
3e
06
8e
0f
67
fd
5c
1a
9c
9d
9a
66
95
f7
af
06
02
ec
e0
23
b5
19
7f
c3
f5
43
13
85
d4
fe
28
81
cb
bb
32
03
74
4c
dd
7c
ef
60
5a
67
a8
eb
ae
9a
41
77
d9
5c
b0
0d
9e
e9
91
e7
cf
82
f2
6f
61
a2
5f
3e
8e
a3
e7
4f
c2
8d
4d
59
a5
f1
b7
d9
7d
65
e3
a4
a3
20
10
3f
ea
47
e0
b7
53
b2
ab
f1
64
e7
61
27
2e
a1
72
a9
49
81
e9
79
1c
20
ce
f1
cb
8e
12
8b
1b
52
b8
34
14
4d
eb
0b
f7
6e
02
05
68
03
37
48
50
6a
65
23
a7
d9
4f
33
4e
b3
c0
8e
29
ed
a5
0c
b7
74
d8
07
ba
99
ae
67
d2
f5
0b
d3
7b
e7
af
7b
0f
66
97
b5
26
fd
92
c9
04
50
d2
bb
c8
d9
e5
b9
af
ce
4f
37
a6
04
51
76
16
0a
98
e7
8a
c4
09
8f
f8
e0
73
19
77
ee
62
e5
24
25
2e
bc
05
e2
0f
d5
ef
e4
a9
da
0c
d5
13
6f
c7
ef
82
d8
7c
54
1a
1a
6e
1b
a4
60
2a
9c
07
79
43
4c
87
9e
f9
9a
29
40
a7
16
56
f5
7e
42
0a
a5
26
97
6e
10
3a
81
a6
e2
a4
99
71
56
85
0a
77
4a
5c
5e
39
ed
2d
1f
20
0f
7f
35
7b
ac
8a
39
2a
1f
5c
53
d3
e3
68
6e
ae
f6
29
8b
e4
b7
88
bb
bb
cb
4a
dd
47
64
14
ff
11
d6
5c
f9
7c
59
8b
53
2b
85
36
1d
21
4e
91
58
da
2d
c4
96
fa
93
43
69
6d
e5
e7
c4
b4
75
ab
84
02
04
0c
d7
0b
f6
66
9b
57
54
1c
5e
28
a4
3c
7a
63
cf
29
f6
53
38
c2
38
5f
94
46
ae
c6
e4
c8
22
e0
8e
27
8d
e2
06
c5
1f
57
e9
cc
09
f9
bf
c8
bc
7b
5c
f9
53
da
78
2d
f7
4d
7a
60
56
61
ae
47
6a
b9
f7
c0
99
02
b4
d2
46
70
d8
11
71
c1
78
63
aa
03
de
eb
e5
a5
46
69
a5
58
93
08
a3
7a
39
71
65
11
80
a1
6a
6d
1d
53
1c
65
59
4a
35
41
14
a9
87
fe
47
f5
a1
32
2d
30
b0
6a
87
9c
ab
d5
ad
56
07
a1
04
0b
ed
da
14
aa
69
c9
65
0a
dd
43
33
61
57
83
1f
05
93
81
d0
36
06
d3
31
bd
17
70
56
7b
fe
5e
b0
b9
59
d1
7a
2a
7c
b6
f9
49
8e
68
d9
b8
d2
3f
5b
d7
f3
15
3d
0a
37
bd
e7
b0
48
c2
70
3a
ba
a8
4b
2b
d9
49
c8
39
9d
ce
2f
2b
3b
60
c7
01
6c
64
4a
fa
da
6e
91
9a
1c
c9
e7
05
cd
55
e9
de
9b
5d
05
e8
67
95
0c
33
b4
3b
0c
d7
2f
67
1e
47
aa
30
1c
b5
9f
e6
44
6f
70
2f
5b
8f
95
7f
28
47
79
0c
09
49
6a
ba
a0
a5
16
34
e3
12
51
40
9c
1d
c3
f2
04
96
ed
c8
3c
fe
69
43
8c
e9
34
5d
bc
8d
16
85
cf
ec
15
84
bd
3d
a6
24
86
a6
29
5d
09
15
fc
57
98
2e
79
c3
12
db
cc
1f
a5
be
93
db
77
50
5a
47
b8
4d
02
d8
bf
79
a3
f8
81
a9
df
da
1f
10
4e
f5
97
91
c6
04
b9
95
65
ad
5c
4c
5a
e2
87
4e
ea
46
6a
f0
d1
d0
05
37
1e
0a
6f
a6
15
2d
0a
b2
06
7d
17
60
fd
c3
6a
cf
fc
e6
7c
cf
4c
77
79
7a
04
8f
5e
7b
0a
78
51
aa
46
5a
54
7b
1e
b8
28
e6
0d
22
8f
e6
1d
4c
e2
7f
b5
13
14
c3
8e
07
83
a1
33
c2
d6
0a
84
1f
e9
6c
02
bd
26
89
36
f6
cb
42
16
dd
30
8b
5a
35
40
69
1c
35
88
51
ab
ff
f9
15
d9
e5
93
16
3c
7c
c9
90
d7
f5
c4
ba
d1
b2
90
31
36
23
83
82
1d
ee
76
a5
a2
20
ec
69
5a
38
dd
55
20
cf
4b
a9
79
88
ae
e2
32
25
77
f5
2f
db
7b
fa
5a
19
66
8b
24
cf
01
d6
cf
b3
dd
62
b9
f1
ec
fc
a1
38
b9
36
55
bb
e8
c4
9c
77
fe
86
6a
e1
b1
3e
bb
0f
6b
a7
3a
16
69
6d
4b
2a
b8
40
df
1f
eb
2c
f0
f5
d3
83
25
bc
5e
6e
2f
d6
14
6b
f5
f7
e8
e1
93
40
2f
22
ce
52
39
b2
30
b4
9f
1d
48
3e
13
e1
3d
2b
1b
1a
a8
b4
b2
58
b3
0e
a5
d1
ad
0e
7d
e8
3c
ea
56
a8
73
4e
95
7e
16
4a
5f
c5
f0
92
dc
87
5b
93
dd
ef
84
8f
20
8d
df
9d
62
07
27
5e
bc
12
70
2b
24
3f
21
e1
f8
d8
3f
cf
62
64
e3
f0
18
8c
41
e5
52
76
27
f6
7e
90
66
31
12
7a
78
10
ba
3e
5c
cd
5f
1b
15
83
b4
28
b8
a7
13
e9
ec
94
f6
ed
81
c8
57
78
ad
b4
5d
9f
7d
ee
47
81
16
f0
f6
25
be
9e
82
73
06
09
39
d2
a8
3b
57
0b
39
59
67
4c
76
b5
02
41
2c
53
e3
b3
dc
7f
60
5f
df
45
7c
e0
10
c6
b3
89
ea
6b
54
b9
1b
66
2c
38
2d
41
33
c0
d8
99
37
ae
9c
72
4f
2c
1b
26
15
b3
a1
09
8d
a0
16
fe
6d
b4
3d
1d
c4
b9
49
29
52
36
b2
e9
a2
b0
66
9b
99
ad
8e
65
e9
f1
44
4f
da
85
7f
19
d6
b5
7c
d8
6c
bc
f3
29
77
64
d7
f5
48
3b
7f
95
7a
1d
6d
e8
45
aa
d9
8b
2c
c6
fc
14
1b
e3
1d
2a
fe
45
b6
55
d6
8b
ae
0d
dd
ea
8b
13
7f
5c
d3
5c
b8
e7
e1
37
58
04
a3
7a
1c
47
51
35
b9
5f
b3
e0
c7
9e
35
bc
b5
4a
fa
46
3d
69
ee
1f
12
47
2f
ec
3d
d4
d1
52
78
0e
bb
85
cc
66
5d
ac
6f
85
b2
d5
1c
d2
eb
11
45
9a
90
07
5e
89
cc
db
7c
76
d7
34
d5
80
70
8b
e4
ab
4d
f1
79
42
b4
03
63
f0
b9
1b
76
1c
ad
34
b1
d8
aa
38
89
a4
77
aa
dc
82
38
32
c8
31
f3
d3
f2
1f
2b
2b
23
35
ab
42
58
24
70
3c
79
8e
5e
78
63
8e
96
6c
19
5b
fe
bb
ae
8e
79
86
6a
b6
f7
0f
0b
b6
c3
16
c5
f7
e9
af
9b
a9
00
9c
d6
1f
62
b8
97
87
bf
98
f3
bd
be
0c
53
b6
65
e9
9b
26
41
dd
e3
e0
14
cd
2e
c5
9a
4d
52
b6
0f
ef
21
31
39
b0
05
9b
2e
74
77
88
9b
a6
60
45
54
e0
52
63
3e
c6
39
e6
92
7b
12
24
6a
28
ff
f4
7a
94
ed
02
4c
f3
73
02
ed
93
40
11
6f
ab
b5
32
4c
76
94
d1
fa
c6
a9
d4
11
4a
9f
82
84
39
54
81
26
27
98
5e
26
cc
ec
0f
20
61
1e
3d
a2
49
c9
c3
7e
ce
36
66
2b
ec
28
e0
b3
0b
2d
27
3d
e2
11
51
ae
28
7e
33
d0
9c
ef
79
43
c3
00
fb
5f
b3
11
ed
1f
44
47
08
ff
99
89
a1
5a
e6
e1
fc
04
56
8a
bf
f2
5a
23
31
85
e0
86
be
ab
dc
b0
6e
7b
7f
7b
e9
2c
f8
72
89
46
66
37
1f
85
66
35
cb
61
2e
4e
5b
a1
bf
9e
0b
01
75
0e
67
a6
60
05
f7
b0
7d
74
91
86
ba
5e
42
de
15
5a
1a
22
a7
4a
af
4b
b0
70
27
db
54
2e
73
e3
57
19
b7
40
32
1f
81
41
9c
1b
81
ff
b0
c3
91
dc
ea
69
f2
0d
54
90
a1
a2
6d
74
6b
6d
24
b8
07
32
c1
eb
91
2f
c0
32
0f
5f
e0
4e
25
9f
c3
83
ec
a8
3e
72
5e
0a
4b
e1
9e
3a
eb
a2
bd
14
68
be
6d
d4
59
13
a7
63
07
83
5d
9b
19
59
b3
40
29
d3
a3
7e
55
a6
f6
62
dd
e6
19
40
f9
5c
ab
43
3c
cd
fb
32
79
0a
60
b5
99
4a
52
16
6b
31
d5
16
49
4f
ad
5b
6c
2e
43
30
e5
43
da
7e
c3
3d
5f
c4
9f
52
0f
ce
f5
e7
3f
d1
01
34
66
29
79
4d
6a
1e
6f
b8
08
0c
2c
5c
0d
fe
4a
73
c6
36
a3
e8
d0
0e
60
6e
70
25
34
b6
be
4b
b8
35
b2
58
6c
db
5b
2a
0c
59
d5
86
db
93
7c
81
8f
f4
71
be
10
22
e9
b1
b9
b7
29
7d
6c
07
a3
7b
27
ef
79
2d
83
e8
44
8b
e6
69
41
dd
5b
40
39
fc
90
3a
38
cf
32
35
c2
03
ba
3e
b6
51
3f
a2
a5
c8
7d
b3
c8
bd
c8
ef
10
d4
ef
db
aa
68
1c
b2
59
8a
1f
d3
93
ac
87
6d
12
64
1f
0a
7e
6b
48
45
94
fa
06
d2
77
ad
cc
33
20
06
04
e4
46
a9
c0
76
59
77
08
8a
fc
eb
53
bb
9f
36
98
c3
b1
2f
84
b6
e0
54
5f
32
3a
1a
d2
69
cd
b1
a3
8f
95
37
80
85
89
d5
cd
c1
0f
b9
ca
ed
bf
50
fe
42
a4
a1
2b
5d
39
20
a3
cc
40
76
23
87
f0
95
b9
78
6a
64
62
93
10
17
99
e1
9b
fd
ce
f6
e7
b4
98
37
79
c7
b2
9a
7d
8d
9b
7f
bc
c0
a6
8d
7d
12
e6
2b
44
aa
ef
3b
6c
1b
44
51
a6
cb
af
ee
b1
91
9c
04
57
83
53
ad
e8
96
91
a1
39
00
2c
d6
6b
6e
10
a8
2a
4a
d6
68
72
25
ed
5c
f3
bb
ac
d8
60
44
b3
7a
a4
2c
c2
4d
04
94
9d
eb
5d
4b
33
76
5e
3b
e7
d2
64
e8
ea
c8
ad
d7
9a
c0
da
6b
1e
a0
79
ba
59
eb
c9
3e
9e
91
ce
a6
44
71
4b
e4
69
6c
5b
65
4f
4c
cc
8f
72
46
75
f9
fc
8f
66
af
cd
a5
00
87
c6
1b
7c
55
92
93
cd
08
60
24
25
48
ab
47
6a
b8
00
9b
5c
f7
6e
47
c7
26
be
0a
7c
5a
9d
08
cc
84
35
cc
8c
51
7e
fc
ef
20
30
25
76
a7
02
ab
ac
89
33
2a
70
7b
54
03
1f
3c
e8
84
ae
73
f4
84
53
e2
1e
e5
23
b4
59
35
e0
18
4f
11
73
fe
71
5a
cf
c4
c2
36
15
00
10
73
e2
74
9f
ee
60
1b
1f
4d
6c
f7
72
bd
ca
44
d0
7a
6e
b7
de
11
5d
71
1d
76
53
e5
39
10
77
26
d4
4c
f0
91
a7
ae
80
b0
23
b6
cb
2d
81
04
7e
23
01
eb
b1
1d
fd
cc
6c
e6
78
95
42
f3
ad
87
0c
6d
59
eb
97
00
19
4b
85
ef
c4
5b
86
4d
40
a5
6b
00
20
df
7c
b3
20
58
ac
86
93
87
de
20
2b
5d
9a
cc
f4
dc
d9
e8
fe
22
b6
04
4d
0f
98
db
ca
4c
ad
fe
ef
55
1a
fb
e7
da
cd
1e
4e
41
16
7e
32
c6
dd
c8
80
84
71
b7
79
67
24
8f
0f
dd
39
63
69
4c
d2
81
2d
ee
32
bc
8f
6f
34
e9
d0
9c
cb
0d
cf
22
4a
7f
c9
df
da
5d
a8
e7
a6
0c
48
0f
0d
a4
42
b3
38
7f
78
8f
a0
ea
88
0a
96
72
0d
84
6e
f4
f1
79
28
36
52
91
3c
b8
8b
c4
99
e7
35
ce
b1
67
11
3b
2f
cf
95
0d
ed
71
5d
ab
6a
dc
41
20
b3
25
e6
5e
d1
60
23
f8
1c
9c
25
ea
d2
67
4e
7c
9a
dc
02
53
a7
69
e0
05
31
f3
f0
dc
e0
3b
24
4f
1b
21
2c
6e
82
d7
ba
e0
34
f3
56
35
0d
89
fe
c0
b6
de
c1
8b
ef
1b
c3
fe
ce
3e
ec
59
20
56
0c
50
2b
5b
1f
4d
ce
59
47
14
8a
fb
11
09
a2
8d
c0
d0
d3
d9
64
40
db
1d
13
7b
02
47
dc
c5
6f
bf
ab
69
6f
09
f1
a4
8e
92
31
54
ce
ae
79
45
d1
f0
14
2b
c4
5d
8b
f1
57
81
0e
c5
db
91
06
48
d8
85
07
8d
45
5c
ec
0f
e2
a3
c6
4c
98
d4
da
c9
04
90
3d
c7
2a
1c
df
99
80
8d
8a
50
93
1c
f0
53
f6
53
2a
66
6d
70
f7
07
2f
a6
ec
94
07
74
52
70
46
ad
34
84
2d
f8
78
68
e7
01
38
7a
19
7a
67
da
c7
0c
2b
20
cb
b5
c4
5b
47
6e
f7
54
9a
0c
9d
2a
53
29
fd
67
fa
8b
48
d3
78
6d
6e
2b
c5
ef
3a
63
eb
25
4d
15
2a
38
f5
01
a5
0c
7f
93
fd
e1
ff
a9
54
02
3a
8c
72
1c
be
c2
d6
69
e8
1d
06
33
3e
2b
c3
04
37
86
46
ea
bc
9d
b6
25
dc
8e
80
bb
41
ba
e8
c8
22
0d
b1
b2
8d
f3
a5
bd
cf
ca
cf
4f
fa
28
4e
0c
1f
94
4f
07
c9
26
f2
fd
a3
2a
72
a7
3c
62
70
88
82
c9
ef
81
7e
cc
db
ce
24
64
02
31
4f
e5
28
bf
b0
b9
38
f1
4f
a5
c8
71
78
c8
15
07
26
a2
c9
37
ce
dd
35
0e
ad
ac
72
9e
d5
81
66
92
8c
c3
a0
89
1b
b1
8e
97
c2
09
7a
df
15
f9
15
aa
08
73
1d
8f
59
d4
7a
e0
cf
bc
6b
46
9d
1a
35
20
a5
48
52
ab
c2
21
bd
3b
a9
f5
59
60
92
ba
72
2e
09
3e
be
e2
2e
a3
45
f3
05
69
61
03
f6
59
7c
53
4b
26
ac
de
3f
6e
5a
f1
43
26
c6
b6
b5
87
1a
c8
4e
90
0e
4d
15
75
a2
b6
9f
9a
90
65
67
6a
7b
ce
72
17
39
da
0b
2d
20
6b
76
d8
f2
e5
a9
92
39
db
69
7b
a8
2a
59
d8
3f
4a
4b
55
a5
49
61
1b
bf
d8
9c
c5
22
fd
4a
24
ae
7b
e0
2e
0e
86
d6
ba
ea
02
a5
50
c7
4e
73
a2
0f
41
43
96
29
67
47
be
42
80
1d
78
26
e0
ef
90
0a
09
6d
f3
85
99
05
d5
af
06
ec
7a
10
64
31
09
0c
ab
dc
9c
9f
02
1d
2a
aa
9f
41
b4
4b
d4
ba
e2
52
88
ab
d9
a1
05
d3
53
35
04
9c
de
e8
28
2f
e6
ce
dd
5f
9d
d8
ec
71
fd
38
8c
97
bc
ee
e6
c6
3e
04
fa
fb
0a
3c
0e
4a
de
aa
9e
4e
57
88
83
b2
95
2a
d8
3d
4c
51
2d
4f
c9
55
c6
86
3b
8c
44
50
fe
5b
90
27
6a
81
b5
72
ce
cc
16
ea
82
a2
26
4f
05
fc
ee
64
f0
0d
f7
40
fc
a0
af
16
9b
f6
d8
a4
56
c9
04
87
0b
f6
f8
b1
13
cd
9f
24
ed
59
e0
d3
3a
3b
a1
34
e2
bf
00
97
44
89
58
18
83
7c
0f
5f
65
f6
2a
82
38
69
75
47
6a
9a
c2
b7
31
a1
58
db
46
bd
ac
aa
00
14
96
88
74
8e
d1
fd
ca
5a
bc
cb
fd
ce
58
47
3a
a3
b7
0d
83
93
36
32
80
1f
58
df
c8
7a
e6
16
f6
e0
6b
b7
b7
f0
c9
78
b7
c8
01
54
bb
a4
92
2f
7a
92
75
b0
0a
a2
db
fa
29
87
08
f2
84
1a
69
6b
89
04
49
7d
22
e2
1e
1d
ec
69
51
31
ac
58
28
5d
be
96
83
94
d0
d6
8b
cf
52
46
d2
fc
41
81
3f
8a
4d
b7
15
b3
ae
53
10
17
85
70
10
90
82
b4
69
93
b4
b9
1d
b4
a4
23
96
be
0a
09
d6
d1
a9
e6
69
4f
76
62
06
46
9b
2e
c0
29
e0
09
44
de
47
4e
4f
82
e3
2b
fe
f7
d8
56
8b
79
08
7a
23
77
a4
1c
16
7f
e8
ff
e7
c4
17
fe
5b
5f
6e
52
65
f9
ac
61
ff
f3
ee
2e
a7
e4
b6
b9
4d
c4
79
c6
93
41
4c
2a
f9
5d
9f
80
18
cb
10
0f
cc
2e
17
b4
1c
a1
c8
77
ec
0f
59
8a
7a
48
e5
3c
d1
4e
59
06
f2
8c
66
a2
be
f6
1a
1a
f9
42
2e
67
ff
5c
43
a7
93
8f
ec
b7
25
ee
a8
0f
13
fa
73
1d
7c
1c
91
ff
30
45
ed
b1
ee
76
22
1e
97
a1
7f
95
75
0c
a5
8e
7a
68
6d
42
be
80
bb
36
b0
3c
93
b4
ad
86
1b
63
e1
1c
cb
3e
b0
54
28
1b
a1
7c
ab
29
00
8b
a0
54
bf
c8
3e
6a
e0
77
17
91
8f
86
1f
03
8c
38
a0
c1
bd
4d
90
6a
a8
2e
29
77
c0
a3
d0
bf
3d
c2
55
94
5e
d7
fb
d7
7e
4f
e9
4e
8c
e7
fe
04
d0
08
e8
53
a0
1f
a0
1a
d2
2b
95
df
61
91
a1
12
79
d2
76
98
3f
1f
2f
75
dc
21
23
cd
4e
a9
74
de
81
94
68
14
8e
94
88
fa
4d
0e
95
9c
96
7b
a5
c4
67
e8
1a
bb
a4
23
66
b8
36
8e
96
b4
e9
0c
bb
1c
e4
d6
5a
c1
0a
e1
c6
22
b7
03
91
b7
ca
57
35
18
e2
f6
60
ab
cc
7f
bf
56
c3
be
63
35
c8
a7
92
5e
51
b4
6c
5a
01
34
94
65
4f
3d
6f
29
0a
72
1d
ef
4a
bb
4e
f3
c7
d7
04
2d
32
b5
48
52
1e
a8
1d
d9
61
2b
bb
87
0f
ef
e5
54
3d
90
b4
f1
ee
13
a1
1e
8d
75
da
1c
6a
66
a5
82
6f
18
a5
a4
47
a4
46
86
62
e8
7b
a0
02
fa
90
78
b8
90
a2
54
09
f1
97
da
8e
88
06
e7
b8
e9
7f
31
81
31
02
23
bf
95
8e
bc
05
4b
0d
bd
94
bc
bc
a4
cb
5c
9b
0d
78
2e
da
81
df
f5
40
1a
f8
77
8f
21
cf
57
d7
55
61
0c
dc
2a
44
80
cb
84
5e
49
61
de
81
e0
55
e9
90
e2
81
60
44
97
df
3d
63
0b
eb
85
9b
58
a8
50
1a
cb
f1
78
d7
97
09
99
9c
57
a7
79
31
3d
50
d1
e4
49
68
a1
80
6a
6f
20
8d
89
34
45
a5
f0
8e
d8
df
61
ee
04
b0
78
d8
c7
17
45
4a
84
13
54
82
59
b8
7a
3f
01
48
86
48
a7
f9
6d
6e
f6
ab
1b
60
b1
61
37
d7
56
27
f0
6c
b4
b5
55
2e
bc
87
b4
47
75
cb
37
f2
47
66
47
c4
ae
4d
01
65
d6
57
82
63
cf
45
be
40
78
bf
e8
41
d4
f8
50
e4
3b
f8
f1
b5
94
4f
55
aa
ef
79
0f
37
48
64
45
04
c2
de
6a
da
96
cf
f1
03
d8
69
12
8c
6a
ff
ff
4a
d6
94
aa
27
06
05
77
46
7f
36
e1
81
b4
f6
86
37
6b
64
b5
82
d6
60
d6
6f
e0
14
c4
6c
4b
c5
32
04
5c
e3
a5
1c
f5
ca
ac
51
60
22
68
c6
10
e1
07
db
be
7e
d5
5e
82
b0
ef
8b
b4
32
11
16
50
43
67
55
fb
2b
d8
51
2a
11
e3
f8
6c
72
c0
ca
0c
f3
de
70
c2
55
bc
e5
11
0d
22
ae
7b
c5
03
75
bd
fc
2c
ca
87
45
13
bd
0e
5b
76
af
02
37
e6
2f
7b
03
55
c3
71
7b
ed
75
dc
bc
90
73
e0
ec
eb
71
a5
51
16
3c
79
b5
6d
30
78
7f
c7
6d
95
5b
10
d1
20
ef
b6
ba
f9
e4
fe
41
ce
4a
70
b4
c2
df
da
34
e5
31
c1
ef
bd
0c
41
a4
3f
a1
a7
d2
dc
c7
ee
87
11
ff
7a
8c
ad
6e
bf
08
9a
83
d1
29
80
a9
9f
5f
f2
55
cb
cf
94
85
a9
e2
ae
8a
31
8c
f1
36
cf
f3
10
6e
ed
91
97
ee
39
54
22
ce
64
79
2f
43
d1
5f
6f
2f
b2
7c
cf
69
a3
40
6e
20
0d
77
f1
26
f1
c8
16
68
f4
c3
41
1f
ee
3b
b2
63
c9
eb
52
27
e6
78
0d
a7
aa
ad
19
98
81
60
18
83
6b
c0
8d
dc
d6
a7
39
a0
25
f5
33
be
f4
bd
74
a5
17
d5
d1
e7
63
08
0f
2b
eb
67
a2
2f
fd
0e
cb
2b
d5
18
45
95
c1
d6
ab
59
f7
a9
bf
f5
a2
90
b7
b1
6b
6a
ab
89
30
04
68
ae
f0
63
68
20
ee
cc
45
38
e1
af
f5
d8
c7
64
6b
19
90
d5
f7
d7
5e
a2
f7
6e
95
83
66
b1
ad
56
ba
18
71
c4
3a
0c
f2
c3
92
e6
c1
88
1c
f5
16
da
99
df
b3
3c
ef
17
52
c9
eb
23
bf
41
c2
e3
5c
31
4b
eb
92
0a
a3
da
ec
49
1f
bc
12
62
a6
c8
80
5d
7a
0e
6f
3b
2c
b3
70
82
12
f0
1f
ff
5a
f2
fe
18
ce
88
86
d7
6f
5e
0a
ed
18
ff
8c
a0
41
15
f0
3f
d4
8f
19
4b
c4
27
e4
3a
2a
0a
e8
ce
b3
aa
ac
a2
2b
0d
77
64
da
06
e0
de
10
57
fd
32
81
b3
8f
51
c8
20
3c
91
f7
b8
f7
44
5e
d1
82
26
9d
53
f3
d5
fe
c4
d4
f0
6f
8e
da
b3
62
a4
cb
e7
09
cb
02
1e
3f
fc
a4
3a
80
2d
6c
2e
1d
50
00
b9
4a
53
d0
47
99
94
ba
5e
6c
07
1c
57
59
bd
21
83
ca
b0
75
30
4f
ea
f2
4c
19
51
a2
4b
b4
42
01
76
28
3d
59
01
43
58
00
f9
77
1a
52
9c
1a
11
b2
96
d1
29
83
51
9b
13
81
db
49
2b
20
25
5d
36
98
52
05
a6
8c
77
c4
1a
b1
c2
6e
91
b9
8e
63
ed
55
92
f1
e2
a9
55
cb
8b
27
98
06
34
2d
94
90
e6
c0
b7
82
ec
1a
4c
1a
ad
70
5e
f4
d1
09
6a
b8
8e
6d
59
75
fa
25
d2
53
89
9e
8a
bf
03
c2
e5
16
60
b0
13
97
ea
d5
5e
b7
e5
46
ba
8a
fd
59
70
ce
7f
50
70
45
79
82
e0
eb
f9
1c
e8
5d
b7
9e
ef
30
e6
94
c1
4b
79
4d
10
91
9d
9d
2e
43
65
cb
07
4f
e1
5d
f4
8e
44
34
de
0d
45
50
47
c7
03
24
1c
2b
34
9b
79
db
5b
bc
3a
b5
5a
a7
06
83
ea
f1
be
e8
48
67
4c
03
65
f2
c3
7d
fe
c2
78
56
64
cf
b2
1a
b3
78
db
c3
b0
1b
4f
a9
4d
a5
44
c2
8c
a5
44
15
b3
84
68
21
61
cd
bc
27
a2
ec
88
fe
6d
ce
5e
f6
ba
70
5d
5e
6a
80
3e
28
bf
05
e8
9e
c0
15
cd
be
27
b4
ad
6f
57
d7
ab
f8
8a
34
a0
e8
73
65
35
96
b1
bf
45
24
ee
53
68
b2
e5
87
8b
6b
53
70
ad
4f
5d
13
e6
50
20
38
1b
be
e0
fe
06
3f
c6
09
a7
1d
30
e4
e0
e5
bf
58
ba
0f
a6
36
46
40
5a
5d
96
85
66
b5
52
85
aa
2e
a1
a4
1c
1c
a8
eb
de
e4
8e
74
a5
74
13
b1
e9
8f
9b
cc
89
d6
84
4d
34
08
cc
f6
0f
fe
5f
b5
3e
9f
dc
02
32
57
fb
4a
53
65
65
ad
e5
94
31
f0
50
89
61
6a
87
28
d7
f9
fc
89
a0
47
e4
7e
9d
4c
e5
35
bc
fb
75
5c
33
c4
7c
02
a3
e1
c7
5b
68
2d
b2
84
f1
7a
78
f0
18
5f
4c
45
0a
eb
df
18
8c
dc
42
f0
9f
12
c4
8e
0d
08
72
bb
7d
b1
da
ab
14
ff
af
c0
ee
15
0a
eb
e2
61
2a
a5
85
fe
91
9a
f2
6e
6a
3c
13
18
d4
cf
fa
94
38
ef
d6
46
8f
67
ce
ea
50
7d
d7
1c
bb
ca
2d
0b
ec
fa
82
64
21
3a
09
de
99
7b
08
dc
2d
d7
c3
b2
59
4c
d6
00
bf
a9
b7
15
88
0c
38
d6
a9
3f
51
f7
51
14
3c
2f
d9
22
71
8e
b7
28
32
aa
6a
3a
48
bb
28
47
61
b1
a6
3d
5a
5a
87
2f
61
f4
44
c2
a4
c6
35
5b
94
ee
ac
64
55
dd
71
f0
ff
f5
c5
d9
49
67
3b
32
87
89
f1
a5
48
f8
26
f1
08
a4
47
e5
0c
03
67
5c
f7
e7
5d
39
c3
97
41
77
fa
e6
56
1f
de
2a
e5
b9
49
ad
f7
6c
c7
7d
5d
d7
e0
52
06
43
60
0f
ef
34
02
4a
69
28
ac
14
d6
83
5f
92
ae
17
4d
34
f7
30
8d
d7
9e
67
6f
e2
b6
44
3b
70
dd
e4
7b
dc
26
1f
c7
79
b7
b3
a0
9e
79
aa
03
0c
94
d1
15
30
33
06
61
2c
77
36
d6
0f
da
c6
35
1b
87
1b
15
55
c6
03
4d
a4
88
05
16
4d
e4
68
86
38
be
f0
b9
39
35
c8
f4
70
06
c4
fc
de
1f
9b
e0
03
64
75
ad
f1
29
e5
2e
ae
ac
5b
ff
d3
48
b4
81
17
c9
e5
45
d3
ad
7b
7a
8c
a7
12
11
5e
2f
02
1b
2a
4a
06
10
11
6b
43
2b
3b
84
23
60
e8
9a
0c
75
64
2a
86
d8
73
aa
b8
46
fd
5e
5f
4c
50
6d
2d
60
15
1c
98
0d
33
c8
77
07
1b
c2
f0
f6
75
1f
f0
a9
a8
c7
aa
76
75
24
0d
a3
05
95
08
fe
ce
b7
9b
0b
e1
ce
b8
44
e9
9e
38
52
19
8b
cd
4f
dc
46
09
65
a7
82
35
59
03
e1
4a
f9
5e
b2
a0
88
39
07
05
bd
4b
84
99
9b
9f
e7
64
45
9e
d8
12
83
8e
3a
73
8b
e8
1b
11
dd
ee
15
53
f9
25
70
61
76
73
37
dd
bb
98
61
15
ba
f6
47
f8
ee
9e
19
d4
ff
8b
7a
79
68
25
cd
3b
52
30
20
ac
31
c2
78
72
2a
c2
fc
4b
29
5f
b0
fd
2e
6b
1f
69
01
8e
76
db
69
0f
9a
02
5d
8e
43
25
e9
0c
87
1a
df
fc
57
af
bd
9a
5b
a8
9c
23
c3
13
37
6b
4e
db
9e
c8
e6
91
e3
61
70
c1
12
3d
25
bb
ff
1d
e2
77
41
e5
5b
0a
67
ed
c5
c1
f3
12
ff
7c
eb
5b
f5
ab
b1
0c
55
37
39
59
3d
ef
84
ef
9b
63
37
17
69
48
7f
d8
af
0e
47
70
6d
ad
94
d0
8a
25
2e
f9
a7
5b
fa
ae
a1
b7
bf
f8
6b
75
75
23
e6
eb
98
72
39
3f
c3
31
23
c6
de
ed
2b
82
c5
aa
7a
c9
22
a0
15
a4
d1
0b
4d
fa
82
28
19
2c
c0
fd
46
2b
c2
58
c7
36
17
a0
c9
fd
c4
56
48
ef
e0
5d
0a
af
84
3b
f3
e7
5b
b1
7c
13
47
27
93
c9
f8
fe
f7
5d
df
db
8c
fb
dd
f3
16
ed
b7
d4
22
c5
f0
66
30
e6
17
b1
e4
49
49
1a
ab
a4
9f
53
fd
77
b2
e2
b7
43
61
71
24
55
c0
37
2b
0b
38
1c
b5
0b
ab
5d
42
58
cf
5b
c6
ac
36
d6
71
38
9f
3c
47
28
33
1f
98
17
43
c5
c9
6e
fa
c1
e5
b9
74
00
08
78
0a
50
39
19
f8
59
85
6c
da
71
88
91
26
f7
ec
8d
21
b6
ae
33
a5
e0
53
80
a8
44
49
2c
27
96
4a
d3
55
4d
01
19
a7
e0
f1
9a
40
e3
5e
a0
f0
cc
28
45
a3
26
55
5d
67
22
e2
9e
b4
fb
b4
96
3b
bf
d5
08
a6
05
51
c9
1b
2a
6c
42
e6
6c
61
25
28
d2
49
2c
74
58
a0
d0
69
27
6f
e9
e2
2d
87
3d
e5
dd
61
cd
8c
79
b6
f0
3e
26
4d
c6
8b
94
7f
01
2f
2b
d6
e8
d0
23
a6
d5
15
48
29
d0
f0
25
d7
24
a3
b5
19
df
e6
60
85
2f
fe
c3
e5
a7
fe
fe
3c
f1
05
77
f1
af
4e
8f
0e
ce
94
b7
7b
05
c9
76
c4
f9
fc
1e
6f
19
23
f4
a6
7d
a3
72
00
b7
d2
b9
c9
c0
37
be
7d
83
9b
df
dc
ca
6d
e3
1b
ac
0d
0a
ae
ea
60
2b
ab
a2
20
0d
54
da
56
01
92
e9
cc
9b
75
bf
b3
19
3c
c5
da
e2
b6
1e
cc
d7
19
ca
61
e4
5e
44
79
19
33
e6
f7
17
11
14
8a
dd
7d
86
c8
52
9a
08
39
10
d3
be
fd
e7
1f
35
0e
64
68
56
6c
47
35
62
4f
ab
2e
58
4b
9a
e7
e9
33
d7
b0
74
0d
b0
2d
35
cd
a1
b1
a6
23
e8
1a
a0
75
f1
9d
ae
bc
0b
5c
ce
22
8c
ba
e1
6c
a1
11
51
b0
6b
0c
e5
77
9a
03
e6
69
b0
07
6a
d7
f7
fa
f4
a8
bd
dc
58
c6
fe
40
4b
63
8b
75
9d
fe
4c
f7
26
5b
6c
8a
1c
0a
ef
da
5a
08
40
21
2c
02
80
b1
1b
30
ba
7e
6b
d9
8e
ad
10
54
c9
56
87
ca
5d
86
3b
f1
a0
a9
91
53
1d
7c
ba
62
a2
8f
74
23
65
9d
ca
4a
97
bc
ba
6e
33
db
49
86
40
21
20
af
95
11
f0
8d
e9
0f
f3
d1
21
f6
be
a8
5c
b8
e6
29
53
cc
19
82
47
a8
02
fc
46
15
d9
fc
53
79
6b
41
74
d3
b4
da
e4
01
f0
32
d2
0b
f1
b9
e5
49
ac
94
9a
50
03
dd
b4
3d
d1
4f
98
bb
84
ab
ad
76
1f
74
f2
9b
f9
9c
95
8f
64
86
72
a7
ca
9d
d1
58
f7
c7
29
f7
7d
5c
d1
4d
99
f1
01
bf
d9
ab
3c
5c
57
b5
20
c1
92
98
f0
d3
02
b5
ef
ef
c2
b8
b9
7f
4d
72
61
68
c1
07
41
b3
50
5e
a9
6c
c2
d8
fc
41
f0
2f
69
c5
bb
7d
74
bd
42
62
3f
c6
47
39
f0
54
94
e6
43
5f
e5
c9
2f
45
72
1c
f6
d2
42
71
52
04
c5
ce
85
a3
e5
c6
e2
1a
45
53
42
6c
88
c6
b5
4c
dc
0d
31
17
61
e0
1f
4f
4e
6c
ae
79
bf
9e
68
3f
bd
7e
a9
de
63
75
3d
d1
58
3e
c5
9d
0b
5f
9e
66
69
ec
6b
12
f7
72
61
74
41
6b
35
f0
07
7a
7f
47
37
74
9e
b6
86
ad
6e
6a
26
a7
e8
c2
5d
22
3a
5e
65
7f
a3
f7
2f
db
f9
1b
41
70
63
8e
88
11
4f
32
3e
d1
dd
16
99
17
4c
60
79
bb
fe
07
f1
7f
68
c7
2c
c2
6c
34
d6
41
59
eb
cd
65
ec
30
c5
ab
d7
bf
b3
8b
f2
47
37
0c
c3
26
f4
ed
fb
33
a9
30
c9
b9
d3
33
72
0d
0b
8b
fe
42
57
d3
5f
0a
75
18
22
3b
60
b9
b6
b3
82
a6
f7
2e
6f
16
2f
42
5b
bd
e8
2b
51
d9
4c
e1
05
45
8a
20
83
c3
47
02
34
ed
81
b4
93
84
7f
37
a0
39
b1
a9
68
79
c8
46
5a
37
cb
a2
4e
3d
e5
7e
a0
db
49
57
cc
97
9f
fe
39
44
78
cb
a8
40
12
a2
20
b6
4a
36
bf
ff
7b
c8
13
c0
3f
0a
07
36
57
6b
aa
66
db
7a
5b
50
7a
3a
5e
d4
08
85
32
61
0b
91
bb
b6
e4
63
9d
0b
15
14
dd
8a
7c
21
5a
ca
c5
de
60
c1
98
0c
02
40
ca
8a
69
e5
df
47
d8
f6
9f
ba
06
9c
49
4d
f6
25
3d
5e
c2
21
40
9c
46
b2
f0
3e
37
78
63
7d
90
a7
8f
8b
3d
27
15
85
d6
56
c2
47
69
a1
f5
2f
ac
09
d3
04
49
d1
d1
f2
e6
87
1b
8a
f3
25
aa
75
5c
d4
56
ce
3c
fb
e3
f6
8e
1a
98
40
61
d7
df
a9
28
4a
a1
29
bc
53
3f
97
45
a8
53
6d
18
80
ee
f9
7d
4a
86
78
44
ab
e4
6a
d6
8d
3f
31
94
3a
47
38
e0
a8
84
f5
58
ba
18
d9
30
98
42
31
4c
81
7c
d3
10
d2
94
37
2a
c1
9a
6f
1a
ba
eb
f2
1c
ff
3b
a9
84
cf
53
38
45
cb
0b
53
94
5d
e6
c6
8f
4e
85
a8
7f
23
f8
70
c2
f4
41
9e
e3
5b
c9
cc
c1
5e
af
5a
97
a5
fd
a5
74
7e
30
72
36
da
b4
93
a6
f2
35
c6
41
15
9c
7d
54
3e
c5
cd
cd
96
29
c8
5d
9b
ba
04
7e
37
82
c5
4e
4c
d1
1f
4a
6e
4a
4c
91
5a
81
35
00
9b
fc
24
a0
d3
4e
1e
a9
6d
f8
2a
9f
8e
4f
82
0f
c6
20
d5
45
4e
8d
1b
d6
e1
49
79
5e
c7
29
cc
87
e2
dc
af
7d
fb
bc
a5
78
6e
de
90
b2
8e
e7
e0
06
1d
5c
5e
3b
cf
fd
c5
96
e3
0e
fc
6a
c5
3a
4a
12
5c
98
e1
28
cf
f7
ba
7a
a1
6e
60
89
6c
28
7d
10
4a
5a
06
9e
ba
c2
c6
88
de
17
f2
da
ff
01
ec
80
55
a1
58
9c
f5
21
12
7f
15
ba
da
87
a2
2e
e6
68
d0
11
be
89
35
db
e6
e5
0c
85
89
80
ae
18
18
b7
97
bb
82
1b
52
36
2c
4a
f1
89
76
e5
74
64
7e
36
23
87
38
dd
e6
af
ae
67
55
9c
c1
b4
df
ca
84
b6
25
4b
40
e0
c5
2e
52
7d
2f
0e
c5
fa
28
80
34
2f
de
e7
f7
5b
7b
2b
37
df
c9
8e
93
c0
ae
64
07
21
0b
a4
94
a2
53
6d
d8
ed
dd
5c
56
0f
f2
0f
c2
ae
da
34
e4
ec
4d
0a
29
60
80
6d
16
1d
83
6e
25
3d
f5
d9
20
50
3e
d8
54
1d
9e
44
5c
81
1b
bd
84
d8
56
71
f4
95
a2
a3
f7
9a
66
09
68
aa
f8
55
ef
82
d3
38
67
93
d5
e2
6c
8b
41
d3
64
ab
a3
a7
b6
33
1f
29
24
6d
52
f5
0f
06
cd
02
0c
fc
60
42
77
e9
8a
23
3a
4e
9f
ef
d2
a7
62
ee
64
43
eb
ad
66
d3
97
55
f8
db
47
22
6d
18
f6
f9
3e
75
6e
56
34
c1
dc
52
76
37
ac
34
6d
85
c7
11
69
49
6a
f4
b8
6d
f8
69
94
93
0a
fe
7d
f6
29
af
52
b2
d0
28
14
d7
f2
c8
2a
14
f7
39
9e
d4
0f
5b
47
01
c7
cb
21
7e
db
99
bd
5f
a9
8e
1a
6f
40
3f
51
2c
65
00
dd
13
d7
38
65
0b
d4
c9
4b
3b
3e
0e
cd
98
9d
55
80
2e
b6
52
3a
71
6b
cf
dd
66
f2
dc
78
b3
e2
a4
78
91
cd
7d
2c
d8
ac
f0
11
ef
5d
f3
20
65
bf
da
6a
08
e0
70
8c
72
34
70
35
0b
17
f4
b5
51
74
41
c5
22
92
8e
4c
ed
04
04
34
07
12
84
8e
2b
b1
78
eb
e4
d0
71
8b
22
62
ed
50
b8
45
58
c9
c7
57
73
db
13
05
b3
44
fc
a1
77
41
ad
6b
e0
70
8a
83
4a
78
68
78
8d
4f
26
f8
1a
da
b3
31
89
bc
f3
1a
9b
de
c3
94
78
03
0e
de
fe
86
be
ae
8f
a6
c0
29
c7
cd
f7
79
36
20
a0
c6
d8
ef
91
b9
07
55
31
d7
81
4b
65
96
28
6a
01
bf
39
21
82
fc
14
9d
35
52
d9
a3
b6
7f
52
ec
aa
b4
c8
ca
07
df
05
45
d7
bb
1a
f6
c3
38
b6
a9
77
d5
e0
d5
6b
41
32
ec
ec
ae
4a
4b
6f
82
cb
92
4c
eb
d7
79
d3
49
d8
93
f6
c8
a2
83
a3
b1
52
27
7b
8e
a0
e7
65
27
05
8f
93
ae
f7
ea
7c
bc
6b
2f
dd
f9
76
1c
d8
8e
a4
9b
ba
c0
a8
cc
f8
72
f0
45
16
3a
41
50
7d
92
42
58
e8
e2
0e
1e
bf
2b
5c
2c
ae
eb
1e
b1
8d
cd
d6
c7
98
1c
de
ae
36
c5
3d
28
4d
ff
fe
39
f0
93
3e
47
6f
ad
1d
38
0a
9a
b9
26
27
66
de
b2
39
96
af
9a
61
8f
3c
a2
f7
37
3a
76
6f
df
83
7b
d0
44
b8
16
e2
6f
45
e5
c7
6c
7a
93
c0
fa
e4
e2
f9
1d
86
62
bd
35
1d
d3
35
96
45
46
fb
5c
8a
c9
f8
7d
ae
7b
cd
a0
8a
87
80
ad
27
6f
0d
f7
4c
54
1b
9c
bc
fd
b5
de
e8
fa
78
ad
3a
9c
80
04
ad
04
8a
57
4b
82
a8
c8
65
8c
14
7c
c0
f5
81
e9
d4
c8
d4
59
58
55
be
49
62
a2
58
99
b3
46
9b
94
76
88
6e
33
98
05
73
34
a8
79
de
d3
32
fc
c0
f5
df
f4
85
b7
a7
bd
48
f6
2e
9d
f2
cd
37
05
89
b6
04
d0
17
b6
fa
6b
cd
1e
1e
1f
c2
91
80
d3
49
8a
a9
37
1a
a6
c6
4f
a3
5f
4a
31
07
99
7f
82
79
79
d9
0d
49
a1
55
8d
a1
59
43
0b
84
25
c8
18
b6
0e
a1
f7
a9
15
0c
4a
06
b0
ad
f8
79
95
b5
c6
1c
0c
73
8e
17
14
69
87
5a
bc
43
3d
39
43
32
bb
7c
a3
20
f5
e0
cf
80
0b
65
b9
ae
47
5d
7b
70
3b
ac
94
e9
b1
41
f0
23
75
90
9a
ae
fd
49
d7
20
ff
4c
72
f1
b7
7f
1a
4f
9a
16
ec
88
b7
34
e8
ee
51
fa
84
ea
79
c1
30
f6
30
76
89
2c
c4
39
c9
63
9c
f0
fc
ed
3a
b3
89
c9
e6
0a
58
ab
36
2a
43
f8
cb
fd
31
5c
02
47
26
91
a3
9e
7b
ae
dc
cb
71
18
8f
5c
6a
37
e8
7e
42
89
8d
82
01
06
1c
6c
91
d2
cd
e3
72
ec
d4
3b
ca
bd
9a
c3
d1
d0
5a
6e
13
34
46
f5
c4
d5
46
df
c7
b0
d7
51
d6
5c
d9
4d
05
7d
ea
73
11
32
ac
7b
47
8a
2d
8d
1d
a6
d8
13
de
77
76
75
0e
b6
2b
e8
31
61
d8
74
af
41
45
df
cf
63
0e
ab
23
0a
9a
91
75
df
e1
21
63
1d
17
20
fe
83
37
d5
64
09
3d
09
8d
70
02
f7
16
44
58
6a
7b
fe
44
8e
12
4f
6f
fe
dc
1b
80
a0
57
fc
83
16
bf
b3
0f
dd
3f
05
53
89
e7
42
a8
1e
19
a1
c7
ac
fe
09
4e
c3
5e
1d
1a
7f
26
3f
55
34
36
35
d3
f0
a8
74
49
f6
96
85
27
ae
ab
1f
22
e8
5c
12
d5
e5
53
1a
34
95
67
3c
0c
3f
e0
f3
14
51
d2
61
ad
ca
f7
a6
56
e7
de
e5
d6
f4
e7
63
d1
e4
56
42
57
be
65
62
c9
3f
dc
77
37
e7
92
9a
9a
34
79
c4
24
9b
08
4a
e5
cb
b6
96
a9
76
db
25
4b
82
72
57
25
d3
7a
57
fa
7b
aa
96
12
d1
ef
c9
93
55
26
63
44
a3
e1
62
6f
2d
b2
dc
51
bf
68
91
ea
4b
ed
fb
2b
4a
3f
4f
9b
06
19
49
23
ee
99
2c
a9
2c
fd
41
26
52
af
73
ed
8f
a0
28
78
76
a7
e5
2b
2b
89
11
13
fc
15
ac
09
98
ac
8c
39
07
f9
b3
8f
8a
b9
72
4d
c0
4e
bf
eb
96
2d
4a
81
fa
cf
0b
45
3c
f0
04
65
d5
0e
5d
78
94
ea
f6
9f
e8
78
f8
05
e6
da
3e
d1
f9
c8
f6
ed
15
dc
f8
93
a9
88
81
53
69
04
d6
87
18
7d
f0
ed
27
1d
0f
c7
a2
0e
89
1b
e6
80
95
76
d0
b8
eb
93
7c
75
fe
79
37
9c
9f
90
c6
d0
be
f3
ba
2a
7b
70
88
2a
ee
3a
39
68
9b
9f
bb
4c
56
cf
55
6a
be
73
5f
ad
d3
93
1a
d5
7b
fc
b8
27
c9
28
d6
52
56
17
64
e7
de
2e
67
d2
4f
e0
a6
6b
f5
fe
e3
03
d5
ab
a8
f0
c7
d2
8c
1d
09
48
3e
f0
50
73
de
32
b7
b8
51
0a
81
3e
19
0a
a1
bb
2a
b5
01
40
d6
bf
e4
16
e1
de
d2
bf
c1
be
33
2d
c7
23
6b
26
c0
90
a3
92
82
15
1f
98
fa
b8
b9
10
0a
6d
96
6e
87
80
26
2e
5f
0b
a7
4d
ce
e8
80
6e
14
91
c0
29
46
67
b4
a1
b8
1a
28
5f
42
be
02
bc
58
82
60
19
81
92
e0
b8
7a
14
95
d9
79
93
f9
be
75
5a
7a
c7
a7
ad
ce
86
6a
3b
ed
96
5c
81
f2
de
cc
15
e0
fc
6d
d3
54
c3
58
56
b4
52
5f
9f
38
72
42
f4
7c
a9
88
9f
ad
79
59
75
9b
03
1c
20
95
14
25
52
f8
de
15
41
c4
54
70
57
75
be
9d
7a
c7
9b
56
5a
32
2c
c8
08
ef
ef
3a
5f
b9
2a
00
6f
b7
b1
f0
72
2c
82
a5
7e
df
ee
da
2f
27
0b
dd
dc
37
e4
91
32
4f
5d
7b
0e
bd
d3
39
9e
1b
fd
04
5e
b6
64
6b
96
b2
e7
ee
03
65
bc
6a
8f
e7
30
17
96
eb
cf
09
98
58
ea
84
7d
b9
a0
45
b6
c3
40
a2
f0
a3
89
70
fd
f0
9f
6c
07
1d
8f
38
56
03
6f
1f
ba
82
45
90
b6
ab
cd
d5
55
09
41
dd
c5
df
49
17
77
e3
b1
92
8f
6d
32
6f
3b
00
67
61
bf
d4
a2
4d
50
fa
38
d7
86
89
fa
ea
84
03
d1
3f
72
e5
41
17
2b
24
01
15
97
01
8a
ab
65
84
ae
a7
50
37
00
13
17
0a
92
24
95
9c
be
ad
a4
a5
57
b9
4e
6e
f4
ad
e9
23
75
05
0a
e7
fa
13
32
95
4d
9c
82
6f
86
91
de
c1
fe
41
8a
3f
58
78
19
77
1f
a8
77
b1
bf
a3
2e
b6
79
42
9d
0b
23
98
3d
90
a4
01
50
eb
10
ae
43
00
21
36
d6
fd
fd
e6
86
0c
2e
8d
97
1d
12
16
26
30
18
b0
41
dc
41
74
d3
e8
de
51
24
44
17
8d
fc
05
e3
e8
81
03
c0
c5
52
88
93
83
9c
f2
69
c9
cd
8a
bb
b8
ec
30
76
4d
a4
fc
0e
5b
4e
e0
f5
8c
f1
c4
91
e0
fb
5a
f5
e6
8b
8e
d5
26
d8
e0
e5
e2
24
da
9a
d6
6b
1c
5b
df
34
6d
c4
a6
16
bd
09
f0
c4
3c
b5
e1
c9
28
86
f4
ed
e4
ac
2c
50
7d
d8
99
ef
c7
d7
30
9f
53
37
21
61
a0
7b
8c
ea
fb
8c
f6
dc
63
fa
36
76
54
26
44
7c
d4
4a
83
5f
0f
fb
e4
7e
d1
75
63
c6
15
ea
46
4d
5e
a2
d0
16
45
66
01
64
56
c0
4b
11
d4
8b
f2
bb
db
34
1d
85
61
d7
93
48
0f
76
ff
53
95
19
4b
4f
86
c8
b1
a2
b3
11
85
95
63
fc
9d
b7
bb
72
c3
12
ba
b6
c8
33
93
99
f0
dc
62
48
57
49
f1
d6
1a
e6
02
40
be
b9
8c
b4
ae
e8
fa
4a
07
b4
4e
8e
74
a7
4e
6b
c7
e8
6c
06
41
01
a7
b7
2f
e0
a1
e6
a4
c7
86
63
ce
00
92
0c
0f
f6
a5
75
de
af
f2
46
c9
16
1d
25
19
3f
78
06
7b
32
a9
d8
cd
26
2e
1b
17
ef
da
4a
f5
fc
77
81
1d
4b
f8
e3
70
05
ba
09
88
67
6b
16
9c
c2
86
70
aa
ef
ef
c2
1a
fa
9e
00
d8
0e
f8
df
a3
7f
4d
c5
c8
1c
9d
8c
42
08
10
f7
bd
c1
6e
bf
f5
75
14
47
bf
4a
33
31
6c
46
f1
49
c3
48
3a
be
17
7b
9d
c7
ec
82
f0
51
bb
3a
ca
99
17
ca
8b
56
b6
c7
ae
ff
62
62
5c
81
0b
04
bc
74
b9
82
63
7e
12
4e
0d
8f
ff
6e
25
4d
fe
11
34
77
58
d2
b2
5a
8f
cb
ab
bb
92
5b
69
bf
c8
cd
3f
ed
f2
bc
06
a1
01
74
a4
84
0e
74
33
1c
17
58
f9
78
a0
30
e1
91
2b
4a
54
b4
1e
06
15
64
09
f7
b7
9f
f5
ae
25
a9
91
ca
55
d3
38
ee
1a
82
da
31
56
e0
46
66
6c
ab
b6
62
51
f7
bc
36
21
5b
77
99
36
0f
e3
3e
4b
33
ed
7e
c4
72
39
22
17
8a
5a
80
f7
74
ae
55
3b
0d
9e
82
6d
b7
c5
f5
87
f6
2e
c7
3f
d4
91
89
32
47
d5
a8
0d
aa
3b
d0
8a
ca
e2
54
88
57
ad
5e
13
3d
23
aa
74
67
ee
5f
8b
eb
82
cb
dc
72
88
81
94
b2
b7
d7
c8
f0
a7
a0
e8
ad
e0
10
85
4f
22
bd
fe
40
67
9e
eb
69
1c
a4
60
bb
ad
e1
bf
e8
1c
81
64
83
d0
10
5d
af
58
44
03
62
de
6a
e6
36
62
52
e8
b5
0e
6a
51
1d
c7
f5
d0
62
2c
ee
8b
52
61
c2
a4
a0
1e
5b
f2
42
03
01
df
fe
e9
37
bf
1e
b7
33
86
d2
fc
5d
f9
65
33
69
1f
99
1c
4e
e9
0d
30
3a
bf
4b
9c
20
24
82
8b
f0
b6
55
df
73
1c
b7
bd
56
26
c5
c4
d5
b9
77
47
3c
d4
7a
6c
76
32
73
44
02
d3
56
43
a3
15
ca
82
6a
38
49
15
03
5e
ee
47
ca
6d
4b
1d
13
29
83
74
68
01
76
13
c2
e8
a7
3b
f3
20
34
7a
3e
83
be
5d
8c
b1
28
54
23
31
82
0f
7e
ad
e7
4f
fa
a0
73
5b
cd
83
c7
bb
c8
07
25
d2
8b
9f
bb
5a
30
cb
27
2e
ce
66
9b
e7
69
88
e0
2e
8c
85
8d
23
5f
42
c7
54
41
bd
12
c6
51
17
4e
b2
b7
5a
06
d0
e6
7c
bb
41
69
74
9c
75
8a
a7
75
62
50
f0
21
2d
4a
9e
ec
14
9a
78
b1
30
fd
21
3e
52
0f
8a
84
10
ed
21
e3
4b
6f
94
a5
81
71
c8
77
d3
de
a8
f4
a6
6f
48
59
c9
b1
de
24
b3
f2
82
c1
82
00
00
1e
ff
72
51
42
54
78
07
85
81
d3
ae
51
37
8f
07
b3
e7
38
b7
62
43
de
84
f2
6d
3e
00
29
