00ec407b
000fffc2
3cfc2f82
3ff3cfc3
03fbfffd
3d000f40
0103d0be
02fbdf40
020810be
02fc1002
01fc2040
02001102
3e0beebb
02f4107d
3cfc4fc2
0013bf83
030c113d
3cfff082
3f07eeff
3ff8403e
0107ffc1
3effe03e
3f03ef7c
3f08107e
3e000040
01ebdf01
3bf81efc
02082082
00040081
3e000000
3ff81001
3bfbefbe
3cf40f7d
04f7dfbd
02ffe006
00083001
3ef83083
00f7cf3f
00fff080
3df8107f
010c4081
3ef41041
030be040
3fefdec1
3e001fc1
3fffeffc
05f3efbb
03105143
010441c7
030bf07f
3f041040
010420ff
00f7d001
00041fbf
3f0bae7d
0104513a
01080003
00fc2001
00041041
3fffefff
3ef7efbf
3ef7efbe
3fffffff
0004003f
3fffef80
3efbefff
3fffffc0
3efbdfbe
3f000000
3ffc1001
00000fbe
3f03efc0
00ffffbf
3e03ffbf
0003ffff
3effff81
3ff80fc0
3ffc0fc0
3effffbe
3efff03e
3ffbffc0
3ffbefbe
00ffefc0
3ffc0fc0
00fbefc0
3fffcf7e
3ffbef7f
3f07ffbf
3f000ffe
3efffffe
3efc003f
3d041ffd
3f000f7e
3efbffff
00ffe03f
3f07ffff
01fbffc0
3ffff001
3ffc0000
3ffff000
3f000fff
3f03ffff
01041000
3fffefc0
0003f03f
0003ffff
00001000
3ffff03f
3efc1041
3ffc0ffe
3f03f000
0000003f
0003f001
0203efc0
3f03ffff
00000fc0
01001000
00041000
3f000000
3f00203d
0003ffc0
01fff03f
3f001001
00040001
00fbffc0
3f03e001
00fc0001
3f000fc0
00fff000
00001040
01ffff80
00040000
01000fc0
3f000000
00000001
3f000000
3f000fff
00040040
3f000000
0007f000
00000000
00fff001
0100007f
00040000
00fbf041
0003f07f
00000fc0
3f03f03f
01000000
00040040
00ffffbf
00001fc0
3ff80fff
01fc003f
00000000
00fc1000
00fc003f
0000003f
3fffffbf
3f000041
01040001
0007ff80
00000fc0
3efc0000
02040fff
00fc0001
3ffc0000
3fffe000
3ffc0fff
3f03dfff
00081000
3f002040
3f000fc0
3fffefbf
3efff03f
00fc003c
0003f040
3f000001
3ffbefff
3ffbe03f
00ffdfff
3f000fc0
3f000001
3effffc0
3fffefbe
3efc0ffe
3ffffffd
0100003f
3effefc0
3ffbefbf
3ff3efbe
00f7efbf
3fffffc0
3ffc0000
3ef7df7d
3ffbefbd
3ffbef7f
3ffc0f7d
3f03f03f
3ef7df80
3df3cfbe
3efbef7c
3dfbef7e
00ffffff
3ff7e03f
3df7df3e
3cf7efbd
3dfbef7d
00ffffbe
3f03ffff
3efbffbe
3ef3dfbd
3df7cfbd
3ffbffbe
00040fff
00fc0041
3effef80
3efbef7e
3ffbfffd
00fc0fbf
3d000fff
3e03e03d
000befff
3efc0fff
01ffffbf
01000fc0
00f81041
00000fff
3efff03d
00f80080
3ffbffc1
3f00103f
3ffbffbf
3f04103f
3efc0000
3efbfffe
3fffefff
3ef80f80
3ffc0fff
00fc0fff
3ffff03f
3efbefbf
3ef7ef7e
3ffc003e
3effffc0
0003ffff
3f000001
3cefef7f
0103df81
3f000000
00ffefff
0000003f
3ffc0000
3e03df7e
0004103e
00000000
00fc0000
00001001
3e000040
3ffc103d
0003ffc0
00000000
01000000
01041001
01fbefc0
00040fc1
00000001
3fffffc0
0003ffff
0003f000
00042f7f
00040040
00fc0000
3f03ffff
0000003f
3df80000
3f03f042
3f000000
00fc0fff
00fff000
3f000fc0
3f0bdfbf
0103ffff
3f03ffff
3fffefff
3f03ffff
3ffc0000
3ffffffb
3ffff03f
3efff03e
3fffeffd
3ffff000
3ff7ffc0
0000103e
00fff000
3ef7efbf
3f000ffe
00040000
3effffbf
3f000fc0
3efff000
3efbefbe
00fc003f
0207f040
3f07ffff
00000fc0
3efbefbf
3f000fbe
01fff001
3f03efff
0003f000
3e000000
3ffffffe
0103f040
3ff7e000
00000fff
0000003f
3efc0000
3f00003f
0003f03f
00fc0fff
00001000
3f000fff
00ffffff
00ffffc0
3ffbf000
0103ffc1
3ffc0001
00000ffe
3effffc0
3f000fff
3e07ffbf
0000003e
3ffff03f
3f041000
3efbffff
3efbffff
3ffbf0be
3f03f000
3fffffc0
3e03f000
00ffff80
00ffefc0
3ff80fbf
0003ffff
01001000
3f000000
3e000000
3efbefbe
3fffffbf
3ffbffff
0000103f
3f03f000
3ffbdfbf
3ffbf03e
3efbefbe
3f03efbe
3efc0fc0
3dfbff7e
00fbffbe
3cfc0000
3efbef7d
3dfbffff
3df7df7e
3effdfbd
3ffc0fff
3ef7bf7d
3cf3dfbe
3df3cf3c
3efbefbd
3ffc0fff
02080fc0
3ffc1042
3dfbeffe
3efbdfbd
3ef3df7c
3fffffbe
3efff041
3ffffffd
3ffc0fc0
3efbffc0
0103efbe
0007f001
3ffffffe
3f000000
3ffff000
3ffff03e
3efbe000
3ffc203f
0003f03f
00fc0001
3f041001
0003ffc0
3dffeffd
0004103e
3f000fff
00000fff
3ffc0000
3dfbeffe
00f7ffbb
3efc0000
3ef80000
3e03efff
00fc0000
01fbefc0
3efbf041
0003ffbf
0003fffe
3f000000
3f00003f
01082f7f
3fffffff
3dfbffff
0000003f
3ffff001
3e000fc0
3f001081
00ffffbf
0003ffff
00000000
3fffefc0
0207dfbf
00fbf001
00000fc0
0103ffff
00fc0000
3ffc0fc0
3f0410bd
3ff7ffbe
3efbffbe
00000ffd
3ffc0fff
02f3e03f
3ffc0001
3ffc003e
00f7effe
00fc0fff
0003ffff
00000f7f
3ffff001
3effef80
3ffbef7e
3ff80fff
3effffff
01ffffff
3ffbdf7f
00ffffff
3f03df7f
3fffefbf
3effe000
3cf81000
00ffef7e
3fffefc0
3f000fbe
00000fff
00fc003d
3effdf80
3fffefbe
00f8003f
3effffff
3df7f03f
3f00007f
3f03efff
3fffffbe
3fffffc0
3ffbffbf
3f07ff3e
3fffdf7d
3fffffff
0003f001
3efbffc0
3dfbffc0
3e07efff
3ffffffc
00000fff
3f000000
0003efbf
0003cfc0
3ef3dfbf
3ffff03f
3ffc0000
3effffc0
00ffef7e
3af3efff
3ffbdf7c
0003f000
00ffffc0
3ffbffc0
00ffffbe
3df7ef7f
3e00003f
00040000
3efbe03f
3f000fbd
3efc0040
3fffdf7d
00fc0fff
0003ffff
3ef80fbe
00fbf000
3cf40fff
01000fbe
3f001081
3efc103f
3df3bf7d
0003ff7d
3ef3df7e
0108103f
3cf7f000
3ef7ef7c
3fffef7d
3ffc0fc0
01ffefff
3d001041
3ef7cf3e
3fffffbd
0003ffff
3f00003f
00fc0fff
3fffefff
3fffffbe
3fffffbf
3e000000
3ffc0fc0
3effffff
3ffbffff
3fffffff
00000fc0
0003ffff
3ffc0000
02002fbf
01081002
3efc1041
0003f03f
3dfbe001
3ffbcf7d
3e000000
00fc003f
3effffbe
0004003f
00fff03f
01fbfffe
3ffbe03e
3efc0000
3ffbefff
010000bf
3ffc1000
3ffc1fff
0007ffc0
0003f040
01000f7f
00041f80
00001041
01000001
0100003f
3cfc1fff
3f03ffc0
010810bf
00041042
00fc0000
3f000040
0003cfc0
00f8003f
0207f001
00041041
00040fc0
3e000040
3ffbfffc
3f040fc1
0000203e
3f000000
0103f03f
00f3e001
0107ffbf
00fbf000
0003ffc0
3f00003f
0004003f
3f000f3f
3ffc003f
3e03ffbe
0003f03f
00fc0fc0
3efff000
01fff040
3dfbffc0
3fffefbe
01000000
01ffffc0
0003ffff
00041fbe
3ef3ef7d
0003ffff
0003f000
3e000fff
3fffffc0
3df80001
3fffefbe
00040000
0003f000
0004003f
0007f03f
00fbffc0
00040ffe
00000001
3fffe000
00fc0001
00000080
3ffc0fff
00041041
00000000
0007ffff
0107f03f
3ff7df80
01040fc0
00040001
3ef80000
00fc007f
3dfc0040
3ffbff7d
00040040
3f03ffc0
00ffefbf
3f000fff
3ef7df7f
0103ffbe
0003f001
3effffc0
3f000fff
3dfbffff
3ffbef7c
3f00103f
0003ffff
3fffffbf
00fff040
3df7cf80
3ffc0fbe
3ffc003f
3ffc003f
01040fbf
00040fff
3fffcf7e
3f000fff
01000fff
00000fc0
3f002000
3efbf03f
00ffefff
00ffffc0
3f00007f
0100003f
0007ffc0
0003ffbf
0000107f
00000000
3ffff000
0000203e
00fc003f
020bf001
01041000
0003f041
3efbf041
00000081
0003fffe
00001040
0000103f
0004007f
0203dfbf
3f000fc0
000010bf
0003ff80
01ffe000
3f00003f
0000103d
01ffffc0
3e001f80
00000fbd
3f03ffff
00f7e03f
0003ffc0
3fffefff
3ff3e001
3ffc003e
3ef7cf3c
3fffeffe
00fc0fff
3ffbffbf
3f042fbf
00000042
3fffffbf
0003ffc0
3dfbef7f
01ffe03e
3fffbfbf
3df80fbe
3f03efbe
3d001fc0
0100003f
00000fc0
00f3f07f
3f03ffc0
01000fbe
0107efbf
0007ffc1
3f03ffc0
00ffffbe
3ffc0000
01fc107f
0107ffc0
3ffff000
3efbf03f
3ffffffe
01ffefbe
00041041
00000fff
0003ffff
3ffbefc0
3efbffff
0003ff80
3efc0000
0003f03e
3ffbef80
3ffbefbe
3efbeffe
3ffc0fbf
3fffdfbf
3f000000
3fffffff
3effffff
3ffbcf7c
3efbffc0
3fffffbe
0000003f
0007ffc0
3cfbef80
3f03effd
3ffffffe
00fc0fff
00041040
3ffc0fc0
3ff40000
3ffbe03e
00000000
01ffffbf
3ffc0042
3ef80000
00fbfffe
3fffefbf
3efff03f
00000ffe
3f040000
00fc0fff
00fc0f7e
00ffefbf
00fff000
01fc0000
01001041
3df80041
00000000
00000000
00040fff
0003ffff
3ef7dfbf
0107fffe
0003ffc1
3f03f000
3f000001
00000041
00fc0002
3dfc1040
3ffc003e
0004007f
3f000000
0203f000
00000081
3ffbefc0
0007ffff
3dfbf081
0103e03e
00ffffc0
0003efc0
0003ffff
0104103f
0003ff80
01041000
3e03f001
3efbf03d
00fff03e
3f00103f
3f000000
3fffffff
3ff3f03e
3f04003f
3f03ffff
3ffc0001
3ffff000
3e040000
0003effe
3f000040
00000fff
00040040
00041000
3ffff07f
3ffc003f
00ffefc0
0004003f
00000000
00000000
0103ff7d
3ffc0000
00ffffff
00fff000
0003ffc0
3ef40040
0000103e
00fc007f
3ffc0000
3f000fff
0103fffe
00fbdf41
3f03ffc0
3e03ffff
00ffefbe
3ffff041
3f04203f
3dffffbf
3ffc003f
3efbf000
00000ffc
3fffefff
3efbf040
00ffdfbe
3ffbcf80
3ff7ff80
3efbeffd
00fbffff
3fffe000
3bec007e
3efbefbf
3cf3bf3f
3ffbef7e
0003ffff
3efc003f
3effffbf
020410c0
01002082
3ffbef81
3e040fc0
3cf3bf7d
3f03fffd
3fffefff
3efbffff
00fbef3e
0007f001
3fffffff
3effefff
3ffc0fbe
3fffefff
01081f7e
00040040
3fffffff
3f03ffff
3fffffff
3dfc003f
0000103f
00fff001
3fffffbf
3efbffff
00fff03f
3ffbcfc0
0004003f
3f00003f
3efbefff
3fffefbf
3ffc0fff
0003fffc
00040fff
3ffbf03f
3efbefbd
3fffffff
3fefefbf
3e000fbf
3f00103f
3dfbef80
00ffefbe
3effefff
3ffc0f3d
0003f03e
3efbf001
3efffffe
3fffefbe
3ffc0ffe
3cfbe001
0104003e
3ffbef80
3ffbe03f
00fbeffe
3f000fc0
3efff000
3effffbf
00fc0fbe
3efbffff
3ff80fc0
3ffbf000
3ffc0080
00ffffc0
3df80000
01000fbd
3fffefc0
00001fff
3f000fff
00fbeffe
3efbef80
00001000
01fc003f
3ef3cfc1
3cfc0fc0
3effffbc
0003ef7d
00ffff80
00041040
3f03ffc1
01f7bfbd
3ef7f000
3f03f03f
01040041
3f040041
3df80000
3effff3b
3fffff7e
00000000
00000fc0
3ffff000
3ef3dfff
3efbefc0
01040000
3ffff03f
3df3df7f
3f00003f
3f03ffbe
3f03ffbe
00000000
3cfbf000
00fc0fbd
3f000fff
3ffbefbe
00000000
3f000fc0
00041fff
00000001
3efc0040
0000003f
3e000041
3ffc1000
0000003f
0104003f
00ffefc0
01001000
3ffff000
00ffdf40
00fc0041
3ef80000
00fc003f
3ffc0042
00000ffe
3ef40ffe
3dfffffe
01000fbe
01000002
3efbf002
3ffc0041
3cfbdf3f
3fffef7e
0107ffff
00000fc0
0207efbf
3e03ffff
3ff7cf3d
0003f0ff
0007ef80
3f000001
3f00003e
3effefff
3ef7e03f
000010bc
3df7df7e
3ef7e03d
3ffc0fff
3fffefff
3efbefc0
00001f3c
3fffe03f
0003ffc0
0003f03f
3fffffff
3df7efc0
3fffffbf
00ffffff
3fffffff
3f000fc0
3f082041
3f000f80
3ef7effe
3ffc003f
3effffff
3f03efff
3ffc1041
3efc103f
0103ef80
3e000fc0
00ffefbf
01001000
3f000fc2
3ffbf040
3ffbffbd
01fc0fff
3e040fbf
3f041000
3fffffff
3ffbffbf
00000fff
3d040fff
00fbffc0
3ffff000
3fffffff
3effffff
3efc007f
3ff8007f
00ffefff
00000fff
3ff80fc0
02ffffc0
01fbffff
3efbdf81
00ffffbe
3f00003f
3e03ffc0
3ef82ffe
3efc0fc0
3fffffbd
00000fff
00fc0000
3fffffc0
0003f001
3ffbef40
3f00003e
00000000
00000000
3f040000
3d08003e
3efffffe
00000fbf
3f07f000
00001000
3ff80fc1
3fffc000
0003f03e
0103f03f
01000000
00041001
3efbefff
3efbfffd
3ffbfffe
00000fff
01041001
3ffc1041
3efbefbf
3efbefbd
00fbffbe
01040000
02041000
0003ff81
3df7efff
3ef7efbd
00ffffff
00fc0040
3f001000
3efc0fff
3df7df3e
3f03efff
00000fff
0003f000
3efbf041
3efbef80
3e03efbe
3f00003f
0003f000
0003ffc1
0007efc0
3efbfffe
0003f03f
3f00003f
3ffff000
3ffc0fbf
0003f0bf
00ffffff
00000fc0
0003e03f
3efbffff
00ffffc0
0000103f
3f00003f
00fff001
3fffffc0
3f07efff
01fc0fff
0007f001
3e000fc0
3ffc0fc0
3fffffff
0003f03e
01040040
00001041
3fffffff
3fffffc0
3ff7effe
0003f000
01041041
0003f000
3ffff03f
3efbf000
00ffffff
01000000
3e000000
3f03ffff
0003ffff
3ffffffe
00ffffff
0003ffc1
3effffc0
0003effe
3effffff
00f80fc0
3ffc0000
3efff03c
3ef7efbd
3effffbd
3fffffbf
3ffc0fc0
3dfbf03f
3ef3cf3e
3ef7df7e
3ff7efbe
0003ffc0
3fffffff
3cf7cf3d
3cfbef7b
3df7dfbd
3f000f7d
3f00003e
3df7efc0
3cefbf7d
3effef7d
3ef7ef7e
3ffbff7e
00ffffff
3f001fff
3d03f0c1
00fbe000
01f80fbf
00000001
3f000000
0007efbf
0100003e
3b03ffc2
00fc007f
3ffbf03e
0207ffc0
3ffc0001
00000001
3efbff80
3f03ffbd
00fbefff
01040fbf
01041000
00fff001
3f040041
3fffffc1
0103ffbd
3f000000
00000fff
01000000
0003dfbf
3dfbefbf
0000003f
3f03f03f
0100003f
3f001040
3e03e07e
3ffff041
0003ffff
00000fff
00000000
3dffffc0
0003effd
00000000
3f000fc0
00000000
3efc0001
0203effd
0000007e
3ffff03f
3ffff03f
3ffc0fc0
00fbe000
01f8203f
3ffff000
3ffc0fff
3efbffff
00fc0fff
3c00003f
00f80f40
3ffc0fff
3effefff
3f03effe
3f03ffc0
3d001040
00ffff80
3e000fc0
3efbfffe
00ffefbe
00040000
3e03c000
3ffff03f
3dfbf000
3effdf7d
3ffc003e
02081000
3effffbe
3effefbe
3df7cf7e
00fffffd
3fffefff
3ff81040
3fffefbf
3dfbefbf
3efbefbe
0103ffff
03081001
00fc0fc3
3ffc0000
3ef7dfff
3fffffff
0000003f
01042041
00ffffc1
3f000000
00ffffff
0003f000
01041000
3f081042
0000003e
3f040000
00000fc0
0000003f
02040000
01040081
3f000001
00000000
00000000
3ffff040
01001040
01000000
00fc0041
0000003f
0003f001
3ffc0000
00042041
01000fc0
00001000
00fc0000
3ffff000
0203ffc0
00041042
01000000
3ffc0000
3f00003f
0003ffc0
0008203f
01040041
3f040040
00ffffff
00ffefc0
00001000
00000043
00000041
3f000000
3effefff
00fffffe
3e0bf03f
0003ffbe
01000041
3ffff000
3efbdf7d
00fbffff
3df7dfff
00fff03f
00040000
3ef7efff
3ffffffe
3f000fc0
3ffbbf3c
00fbefbf
3ffff03e
3ffbdfbe
3fffefff
3effffc0
3bf80ffb
3ff7df3b
3df7dfff
3fffdf7d
00ffffbf
0003ffff
03082040
3ffc0082
3efbf03f
01ffefbf
3ffff001
3ffff03f
0000103f
01000000
3efbffc0
0000103e
3dfbefff
00001ffe
3f001000
3f000000
3dfbeffe
3f03ff7d
3fffef7e
3f03ffc0
00000000
3f000000
3fffffc0
3ffbf07f
0103ffff
3f000000
00000fc0
3ffc0000
00ffdfff
0003fffe
3f000000
0000003f
00fc0000
3fffffc0
3ffc303e
3f00003f
00000fc0
00040000
3dffe000
3efbffff
3fffef81
3fffffff
3f000000
00000001
3fffffc0
3e041fff
00fbdffe
01040fc0
01041001
3effffc1
00ffefff
00ffdfff
3f04107e
3fffffc0
00001041
3efbf03f
00000fc0
0103ef7e
3ffc0041
01001040
3f000000
3fffefff
3ffc0000
00041ffc
01fff001
3f000000
00ffefff
0100003f
3fffdf80
01081000
01040042
3ffc0fc0
00ffffbe
3e041040
02041fc0
00000040
01000000
3ffbf000
0100003f
0107f041
00fc0000
3ffc003f
3ffc003f
0003ffbf
02041001
3e000040
3fffffc0
01fc0fff
3ffc0000
01000001
00042001
3ffbff80
3fffefff
00ffffff
00ffffff
00041042
00000f82
3efc0001
00fbefbe
00000fff
0000003f
3e07ffc0
3ffff000
3efbfffe
00ffffff
00000fff
00002081
01080000
3efbffc1
3fffefbf
02080000
01000081
00fff001
010410bf
3dfbff7e
00fffffe
02041fc0
3f041041
01040040
3df7df82
3ffbefbe
00000fff
01041081
00001041
3df3d03f
3ffbdf3b
3ffbffff
01040000
00041041
3ffc0041
3bf7cf7e
3ef7df7d
0003efff
020c2041
01f80040
3efff000
00041f7e
3f03ffc0
0308107f
020020c3
0003ef81
00f8003f
01ffcfbf
3f000000
02001081
3ffc0001
0000003f
3f000fc0
3cfbefbe
00ffef7c
3ffbdf7f
3ffffffe
3ffc0000
3efff000
3efbdf7f
3ffbefbf
3effeffe
3ffc0fff
3ffff000
3efbdfbe
00ffffbe
3dfbffff
3ef7cf7e
3f000ffd
0203ffbe
00fc0080
3f03ffbf
0003ffff
3ffbdf7e
0007ffc0
01040040
3e000fc1
3ffc0fff
3dfc003f
00fbdf7c
3ffc1000
00fff040
3fffffc0
3fffefc0
3fffffff
0003fffd
00000f81
0003ffff
3f00003f
3efff03f
00f4103f
3efc0040
3ffc003e
0000003f
3f000001
00ffffff
3f000ec2
3fffdfc1
00fc0fbf
0000003e
3f03ffc0
3a08003f
3ffff07f
3effeffe
00ffefbe
0007f040
01fc0040
0003a040
0003ef80
3dffffff
00fffffe
0000003f
00040040
01fc0ffc
3ffffffe
3fffefbe
00ffffbf
00000fc0
3efbd040
3efc1fc0
3ef7ffbe
3fffffbd
0000003f
01001040
3f000ffc
3ef7d002
3efbffbe
3fffeffe
0003f03f
3eec0040
3e03ffc0
3efffffd
3ef7efff
00ffffff
3fffefff
3fffefc0
3ffbefc0
3f00003f
3fffffbe
3f03ffc0
3effefbf
3ffc0ffd
3f07ff7f
3ffbe03f
0003ffc0
3efbfffe
3fec003f
3fffe040
3ffff000
00fffffe
3f03ffff
0003efff
0103fec1
00fc0fbf
3ffff03e
3f000000
3ffc003f
3d04007f
3ffc0000
3fffff80
0103efff
00fff03f
0103f03f
00ffd000
3f00003f
3f03efbe
00fbf03f
0000003f
3f001040
3ffc003c
3fffff80
3efbefff
0007ffbf
01000fff
01f01000
00fff000
3fffefff
3fffdf7e
00000000
0100003f
01040f01
3ffbfffe
3effffff
3ffffffe
0000003f
3c00007f
3ffc203f
3ffbefbe
3ffbeffe
00ffffc0
00000000
00ffefc1
3ffc0fc2
3efbdfbf
3fffffbf
00000fff
0000003f
3f0bffff
3efc0041
3f03ffff
00ffffc0
00fc1fc0
00fbf000
3e03f0bf
3ffc0fbd
3f040000
00040fff
0003f000
0000003e
3ffff03f
0103ffff
00f80041
3ffff001
3ff7f000
00000000
3ffbef7e
0203ffff
0003ff80
3effefff
00fc0fbd
3dffffff
3ffbffbe
00ffdfbf
3df7dfbf
3f03efbf
3f000fff
0304003d
3efc0fff
3fffffff
3ef7f040
0003ffff
0007ffc0
00ffefc0
00f81040
00fff001
3defdfff
3f03fffe
01040000
0003f000
01040082
3efbe000
3ffbdfbf
00041040
00fff041
01000fc0
3ffc1041
3defeffe
01ffffbb
3f03f002
3ffc0fff
0000103f
3f000fc0
3cefdf80
0008103d
00fc0fc0
3f000fc0
00000000
0003f03f
00f7cfbf
00fff000
00fc0000
00000fff
3ffff000
3efbffbf
0003fec1
00fc0fc0
3fffffff
00ffffc0
3efbffbf
3b07e000
0003f03f
00fc0000
3fffffc0
3ffc0fbf
3dffffff
00ffdf7c
00ffffc0
0003f03f
3ffff03f
3f000000
3e07ffff
00000fbe
3ffc0fc0
00000fff
00000000
3efff000
3efff03e
3fffffff
3ffc003f
0000007f
00041000
3ef7df80
3ffbeffd
3ffffffe
01040fc0
01000040
00001040
3ff7df80
3effffbf
00ffffbe
00040000
00000000
3dfbefbf
3dffeefd
3efbefbf
0103ffff
00001041
3fffefff
3df3dfbf
3ef7efff
3ffbefbf
0104103f
3ffff000
0003ffc0
3ef80fbf
3efc0ffe
00ffefbe
3ffc0040
0003ffff
00fff03f
3f03ff41
3fffffff
00000ffe
3ffbefc0
00fff03f
3ef3efff
3e03fffe
3ffbefff
3ffc0fff
00fff03e
3fffe03f
00f7efbf
0003e03e
3ffc003f
3e03efbe
3fffffff
01fbefff
3fffff7e
0003fffe
3fffffc0
0003efff
3ffbefff
3df40fff
3fffefbe
00000fff
3ffff03f
3f000fff
3dfbffc0
3fffffbe
3ffffffe
0000003f
00ffffff
3ffc0fc0
3f03efbf
00000040
0103ffc0
3ffc0fc1
3f000000
01041000
0207f001
01041001
01040000
00041041
01001000
3effefff
00001000
01001080
01042040
01040080
3efbefc0
0003e03f
0107ffbf
02fc0041
01041043
3ffff040
3efbffbf
3f07f03e
3efbdfff
3effef3d
3e03ffff
3cf7df7d
00fbefbc
3efbefbf
0104207f
3fffffc0
3f03f03f
3df40000
3e03ffbe
00001000
0007f000
3ffff000
00fc0001
3bf3ffc1
0104003d
3f040000
00fc0fc0
00000041
00fc0fc0
01f3ffc0
3f002040
00fc0fc0
00000000
3ffc0000
00ffffc0
01041e42
3ffc0000
0003f040
00000001
00ffffff
39040ffe
00001041
00000fc0
00040000
3ffc0000
3efc0fc0
00038000
3f001001
01041000
3f000041
3ffbffff
3e03ffff
0000103c
00fc0000
0000007f
00fff001
3f03ffff
3dfbcfbf
00fff03f
0003f041
00000000
3effffc0
3e03ffff
00fbeffb
00001040
3fffffbf
00ffffff
3efbe000
3ff3fffe
0103efff
3f03f002
3ffc0fff
3f03ffff
3efbefff
00ffdf7f
01001040
3ffbffff
01000ffe
00000fc0
3effefbf
3ffc003b
00041081
00ffef80
00000000
3ffc0000
00f3ffff
00040f80
3ffc0000
0003fffe
3f000fc1
00ffefc0
00000f40
00000000
3ffff001
01000fc0
3ffff001
3dfc003f
0104103f
01040001
00fc0fff
0004003f
3fffffc0
3f07c03f
01001fff
01040041
01040fc0
3ffc0000
3fffffff
3f03efbc
01040040
00040000
00000002
3effe03f
00f3f03f
0007fffe
00000001
00040000
3ffc0041
00ffffc0
00f81f3f
0100103f
3ffc0fc1
00000fc0
3f03ef80
3dfc0ffe
01040081
00000041
01000fc0
3efff000
3ffbdfff
0207dfbf
00082001
00000040
00000040
3dfbefff
3ffbef7c
3f001fbe
00041000
01fff041
3df7ffc0
3ffbefbd
00000040
02ffdfbf
01083000
3efbe000
3efbdfbc
0103dfbf
3d03ffff
01040f3d
01fc0042
3fefcf00
3dffef40
00fbefbe
3f03f000
3df3ef7f
3dfbefbd
3f001eba
3fffef7e
00fc0fc0
0000003f
3fffefbf
00ffff80
3dfbefbe
3f03ffff
3df80fff
3effffbe
3effdf7e
3ef7efbf
3ff7cefd
3fffeffe
3df7df80
3dfbdfbe
3ffbefbd
3dffefbf
3df7effe
3f03ffbd
3ff7df7d
3ef3dfbe
3efffffe
00ffeffe
00040fc1
3ef8003f
3effffbe
3f03efbf
00fc0fff
00000fff
3ff80000
3efbffff
3fffe000
3ffc007f
3ffff000
00fc0000
3fffffc1
0003e03f
00081041
00000000
00000000
3f000000
01fbf03f
0208003e
01041082
00040000
3f040000
3ffc0000
0103ffff
02042081
01041081
00000040
0103f000
3f03ffbf
01000000
02002001
00001041
3f000040
3ffc003f
3f07f03f
00080040
01041001
01000041
0003f000
00f7ffc0
0100003f
00000000
01040040
00000000
3ffbffff
00fc0fff
00040fc0
00001000
0100007f
3ef80000
00ffefff
0007ffff
0103f03f
01000fc1
00000000
3ffbefc0
3ffc003f
0000007f
3f000000
00fc103f
3f000001
00000f7d
3f000f80
3f00003f
0003f03f
00000001
3efbffbf
3effffc0
00fc0001
3f03ffc0
00000fff
3fffffc0
3f03efbe
0003f000
3f00003f
3ef7ffff
00ffffc0
3efff000
3efff03f
00fc003e
3fffffc0
3effffbe
3ffc0fff
00ffffc0
3dfbef7f
0003efff
3f03f03e
3fffffff
3efc0fff
3d03cffe
3ff80fbe
3effffbf
00000fff
3fffffbf
3fffffff
3ffbdffd
3ef7dfbe
0003f03e
00000fc0
3f00003e
3ff7efbf
3df7ef7e
0003ffbe
3f000000
3ffc1040
3f03f03f
3fffffbe
3ff7ef7f
00000000
01040000
00fff000
3efff000
3ffc0fff
00000fbe
01040001
00001040
3f000000
0003dfc0
3ffbffff
0107f000
00040000
00000000
3efc0000
3ffbf03f
0104103f
0004107f
3ffff000
00ffffc0
3fffefbf
01fc0000
00fc1041
0003f000
3f03ffbf
3f03ffbe
00fc003e
0107f000
3f07efc1
3f03ffbf
3cf7d03f
3ffbffff
3df80f80
3ffbefff
3f000f3d
3dfbffbe
3efbefbe
3ffc0fff
3effdf7f
3ffbdfff
0003ef3f
3effef3f
3dffefbd
3dfbdffe
00fbeffe
00fff03f
3fffef7e
3f04203e
3f000001
3dfbef7e
00fbffbe
3ffbeffe
3ef80fff
01000fbf
3ff40ffe
3fffffbe
0003ff7e
3fffffff
0003fffe
01f7efc0
3fffff7f
3ffc1040
00041040
3ffbffc0
01000000
3e001080
00000fff
3fffefff
3efbefff
3fffefbe
00040000
00fff000
3efff041
3efbefbd
3efbefbe
3f03efff
00ffdfc1
00000000
3ffbefbf
00fbefff
3f03ffff
00040fff
3f000041
3ffbffff
3effffbf
0003ffff
3fffffff
00fc1000
3efbe03f
3ffbffbd
3e000fff
00fff03f
3f000fc1
01ffff7e
3efbffff
3ffffffe
0003ffff
00fc1fc0
01040040
3f000ffe
00ffffff
01040000
3ffc0fff
00000000
00fbdfc0
00fc0fff
0000107f
3f000040
0203fffe
00fc1041
3fffffc0
0104103f
00040040
01fc0000
3f00003f
00ffffff
01042fff
00040000
00000001
3e000fc0
3fffffc0
00fc0fc0
01000042
3efc0fc0
0000003f
00ffffc0
0003ffff
00040041
00041000
3f03ef80
00000000
3ffc0000
00ffffc0
00fc0000
3ffff000
00ffffff
0007f03f
0003f000
00040f7f
0003ff80
00ffefc0
0003f03f
00fc1040
3e03f03f
0003f07f
3ffff040
3fffffff
0000003f
3ffbffc0
0003efbe
00040fff
3ffff000
0000003f
3f000040
3ef7f000
00f8003e
3ffc0000
3ffbffff
00ffffff
00041000
3effefc0
3efbff80
3ffc0fff
3fffffff
3fffffff
00ffefc0
3cfc0fc0
00fffffd
3ffbff80
3fffefff
00000fff
3f03ffbf
00001fc0
00ffefc0
3fffefbf
3efc0fff
00fc003f
3ffc0fff
3f001041
3efbeffe
3ffffffe
3efbdf80
3fffefbe
0107f000
3ff7e041
3ffbef3f
3cfc0ffd
3efbdf7c
0003f03f
3efbdf80
3cf7efbf
3fffffbd
3bf3cf3e
3efbdfbc
3df7fffe
3efbcf7e
3ffbdf7e
3efffffe
3dfbdfbe
3df7cf7d
3ef7df7f
3ffbfffd
3fffef3e
3fffffff
0000103f
3ffc007f
3ffbef80
3dfc0fff
00ffff7e
3fffffbe
00041fc0
3efbffc0
00000fff
3ffbdf80
3fffefbf
00fffffe
3ff80000
00ffeffe
3ffbffc0
3efbffbf
3effeffe
01000fff
000be000
3f000000
3f000fff
3efbef7f
0003ffbf
01001fc0
00fc1000
3ffc0041
3efff000
3efbefbf
00000fff
00f81000
3f000000
3efff000
3effefbe
3fffefbf
0103f000
00ffdf41
00040000
3dfbf000
3df7dfbe
3fffffbe
3efbfffe
0207ff80
3f000041
3effefbf
3effefbd
3ffc003f
3efbff7f
3e00003e
3ffff03f
3efbffff
0003fffe
3efbf000
01ffefbf
3ffbefbf
00040fc0
00ffdfbe
00041040
0003efff
3efbef80
00fff03f
3efc0000
0003ffff
3ffc1040
3e000fff
3f03fffe
00040000
0003ffff
3f000fc0
3f03ffc0
3efbff80
00ffffbe
3f001000
3fffffbe
3ffc1fc0
00ffffff
3efc0fc0
0000103f
00f80001
0000003f
3efc0000
3f00003d
3efc0fff
0004107f
00ffefbe
0000003f
3ef7dfbf
0003f081
00000ffe
3ffc0001
00000fff
3f000000
00f3cf3d
3efff000
01001000
3f03ffff
3ffff000
3ff7efbf
00041fbe
3fffffff
3ff7dfff
0003f03f
3ffc0000
3efbffbe
3efbefbb
3efbdf7f
3ffbdf3c
01041000
3efff000
3ff3efff
3df7cf7d
3cfbffbd
00000ffd
01001000
3e03ffff
3d00103d
3df3befe
00040ffd
00001001
3f03f000
010bf03e
3df3c041
3fffdf3e
00001040
0003efc0
0003ef80
01082fbf
3e03df81
01fc0000
3f040000
3f001ffd
00fffffe
020fefff
0103dfff
01081fff
3df3ffc1
00fc0fbd
00000fc0
3efc003f
3effe03e
3ef80ffe
00ffffbf
3fffffc0
3fffffc0
3efbffc0
3ef7cfbf
3f00003f
3fffef7e
02fc0000
3ff42082
3fffffbf
01001fff
00041082
3f000f7d
0104003f
3ffbefbf
0003f03e
01080040
3f000040
3efff040
3e00007d
3ff80fff
00f80ffe
01041040
00fc0000
0004007f
3ffc0001
3ffbf000
00000fc1
3ffc0000
3ffc0000
01080040
00040000
3fffffbf
00040000
00fc0fc1
01ffefc0
0004107f
3ffc0041
3fffffbe
3dfc003f
0007efff
0007f03e
00001041
3e000000
3effefbe
3ffbefff
3ffc003f
0103f03f
00000001
3effefc0
3ef7efbe
0003ffbe
01ffefc0
0103ffc0
3f000041
3dfbefff
3ef7df7d
3ffc003f
00082fff
00001041
3efc0001
3dfbefbe
00ffdf3d
3efbffc0
00000001
00040000
3fffffff
3cf7efbe
0003ffbe
3fffffc0
0000003f
3f00003f
3fffffff
3ef7ef7e
00001ffe
00ffefc0
0000003f
3f03f000
3efbe03f
3efbefbe
00fbf000
0003fffe
3f04003f
00fff000
3ffbefbf
0003d03f
3ef80fbe
0103ffff
3f000000
00ffe000
0003ffc0
3ef80ffd
3effffbe
0003f03e
0003f03f
3fffffc0
3ff80000
3dffffc0
3efbffff
00fff03f
3f000fff
3f000000
01000f3f
3f03d03f
3fffeffe
3ffc0fff
3f00003f
3e03f001
3f001fbf
3fffffff
3fffffff
3f03f03f
00000fc0
3efc0fc0
00fbf03f
3fffeffe
3fffffff
00000000
00fc0001
01ffffc1
3ffbffbf
3ffbffff
3ffc0fbf
00040000
3f041001
00fc1fc0
3effffc0
3fffffbf
0003ffc0
00000001
3ffc0040
3f03ff80
3efbefff
3fffeffe
3f00003f
01040000
3f000000
3ef7efff
00fff000
00ffffc0
00000000
3f00107f
00000000
3ffbef7d
3fffefc0
3f000fff
0104103f
00fc0fc0
3dffe03f
00fbfffd
3fffffbe
3fffefc0
3ff82041
3f00003f
00f7efff
3d03ffbe
3efc003f
00ffff7e
3ffc0fc1
3f000000
3effdfbf
00fbdfbe
3efbe001
3f03ffff
02040000
3ff7ffc2
3fffffc1
02080f81
3ff7f042
00fff001
3ef7e000
00ffdfbe
0003efff
3efc1040
010020c0
02081fc0
00040000
3efbffff
0003ff7d
3f03ffc0
3f000040
3ef7e041
3f03fffd
3effffff
00000fff
0308107f
00080040
3ffbefc0
0000003f
3fffffff
0003ffbe
00001080
3fffe041
0000003f
3f03f03f
3f000fff
3fffffff
3f03efc0
00fbfffe
00000000
00001000
3f000000
02000fff
3ff7d001
00fc0fff
0100103f
3f040040
3effffc0
3f040fff
00ffffbb
00fc0000
00041040
00fc0001
00000fc0
00f3dfc0
00fc0000
00000fc0
00001040
0003f000
00000000
3fffffbe
3ffc0fc0
00040fc0
00fc0000
3ffc0fc0
01fc1000
0003ffff
3ffff03f
3f00003f
3ffbffff
3ef7ffbf
3efc0000
0004007f
0000003f
3effffff
3efbefbe
3f03ffbe
3fffefc1
00fc0000
3e03ffc0
3efbffff
3efbffbf
0003efbc
3ffff03e
3efc0000
3efbefff
00fffffe
3dffffff
3ff80ffd
00ffefbe
3effffff
0003fffe
00ffe03f
3ff40040
3ffbffbf
3f03ffc0
3fffef7f
01ffffff
3f000fc0
0003ef3d
3effffc1
3dfbefff
00ffeffe
3f00003f
01f40fbf
3f03f03f
3ffbffc0
3efffffe
00fffffe
00fff000
3ffc1f80
3fffffc0
3ef80000
00fffffe
3ffff000
3ef80fc0
3fffdf80
3f03fffe
00fff000
3ffc003f
00000000
3d000000
3ffff03f
00000000
0000003f
00000fc0
0004103f
0003fec0
0003ffc0
00000040
00040000
0004003f
3b000001
3ffc1040
0004103f
00001040
00000001
3fffffc0
0103c03f
00ffefc0
01040fc0
01081042
0003f000
00041041
3efbf03f
00fc003f
00042041
3f000042
01041000
0003f03f
3efbefbe
02081ffe
00041fff
3e03ff80
00ffffbe
3ffc0fff
3efbffc0
3dffffbe
0003ef7c
3df7efc1
00fffffe
02083040
3f03ef81
3fffefbf
02080fff
3efbf041
0207f03f
3efbf042
3fffefbd
00ffffff
3f041040
01041040
3fffdfff
3fffffff
3f000fff
0003ffff
00000fc0
02000000
3effffc1
3ffc0fbf
3f03f03f
00000fc0
00000000
3e000fc1
3f03f000
3ffffffe
0003fffe
00fc0000
3d07ffc1
3fffff80
3ffff03f
3fffffff
01000000
00fff001
3bf7e040
3effff7d
3fffefff
0000003e
00001000
3f000fc0
00ffdf7d
3fffffbe
3fffefbf
0000003f
00000000
3df80000
3d00003d
00fff03e
0003f000
00001041
3f000000
3d03f000
00fff03f
3ffff03f
01fc0000
00001040
3f041000
3df3d000
0003f03f
01000fc0
01000001
3f000000
3efc0fc0
0003ff3d
3f000fff
01001000
01001001
3efff001
3ef80001
3f04207f
0100003e
3f000001
00fc0000
3f03ffc0
01081040
3ffff041
01040000
00fff040
00fc0fc0
00ffef7e
00042081
00000000
3f041001
3ffbffc0
3ef8003f
01040ffe
01001042
00001000
3fffffc1
00fbefc0
00ffdf80
01000001
00041041
00040000
3ffff000
3e000fff
00000041
0103f000
00000001
3ffc0fff
00fffffe
00f8003f
00040000
00000001
3f000001
3effffff
0003f03f
00fbcf00
00041000
3f04003f
00ffffff
3ffbefc0
3d000fff
0003ffff
00000001
3f001000
3effefff
00fffffe
02fbf040
3f000000
00000fff
00fbffff
3dfbdfbe
0003ffbd
0100103f
01040041
3e000000
3dfbefc0
3efbdfbd
0000003f
00fbefc1
01040001
3ef7ffff
3ffbdf7d
0003ffbe
01fff03f
00040041
3f04103e
3effef80
3ffbefbd
3ffc1040
3ffff03f
3ef7ef80
3df0003e
3cf7befc
3ff7ef3c
3ffc0fc0
3ffc0fff
3efbdf80
3effffbf
3cfbef80
0007ff7d
0003ffff
3f00003f
0000003f
0100003f
01082082
3ffc0000
0103ffc0
00000001
0100007f
00000fbf
00041000
3ffff000
00001001
00001fc0
00fff000
0000007f
00ffe001
0003efbf
3f041001
0007f001
00fc0000
00000000
3f000fff
000c003e
00041041
3f000000
0000003f
00fc1fff
00fbf03f
0107f040
0007f040
0003ffff
3ffc0000
3e03e000
02000fc0
01040040
00fff000
00ffffff
3f000fff
00fff03e
01001040
3f001000
3ffc0fff
0003ffff
3ff40fc0
0107ffff
00000000
3efbf000
3effffff
3ffbf03f
3f03febe
0000107e
3f000fc1
3fffe03f
3ffbefbe
3cfbef7f
01fbe03f
01000000
3ffff000
3dfbefbe
3dfbeffe
3fffefbe
00001fff
3ffc0000
3effffff
3efbdfbf
0003efbe
3ff80ffd
3f001040
00ffffc0
3efbdfbf
3ffbfffe
00fc103f
01ffffff
00000041
3efc1fc0
00ffffff
0107f03f
3effffc1
00003f7f
3f001000
3fffffc0
00000fff
00000041
3efff03f
00000042
01041040
00000000
0000003f
3f001000
0103dfff
01001000
00000041
3f03ffc0
0003f001
3ffff001
01001000
00041001
0000003f
3ffff000
3f04003f
0103ffff
01001041
00fbf040
00fc0001
0003ffff
3ffc0000
0000103f
00000041
00040000
3f03f03f
01fffffe
3ffbffff
01000fff
00fc0001
3ffc0000
3ffc0fff
3f000fff
3dfbffff
0004003f
00040000
3ffffffe
3ff80fff
3fffe001
01fbffff
00fc0000
3fffefc0
3ffffffe
0003efbf
3fffffff
3fffffff
3ffbf000
00ffefbf
3dfff041
00fc0ffe
3ffc0fff
3efbffbe
00fffffe
3f001fff
3ef7dfbf
3f03ffff
3efbffff
3effefbf
3ffffffd
3dfff040
00ffeffd
3fffffc0
3ffbefff
3efbffbe
3ffc0000
00f7cf3e
00000fff
3fffffc0
00ffffff
3fffffff
3ff80fff
00000fff
0003f03f
3ffc103f
0003f002
0103ffc0
3ffc0041
0003f000
0104107e
01000080
3f0000bf
3fffe001
0103f041
00ffff80
0103f001
3fffef80
00fffffe
3ffc0000
3efc1ffe
00041fc0
3f03ffc0
3ffc0fff
3ffff000
00000fc0
0103efc0
3ffff001
3ffbffbe
3ffbdfff
3e03ffbf
3e001ffe
00fc003d
00fc0000
3effffff
00fc0fff
3e000fc0
00fbffff
00000f80
3ffbffc0
00ffffff
3f03ffc0
01041000
3e000fbf
3e001000
0003fffe
3f000fff
00000000
3fffffff
00ffe001
3df80001
3ff80fff
3ffffffe
3ffc0fbf
3f080ffc
0000003e
3effefff
00ffffff
3fffefc0
00f7df7e
3ffff07f
3ffc003f
3effefbe
00000ffe
3efffffe
00ffffbd
02fc0fbf
3fffffc0
3fffefff
3ffbe001
3cf7efbf
3fffefbf
0100003f
3fffffc0
3ffc003f
3f000ffe
3effff7e
00000fff
3ffc0000
00ffffbf
3ff80fff
00ffffff
00fbfffe
00000000
3ffc0000
3f000fff
3f000000
00fbffff
01000f7f
00000041
3ffff000
3ffc0000
3f000fc0
3dfbffbe
00040040
3ffc0000
0003ffbe
3ffc0000
3dfbffc0
3f07efff
01040040
3ffc0000
3ffc0000
3f03ffff
3ffc0f80
3f000001
00041000
00000001
0000003f
3e000fff
000bffff
00fc0fc0
02041041
00fc0041
3ffc0fc0
3f03e03f
0000107f
01000fc0
00041041
3ffff000
00fffffe
01fff000
00ffffc0
01041000
00001041
3fffffff
0003f07f
3efc0fff
00000fff
00040000
3ffff03f
3ffbe03f
3ffc0f7e
3ef7cf7f
0003ffff
00ffffc0
0004103f
3efbffbf
3dfffffe
3ffbef7b
3fffffbf
01000fc0
3cfbe000
00ffefbe
3df40fc0
3ff7dfbd
01000fff
3efc0fc1
3df7df7d
0003ffff
3df3dfff
0003ff7b
3ffc0041
3efbef7e
3fffeffe
3ffc0000
3efffffe
3efbdfbf
3ffbfffe
00ffffc0
00fc0fff
00000fc0
3fffffc0
0003ffc0
02081fc0
3f002083
3ffbe03f
00001081
00ffffc0
3ffc0000
00fff03f
3f041041
0003ffbf
00fc0000
3f000000
3f03f03f
3f000000
3ffbfffe
3f000000
3efff03f
00000fbf
00ffff80
3ffbf000
0003ff80
3f03f000
3fffefbf
3fffffff
0003f03f
3ffff000
3f000000
3effffc0
3ffbffbd
3f03ffff
3f000fff
00fffffe
3efbefbe
3dfbef7e
3fffffbd
3f000fff
3fffffc0
3df7ef80
3cf3efbd
3df3df7d
00fc0fff
3efc0040
00ffff7c
3efbefbe
3df7df7d
3f03ff7d
00040000
3bf7efc0
3f03e03f
3ef7df7e
3efbef7e
0000003f
3e000040
3fffcfbe
3ef7df7e
3dfbefbd
00fffffe
00041040
3f000fc0
3df7fffd
3ef3ef7e
3ffbdf7f
0104003f
00fc1000
3ff7f000
3efbcf7f
3ef7cf7d
0103ffbe
00001040
3f000000
3efc0fbf
3df7effe
3ff7df3c
01041ffe
3f001fc0
3ffff000
00fbefc0
3dfbdfbf
00000fbe
01002040
3f000fc0
3f00003f
00fbe000
3efbdfbe
0000003f
3f000040
00ffffc0
0003ffc0
3effffbe
00ffef7e
01040000
3f03f03f
3ffc0fc1
3bfbf07f
3dffffbd
3f03ffbe
0004103f
0100003f
00fc003f
3ff3efc0
3ff7fffd
00000fc0
3efff000
00ffefff
3fffefff
3effffbf
0003ffbf
3fffffff
01fc0fff
3f001000
3ffbefbf
3ffc003e
3f00003f
3efc0fff
00fff000
3ffc0fc1
3df7df7c
00ffffff
00000000
00ffefbf
0007ff80
3cfbffc0
3fffff7b
00041fbf
00fbffc0
3cf8003f
3ffc0fbc
3cf7efc0
00fc007b
3f001000
00ffdf3d
3ef7dfc0
3ffff000
3ef7efff
3cf3efbe
3dfc1fbd
3df3df7b
00fc0fbe
3ffc0fc0
3ffbffbf
3df7f03f
3ffbffc0
3ffbffc0
3ffc003f
3fffffc0
3effeffe
3f03efc0
3ffff03f
00ffff80
3f03f03f
00fc0fc0
3fffffff
3f000fc0
3fffffff
3ffc0fff
3fffffff
3f03ffff
3fffefbf
3ffc0fff
3f03f000
3ffbffff
3df7effe
3effefbe
3ffbffbe
3fffffff
3ffc0ffe
3df7dfff
3eefcf3d
3fffefbe
00ffcf3f
3ff40041
3dffffff
00fff03d
3dffffff
3f000fc0
01fbefbf
3fffdf7f
02ffff80
3efc0fbe
00ffefff
3fffffff
3cfc0f80
01fc1f7c
3efc0fc0
3efbfffe
3fffffff
3fffe03f
3cf7efc0
01042040
01000000
3ffc0000
3ffffffe
00000fff
0207cfbf
01fc0082
01001040
3efc0fff
00fc0fff
3f03f000
010c203e
3f00007e
00fc0fc0
0100003f
00000000
00fff040
00fbe081
00ffffc1
3ffc0fc0
00fc103f
3f001040
01040ffe
00fc0f7d
3fffffbf
0003ff80
00040000
3ffbf000
3efc0fc0
3efc0fff
01fff03f
00000000
00000000
00fc0fbf
3effefc0
00fffffe
00001fc0
00000040
3efbf001
3f07ffc0
3efbffc0
3effffbf
3f040001
0003f001
0003ffbf
3ffff000
3fffffbf
3fffe000
01000fff
00fc0000
00fc0f7f
3effdfff
3f000fff
00fc003f
0000103f
3cfc0fc0
3ffff000
00fff03e
3fffffc0
00fff03f
00000fc0
0207e000
00ffe001
3ffc003f
0003ffff
3ffbffff
0003f000
3e04203f
00fbf03e
00ffffc1
3ffc007f
3ffc0fbf
00001ffe
00fff041
3e03f03f
00000fc0
3efff03f
3ffbefff
02040001
00040f80
00000fc1
0003f041
3fffffc0
3f07ffff
3dfc1040
3ffff03f
3f040040
3ffff000
3efffffe
3fffe03f
3effefc0
01000000
00001000
00fc0000
00f7ffff
3e00003e
0103fffe
00040000
00000041
00fc0fc0
3fffff7f
3f03ffc0
01000040
01fc0000
00000041
3dffffc0
3f00003f
0104003f
01001000
00040040
3f000040
3effe000
0003f000
00000fbe
3f000081
3f000000
00040041
3f03fffe
3e041000
0104003f
00fff000
0103f001
3efc2042
3ffff03f
3f03ffff
3effffff
3fffffff
3ffc003f
3ffc003f
3ffbf03f
3ff7dfff
3efbefbe
3fffffbf
3f03efbf
3efc0fc0
3df7dfbf
3ef3cf7d
3bf4003f
010bcfbc
00000ffd
3c0befbf
0103f03e
0107efbf
3e03ffff
3cf3ef3a
00ffefbe
3ffc003e
3ffbefbf
3f000fc0
02040fc0
3ef3dfc2
01fbffff
00081041
0007f03f
3f000040
0103ffbf
3fffefc0
00000fff
00000040
00001001
3effffff
3f04203f
00001fbf
00000fff
0003f03f
00ffffc0
3effffff
0103f000
3fffff82
0003ffff
00000000
00fc0040
3ffbeffe
3e03ffff
3effffff
3fffffc0
00000000
3ffff000
3f03efc0
3f03e000
3fffffc0
3fffefff
0100003f
3f001000
0004003f
3ffc003e
3e03ffff
3fffffbf
01000fff
01ffe000
01fc0f40
00ffffc0
3efc1000
01ffffbe
00001041
01040fc0
00040040
3f001fc0
3ef7efbf
0000003f
0103f000
02043041
3ffc0040
3e03ffff
00ffefbe
3f00003f
3fffffff
00001040
3ffbffc0
3ffbefff
00000fff
3f000fc0
01fbd03f
3ffc0001
3f03ffff
00ffffbf
0003f000
3dfbe03f
0007ef7d
3f03f000
3fffefc0
00fc0fc0
00fc003f
3e00003f
00041f80
3fffffff
00ffffff
3ff80000
00000fff
3f041040
3ffbf000
3effefff
3f03f03f
00001000
3ffc0fbf
3f03f0be
3fffffff
00fffffe
0000003f
3efff000
00f4103f
00000ffe
3efbffc0
00ffefff
3efff000
3dfffffd
3ff3efbf
3f000fff
00ffffbf
0100003f
3f000000
3f03efff
00ffff7e
3fffffc0
00000fff
3ffc0fc0
3df7fffe
3e0bffbd
01041fc0
3f03ff80
3fffffff
3fffffff
3effffff
0100007f
3f000041
3fffffff
00000fff
3d03ffc0
01ffffbe
3ffff002
3f03f07f
0003ffc0
01000fc0
3f03f000
3f0bffff
0103efbe
01fff001
01000000
01041040
00fc1041
3efbf000
3f000fff
3effffff
3ffbfffe
00ffffff
3f07f000
3dffefbf
3df3cf7c
3ef7df7e
3efbeffe
3fffef7d
3efff000
3bf3bf7c
3ef7cefa
3af7efff
01080ff8
00ffef00
00fbdf3f
3f00003f
0003ffff
3efff000
3bf7efbd
3efbffbc
00000000
00fff000
00000fc0
00fc0fc0
3befcfff
3f000001
01000041
02001040
00fc0fc1
3ffc0fff
0107dfbe
0003ffc0
01040000
3ffc0041
3ffc0001
3d000000
000010bc
00041000
00040040
3f03ffc0
3f03ffff
3ffff000
00000001
00041041
3ffc0041
00ffffc0
0007ffff
00082fc0
01001000
01040081
00000041
00000fc1
3fffe000
3f00107f
0104103f
00040083
0003ffff
0003ffff
01041fff
01000fc1
00000041
3f000ffe
3fffffc0
00fbffbf
00082001
3f001000
3efc0fff
3ffbeffe
3f03ffc0
3f08103f
3f03f07f
0003ffff
3ef7e000
0003f03f
00ffffc0
3f03ffff
3efbffff
3f00003f
3ffbdf3d
00001040
3bf7efff
00042f80
0003ffbe
3df7efff
0003f000
3ffc0fc1
0103dfc0
3efbff80
3f03fffe
3fffffff
3ffc0000
3ffffffe
00041080
00fbefbe
3fffffff
3ffff03f
3f000001
02041040
000010c3
3f000000
3df7f03f
00001ffe
3ffbefff
02081080
3fffef80
3fffffff
3dfbdfbe
00040000
3d07ffff
3d000fbf
0003ef7e
3effef80
3effeffd
00fbefbf
3e03e07f
3efc0ffd
3effffbe
00ffffbe
3f00003f
3ff7efc0
3efbffbe
3df8003f
3efbdf3d
3efbff7f
3efffffe
01ffff7c
3ffc2041
3bf3efbd
3efbefbc
3ffbefbf
3ffbefc0
02080ffe
3efbefc0
3fffbefc
3efc0fbf
00000fff
00ffefff
3df7ffff
3df3df7c
0003efbd
00ffffff
00000001
3f03fffe
3e08103f
3ef4007d
3f001fbf
0003ffff
3ffc2081
3fffffff
00000fff
3e040041
02041fc0
01000f81
00fff002
3ffc0fff
3effffff
3cf3df3d
3efbdfbc
3efbefff
00fc0fff
3dffffbf
00000fbf
3f000000
00f7f000
3df81040
3fffffc0
3ffbeffe
0003ffc0
0003f000
3fffffbf
00fff000
00fc0fbe
3dfbffbf
3ffc003f
3ffbf000
00ffefff
3fffffff
3efc0fff
3f03ffbf
00fc0fbf
0003ffbf
3d040fc0
3ef7ef7d
3efff03f
3ffbefff
3ffc003f
3fffffc0
3ff7e000
01ffefbe
3effe000
00ffefc0
3ffc003f
00000fff
3fffef7e
00000f80
00fc0fff
00ffffff
0003ffc0
3cfc0001
3f000ffd
3f03ffff
00fff03f
0000003f
3f03f03f
3df3df80
0007f07d
00fff000
0003ffc0
00000fff
0004003f
00f7cefd
0003f040
0003f000
00ffffff
00fc0000
3bfbffc0
0000103b
00041000
00fc0000
00ffefff
3f03f03f
01f3bfff
01000fc1
01041000
0003ffff
00fff000
00fff000
3f03ff7c
00000000
3ffff000
3ffffffe
00ffffff
3cf40fc0
00000ffc
3f000fc1
3ffc0f80
3ffbefff
3f03ffbf
3df7efbe
3f000fc1
3ffffffe
3fffffff
3ffbeffe
3ff80fff
3f03f07f
3f000fbf
00000fff
3efbf000
00ffffbe
01ffffff
00ffefff
3f000040
3ffff03f
01fbf000
00ffe040
3f03ffbe
00fc0fff
00fff000
3ffc0000
01040000
3dfbeffe
00000000
0003f001
0000007f
00000040
3ff80000
01ffcfbf
01040000
00fc1001
00000000
00000000
3e000f7f
01000ffe
00001001
00000001
3f00003f
3dfbffc0
00fbe000
00040002
00fc1001
3fffffff
3f000fff
3fffef7f
0007fffe
3e000001
3fffffff
0003ffc0
3dfc0fc0
3ffffffe
3efc0fff
3fffe03f
0003ffbe
3ffc003f
3ff7e03f
3d03f000
3ffbefbd
3effefbd
3f03f000
3fffefc0
3ffc0fbd
3df7efff
3efbdfbd
3ffbe03f
3efc0fc0
3ffbff7e
3f03f03f
3efbefbe
00ffefbc
00ffdf80
3df7f03f
00000fbe
00ffffc0
3dfbffff
3df7cf3d
3fffeffd
3fffef7f
3ffc0fff
3cf7ff80
00000fff
00fc0000
02081efd
00fbdf40
3fffffff
3fffffc0
00ffefff
3ffbfffe
01ffef81
3dfff03f
3ffbdffd
3f03ffff
3ef7efff
0104103e
3f03dffe
3ef7ef7e
00ffffff
3f000000
01fffffe
00040001
3df7efff
00ffef3e
3fffffff
3f000fc0
00000040
3ffbffff
3ffbdf7f
00000fff
0003f000
00fc003f
01fff000
3d000fc0
0003f07d
00000000
3ffc0001
0003ffc0
3ffc0fc0
00ffcfbe
0004103f
01001040
3ffff040
00000fff
3efbffc0
3f000ffc
0003f03f
00041000
3fffffc0
01fff000
3eec2080
0003ffff
00000fc0
3f000000
3fffffbf
3f000fc0
0007eeff
00040000
00040000
3ffbffc0
3f03effe
3bffefbf
3f000040
3ffc003f
3f03f03f
3fffffff
00fc0fff
0003bfc0
3fffffff
00ffffbe
3f03f000
00000000
3efff000
3fffe03c
3fffefff
3f000fff
00000fc0
3e040fc0
00efdf7f
3ffffffd
3ffbfffe
0000003f
3f001000
3df7ffc0
00fbefbd
3ffc0fff
3f000fbf
0003f03f
3f03ffc0
3e03af7e
3ffff03d
3ffbffff
0003f03f
3ffff040
3dfbfffe
3eebdffd
0003f03e
0103ffff
3ffff000
3fffffbe
3df80fc0
3f03ff7c
0003ff80
00fc1000
3ffbffff
3f000ffe
3ef40fbd
00000000
0003f03f
3ffff000
00000fc0
3e03f000
3f03ef7c
3f000000
0000007f
0003ffff
3ffc003f
3df7e03e
0003f07f
00fc0fc0
3f000000
3f00003f
3dfbf000
0103df7d
0003f040
00ffffff
00000fc0
00040001
3ef40fc0
3f00003e
3fffffbf
3fffffff
01000000
3ffc0fc0
3efbef40
3efbdfbe
00fffffe
00001fc0
3ffc007f
3dfbdffe
3cf3dffe
3efbfffe
3f000000
3f000fc0
3ef7efc0
00ffeffd
3effcf3e
00fc1ffe
3ffbf000
3df7f03f
3ff80fbe
00fff03f
3f03f000
3aefbf7f
3cefbefa
3cf3ff7e
3ffbdf7c
3efbffff
3fffef7e
00000fc0
3f000000
00040ffe
3fffdf80
3efbdf7e
3f00003f
00000000
3ffbf000
0003f03f
3df7efbe
00ffffbc
00000000
3ffc003f
00000fff
3ffc0ffe
3ffbdfbe
3ffc0000
3ffc0000
00000000
00ffffc0
3ef3c000
3fffefff
0003f03f
3ffc0000
0000003f
3fffffc0
3fffff3d
3ffff03f
00ffffbf
3f00003f
00fc0000
3ef7ffff
3ffc003f
00ffffff
00fc0fff
00000000
0103f040
3ff7bf80
00ffffff
3f040fff
00000fbe
3f000040
3d000fff
3ffc0ffb
3f07ffff
00000fc0
0103f03f
00000041
3ef7e040
3f03e000
0103ffc0
3ffc0041
3f00003f
0003ffff
3f03ff7d
3f000ffe
01040000
00ffffff
3ffc0000
3bfbffff
3ffbef7a
01000000
3efbf000
00fc0fff
3fffef7f
3df3efbf
0000003d
00000041
00ffefbf
3ffff001
3fffefbf
3ffbf03d
3f000000
3efc003f
3f000ffe
3f00003f
3ffbffff
00ffefc0
00000000
3fffefc0
01fc0fc0
3dfbf000
3f03defe
3efc0fc0
3efffffe
0004003f
3f000fc0
3bfbdfbf
3ffff03d
3ffbeffe
01ffefff
3f000040
3effffff
3fffff7d
3ffbefbd
3ffbdf7e
00000040
3fffffc0
3dfbe03f
3dfbfffe
3efbeffe
00fffffe
3f000fc1
3efffffe
0003fffe
00ffff7e
00fffffe
00000fff
3f03ffff
3df7f03f
3d03dffd
3f03fffe
00000fc0
3ff80fff
3ffff000
00fbdf7f
3fffefbf
00fc0000
3fffffc0
3ffc003f
3efc0000
3bf3effe
0003ffbe
0000007f
3ffbefc0
00fbefff
3ff7d001
3aefdf7f
01001000
0003f001
3cfbe03f
3fffdf7d
3ff80fbe
00f7bf7d
3df81041
3ff3bf3e
3efbffc1
3ef7ffbd
3f03f03f
0007efff
0003ff3f
01f3bf81
3ffbefc0
3f03ffff
3f03ffc0
3ef7efff
3ffbff7f
3fffffbe
3fffffff
3f00003f
3f001fff
3effffff
3efbefff
00fc0ffe
00000fc0
3fffffff
3fffffff
3cf7efbe
3df3cf7d
3fffcf7e
0003ffff
3ffbeffe
3fffdfbf
00001000
3f03efc0
3efbdf7c
3efff000
3ffbefbe
3f00103e
3fffffff
3bf7ffff
3e03ef7a
3efbffbf
00f80fff
3efbf000
3fffffff
3dfbefc0
3ef7efbd
3df7efbd
3fffdf7e
3fffffff
3efc0fff
3ffbefbf
3dfbdf7c
3bf3df3d
3effefbd
00fc0ffe
3ffbf000
3cf7effe
3ef7df7d
3efbdf3e
0003ffbf
3fffffc0
3effffbe
3ef7cf3d
3fffeffd
3effdfff
3f03ffc0
3effffff
3efbffff
3ff7fffd
00fff03f
3f000000
3ffc0fff
3ffbffff
01ffefff
00fc0fc2
00000000
00fff000
3ffff000
3f07ffff
0004003e
00040000
00000000
00ffffff
3f000ffe
01fbf000
00001040
00000000
00ffffbf
00ffffff
3ff80000
0107efbf
00040041
3f000000
3ffc0000
00000000
3fffef7f
3f04207d
00000000
0003f03f
00ffffc0
3e000fc0
00fffffd
0003f041
3efc0000
3f00003f
3f000fff
00fbdfc0
0003f000
00fc0000
3fffefff
00fff03f
3f03ffc0
3ef7effe
00fc003f
3dfbf000
3ffffffe
3fffffc0
3dfbf03f
3f03ef7f
3ffbf03f
3ffbcf7f
3f000000
3ffff040
3effdfc0
3f03fffc
3dfbdfff
00ffffff
01000fff
3f00003f
3dfbdffe
3e000fff
00ffeffd
3f03ffff
3ffc0fc0
00fc0001
3f03df7d
3ffbef80
3f03ffff
00000fc0
00000001
3dffef81
3dfbffbe
3ffbf03e
00fc003f
00000fc0
3f00003f
3fffdfff
00ffff40
00fff000
3f000000
00fbf03f
00fff040
3ffbfffe
01001000
00001040
0103f000
0007f001
3ffbffff
0003ffbf
01042fc1
00000000
3f001000
3ffff03f
3f03efc0
00041000
00000001
01000041
00fff000
3fffffc0
01040000
02001081
00000fc0
02081002
3f07ffbf
3efc003f
3ffff03f
3ffff03f
3fffffbe
3f03ffff
3fffffc0
0003efc0
3efbefff
3ef7df3d
3df3ffbd
3fffffff
3ffff03f
3effffbf
3f03ef3e
00fc0040
3ef7c03f
3fffffff
3effefbf
3fffdf7e
3df7f040
3f03fffe
3df3af7f
3effffbf
3df7dffe
3f03effe
0107e03f
3ffbff80
3ef7cf7e
3efbefff
00fbcf7d
3effefc0
3f03f03f
3dffffbf
3df7defb
3ff7df7e
00fc0fc0
0003ffff
3f001000
3cf3dfbf
3df7df7e
00000fff
00ffffc0
0000003f
01041001
3cefcf80
0003ffbe
3f000001
3f03ffff
0000003f
00fc0040
3f03cfbe
3f04003f
00040041
3ffff000
3ffc003f
3df3dfbf
00fffffd
00000040
00000040
0003ffbf
0003e000
0003df3e
0003f03f
0100103f
00000042
3efc0000
0000103e
00ffe002
3f001001
01041041
00fc1041
3fffff80
3fffcf81
0007fffd
00fc0000
00040040
3ffff000
3df80000
01ffef7b
3f03ffc0
01040fff
3f040041
3fffff80
3efbdf7f
3ffc1fbd
00ffffff
00001040
3f040000
3dfbf03f
3ef7ef7e
3f000fc1
01040fff
00000000
3ffff03f
3cfbf000
3effdfff
3ffff03e
3ffff000
00000000
3fffffff
3efbd03f
3ffbefbe
00000fff
0003fffe
3f00003f
3dfffffe
3efbcffe
3ffffffe
3f000040
00fc003f
3f000000
3df4003f
3fffef7d
3fffffff
3ffbefbf
0003ffff
00000001
3df00000
3ffc0ffe
3fffffff
3fffffbe
01fc0000
3efc0000
00000f7e
3fffffbf
3ffbefbf
00fc0fff
0003f000
3cf80001
3ffc0000
3efbffff
01000fff
3f040fc0
3f00003f
0003dfc0
00000000
00fc0000
00040fff
00fc0000
3efc0080
3f000ffe
00000000
3ffff03f
00fbffff
3f00003f
3df7f03f
0004007f
3e00007f
3ffc0ffe
0000103f
0003f03f
01fbd000
3f041001
0003ffc0
02040fc0
00000041
3fffffbe
00ffffff
3ffc0fff
3efbdfbf
3fffefbe
3ffff03f
3fffffff
3fffefff
3bf7df7f
3cebbe7c
3df7df3c
3f03fffd
3efbffff
3cf3cf3e
01000ffe
00000041
3bebeffe
0003ffbe
3dfbdf7e
01ffeffe
3ffc1041
0000003f
3bebaf7e
3efbeffe
0003ff7c
00000001
0003ffc0
3e03f000
3ef7cf7e
3ef7cf7e
0000103f
00000000
3f000040
00ffffc0
3cf3dfbf
00ffffbe
00fbffbf
3f040fc0
0003f001
3efbefc0
3f03ef7c
3effefc0
00000fbe
0003f001
3f00003f
3ef7dfbf
3f03efff
3fffefbe
00000040
3ffc0001
3ffbefff
3effff7f
3effefbe
3f000fbd
00fffffe
3fffffc1
3effef7f
3efbefff
3fffffbf
3ffbf03f
3f03f000
3f03ffff
0003e03e
3ffbefff
01000fff
00fbefbf
3ffbffff
3ffbf000
3e000fbe
00000ffe
3fffe001
3ffff07f
00ffffbf
3ffbdefd
3ef7dfbd
01000fff
3fffffff
3effefbf
3cfbfffe
3df7dffd
00ffdfbf
3f000040
3efbe000
3efbfffe
3effdf7e
3ffbaeff
01000fff
3efbe001
3effeffe
3dffefff
3df7ffbc
3fffef3b
01081040
3dfbffc0
3fffdf7d
3df3ffff
3cefcf7e
0103fffd
3ffff041
3df3cfbe
3ffffffd
3cf7df7e
3ffbcebb
0104107f
3dfc0fff
0003ef7d
3f000fc0
3defdf7e
0103ffff
3f000000
3df7dfbe
00000ffe
00fc0001
3effef7e
3f00107f
3f03f000
3fffffbe
0103ffc0
00fbefc1
01001000
00040000
3ffbe001
3ffffffe
3efc0fff
00ffbf3d
00040000
0003f000
3ffc0fbf
0000003e
3d03ffc1
3f00003e
3fffffff
3fffffff
00fc003f
00041040
3eefefff
3dfbf000
3effef7d
3f040000
3f000fff
3ffc0080
01081040
3effefff
020ff03e
3f000001
00fc0041
00ffffff
020befff
01083000
00000fc1
01041080
00000f80
00fc0fc0
0103f000
01080040
01f80fc3
00000fc2
0003ffff
