09
fe
04
f9
f8
ff
fa
fc
03
fc
02
00
01
03
00
fd
03
04
f9
08
03
04
fe
fe
fd
fe
00
f8
ff
04
01
f9
f8
f7
04
01
01
03
fe
fc
01
fc
0c
04
05
06
f9
01
01
fc
08
02
00
07
f7
03
ff
f7
0a
08
08
02
01
fe
03
fb
fd
fb
ff
02
01
01
02
00
fe
fc
fd
fe
ff
02
fd
ff
00
ff
fc
00
00
fc
00
01
ff
fd
fe
00
fe
01
ff
fd
fc
fe
fe
fd
00
00
ff
fd
fb
fe
ff
03
00
ff
ff
fd
02
01
ff
ff
00
02
fe
01
00
ff
fe
01
ff
00
03
ff
ff
fe
00
00
ff
03
fe
01
fe
00
ff
fe
ff
fe
01
02
01
01
ff
00
ff
01
02
ff
02
ff
01
02
00
01
fe
02
01
02
03
00
00
02
01
00
00
02
01
ff
02
01
00
fe
02
03
ff
02
00
01
00
00
02
fe
01
00
01
00
00
00
ff
01
00
ff
fe
00
01
fd
00
00
ff
00
00
01
fe
ff
00
fe
00
00
00
00
fc
fe
fd
fe
ff
00
ff
fe
fd
fb
ff
03
ff
fe
fd
fe
fb
fe
00
fd
fc
fd
fe
fb
ff
00
fa
fc
fc
fc
fb
ff
ff
fb
f9
fa
fc
fb
fe
fd
f9
fa
f9
fd
ff
ff
fd
fc
f9
f9
fd
ff
01
ff
fc
fa
fa
fe
ff
00
00
fe
01
ff
fe
fe
02
00
01
ff
04
03
fe
00
fe
00
00
fd
fc
fd
fd
fe
fe
ff
ff
fd
fc
fc
fe
fe
ff
02
ff
f7
fb
00
fe
00
01
01
fa
fd
01
00
00
01
00
fd
fe
ff
00
01
02
02
fc
ff
03
00
ff
ff
01
ff
00
03
00
ff
ff
00
fd
ff
00
ff
00
ff
00
fc
fe
02
00
fd
fe
01
ff
fe
fe
00
fb
ff
ff
fe
00
00
01
fa
00
00
fe
fd
01
ff
fc
ff
00
02
ff
ff
ff
fc
00
ff
ff
00
00
00
fe
02
01
fe
01
00
00
ff
ff
00
00
01
fe
ff
fe
ff
01
03
03
ff
01
ff
fe
ff
03
01
00
01
ff
fd
fe
04
01
ff
ff
ff
fd
00
01
fd
ff
00
01
ff
00
fc
fd
fe
fe
01
ff
fc
fd
fe
fc
fd
ff
fc
fa
fd
00
fb
fe
fa
fa
fb
ff
fb
fc
f8
f9
fc
fe
ff
04
02
fe
fa
fc
f8
fe
03
fb
fe
ff
ff
fd
02
01
ff
00
00
fd
fe
fc
04
00
02
00
02
fe
fe
fd
01
01
00
00
fd
fa
fb
00
00
ff
fd
ff
fd
02
ff
00
00
00
01
fe
02
fe
fe
01
02
ff
00
03
fd
fe
00
00
fd
fd
02
00
00
fe
00
00
ff
02
fe
fd
fb
00
ff
fc
01
fc
ff
fb
00
ff
ff
01
ff
fd
fb
fe
ff
fe
ff
fb
ff
00
01
fd
00
00
f9
fe
fc
fd
fe
00
fe
fb
fd
ff
01
fe
fe
02
fe
ff
ff
ff
fd
fd
ff
fe
ff
01
01
fd
fc
fd
ff
ff
01
00
fc
ff
ff
fd
ff
01
ff
fc
01
f9
fa
00
00
00
fd
ff
fb
ff
fd
02
fc
fd
00
fc
ff
00
ff
fd
fc
fc
01
fc
02
ff
ff
f7
fb
fd
fc
04
fe
fa
fa
fe
fe
fd
02
fc
fc
fe
fe
01
ff
01
fe
fe
fc
00
fd
ff
ff
fe
fe
fe
00
ff
00
fe
05
05
02
00
03
fa
fd
01
00
fd
fc
02
ff
ff
fd
fe
fe
fd
05
01
fe
ff
ff
02
fe
02
02
03
01
ff
02
ff
ff
04
04
01
ff
00
fe
fe
01
02
03
ff
01
fc
fd
00
00
01
ff
00
fd
fc
00
00
00
00
00
fe
ff
ff
ff
00
01
00
ff
fe
ff
fd
ff
01
fe
fe
fd
00
f9
ff
01
fe
fc
ff
00
fd
00
00
00
00
00
01
00
02
01
01
02
01
01
00
03
01
01
03
ff
fc
00
03
02
01
02
00
fa
fd
01
fe
fe
00
01
fa
fd
03
00
fe
00
fe
f8
ff
01
ff
fd
00
00
fa
00
01
ff
ff
02
01
fb
fe
fe
00
00
01
ff
fd
ff
ff
02
fe
02
02
ff
02
00
00
ff
04
00
02
04
02
ff
02
03
00
00
03
00
fe
01
00
00
04
01
01
fe
00
01
00
02
01
00
fe
ff
00
00
fd
00
fd
fe
fa
fd
ff
fe
fe
02
00
fd
01
00
fc
fc
fc
fc
fb
00
03
01
00
01
f9
ff
fd
fe
02
02
fe
fc
01
fe
ff
ff
00
fe
fd
fe
fd
02
ff
01
00
fd
fe
00
00
fe
ff
fd
fc
ff
fd
00
fd
01
fe
fe
fe
fa
01
fc
ff
01
fe
00
f9
00
fe
ff
01
01
ff
01
01
01
01
ff
01
00
fc
01
fe
ff
ff
00
ff
ff
00
fd
01
00
ff
02
02
01
00
01
01
ff
ff
fd
03
fe
00
02
ff
00
01
03
fd
ff
03
00
01
03
01
fd
ff
04
fc
02
fe
fc
fe
ff
03
00
03
01
fa
fd
ff
02
00
ff
ff
f9
01
fe
02
ff
fe
01
fe
01
fe
01
01
00
ff
ff
ff
fd
00
01
00
00
fe
01
ff
01
fe
fe
02
fd
00
ff
00
ff
fd
03
fd
fe
ff
fc
00
fe
04
fd
fe
ff
fd
01
ff
01
fc
ff
f9
fd
fb
fd
fd
fd
02
fe
fd
f9
fc
fe
fe
fd
fe
03
05
02
ff
02
f7
fe
ff
ff
fd
fc
01
fe
ff
fe
00
ff
fd
02
03
ff
fe
fe
ff
ff
02
00
ff
ff
fc
ff
fe
ff
01
00
fc
fd
fe
fe
00
00
00
fb
fc
fe
fc
fc
ff
ff
fc
fc
fe
fb
ff
01
fe
fe
fc
ff
ff
fc
00
01
ff
fd
fd
ff
00
fd
ff
01
fe
00
fe
fc
01
ff
00
fa
00
fc
ff
ff
fe
fd
fc
01
ff
03
f9
00
fd
fb
00
ff
03
ff
fb
02
fb
ff
03
02
ff
fd
ff
fb
00
00
01
ff
fe
00
fc
02
ff
fa
fe
ff
00
fe
01
01
f9
ff
01
fc
00
01
00
02
01
01
fd
01
01
01
ff
00
02
fd
00
01
ff
fe
01
00
fe
01
ff
01
ff
fd
fb
01
01
01
02
ff
fc
fd
ff
00
00
02
ff
f9
ff
01
03
00
00
ff
fd
fa
03
fa
fb
fd
fe
fd
fe
f8
00
fe
ff
00
ff
fe
fb
fe
ff
fe
ff
00
04
fc
fd
fd
ff
ff
ff
02
ff
ff
fc
ff
ff
01
00
01
02
fb
ff
ff
00
01
ff
ff
fd
00
fe
00
00
ff
ff
ff
ff
fd
fd
fd
ff
00
fe
ff
fe
fd
fd
01
00
fe
fe
01
fd
ff
00
01
01
fe
00
fd
00
01
01
01
00
00
fd
fd
00
ff
01
02
ff
fe
ff
00
00
02
03
fc
fe
fd
fe
01
02
03
fe
fd
fd
fe
00
01
05
00
fd
fc
ff
00
ff
02
fe
fc
fa
00
01
00
03
fd
fc
fc
00
01
00
01
fd
ff
fe
00
01
fe
fd
ff
00
ff
01
00
ff
fd
ff
02
00
02
00
ff
fd
ff
02
01
00
01
ff
fd
00
02
02
ff
00
fe
fb
ff
02
01
00
fe
fe
ff
01
02
00
fe
fe
fd
fe
ff
fe
fe
fc
01
ff
01
00
f9
fc
fb
ff
fd
01
ff
fc
f8
fa
fc
fe
01
ff
f8
f7
f9
fb
01
01
01
fa
f6
fc
fb
fc
fe
ff
02
06
00
01
fc
01
01
fe
00
01
fe
02
fd
ff
02
01
01
01
fc
00
fd
fd
00
03
fe
01
ff
fa
02
00
01
01
fe
00
fd
01
01
ff
03
01
fc
02
ff
00
01
00
fe
fa
01
00
00
01
02
fd
00
01
00
fe
ff
fe
fd
00
01
ff
fe
ff
ff
fe
f8
fd
00
ff
fd
ff
00
03
fc
00
fd
fd
fd
00
01
fc
fe
fe
fa
fc
ff
04
fe
fd
fc
fb
fe
fd
02
fe
ff
fd
fc
ff
03
07
ff
00
fe
fe
fe
01
05
fe
01
fe
ff
ff
01
05
ff
01
01
ff
fe
01
03
00
01
00
00
01
ff
02
00
02
fe
00
01
01
ff
02
01
00
00
01
ff
ff
03
00
02
fe
00
fe
ff
01
02
00
ff
01
00
00
01
03
01
ff
fe
ff
00
fc
01
01
fe
fa
ff
00
fa
ff
01
ff
fd
ff
00
f8
fe
00
fe
fa
fe
00
fd
fc
fb
fe
fb
fe
ff
ff
02
05
ff
fd
fd
01
ff
ff
01
00
ff
fd
00
fc
02
01
01
ff
fd
fe
fb
01
ff
00
00
ff
fe
ff
00
01
ff
01
ff
fe
ff
00
ff
01
fe
fe
00
fe
ff
01
01
00
fe
fd
fe
ff
00
02
00
ff
02
ff
00
03
03
ff
ff
ff
00
02
fe
03
ff
fd
00
fd
02
00
02
00
fd
00
f9
01
ff
00
ff
fe
03
fe
03
02
01
fe
fe
03
ff
01
01
01
fe
00
03
03
ff
00
01
ff
01
03
01
ff
fe
02
ff
00
01
00
fe
fe
ff
fe
04
00
00
01
fd
fe
00
01
ff
01
fd
fc
fe
00
04
01
03
fc
fd
00
02
02
fe
03
fb
fd
00
03
03
02
04
fa
fd
00
04
02
01
f9
fa
ff
00
03
02
01
fb
fa
fc
00
05
03
00
fd
02
fe
02
07
04
00
01
fc
01
ff
00
00
00
00
ff
fd
fc
fa
fc
ff
fe
ff
fb
fe
fe
fe
00
00
fd
fd
fe
fe
fb
fb
fe
00
00
fd
fe
00
fd
ff
02
03
fc
fe
01
fa
00
ff
ff
fe
fe
ff
ff
01
00
fe
ff
ff
fe
02
03
fd
fe
00
00
ff
04
ff
ff
00
01
00
fe
04
ff
fe
fd
00
02
01
03
00
01
fe
ff
00
00
00
ff
ff
fd
ff
00
01
fb
ff
fc
fd
fe
00
03
f8
fe
fb
fe
fe
ff
00
f7
ff
fe
ff
fd
ff
fd
fe
00
fe
00
ff
ff
fe
fd
ff
fe
01
01
00
fd
01
03
00
ff
ff
ff
fe
03
03
ff
ff
01
ff
ff
02
01
fc
ff
02
ff
ff
00
fe
fe
00
ff
01
01
ff
fe
ff
fe
ff
01
00
02
01
ff
fe
fe
00
00
02
02
fc
fe
ff
ff
01
01
04
fc
fd
fe
ff
00
ff
04
fe
fc
ff
ff
ff
00
04
00
fe
01
00
ff
fe
04
fb
ff
02
01
00
fd
01
fe
ff
03
02
ff
fb
00
fb
ff
05
01
fd
fd
ff
fb
fc
fb
fc
fe
ff
00
01
fe
ff
fe
fb
ff
fe
01
01
fd
fe
ff
fd
fe
02
ff
04
00
fc
fd
03
02
00
03
ff
fc
fc
04
ff
ff
02
ff
00
f8
05
00
ff
01
01
00
f8
01
00
00
01
ff
fc
02
01
ff
ff
ff
ff
fd
03
ff
00
00
ff
ff
ff
fa
01
00
00
ff
00
ff
fd
01
01
ff
00
01
ff
ff
fe
ff
ff
00
03
fd
fb
fe
ff
01
02
01
00
fb
fe
fc
01
01
00
fd
f7
fe
fd
00
02
fe
fe
fa
fb
fd
01
01
ff
00
00
fe
fc
00
ff
fe
01
02
fe
fe
00
ff
ff
00
f8
ff
fe
ff
fe
fe
fd
fd
fd
01
ff
fd
fe
fe
02
fe
ff
ff
ff
00
fd
00
fc
fe
00
fe
00
ff
fc
ff
ff
01
ff
01
ff
00
00
ff
02
ff
01
02
00
02
02
02
02
01
ff
fd
01
02
02
01
02
fd
fc
fd
03
05
02
fe
fc
fd
ff
fc
fc
ff
fb
f9
fd
fc
02
01
fe
00
01
fd
00
00
02
ff
00
02
f6
03
01
fe
02
00
ff
ff
02
00
01
01
00
fe
04
02
fe
ff
00
ff
00
02
02
ff
00
01
fe
00
01
02
ff
02
00
ff
fe
fd
01
00
02
02
00
00
f8
00
02
01
00
ff
fe
f7
00
01
fe
ff
00
fc
f8
fc
00
fe
fe
00
fd
fb
00
02
fc
01
ff
ff
fd
fe
03
fd
00
01
ff
fe
fc
00
fe
00
01
ff
00
00
00
fe
ff
02
ff
ff
02
01
ff
01
02
fe
00
ff
02
02
01
00
ff
fe
00
01
01
04
01
ff
ff
fe
02
01
03
00
fe
ff
00
01
01
ff
00
fe
fe
01
02
01
02
ff
fb
fc
02
01
00
00
fe
f8
fe
00
03
02
00
fa
fd
01
fc
01
02
fc
fa
fd
ff
fa
03
00
f9
00
fa
fd
fe
fa
fa
fa
01
fd
fe
ff
00
ff
fe
fd
ff
fe
fc
fe
fb
fe
fc
fa
fd
fc
fc
fa
fd
fc
fe
fb
fe
fb
fb
fe
fd
00
02
00
fc
ff
fe
ff
00
01
fe
fc
fe
01
00
00
01
ff
fc
02
01
01
00
00
00
fd
05
03
01
01
00
ff
00
05
04
01
00
00
fe
00
03
05
00
01
00
ff
ff
04
02
02
00
01
fb
00
01
01
02
01
ff
fe
01
01
00
01
01
fe
00
02
ff
ff
00
00
fc
00
02
00
ff
ff
00
fb
01
ff
00
fe
01
ff
fd
ff
00
ff
fe
01
ff
fd
00
fe
fe
fb
ff
00
fe
fd
fe
ff
fd
ff
fe
ff
fc
ff
fc
ff
ff
01
fe
fd
fe
fe
00
fd
fe
fe
fc
fb
00
00
00
00
fc
fb
fd
01
00
02
01
fd
ff
fb
01
01
01
00
fe
00
fd
02
02
01
00
fe
ff
fe
02
00
01
01
fd
fd
02
02
00
ff
fe
fd
00
03
01
00
fe
fc
fc
00
03
fd
fd
fe
f8
fd
00
fe
fb
ff
fd
fd
ff
ff
fc
fd
fc
f9
fb
fb
fc
fc
00
fc
fe
03
01
fb
fd
00
fd
00
fc
fd
fe
fe
ff
fe
fc
00
fb
fe
02
00
00
fd
01
04
ff
01
ff
fc
fc
00
01
fe
fe
fd
fc
fc
00
fb
00
fe
ff
fd
fe
ff
03
fe
fd
fe
ff
ff
fe
ff
fd
fc
fe
fd
fe
00
fb
ff
fd
ff
ff
ff
00
02
00
ff
00
ff
ff
01
fa
fe
ff
01
00
ff
02
00
fe
03
01
00
ff
ff
ff
04
00
02
01
01
ff
fe
04
02
ff
01
ff
fe
00
02
02
fd
01
00
fe
fe
00
00
fe
ff
ff
01
fe
00
00
fd
01
00
01
00
ff
02
ff
ff
00
fe
fd
ff
00
fe
00
02
00
fd
fd
01
fe
ff
00
02
fd
fd
ff
ff
fe
fe
ff
01
f8
fe
ff
ff
fe
00
00
02
ff
ff
ff
ff
00
fe
03
ff
fd
ff
fd
fc
fe
03
fd
f9
fb
f8
fd
ff
fc
fe
f9
fe
f9
fc
fc
fb
fc
fb
fe
fc
fb
fa
fa
fe
fc
fe
fe
03
03
00
ff
fe
fe
fd
01
00
fc
00
fd
ff
fe
ff
00
fe
00
fe
fc
fd
ff
01
01
00
00
fb
fe
00
01
02
02
01
fd
fd
00
01
00
ff
ff
fd
fd
00
03
ff
01
00
fc
fb
fe
fe
fd
02
fe
ff
fd
00
ff
fd
00
ff
ff
fd
01
fd
fd
fd
00
01
fe
02
fe
00
fc
ff
00
ff
01
ff
01
ff
01
ff
00
00
fe
fd
fd
01
00
fe
ff
fe
00
fe
02
01
ff
00
fe
01
fe
ff
00
fe
01
fd
03
00
00
00
ff
00
ff
f9
ff
00
fe
ff
fe
fc
fc
ff
fe
fa
ff
01
fc
fd
fd
fb
f8
00
02
fe
fc
fa
fb
f8
00
02
ff
fb
fa
f8
01
00
01
ff
04
f8
f8
01
00
00
fd
fd
03
fc
ff
00
fe
fc
00
06
fb
ff
02
fb
fe
00
00
fd
fd
fc
ff
ff
00
ff
fd
f9
01
fc
fe
ff
04
fc
fe
03
03
00
00
fe
ff
01
00
02
01
fd
00
01
ff
01
02
ff
00
00
00
ff
01
01
01
00
02
02
fe
01
03
00
ff
03
03
fc
ff
fe
fd
00
02
00
00
fd
fe
fe
fe
01
01
fe
fd
fc
00
fd
ff
03
ff
fc
fa
01
fe
01
00
00
fd
fb
01
fd
00
00
fe
ff
fb
ff
fe
fe
01
00
ff
fb
fd
00
fe
01
01
ff
fc
fd
fe
fe
ff
ff
fe
fd
00
fd
fd
01
00
00
00
00
fc
fe
00
ff
00
ff
00
ff
fe
fd
ff
01
01
ff
02
00
fd
fe
ff
ff
00
02
ff
fe
ff
00
01
ff
ff
00
fe
ff
00
02
00
ff
ff
fe
ff
ff
02
02
fe
00
fd
ff
ff
01
01
ff
00
fc
fe
ff
ff
02
00
ff
01
00
ff
01
02
01
00
fd
fd
ff
ff
03
fe
fd
ff
fd
fe
ff
04
00
fe
01
01
00
fb
02
ff
00
fb
fd
02
fd
00
01
fe
02
ff
04
ff
01
00
fd
fe
fd
02
01
03
04
01
ff
fb
01
00
01
03
fb
fe
fe
00
02
01
00
fc
00
fe
fd
01
00
fd
01
ff
ff
00
ff
fe
fd
00
00
02
01
fe
04
fb
00
00
00
ff
fe
01
fd
00
00
02
01
ff
01
01
ff
00
02
00
00
01
fe
ff
00
00
ff
00
01
fe
00
fe
00
fe
fe
fd
fe
01
01
fe
fd
fd
fe
ff
01
01
00
fe
fd
f9
00
fe
00
fe
fd
00
ff
00
fc
ff
fc
00
fd
03
ff
fe
00
fc
fe
00
ff
00
fe
fe
fc
00
00
01
00
00
fe
ff
ff
01
01
fe
fe
00
ff
01
ff
fd
fa
fe
01
00
fe
01
00
ff
fe
00
00
ff
ff
01
00
fe
02
00
01
02
00
02
ff
01
01
01
ff
ff
02
fe
00
03
01
01
03
fe
00
02
00
01
03
01
fd
fc
04
02
fc
fd
00
ff
ff
fd
f8
01
fa
ff
02
03
ff
ff
00
03
ff
04
fc
fd
ff
01
ff
02
fb
fe
fe
ff
00
00
00
02
fd
ff
ff
ff
00
01
00
ff
ff
fd
01
ff
ff
fd
fe
fe
fe
00
01
00
f7
ff
fd
00
00
01
01
fb
fc
fe
ff
00
00
00
fa
fb
ff
ff
03
01
ff
00
fe
00
00
02
01
02
00
fe
01
00
01
01
00
fd
01
01
01
03
02
ff
00
02
fd
02
00
00
ff
00
03
fe
00
02
00
00
ff
04
01
02
ff
fd
00
fe
04
02
01
ff
fe
01
01
01
02
00
01
fe
01
01
00
03
00
fe
ff
00
01
00
01
01
ff
fe
01
fc
02
01
ff
00
fd
00
fe
02
01
01
fd
fe
01
04
01
00
fe
fd
fa
01
02
03
01
fd
fd
fb
00
02
01
03
fe
fb
fd
01
fe
01
01
00
fc
fd
03
00
00
fc
f9
f6
f8
01
ff
fe
fb
fd
00
f9
02
ff
01
fe
00
00
04
01
00
02
00
01
fd
01
01
fe
03
ff
01
00
01
fd
fc
03
ff
02
01
00
ff
fe
06
02
01
ff
00
ff
ff
02
01
01
00
01
00
01
04
02
fe
fe
ff
ff
ff
02
00
fe
ff
00
01
ff
01
01
fd
fe
00
fd
ff
01
00
01
fd
ff
fd
fd
00
00
ff
fd
fc
fd
ff
00
ff
ff
fc
fd
00
fd
02
fe
ff
fc
fd
02
ff
03
01
ff
fe
00
02
fd
01
02
ff
fe
01
00
fe
02
00
02
00
01
00
fe
02
01
00
ff
03
00
fe
03
01
ff
01
ff
01
ff
02
03
fd
00
fe
00
fe
00
01
00
ff
fe
fe
fe
fe
02
01
fe
00
fe
fe
fa
02
00
ff
ff
ff
ff
fe
01
00
fe
ff
fc
fe
fe
ff
fc
fc
02
fc
00
fe
fe
fe
ff
ff
fb
ff
ff
fe
fc
fe
fe
fe
00
ff
fd
fe
00
fd
00
00
ff
ff
fe
ff
fd
00
00
ff
fe
00
fe
03
00
00
03
00
04
02
ff
01
fe
01
00
fe
fe
00
fe
00
01
00
00
01
00
00
00
fe
fd
fe
fe
00
02
01
00
00
fe
00
ff
ff
01
01
fe
ff
00
ff
03
01
01
fd
01
00
01
fe
02
00
fd
00
fe
ff
ff
04
00
fe
fe
00
fe
fb
02
ff
fe
fe
00
fe
fa
00
ff
ff
ff
02
fe
fa
fd
00
00
fe
fe
01
fb
ff
01
ff
ff
fe
ff
01
fd
00
00
fe
ff
00
fe
fa
02
01
ff
01
fe
fc
fb
02
01
fd
01
ff
fc
fd
02
01
ff
ff
ff
fd
02
ff
03
00
00
ff
fd
04
00
03
03
00
fe
fd
03
00
03
02
ff
ff
00
02
ff
02
02
ff
ff
00
00
ff
01
00
ff
fd
fa
fe
fd
01
ff
00
ff
fd
ff
fc
fd
00
02
fc
fd
fe
fa
fe
00
00
fa
fe
01
f9
ff
02
fd
fd
ff
00
fe
fe
fd
fd
ff
ff
00
01
ff
ff
ff
06
ff
fd
03
ff
00
fe
ff
02
fd
00
00
00
fe
00
fd
ff
00
ff
fd
00
00
fd
ff
01
fe
fe
fe
ff
00
01
fe
ff
fe
ff
ff
ff
fe
fc
fa
fa
ff
01
ff
fd
fb
f9
f8
00
02
f9
01
fd
fb
fb
00
01
fb
fc
fb
fd
fd
00
01
fc
fd
fc
fc
fe
02
01
ff
fb
fc
fa
fe
03
ff
fe
fb
fa
fc
01
02
01
ff
fc
fb
fb
fe
01
ff
ff
fc
fc
fc
01
01
00
01
00
00
fd
00
02
00
00
01
ff
fa
01
02
00
01
02
fa
fb
00
02
00
ff
00
f9
fe
ff
00
fd
ff
fd
fc
fe
01
ff
00
01
fe
fe
ff
00
fe
00
00
ff
fa
ff
00
00
fe
fe
ff
f7
ff
02
ff
00
f9
ff
fa
01
00
fb
00
fb
fe
fe
fc
f8
ff
fa
fd
00
ff
fd
ff
fe
01
fe
ff
ff
ff
00
fe
ff
ff
00
00
00
ff
00
ff
ff
ff
ff
fe
fd
ff
ff
00
fe
fe
fc
fd
fd
fe
ff
ff
fb
f7
fd
f8
03
ff
ff
fe
fe
00
fe
fd
fb
fd
fd
fd
fe
ff
fd
f8
02
ff
fe
ff
ff
ff
fa
04
01
00
ff
fe
00
fd
05
02
01
00
ff
00
ff
06
00
ff
ff
02
00
ff
05
03
00
ff
02
02
fd
03
ff
fe
fc
01
01
fc
00
ff
fe
02
01
01
fd
00
fc
ff
02
02
02
fd
03
fe
fc
03
ff
00
fe
01
ff
ff
ff
00
01
fe
00
fe
00
01
ff
01
ff
ff
00
01
fe
ff
01
00
02
00
ff
fe
fe
01
00
02
ff
ff
ff
ff
ff
02
02
ff
fd
00
fe
ff
03
04
02
00
02
00
ff
03
02
01
00
ff
ff
ff
01
00
fd
01
02
00
ff
01
00
ff
00
02
01
ff
fe
ff
01
02
ff
01
fe
fe
ff
02
03
02
01
fe
fe
ff
fd
03
ff
00
00
fe
00
fd
02
ff
01
04
fd
ff
ff
fe
fe
fe
ff
00
00
fe
fe
fc
fe
fd
00
fd
fa
f8
01
f9
03
00
fd
01
ff
02
00
fc
fd
fd
ff
fd
01
ff
04
fc
fd
02
00
01
ff
00
fd
fe
01
01
01
fe
01
fe
00
00
ff
ff
ff
fd
01
ff
fe
01
00
ff
fd
fe
ff
fd
ff
01
00
00
ff
01
fe
ff
fe
02
01
00
01
fe
fd
fe
00
01
00
02
fe
02
fd
02
01
02
01
fe
ff
fc
01
ff
03
00
ff
00
fd
00
fe
ff
00
ff
ff
fe
00
00
fb
00
ff
fe
fe
ff
00
fa
00
00
fd
ff
fe
00
00
03
fe
fe
01
fd
00
03
01
fe
ff
ff
00
fe
ff
00
ff
fe
ff
00
fe
03
fe
00
fd
fe
ff
ff
ff
ff
00
ff
00
00
ff
00
ff
ff
fe
00
fe
fe
fd
00
02
00
ff
fe
ff
fd
01
01
fe
ff
00
00
ff
00
ff
ff
00
00
01
ff
ff
00
fe
01
01
02
ff
ff
ff
fe
fd
fd
fe
00
fe
fb
f9
fb
fe
fb
ff
fe
f7
f6
fe
f5
04
fd
f9
ff
ff
00
ff
fc
f9
fd
00
fe
ff
00
01
f7
00
02
01
04
ff
00
fc
00
00
02
01
01
00
fb
01
02
02
00
ff
00
fe
01
02
01
ff
ff
ff
00
00
00
01
02
02
01
fe
03
00
06
00
00
ff
ff
03
02
00
00
fe
fe
01
04
02
ff
fd
fe
00
02
02
ff
01
fa
ff
ff
ff
ff
fd
01
f9
00
00
fb
05
fd
ff
fb
01
00
ff
01
fc
00
ff
00
fd
ff
03
fd
fe
ff
ff
00
03
06
01
fe
fb
02
ff
01
05
fe
fe
fd
00
01
02
00
fa
00
fd
fe
fd
02
fb
fd
fe
ff
01
00
ff
fc
00
f9
fe
fd
fe
fe
02
fb
f7
fd
fd
ff
fd
04
fd
f6
fd
ff
00
fe
ff
fb
fa
01
ff
00
fe
ff
fc
fb
02
ff
03
fe
ff
00
03
01
04
00
fe
ff
ff
fc
f8
fa
fe
ff
00
fe
01
01
00
01
fd
fe
ff
01
00
00
ff
00
fc
01
fd
00
00
fe
00
fe
01
fd
ff
00
00
00
fb
ff
fd
fd
00
fe
00
fe
ff
fd
fe
ff
ff
01
fd
fd
fe
00
ff
ff
00
fb
fe
00
fe
00
ff
ff
f9
ff
00
01
00
01
00
f7
01
01
01
fe
01
00
f7
00
02
01
fe
00
00
f7
ff
00
02
00
ff
01
f8
ff
01
ff
fe
fe
01
fb
00
ff
01
ff
fd
fe
fd
03
fe
ff
fe
fe
ff
fe
00
00
ff
00
fd
ff
fe
ff
00
fe
ff
ff
02
fc
fe
ff
ff
00
00
02
fc
00
01
ff
00
00
01
fd
01
02
ff
00
01
fe
fc
00
02
01
ff
ff
fc
fd
01
02
00
ff
00
fa
fc
01
00
ff
ff
01
fb
fe
00
00
fd
00
ff
fc
00
fa
fe
ff
ff
fe
fb
ff
fb
fb
00
01
fd
fc
ff
fc
f9
00
ff
fe
fd
00
00
fc
f9
fe
fe
ff
fe
ff
fe
01
00
04
fa
ff
00
fe
ff
ff
fc
ff
fb
fc
ff
ff
fd
02
01
fc
fe
00
ff
ff
00
fe
fc
00
ff
00
02
ff
ff
fd
01
00
ff
00
ff
01
02
00
01
ff
fe
ff
fc
00
02
03
02
fe
00
fd
00
00
00
00
ff
ff
04
ff
01
01
00
fd
01
fe
02
00
01
00
fe
01
fd
03
ff
fe
00
ff
fe
01
00
fe
ff
00
01
00
fe
fc
fe
fe
ff
01
00
fb
fa
fe
fd
00
01
00
fa
fc
00
fd
ff
01
00
f5
00
fe
fe
00
ff
fe
fa
fd
00
ff
00
fd
ff
fc
ff
fd
00
00
fc
00
fd
00
00
01
ff
ff
00
fd
00
01
02
ff
00
fe
fc
02
01
00
00
00
00
fb
03
00
fe
ff
02
00
fa
01
fd
ff
ff
00
00
fa
fd
fd
ff
02
03
fd
fb
f8
ff
01
01
fe
fb
fd
f8
fc
00
fd
ff
fd
fe
00
00
f7
f7
fc
f9
fc
fe
fb
00
01
01
01
fd
fd
fd
00
01
00
fe
00
fa
ff
00
ff
ff
00
00
fd
01
ff
ff
00
fe
00
fc
ff
ff
00
ff
01
ff
fe
00
fe
00
01
01
fe
fe
ff
fe
00
00
00
02
fa
ff
fe
fd
00
01
00
fe
fe
ff
01
fe
02
01
fd
01
ff
02
fe
ff
00
fe
ff
00
02
ff
00
ff
f5
ff
01
ff
ff
ff
fe
f9
00
02
fe
00
ff
fd
00
01
ff
fe
00
00
fe
ff
ff
00
ff
01
02
fd
fb
ff
fd
fc
02
01
fd
fa
fe
fd
fd
03
ff
fd
ff
fc
fa
00
00
ff
fd
ff
fc
fc
ff
00
ff
fc
00
ff
fe
ff
fe
fe
fa
fb
ff
01
01
fd
fe
fb
ff
fe
ff
ff
00
00
fd
f8
fe
02
00
ff
fd
fb
fa
00
02
00
fd
fb
fc
ff
fb
02
f9
02
fc
fb
ff
fe
fe
00
f8
fd
ff
00
ff
fb
fe
fc
ff
ff
00
03
fe
fe
fd
ff
00
ff
fe
fe
fa
f9
fb
ff
00
fd
fb
00
00
fe
fd
ff
fc
fc
ff
ff
ff
fa
ff
fd
fd
fe
ff
00
fb
fb
fc
fa
ff
ff
ff
fc
fb
fa
f7
fe
00
01
fd
f9
fa
fa
fd
00
ff
ff
f9
fe
fe
fd
00
ff
ff
fb
ff
ff
00
ff
fe
fe
fe
00
01
00
00
ff
ff
01
00
01
00
ff
fe
00
02
01
01
fd
ff
00
fc
fd
02
01
fe
ff
00
fb
fb
ff
01
fe
fe
00
fd
ff
ff
00
fe
ff
00
fb
00
00
00
fe
fe
ff
fc
fc
fe
ff
fe
01
ff
fd
fd
00
fe
ff
00
fe
ff
f9
ff
fc
ff
ff
fe
ff
fc
00
fe
ff
ff
ff
01
fb
01
fe
00
00
00
02
fa
fc
ff
00
01
00
01
fa
fb
01
00
01
ff
02
fc
fe
01
02
00
02
00
fc
ff
ff
00
01
01
ff
ff
00
00
00
01
01
00
ff
03
02
fe
04
04
02
01
01
fe
ff
ff
ff
ff
00
00
fc
fa
fd
fe
ff
fe
fe
f9
01
00
fa
fe
fd
fc
fe
fa
fe
fb
fe
fd
fb
fd
00
01
ff
fb
fd
fa
00
fd
00
fe
f7
fc
fe
fe
fe
01
fe
f9
fa
00
fe
ff
01
02
f8
fc
03
ff
00
00
02
fc
ff
02
01
00
ff
ff
f8
fe
03
01
00
01
fd
f8
fe
01
01
00
01
fd
00
fe
02
02
03
00
ff
f8
ff
01
00
03
fe
00
f7
02
00
00
02
00
ff
fd
03
ff
01
00
02
ff
fb
02
ff
02
01
00
00
f8
ff
ff
00
00
00
fe
fb
fd
ff
00
01
00
fe
fc
fc
fe
00
00
00
fe
fa
fc
fe
fe
ff
00
01
01
fd
fe
fe
ff
00
01
fd
00
fe
fc
ff
00
00
00
01
ff
fd
01
00
00
00
01
00
00
fe
01
00
ff
01
01
ff
ff
fd
00
00
ff
01
00
01
00
fe
00
fd
02
ff
01
04
00
ff
fe
ff
ff
fd
fd
01
ff
ff
ff
fb
f3
f9
fa
00
ff
f9
fd
02
00
fc
fc
fd
fb
ff
02
01
fd
f7
fd
ff
01
00
01
01
f9
fb
ff
00
00
01
fe
fe
f8
ff
fe
ff
02
01
fd
fc
fe
fd
01
00
00
fd
ff
fe
fe
00
00
fe
fe
ff
fd
fc
fd
01
ff
fd
fe
fe
fe
fc
ff
fe
fd
01
fd
01
fd
ff
ff
fc
00
fe
03
fe
fe
fe
f7
fa
fd
01
ff
fd
fc
f8
fa
fb
02
00
fd
fd
fa
f7
fe
02
fd
fd
fe
f8
fa
ff
03
fe
fb
fe
f9
f8
fe
03
ff
f9
fe
fb
f6
ff
02
00
fb
00
ff
f7
fe
01
fd
fa
00
01
fa
ff
ff
00
fe
ff
02
00
01
01
00
fd
ff
ff
f7
00
00
01
fe
01
ff
fd
ff
ff
fe
00
01
00
f7
fe
fb
00
ff
00
01
03
ff
fd
06
00
02
ff
00
04
06
ff
01
03
00
00
00
00
03
fd
01
ff
00
