1f
0b
f3
24
f4
f8
ff
fb
0c
00
2b
1c
d7
ec
28
00
2b
20
28
00
a7
e8
10
20
f8
e4
0c
1c
24
ff
bf
f0
40
17
13
03
e3
e7
e3
20
1c
ec
db
c4
e0
28
28
0c
08
00
00
f3
eb
d3
dc
e7
43
e8
18
28
24
e7
cb
0c
ff
17
d7
44
1c
dc
18
38
db
1b
00
fb
fb
e3
3c
40
70
18
f4
08
14
33
1c
dc
f4
14
9f
f8
5c
30
24
0c
03
1c
f4
f3
ef
eb
eb
f3
ff
0b
08
ef
f7
ef
fc
fb
df
0b
0c
00
fb
0f
00
0b
ef
0b
f7
f7
07
e4
ef
0b
03
f8
eb
e7
f0
03
e7
ef
f7
eb
08
f8
f4
0b
cf
f3
e3
eb
f8
07
eb
f3
03
eb
13
e3
08
ff
ef
ec
f0
13
f4
1b
f4
03
f8
00
ff
0f
fb
0f
00
1c
e7
fb
0b
f7
04
10
fc
fb
1c
eb
0b
0f
03
07
00
f8
08
07
fb
f0
03
08
04
0c
08
04
db
00
fc
08
f0
10
0c
00
04
ff
10
03
08
03
07
0f
ff
10
0c
ff
00
18
fc
1c
04
17
08
08
f8
03
0f
14
08
f8
f8
08
04
00
03
04
0c
18
10
03
fc
04
08
07
f0
04
0c
10
eb
0f
13
fc
e8
07
13
08
0c
f8
0f
03
0c
f8
ff
18
fc
08
04
17
f4
04
00
fb
14
00
0f
08
03
ff
ff
fb
db
03
28
10
fc
03
f7
f7
03
ef
00
04
0b
00
f8
e7
f3
ef
f3
07
0f
1b
08
f4
ef
ef
ef
f8
ff
f3
04
00
f3
e3
f7
eb
f3
df
f0
ff
00
d7
db
e3
f3
e3
df
fc
03
fc
d7
e7
c7
d7
e7
eb
ff
f7
03
f7
d7
d7
d3
db
df
ff
f8
03
e3
e3
df
df
d3
ef
f7
03
18
fc
e8
e7
e7
d7
eb
ef
03
03
db
07
f7
0c
0b
f7
fb
f0
1c
1c
f4
0c
0b
e7
08
18
e3
0b
f0
f3
ff
14
04
eb
f3
fb
f7
ec
eb
03
ff
fc
0b
f3
eb
e3
df
0f
f3
f3
f7
0b
04
fc
eb
1b
03
00
f4
ef
f4
08
0c
fb
d7
eb
10
0c
08
00
14
08
10
ec
18
03
0b
00
08
00
14
10
f4
1f
03
18
04
fc
fb
ff
0c
07
df
00
08
0c
fc
ff
f8
04
04
e8
10
fc
00
fb
f8
08
03
07
fb
27
f3
10
f3
ff
fb
f7
fc
0c
bb
f7
03
f7
fc
df
f3
00
ff
f7
e7
08
04
0f
eb
ef
0c
00
00
f7
0f
0c
08
ef
ef
ff
fc
18
20
ff
0f
04
ef
e7
03
13
ff
fb
f4
fc
04
00
f7
fb
f4
0c
df
f7
04
00
08
f0
03
fc
fc
f4
fc
0c
08
03
ff
f3
f4
03
f0
1b
0b
08
f7
0b
04
f7
fb
f8
fb
ef
0c
07
f7
10
f3
ef
f3
eb
fc
0f
0b
f4
ff
fc
0b
fb
f4
0f
07
f7
03
04
10
08
03
04
e3
e3
fb
f7
ef
07
08
f8
ff
e7
03
f7
eb
eb
07
f8
eb
fb
e3
eb
00
cf
e7
f7
ef
df
db
df
fb
fc
df
e7
d7
c3
cb
e3
eb
03
03
20
14
f3
eb
d7
eb
d3
e3
f7
1f
fb
f3
f7
03
03
eb
eb
10
f8
e8
fb
04
fc
fc
ef
f3
00
e7
20
fb
07
04
03
10
03
03
f7
d3
14
f8
0c
f7
04
00
ef
e3
ef
03
00
07
e8
f3
ec
0c
00
e7
14
ef
f7
ec
07
00
fc
00
f3
24
f3
f7
f7
f7
0c
08
ff
0b
13
08
ef
07
f3
00
00
f0
fb
db
14
eb
f8
00
f7
0c
fc
f8
fb
1c
ef
df
ef
eb
07
f4
f8
07
23
08
e3
f4
f3
07
03
f4
03
db
0c
f8
03
f7
db
fb
0b
f3
f7
f7
13
df
fb
f3
d3
f8
ef
03
f7
00
cf
ef
00
fb
ef
f4
03
d8
f4
e8
e3
ef
ff
e4
fb
ef
f0
f7
00
f3
f8
fb
03
f3
eb
ff
f3
df
f3
f7
ff
fc
08
eb
f8
db
eb
cb
ff
fb
0c
08
fb
07
f8
04
df
f3
ff
00
fb
f3
e3
f7
f7
af
d7
0b
0b
f8
03
ff
ef
fb
df
d3
08
07
10
07
ef
0b
07
f0
db
ff
07
f0
03
eb
e3
f0
fc
d0
e3
10
1c
f7
f8
d3
df
fb
ec
cf
0b
14
f4
c7
db
df
f7
03
f7
f3
14
d8
cf
d7
f3
ff
04
04
fb
f0
ff
f7
f3
f7
f3
00
ec
07
ff
fb
f3
f3
f3
03
00
ff
00
00
f7
04
0c
18
10
f7
0b
0c
d7
cb
0f
0c
07
07
f3
f7
14
07
03
ff
e8
ef
00
e3
eb
ff
04
0c
f7
17
0b
17
10
0c
07
00
10
10
08
04
fc
00
fb
cf
ff
f7
20
18
0c
04
08
08
f0
00
04
18
17
1c
04
03
0c
0c
fb
f7
07
e3
0c
0c
fc
f8
10
cf
e3
14
f8
0c
03
07
fc
0c
f4
08
0b
f7
fb
f7
03
fc
03
fc
07
f3
f8
db
e7
07
0c
f4
13
ff
ec
1c
db
e3
fb
08
0b
fb
e4
ff
1b
e0
ef
f3
08
0c
07
0f
0c
f0
0c
ef
f7
08
0c
08
fb
04
0f
08
f8
f4
1c
04
00
fc
1b
03
14
df
03
14
0c
08
08
f3
fc
10
d3
f7
0f
14
f4
fc
ef
fc
08
d7
ef
f7
1c
03
fc
ef
03
fb
ef
df
ff
10
ff
07
ef
ff
f8
00
d7
ef
fb
00
ff
fc
ef
1c
0f
e8
ff
fb
f4
03
08
00
0c
fc
f4
ff
ff
f0
0b
00
f7
00
f8
04
ff
f4
0c
04
00
fc
e7
0c
03
0b
fc
04
10
10
0c
f8
1f
04
f7
0c
18
fc
04
1b
08
df
04
00
23
08
f7
0c
f7
07
f0
18
00
ff
e4
e4
03
f0
03
07
07
fb
f8
fb
04
fb
04
cf
d3
fb
ff
07
f0
eb
ef
fc
00
f4
f3
fc
04
e3
ef
ff
e3
f7
0f
eb
03
fc
dc
00
00
08
17
0b
ff
e7
0c
ef
14
f3
04
03
e7
0f
08
f7
fc
f8
10
f8
f7
ef
f7
ff
eb
10
18
ff
0c
f3
00
e3
f3
ef
f3
0c
f4
07
04
ef
e3
eb
fb
e3
07
fb
f3
08
f0
fb
f3
f3
d7
ff
f7
ef
ff
03
08
ff
04
eb
fb
f8
f3
ff
f4
10
0c
03
07
d8
0b
ff
04
fc
fb
14
fb
00
e7
e7
e7
f3
fc
ef
0c
04
f8
07
e0
f4
eb
07
f4
08
fc
1c
10
00
0f
00
04
00
0f
f0
0b
e7
ef
fb
10
07
00
f8
04
13
04
04
03
10
ef
fc
13
0c
04
07
03
20
0c
eb
ff
13
20
df
e8
04
f3
f0
04
f7
fc
14
ec
04
18
18
07
0b
eb
f8
fc
04
04
f4
fb
ef
cb
03
fc
f3
17
fc
08
ff
08
eb
07
14
f4
0b
08
10
04
0c
f4
ff
fc
fc
03
08
08
00
00
0c
f7
0c
fc
f7
0b
fc
00
0b
14
e3
18
fc
f8
08
fb
03
ef
07
d0
07
f3
f7
03
ef
07
fc
ff
1c
eb
db
00
03
eb
fb
04
e7
0b
ef
e7
0b
cb
0b
df
f7
eb
fb
08
fb
13
bb
ef
fb
cb
d3
ff
ff
f4
f4
eb
ef
18
28
0c
e8
fb
0f
df
cf
f7
f8
ef
ff
ef
cf
0f
f8
f4
f7
f3
eb
03
ff
f7
db
14
08
f0
f3
f7
f8
f3
fb
f8
07
0c
fc
f8
f7
fb
e3
f8
00
e7
07
08
00
fb
ef
eb
ff
03
c3
03
ff
08
fc
df
e7
fb
f3
e3
f3
04
0f
f8
ef
eb
fb
f3
ef
07
e3
0b
08
eb
f3
e7
fb
ff
f3
e4
e3
10
e0
fb
e4
ef
eb
f8
f8
fc
ff
fb
e7
0b
ff
07
ec
00
ff
08
0b
ff
08
d7
03
0c
f3
ff
00
03
e3
ef
ec
eb
10
f8
fc
f0
ef
03
cb
ff
db
00
f7
00
14
f8
fc
b3
08
df
03
f4
0c
10
18
0c
d3
ff
e7
fb
00
04
07
0c
fb
f7
e3
e3
03
14
07
ff
db
f7
08
e3
f0
f3
0b
04
04
cf
03
fc
04
e7
ff
00
04
00
fb
00
04
0c
f4
07
04
08
07
fc
0f
00
04
04
ff
04
10
f8
0b
f3
18
0b
00
f3
fc
14
f7
0b
e8
d8
f3
df
03
20
0c
08
e7
00
f3
e3
df
f3
ff
00
08
eb
20
fb
d7
d7
33
0c
eb
10
00
07
f4
eb
ff
d7
27
0c
d3
db
df
fb
f7
ef
07
e3
c7
00
e4
0b
03
07
04
f7
07
df
eb
f3
fb
f4
fb
f8
f8
20
03
08
ff
ef
0c
ff
f7
fb
f4
10
f3
fc
e4
10
03
fb
ff
00
10
0f
07
ef
ef
fb
03
f4
10
08
fc
ff
f7
ef
fb
00
0f
07
ef
04
fb
fb
fb
fb
17
eb
04
fb
fb
fb
00
03
07
fb
fb
17
df
ef
fb
03
f8
f7
eb
ec
f0
eb
f3
ff
0c
0c
07
ff
17
07
dc
f3
08
0b
00
00
08
04
eb
20
f3
ef
07
0c
17
08
04
07
03
f3
03
00
fc
00
08
08
00
e3
db
e3
f7
f7
07
14
10
18
ff
eb
d3
ef
ef
0b
0c
08
10
e8
00
eb
db
df
fb
03
0c
00
04
f7
eb
db
f7
03
fb
0c
fc
18
ef
e4
e7
e3
ff
04
08
00
fb
04
1b
ff
eb
fc
fc
08
08
f3
0f
ff
0b
f3
03
0b
f8
0b
fb
eb
ff
f8
08
03
fc
f8
00
fb
fb
fc
0b
10
13
f8
ec
0b
fb
f7
0b
00
08
10
08
fb
fb
f3
ef
df
04
0c
10
08
03
03
fb
f0
fb
ff
08
14
08
f3
03
f7
00
f3
f3
fb
f4
04
f7
e7
07
fb
eb
0b
04
fc
03
e7
e7
d7
f3
eb
fb
0b
f7
e3
cb
e7
db
e7
df
f8
00
ff
df
df
d3
cb
d7
d7
00
0f
f4
ef
db
b7
df
ef
e3
e7
ef
ff
03
13
1b
0b
04
0b
0b
18
00
08
f4
eb
e8
08
fc
bc
04
ec
ef
f0
24
08
17
0c
e8
e7
ff
ff
eb
eb
10
14
10
f7
10
f8
f3
d7
0f
0c
fc
0b
08
0c
e3
04
e7
f3
08
0b
f4
0c
08
08
13
e4
f0
fb
0b
ff
00
00
0c
f3
f7
0c
04
00
04
0c
08
04
df
07
13
0c
f4
f7
fb
f8
ff
e8
fc
e0
0c
fb
07
fb
ef
fb
0b
0c
03
ec
fb
f7
ef
eb
03
f8
f8
18
03
ff
fc
e8
f3
e7
f3
00
04
c8
ff
f3
0c
db
df
e3
f8
04
20
f3
ef
f7
df
df
f7
f8
f7
14
f7
ef
fb
eb
e3
eb
ff
18
20
f0
03
00
f7
df
fb
f7
0c
14
1c
f4
03
04
f3
fb
04
08
10
28
24
0f
04
0c
03
08
07
0c
00
1c
18
08
fc
00
08
08
18
ff
10
04
08
14
0f
00
18
07
0c
fb
20
00
0c
04
08
00
04
fb
f4
2c
18
00
0c
00
fb
04
03
07
0b
0c
08
0c
14
fb
03
ef
0c
00
18
0c
0c
08
04
fb
ef
fb
fc
27
ef
08
04
08
f7
d7
ef
fb
fc
d7
03
07
08
fc
df
fb
fb
03
cf
eb
ef
03
fc
eb
e3
f7
f7
f7
b7
e0
c7
fb
df
df
f3
e7
0b
ff
0c
28
24
fb
f4
fb
f7
0c
ff
f0
ff
08
08
10
f3
ef
04
f7
df
13
00
0c
04
fc
eb
db
03
db
ff
fb
0f
00
04
fc
f7
f7
e7
f3
10
08
0b
00
08
ff
df
e8
07
04
f0
00
08
f4
f0
f3
30
f7
00
f8
04
08
00
fb
ff
ef
ef
fb
f7
04
fc
00
04
ff
ff
e8
df
04
10
04
10
ff
ff
ff
ff
03
10
03
fb
18
08
fc
07
04
db
18
08
03
0c
0c
f4
eb
0f
f0
f3
0c
f8
0c
00
fb
07
08
0c
f7
04
10
0c
08
f0
eb
0b
18
07
18
10
0c
00
08
eb
03
18
f0
04
f8
03
fb
08
ff
03
0c
20
08
03
f3
fb
13
00
13
04
0c
08
fb
ff
f3
ff
0b
f7
20
10
e4
08
08
e3
ef
f7
04
04
04
1f
0c
ff
f7
ff
f7
f7
0c
20
0c
20
fc
ef
eb
03
24
20
10
f8
f8
14
df
df
f7
04
1c
18
fc
00
20
df
e3
f3
03
14
18
14
0c
dc
b7
eb
fb
fb
0c
14
10
14
fb
cf
d3
df
f3
0c
2c
08
ec
00
ef
17
0c
03
13
34
24
14
07
03
03
cb
0c
08
24
28
00
f3
08
fc
fc
e7
cb
f7
d3
fb
f3
0b
f4
00
e7
df
f7
e7
f3
ef
03
03
ff
e7
ef
ff
f4
e3
df
e7
0b
eb
03
28
07
f3
f3
0b
d3
ff
ff
00
14
fc
e0
07
fb
f4
d7
03
14
07
ff
f8
ff
ef
fb
ff
ff
04
03
fc
0f
0b
f8
f4
ff
d0
18
e7
0c
ff
04
00
fc
ff
24
08
f4
fb
03
ec
08
fc
f0
04
fb
f3
f7
e7
ef
08
13
14
13
a4
00
0f
f3
d7
fb
fc
04
14
00
07
e0
f7
ef
ff
f3
08
0c
10
e7
1f
e7
df
ef
f3
04
08
0c
ff
f0
d8
ef
e7
f3
ff
f8
04
bc
f8
e0
fb
ff
d3
f7
0b
ef
0f
ff
f4
f7
04
e3
f3
f8
f0
eb
d3
fc
d7
f4
e8
0b
07
fb
e7
08
0b
ff
08
ff
ff
f8
07
f3
0c
ff
f0
f8
03
fb
00
ff
f8
13
dc
0c
03
f7
f7
10
fc
f8
0b
04
0b
00
ef
03
03
03
00
08
00
07
ff
ff
fb
e3
eb
08
03
08
c8
0c
03
ef
e7
f7
00
08
08
10
18
fb
f7
f3
eb
f7
0b
08
08
f3
f8
e3
f3
eb
07
ff
04
08
e7
24
f0
e7
e7
fb
fb
00
07
00
f7
17
f8
f3
f4
f3
0c
fc
0c
03
f8
df
fc
04
f8
0f
08
03
0b
0c
f4
f3
03
1c
0b
f4
07
db
08
04
ef
fb
0b
e8
00
ef
df
fc
fb
df
fb
f7
ff
e3
d3
ef
fb
00
07
30
0f
fb
f7
18
eb
ff
0c
13
f8
0b
14
18
f7
fb
df
f7
0f
10
00
0c
0c
04
eb
e7
f3
18
14
fb
fc
1c
10
ef
bf
e3
17
f8
f3
fc
03
0c
07
03
bb
07
00
03
08
0c
04
08
fc
f0
d3
0c
0f
00
f8
08
04
fb
f7
13
0f
f0
07
fb
03
ff
ef
eb
ec
ff
0b
04
03
f7
fb
fc
fb
db
d7
0c
ff
03
04
f8
03
00
f3
e8
0b
00
f8
fb
04
00
08
ff
07
e3
ff
ff
f4
13
00
18
08
d3
fb
f7
ff
07
14
14
10
14
04
db
e3
e3
ff
08
14
00
00
eb
df
fb
e7
ef
fb
10
08
f7
f7
d3
f3
df
ef
fb
14
0c
f3
fc
08
07
eb
f8
e7
03
08
f3
07
0b
03
f7
f3
f3
fb
04
eb
fb
ff
fb
e3
fb
f7
ef
ff
f3
f8
f8
fb
eb
03
ec
fc
fc
ef
e8
ff
f7
ef
d7
f3
fb
04
f3
ff
00
ef
ff
d8
e3
ff
07
f0
f7
ff
f0
f7
e7
ff
f3
ff
08
fc
ff
f8
fb
ef
0b
08
fc
10
03
03
0c
08
18
f8
10
14
08
10
14
08
0c
f3
ef
18
08
08
10
10
0c
0c
eb
0b
00
f7
1c
fc
10
14
f0
f7
ef
07
f8
df
d7
f7
ff
e8
df
c7
eb
ef
ef
24
08
fb
03
f8
08
eb
03
0c
04
fc
00
fb
04
07
f7
df
1c
00
f8
07
14
04
f8
07
ff
0c
00
f4
0b
0c
04
f4
f0
0b
13
0c
f4
14
00
08
f8
f3
f7
90
10
04
04
0c
08
08
03
f4
08
00
10
07
10
10
fc
ff
f7
0b
0b
04
00
f4
08
08
03
fb
f7
e7
07
07
fc
00
04
f4
e7
ff
bf
ef
18
0c
f7
f7
f7
00
e7
f7
f3
07
00
f0
03
ff
03
ff
eb
d3
00
0c
fb
f7
0f
0c
0c
eb
ef
04
1b
10
e8
07
00
04
fc
f7
0b
0b
00
f8
f7
08
0f
0b
f7
d0
00
08
18
fb
fc
14
fc
fb
f8
0b
14
0c
f8
fc
0f
0c
f7
fb
13
fb
10
00
04
10
04
f3
f3
cf
07
18
10
08
20
08
03
ef
f8
e8
13
0c
0c
08
10
f0
f4
03
17
f4
0c
fc
f7
0f
04
07
f3
db
0c
1c
08
f4
10
fc
fb
e3
e3
2c
28
0c
04
14
04
ef
c7
e7
e7
f8
1c
10
ff
fc
d3
e7
07
00
e7
27
30
08
e7
e7
ef
df
f8
03
cb
1c
00
00
b7
d8
d7
e3
00
03
d7
d7
eb
a7
08
d3
f7
03
fc
08
e3
f3
f3
e4
e3
f7
f0
07
e7
fb
db
e7
eb
db
d3
f7
f7
df
e3
eb
ef
f3
e3
e3
d7
ef
f0
df
e7
cb
f3
eb
ef
10
14
03
eb
f3
ff
03
ff
07
03
00
ec
f3
e3
e4
f7
f8
04
ff
08
18
fb
07
08
10
0c
04
04
0c
00
fb
e7
0f
28
1c
08
10
08
f8
0c
fb
03
24
2c
14
0c
04
00
10
f3
0b
08
04
2c
14
08
04
07
f7
fc
0f
20
0c
14
04
00
07
f8
0f
04
0c
0c
10
14
0c
f4
e3
f3
03
03
08
04
17
14
04
f7
ff
f7
08
fc
10
00
08
04
eb
ff
f8
13
04
08
ff
f8
08
f8
0f
08
04
0b
fc
f0
10
00
eb
ef
ff
17
fc
fc
f8
07
0c
fb
ef
f4
fc
f0
08
fb
eb
fb
04
f3
0f
eb
08
04
ff
ef
ef
03
03
fb
d3
df
ef
e4
07
f7
f7
0f
eb
03
e7
f3
f3
ff
0c
ef
ff
ff
df
e3
e3
e3
fc
00
08
07
f8
e7
ef
df
e7
0c
08
07
f4
0b
f8
ff
f7
df
0c
08
0c
08
ff
00
ef
03
e3
08
0c
10
10
08
0c
f4
00
f7
0f
13
00
04
04
08
f4
07
ff
14
f8
1c
08
fb
f3
fc
fb
00
17
14
00
03
eb
f0
ff
e3
f8
00
18
ef
fb
07
0f
c7
f7
03
e0
f3
f3
03
e7
eb
e7
ef
03
fb
f7
ff
f7
e3
fc
fb
e7
df
db
ef
ef
03
07
e7
e7
18
0c
f8
eb
ef
eb
f3
f7
03
f3
08
f7
f7
fb
eb
0b
f7
fb
fb
04
df
df
f3
10
07
18
f4
f7
0c
08
04
ff
08
ef
f3
ef
e3
ff
04
04
f3
14
ef
ef
e7
e3
f3
f4
db
08
0c
eb
fb
ef
f8
0b
fb
00
04
ff
eb
ef
ef
ff
f8
ff
08
07
ec
db
eb
f7
ec
f4
14
08
db
1b
f3
ef
ff
f7
08
13
00
14
ff
f8
fb
00
14
f3
ff
0c
04
e3
f3
07
10
04
04
fb
20
14
04
f3
07
18
0c
04
fc
03
f8
fb
fc
10
04
08
00
0c
0c
fc
ff
03
20
0c
fc
ef
0c
08
fb
ff
00
0c
0c
14
ec
f0
00
04
f4
fc
0f
08
04
fb
ff
0b
fc
0c
03
db
04
ff
00
ff
0b
04
14
f4
03
13
04
f8
ff
f7
03
08
f3
e7
07
fb
04
f4
f3
00
10
f8
f0
e7
e8
04
ff
ff
ff
fb
08
00
ef
03
e7
ff
fb
fb
ff
f3
f8
03
03
d3
f7
e8
ff
eb
f7
00
e7
f8
17
04
fb
eb
fb
03
f7
f8
f7
ff
14
e7
ef
f7
ff
db
e7
fb
00
1c
ec
f3
ef
ff
c7
df
f7
03
e4
eb
eb
d7
f7
c7
b7
df
e3
df
d3
e7
df
ef
fb
e3
df
cf
ff
d3
f7
f7
e3
f7
f7
07
00
0c
03
eb
ff
db
f3
ec
fb
fc
00
f7
ff
04
e8
f7
e7
eb
ff
0c
fb
ef
04
ef
e7
eb
ef
f7
04
08
0c
08
ff
0c
df
eb
f3
00
0c
08
07
00
0b
ff
e7
e7
03
08
ec
00
fc
f8
eb
f3
eb
f7
f4
18
ff
04
08
fc
e7
db
ef
fb
f7
0b
1b
10
f0
eb
df
f7
07
f7
f3
ef
00
0b
fb
f3
ef
03
00
ef
eb
f8
e3
f8
08
db
04
14
f3
04
e7
ff
fb
00
eb
fb
0c
f8
ff
e8
fb
07
10
fb
04
07
07
0b
ec
ef
f3
04
04
eb
ff
13
f3
ff
fc
ef
10
14
ec
07
00
04
db
08
f7
ef
14
ec
f3
0f
04
d7
1b
0f
f3
0c
04
ff
04
04
fc
c7
0c
f3
00
10
f7
03
f3
e7
fb
13
fc
fb
f7
f3
fc
0c
f8
e7
ef
e7
f7
e7
c7
f7
10
0c
f3
fb
ff
cb
db
eb
f7
08
10
f8
07
0b
d0
bb
df
18
04
0c
f4
ef
27
10
d3
d3
0f
08
fc
08
ef
f0
2c
e0
e0
0c
08
10
f3
f8
ff
f4
33
f3
14
13
10
cb
e7
0b
03
fc
f8
07
eb
03
ff
fb
f8
ff
ff
07
ef
ef
e7
0c
e3
fb
00
23
20
ff
f3
f3
1c
10
d8
08
03
10
e3
eb
0b
18
10
08
0b
ff
1b
e8
0f
eb
ec
10
14
08
f8
10
04
f7
fc
1b
08
0c
fb
08
07
28
00
08
f3
0b
10
f8
07
eb
fc
18
18
f7
f7
f7
f0
f7
00
fc
10
0c
04
e8
eb
f3
e7
0b
f3
f4
14
0c
f4
e7
e3
eb
03
f0
17
ff
18
08
f3
d7
d3
ff
fc
fb
08
14
10
f0
ef
db
df
08
ef
04
0c
08
f0
fb
ef
cf
fb
00
fb
07
08
08
f7
f7
df
e3
1b
04
f3
0b
0c
f4
ff
ef
e7
e7
f4
ec
0f
0f
fc
f4
f4
ef
03
04
03
f7
0f
00
f4
ec
00
0b
f7
ef
f7
ef
03
0f
04
ff
07
e0
f8
db
f3
fb
fb
ff
f8
00
ff
00
07
f4
eb
f7
fc
0b
f8
f4
f7
08
fb
fb
fb
ff
03
fc
04
0b
fb
ef
fb
f7
ff
07
08
08
07
f7
f4
ef
f7
f3
0f
0b
10
04
f0
17
04
f7
eb
ff
fb
10
0c
14
fb
fb
f3
e7
f3
f7
00
0f
10
04
f0
e3
0f
f3
f8
07
08
f4
00
04
04
e3
03
f3
ff
f8
10
04
f0
07
d7
f7
ec
fb
f8
fb
20
fb
08
f3
0f
f7
f3
f0
db
07
03
03
00
e3
e7
df
10
e3
ff
f8
08
20
df
f8
ff
07
2c
df
0c
0b
e8
e7
f3
f3
00
14
0f
0c
fc
20
0c
f4
eb
d7
08
ff
07
0c
18
e3
fb
fb
f3
fb
00
10
08
20
f0
f3
04
f4
ff
e7
0c
18
18
fb
0b
04
fc
fb
00
fb
ff
ef
eb
ef
04
08
10
08
04
f3
24
d8
ff
fc
07
10
0c
0b
f3
ff
f0
f3
00
f8
14
0c
0c
00
04
fc
0b
00
0c
0c
14
0c
fc
0c
0c
e3
f7
07
07
10
08
07
03
03
f0
f3
00
f0
ff
04
f3
f3
f3
03
f0
13
00
00
f0
fb
eb
e7
f3
17
f3
08
0b
fb
f3
ef
eb
e3
eb
ec
f7
0c
eb
ef
ef
f3
ff
d7
07
e7
ff
f3
e3
f3
f4
f3
18
f3
f3
03
03
db
fb
fb
00
00
c7
00
f7
f7
e3
f3
03
0c
f7
dc
03
f0
f7
e7
ff
f7
07
f8
0c
f0
fc
ff
00
eb
ff
00
ff
03
0f
fb
f7
fc
fc
f8
f4
0c
08
04
fb
f3
08
08
00
00
04
07
0c
f3
04
07
10
04
04
fc
10
04
b8
10
fb
18
10
0c
0c
00
fb
03
14
eb
08
10
1c
14
fc
1c
1c
03
ef
00
14
10
14
f8
18
fc
03
e7
e3
13
f8
18
e4
e0
fb
fc
fc
fc
e3
f3
c7
03
f8
df
ff
00
2c
e0
fc
eb
ff
20
18
e3
f8
2c
e3
eb
fb
fb
0c
14
14
10
db
fb
f3
ff
fc
fb
08
00
00
20
fb
f7
f8
03
f8
03
04
04
fc
e4
f8
ef
f3
fb
08
04
10
13
ec
fb
f8
f3
f7
04
10
f8
00
db
d7
ef
ef
ef
0c
08
0c
07
d3
ff
e7
f3
eb
ff
00
08
08
08
d3
08
07
07
fc
18
08
00
fc
f4
fb
fb
03
ff
08
0c
0c
0c
f4
d8
f7
03
f8
14
0c
0c
04
f4
eb
f3
f8
04
0c
14
18
10
ff
04
eb
24
ef
04
0c
f8
00
04
0f
14
1c
f8
03
14
10
0b
03
e4
fb
28
0c
0c
10
10
f4
f7
04
e3
14
1c
10
10
18
fb
f0
03
db
14
0c
18
08
04
08
fb
f3
ec
08
0c
0b
0c
00
03
ef
f3
07
0f
0c
18
08
00
fc
ff
f7
03
c8
0b
10
f4
14
f7
07
e7
ff
0c
f7
0c
00
04
0c
fb
e3
f7
0c
eb
04
f8
07
fc
ef
e3
d7
f7
fc
00
1c
14
04
03
eb
e3
ef
00
14
eb
04
10
f3
db
e3
eb
08
f4
10
18
0f
f4
e7
d7
ef
18
ff
fc
03
db
07
df
b7
c3
d3
f8
ff
07
03
eb
eb
ef
ef
db
13
ff
00
00
f3
04
03
10
24
08
f8
f4
14
00
f8
04
ef
04
14
04
f7
08
0c
17
08
fb
13
00
ec
fc
03
08
f8
f0
04
fc
00
04
07
e7
34
1c
04
0c
ff
08
fb
0b
f8
04
13
10
0c
f7
08
f8
00
ec
0b
00
10
04
07
fb
f8
08
07
07
14
00
04
fb
fb
ff
04
d8
fb
14
0c
04
ef
f3
ef
f0
ef
03
17
00
03
ff
fb
eb
ff
eb
ff
ef
00
14
f0
ef
eb
fb
df
e3
fb
0c
04
f7
fb
f3
e7
eb
04
03
0b
04
f4
03
df
ef
eb
07
07
f7
18
04
f8
ef
f3
f8
17
f4
ef
33
0c
08
fc
f3
07
10
04
0f
e3
0c
04
1c
00
00
08
00
04
f7
14
10
1c
00
fc
fc
f8
10
f3
00
18
14
fc
04
00
f3
0c
ff
0f
10
18
fc
10
fc
f3
00
00
f7
04
10
08
00
f8
07
fb
13
f7
fb
0c
0c
0f
00
fb
fc
f7
fc
f7
ff
10
08
08
fb
ff
e8
04
f3
f7
04
fc
f4
f3
fb
f3
0b
f7
fb
f7
03
e3
ef
07
f0
e3
f8
ff
fb
f7
e7
fb
f7
fc
d3
f7
03
ff
eb
e7
d3
f7
10
df
ef
00
fb
f7
f3
f3
0f
f4
cf
07
03
08
fb
ff
0b
f7
f7
ec
ff
00
fc
fc
f0
0c
00
f7
1c
fc
00
00
14
00
0c
27
fc
ec
17
0b
ec
07
f0
00
f3
fb
0b
04
ef
fc
f8
0c
ff
fb
f0
08
fb
07
00
07
00
fb
f3
f3
e7
ef
e8
17
df
fc
04
03
f3
f3
f8
fc
ec
fb
08
08
fc
ff
ff
00
07
04
10
0b
07
04
f3
08
07
07
04
f3
f7
e4
18
ec
fb
fb
f3
ff
f8
ff
fc
04
fc
f3
f7
07
ef
ef
d3
17
f7
00
ef
f3
ff
00
f7
d3
f7
e7
23
fb
f7
fb
00
f3
e7
fb
f7
03
10
f3
f3
f4
f3
f4
f7
fb
0c
0c
ff
ff
f8
e0
f7
0b
fb
08
0c
00
fb
03
07
00
f3
07
03
10
04
04
ff
0c
0f
00
e3
db
08
08
fc
ef
08
08
07
e7
f7
f4
0c
08
f4
0c
f7
fb
0f
f8
08
fc
14
14
00
03
04
03
f7
23
f8
0f
1c
18
fc
f8
f7
ec
f7
08
f8
18
14
0c
f3
ff
0b
f0
00
ff
0c
1c
18
fc
ff
13
00
07
fb
0c
0c
00
fc
ff
e3
d7
f7
c7
fb
0f
f8
0b
14
f8
eb
f7
df
e7
fb
fb
fc
10
ec
eb
ff
f0
d3
db
f7
00
fc
ef
d3
f3
03
f3
d3
ff
14
fc
db
eb
e3
0b
fc
f7
ef
d3
ef
eb
f8
03
0b
00
08
fc
fb
ff
0c
20
2c
f8
ec
17
04
fc
0f
00
ff
ff
18
f8
ff
04
fc
00
f8
f0
03
0c
fb
fb
00
ff
f3
ef
04
fb
04
ef
e4
00
fc
f7
f3
ff
f7
f8
08
f7
04
f4
fb
d7
ef
fb
fc
03
ef
f7
e7
ef
e3
d7
f3
ff
fc
fb
03
db
ef
cb
d3
f3
f4
14
ef
ff
e8
eb
df
df
f3
03
10
f4
b7
e4
ef
df
db
ef
08
00
00
e3
f3
d7
d3
e7
f7
0f
10
08
00
f7
d7
e3
f7
e3
0b
18
10
0c
db
db
e3
cf
e7
0b
10
04
00
ff
f8
f3
db
db
ef
10
fc
fc
fc
07
e3
e7
d7
0b
08
0c
fc
f4
08
07
e3
eb
eb
04
04
04
fc
03
f7
ec
fb
d7
07
08
fc
03
f4
f7
f8
d7
f3
ef
fc
10
f4
00
03
03
e3
df
df
fc
04
f4
ff
fb
f3
fb
fb
f7
07
fb
fb
03
0c
00
e3
f7
08
ff
0c
f7
e7
fc
14
f8
df
db
ff
04
0c
e3
07
f7
0c
e7
d7
fb
1b
00
ef
03
c7
0b
07
d3
1b
07
1c
df
fb
fc
e7
f0
ff
df
ef
c3
1b
bf
c7
ef
03
03
f7
ef
03
d3
f3
0f
e3
0b
f3
fb
eb
f3
f8
f4
f0
03
ff
07
fc
0b
f8
fb
f4
f8
ff
ff
f8
f7
ff
f7
f7
fb
f3
ff
f8
f3
e3
f7
db
ef
ef
eb
f7
f7
03
fb
d7
c3
e3
ef
f7
f7
18
fb
fb
db
f7
f3
df
07
f7
ef
d3
ff
f7
ec
f4
fb
03
ff
07
fc
db
17
0b
e3
eb
fb
f3
e8
07
d7
10
14
00
04
fc
f7
ff
07
fc
13
20
13
1c
f4
fc
ff
0b
f8
ef
30
17
f0
0f
fc
08
04
04
fc
14
e3
fc
03
03
fb
fc
10
f8
03
dc
fc
ef
f7
f7
08
14
08
ff
03
f7
f4
07
17
08
04
0c
eb
03
e7
ef
ff
f0
08
00
14
e3
f4
fc
f7
f7
f7
04
fc
fc
f4
07
08
f7
fb
03
fb
ff
14
00
f4
fc
f7
ef
03
fb
fc
03
08
0b
03
fb
07
0b
ff
ff
fb
fc
00
e4
14
f7
07
f7
f7
fc
ef
04
00
24
ef
eb
f8
07
00
f3
f8
fb
04
f8
fc
07
fc
0c
f0
ff
e3
08
20
03
18
00
10
00
fb
f7
1f
10
db
fc
07
14
04
ff
ff
ff
f3
f4
eb
00
04
00
04
03
fb
ec
00
f3
1c
08
14
04
f8
03
f7
07
07
1c
14
04
10
08
f4
df
04
fb
14
04
1c
08
0c
00
08
ef
f8
ec
0c
20
f8
04
13
10
f7
fc
10
f3
14
0c
07
fc
20
f4
07
f3
fb
f7
fb
f7
f3
04
f7
f4
03
f3
d7
ef
e7
ef
f3
ef
03
f4
ef
db
c7
f7
d4
e3
18
07
f8
23
0f
14
ef
f0
03
cf
cb
ef
ec
f8
eb
f7
0b
03
10
f4
e7
f7
1c
28
03
0c
08
f7
03
fc
ff
0f
08
0c
0c
08
f7
ff
14
e3
00
03
fc
0b
f8
0b
f3
03
0b
ec
fb
f7
08
0c
10
07
ef
fb
0b
f3
ef
ff
07
0c
04
ff
eb
0f
0b
f0
ff
ef
f7
08
04
f0
04
ec
fc
f7
e8
f7
ff
0c
08
13
0b
00
f3
0c
eb
f3
10
00
fc
10
08
08
04
eb
e3
08
00
07
18
28
04
fb
07
e3
03
08
f3
f3
1c
04
fb
f3
e3
ff
04
0b
f7
ef
00
fb
f7
f3
f7
08
04
e8
d7
1b
08
f8
eb
0f
fc
0f
03
04
0b
14
f3
fb
f3
08
e8
f7
08
18
0b
ef
ff
ef
f8
0b
0c
ef
fb
f0
f7
fb
f3
03
04
0c
f7
07
0f
0b
00
e7
ff
0b
fc
df
f7
eb
fb
0b
f7
f7
03
10
04
ff
07
d3
03
f7
f3
04
fc
f3
f7
df
23
f4
14
ff
fb
fb
f7
fb
f3
ff
0c
14
f8
f7
fb
08
f4
d8
ff
24
fb
17
fc
ff
00
04
0c
f0
fb
eb
07
08
13
00
0c
10
14
07
f8
fb
00
fb
ef
f7
f7
f7
04
f4
e7
cb
cb
df
ef
e3
df
ff
04
e7
bf
a7
df
fb
af
0f
00
f7
cb
07
08
f7
07
0c
e3
eb
cf
ef
08
00
f4
08
00
f8
0b
c7
1b
04
10
10
14
10
fc
f7
ff
d7
04
07
0c
18
08
13
fc
00
dc
18
04
14
10
0c
f7
fb
03
04
ff
0c
14
14
18
ff
fb
f0
13
f4
04
14
10
10
10
08
03
00
f7
17
f0
14
30
14
ff
04
fb
f0
14
fc
10
0c
ec
0c
f4
fb
f7
10
20
04
f8
07
ef
e7
fc
fc
10
f7
07
fb
0c
ec
f3
07
fc
0f
f3
fb
ef
07
f4
df
03
0c
fb
b3
2f
e4
07
f3
df
f8
10
fc
f8
18
f7
e3
07
f3
fb
0c
ef
ff
20
0c
eb
fc
fb
07
ff
00
0f
1c
30
0c
04
fb
df
fb
0c
e7
0f
20
e4
f3
f3
e7
e3
00
08
fb
ff
00
d3
00
eb
df
f3
ef
03
e4
df
f8
e3
e3
ff
f8
04
f0
ff
fb
fb
ec
cf
e7
fb
ef
f3
df
13
24
df
c7
eb
e7
ef
03
e3
f7
20
e3
cf
f3
ef
eb
0f
f4
f3
f7
d7
db
d3
03
ff
0f
00
e0
07
0f
e0
0c
f7
00
ff
08
20
fb
fb
ff
04
08
0b
18
ec
18
f4
fc
f8
fb
e7
d7
cf
ef
f3
e7
0b
fc
f7
e7
08
04
03
df
1c
df
f7
eb
ef
f4
04
fc
f0
ff
00
0f
07
f4
ef
0b
ff
f8
f7
ff
f7
fb
0f
f7
03
eb
03
ff
04
10
df
eb
fc
f7
ef
0b
ff
fb
03
db
eb
1b
e8
0b
ff
07
ff
0b
e4
f7
ec
08
0b
f4
fb
f8
0c
04
df
08
fb
f0
f0
fc
00
0b
fc
d3
db
13
04
07
fb
fc
0c
07
00
cf
0c
0f
0c
04
f3
04
f8
f0
bf
14
04
18
08
03
eb
fc
07
ff
1b
07
04
10
f7
00
f8
04
fb
d7
f8
08
00
f7
f7
ff
f3
0c
d8
f3
08
0b
0f
f4
f7
f3
f3
e7
df
fc
f0
f7
fb
f3
f3
fb
03
fb
03
eb
f0
03
04
ef
ef
03
f3
f4
f7
18
f4
fc
03
ef
10
07
f7
f7
fc
04
0f
04
03
10
ff
db
04
10
0f
13
00
00
08
e4
ef
1b
04
14
fc
08
04
00
f0
04
ff
10
10
10
00
03
fc
fb
07
e3
08
04
14
fc
ff
ff
fc
ef
e7
1b
00
e8
ff
07
07
fc
db
ff
f7
f0
03
f3
fb
f4
fc
07
fb
f4
d3
e7
eb
eb
f8
0b
fb
eb
ff
e3
d7
e3
07
f7
03
e3
e7
03
f0
eb
cb
fb
ec
03
f0
eb
08
f8
03
f7
df
df
f7
f7
eb
fb
f0
e4
c3
0f
0c
fc
bf
24
d3
f8
f7
f4
f7
eb
ec
e3
e4
17
f4
d7
e7
fb
fc
eb
ef
14
f7
f8
e7
ff
ff
04
f8
fb
10
14
f3
d3
eb
f4
fb
f8
f4
04
fc
e7
df
fb
0b
00
0b
03
03
fc
0c
04
13
04
04
18
f8
fc
04
07
e7
f3
0b
08
18
0c
ff
fb
00
ff
c3
00
03
00
10
00
ff
00
17
20
fb
03
f8
00
04
fb
f7
fc
f0
ef
04
10
0c
00
f7
ef
0f
eb
bb
08
ff
f0
03
f4
ff
f7
fc
fc
04
f3
ef
ff
04
fc
08
04
f7
0f
ff
ef
f7
04
fc
08
07
f7
bf
ff
f7
f7
fb
00
08
fc
ff
d7
e7
fb
f7
03
fb
0b
fc
f8
ab
d7
fb
f7
f7
fc
08
fb
f3
d7
df
ef
03
ff
1c
fc
ef
f3
fc
df
ff
03
07
04
07
fb
eb
08
ef
e3
00
f8
0f
08
f3
03
04
03
d3
f4
0c
ff
04
ff
04
00
ef
df
13
00
07
0c
00
03
fc
f0
df
03
10
00
f7
00
04
04
00
07
e7
00
ef
fb
f7
03
00
f8
f7
ef
eb
e3
f7
07
13
fc
f8
f3
df
d7
e3
ef
08
fc
07
0b
df
f3
0b
c7
e3
fc
08
f3
fc
e7
e0
07
03
f8
ff
bb
bb
cf
f3
cf
e7
f3
eb
e3
03
0c
04
f4
0f
08
f7
db
eb
04
03
04
00
f7
f0
e8
d7
eb
07
00
f8
f4
ff
04
07
e7
e7
00
ff
00
03
04
f0
07
cc
f7
ff
03
00
04
ff
08
fc
ff
f3
f3
ff
e7
03
00
0b
fc
f7
e3
00
fb
f7
f7
03
04
04
03
e0
ff
fb
f4
10
eb
00
08
ff
04
f3
f7
fb
03
0c
03
14
08
0c
df
00
fc
fb
18
f8
07
f8
ff
dc
07
fb
f4
0c
f4
fb
0c
f3
ff
ab
e3
0c
14
fc
f3
fc
df
f3
eb
df
04
14
08
e3
10
ff
e3
f3
f8
0f
0c
0f
e7
07
ff
00
f3
fb
e7
08
04
f8
ff
03
04
ef
bb
fc
03
ef
f3
07
0c
0b
ff
e7
0b
f7
e7
f3
fb
18
fc
f7
df
ff
ef
f3
db
07
04
fc
fb
ec
eb
e7
fb
e7
fb
10
00
fb
e3
f3
e8
fb
fb
07
03
f4
0f
03
d3
db
ef
07
fc
0c
03
07
f3
db
03
ef
03
fc
fc
ff
04
03
fc
fb
b7
f7
f4
0c
f0
ff
eb
1c
d7
d7
af
1c
10
03
07
c3
df
e7
ec
d7
03
10
e3
c7
fc
e7
f7
ff
03
f7
00
f7
10
c3
f0
fb
f3
03
07
f7
e3
f7
e7
f3
f3
fb
08
f7
04
f3
eb
eb
e3
fc
fc
00
f3
f7
f7
e3
cf
cb
e3
ff
ff
04
e7
ff
f7
04
0c
eb
cb
ef
08
ef
e3
e7
00
f3
fb
ff
ab
03
eb
eb
03
00
ef
ff
fb
eb
db
db
e3
df
d7
ff
ff
fb
ef
e7
cb
e3
cb
bb
ef
ef
f8
08
fb
e3
df
d3
cb
e3
ff
00
fb
ef
eb
cf
df
f3
fb
eb
ff
ff
fb
fb
e7
ff
ff
ff
04
f8
03
f7
e7
f7
1b
03
08
08
00
07
f4
ff
1b
0b
08
0c
08
04
f3
03
03
03
eb
14
08
08
fc
ff
f3
03
00
ff
13
10
08
08
07
fc
0c
04
e7
db
14
00
08
f4
0c
ff
f8
e8
ff
10
07
00
ef
04
f7
00
f8
03
fc
00
f8
f3
fb
f4
08
0f
ff
e7
00
04
eb
f3
fb
fb
f7
ef
df
fc
f8
f3
ef
04
fc
f4
07
f3
fb
fc
df
f3
fb
ff
10
04
ef
e7
ff
e8
ef
f8
07
fc
ff
0c
d8
03
e8
f3
ff
03
00
00
04
ef
e3
e7
03
f3
08
0c
00
0f
f8
d7
03
ff
04
07
0c
fb
ef
10
03
f3
0f
0c
1c
04
f8
10
1b
ff
fb
fb
18
10
0c
08
18
f7
f3
fc
fc
10
14
04
10
10
fc
04
ff
08
14
10
08
0c
0c
20
fb
ff
f8
0f
fb
f0
ef
fb
fb
f8
ff
03
03
f7
e3
d7
d3
cf
fb
fb
f8
f7
f3
cf
f4
0c
fc
d3
f3
ff
eb
e7
f3
10
d7
f3
f3
cb
ef
ef
db
ef
03
07
18
fb
ef
df
f3
e3
cb
00
f7
07
f4
f7
b3
d3
d3
f3
07
f0
03
0c
f8
d7
ef
d7
fb
04
fb
fc
04
0c
18
c7
ef
07
0c
f8
f3
f7
00
14
07
cf
ff
10
10
0c
fc
ff
f8
eb
d7
f3
08
04
1c
00
fb
00
03
c7
04
f8
fc
0c
18
08
04
eb
08
00
07
14
1b
14
18
07
ff
13
f7
ff
08
08
04
18
08
f7
08
bb
f7
f8
f8
03
14
14
e8
ff
df
db
fc
ff
07
14
0c
10
0f
d3
ef
17
04
f3
14
08
fc
f7
08
c7
db
ef
fb
00
ff
04
f8
f7
03
eb
ef
fb
08
f7
00
04
eb
f3
f3
e7
f3
07
04
03
0b
0c
ff
d4
d7
fb
ff
f7
eb
ff
00
0c
08
cc
ff
f3
fb
e7
fb
04
13
04
eb
00
ef
fb
e7
fb
fc
00
04
00
07
f8
f3
eb
0b
08
10
07
fc
df
08
04
00
0b
07
08
fc
20
e7
0f
0b
04
03
fb
f7
fc
00
03
d7
04
fc
00
ff
fb
10
f4
0f
00
1f
10
0b
07
fc
20
0c
ec
ff
f7
03
07
f7
eb
e7
f7
f4
ff
ff
fb
f3
db
c3
af
cf
d7
f7
f3
ef
cb
cf
07
10
00
f7
bb
fb
e8
e7
f3
13
10
fb
00
db
bb
e3
cf
0b
0c
04
f7
04
0b
db
e3
cb
ff
08
04
0c
08
0b
ff
e7
c7
ff
fc
ef
f8
fc
fc
00
ef
d3
f8
ef
ef
0c
0c
00
00
fb
d3
fb
f0
ef
07
04
00
fb
ef
f7
fb
e7
ef
03
ef
fb
fc
fb
eb
f3
ef
e3
f7
f8
03
03
f7
fc
e0
fc
ef
f3
18
eb
f8
eb
00
ff
03
eb
04
08
f3
f4
f7
f3
bb
f3
db
fb
0c
fb
ff
e7
e7
e3
f3
d7
db
0c
08
04
ef
f3
eb
f3
bf
ff
03
14
ef
f3
eb
ef
c7
df
cf
f7
18
00
ef
df
f3
fb
e3
b3
f7
14
f8
ef
cb
f7
f3
db
b7
eb
17
14
03
d3
03
f4
fc
d3
f3
03
08
fc
d7
e7
04
00
03
e3
fb
00
04
f4
f7
03
07
f0
03
14
0c
1c
04
f3
f3
ff
fc
cf
0f
00
04
03
e7
ff
08
14
03
0b
fc
fb
ff
fb
07
0b
10
fc
bf
00
d7
ef
03
14
fb
fc
08
03
20
f7
eb
f8
10
0c
14
0b
fb
f8
27
04
10
0b
08
14
ec
00
07
04
03
18
18
03
20
0c
ff
00
