6d
3d
97
6d
14
56
e8
e3
6a
1c
4c
d9
58
ea
97
61
f6
8e
88
f9
ac
fc
f0
d7
75
18
ae
0c
06
b0
c7
57
a0
09
3e
1b
bf
aa
cb
4a
d9
43
29
56
51
41
01
2b
ff
52
1e
23
40
f3
3e
56
81
3f
00
4c
63
4f
dc
47
d0
ab
3a
27
a8
4d
43
f4
81
f4
95
6c
c9
6a
8b
1a
a2
98
39
6b
7e
4e
45
fd
f8
9a
e4
7e
ca
3d
e0
d1
1e
86
da
f2
2c
e1
e2
24
3e
d7
01
d6
ed
c4
85
ba
ca
16
fc
c4
2d
2c
46
f8
00
3d
1a
05
d9
2f
95
b2
55
28
8b
68
2e
c6
74
45
54
51
4c
55
3b
5a
19
32
1c
16
1e
0d
01
db
3f
02
2b
cb
e1
d9
d2
d4
c0
7e
a4
a1
13
b8
8b
be
c8
b4
ba
85
c9
0f
d5
e5
4f
34
07
64
56
18
68
4a
6a
c1
cd
e8
93
97
bf
08
1f
43
fe
fe
1b
eb
28
2f
ce
af
2e
4d
8e
79
3f
3e
2e
32
b9
d1
0b
35
db
48
73
30
7d
b1
7c
e0
32
f3
37
00
ce
9c
f0
d3
e4
f6
7a
d6
c6
98
a7
7e
af
af
85
6e
f8
e0
83
31
37
ff
2c
ee
4f
66
10
2f
26
2d
e7
fa
64
57
39
39
27
14
ba
bd
16
ed
d5
2e
2c
09
bd
3a
58
4e
f7
54
99
bb
2a
39
61
10
1c
4e
39
38
18
42
f4
01
2d
27
3a
35
08
ec
ed
d8
e1
f2
e3
dc
c9
a8
d6
df
dd
d4
bd
d0
e3
e2
ea
fa
f0
ea
10
00
2e
13
10
d9
df
ed
e3
ef
f5
de
dd
cd
0c
fd
ef
e6
f6
db
d0
bd
c8
db
13
17
02
1b
f1
2b
07
36
e9
f5
cf
dd
1d
07
0c
04
f2
da
12
ea
e5
dd
f9
f4
15
ed
d1
ee
1f
df
eb
ec
fb
0b
08
35
ce
fb
e8
de
0a
fa
10
c9
e4
03
f5
03
f5
eb
d7
d6
fd
e8
cf
d7
0b
e0
e1
cc
00
fe
e8
c8
e3
d6
de
cc
cc
ea
07
e3
d6
ff
0f
11
e8
0a
f1
e7
00
e9
dd
db
15
c8
b2
9c
f3
f6
e1
bb
d4
c4
f5
fe
d1
ed
3e
f3
dc
f5
09
00
ee
d3
f0
f1
e5
de
f0
07
06
e3
d5
a9
e7
21
2a
b0
c4
bc
11
10
f1
fb
ff
f7
d6
da
f6
04
d8
fe
0b
e0
ef
fe
23
fb
0b
ec
ea
cc
30
2a
19
ed
e9
eb
04
03
03
f0
fb
00
03
f3
e4
fe
ec
f3
1c
0e
f8
f7
fe
f5
1e
f1
05
04
2a
2a
3b
12
ff
ca
fd
f4
f0
00
fa
16
14
f9
eb
f2
09
0e
01
01
24
02
08
fb
06
f8
f6
f1
38
38
3f
e0
d6
d8
e5
12
f0
ff
18
0e
fc
01
ee
ef
0f
13
0e
04
3d
0b
f7
05
00
14
ee
da
0a
48
fd
f1
f0
09
e6
00
ef
02
18
18
14
03
2a
09
21
12
1f
27
22
11
1c
15
0c
1a
f3
b7
0f
46
07
f2
05
fc
f4
06
14
f2
10
e5
fb
24
21
00
27
18
fe
32
03
15
28
09
1a
ff
fb
c1
07
25
15
da
06
e7
20
14
13
fb
03
07
fd
0d
1a
ea
18
0d
e9
fe
1a
19
26
29
12
1c
18
cc
fc
fd
25
02
19
08
30
1f
18
fd
0c
09
3a
14
0c
0a
11
fd
2f
1f
0e
15
1c
11
15
0b
0e
f6
e9
e8
05
14
f9
1d
29
13
2d
05
1f
12
1b
0f
f5
01
12
f2
24
13
13
0e
1b
0b
19
26
06
fa
f3
06
e8
29
08
05
23
1a
1b
1e
31
06
2e
25
fe
cd
01
f2
29
fa
12
02
08
ff
07
10
17
e8
0d
ef
01
e4
1e
16
0f
11
29
19
29
0f
20
13
e8
d5
e1
e9
1c
0b
fe
27
0c
14
fe
fc
11
d0
ee
ee
0d
0e
e4
23
0c
0a
12
0e
0e
18
11
20
f4
03
f4
1a
15
f9
04
f7
07
18
12
0b
f0
c3
f1
fc
e3
32
37
16
0c
f9
25
1a
10
2c
32
08
d9
f4
29
11
0d
ef
03
0b
0b
09
01
05
fb
c4
f7
eb
0a
2f
44
25
02
1b
ff
1b
11
1a
15
e4
e8
06
12
df
fb
f0
fa
ff
0c
fc
f1
f1
e2
b6
03
ed
04
17
36
57
01
1c
24
43
07
fe
0e
ff
05
06
fe
e8
c3
db
ec
ed
e4
02
fd
f2
dd
9b
05
07
ea
17
0a
3d
f6
12
1d
2c
00
0c
06
f7
f1
e9
c8
d2
e9
e4
02
cd
db
f5
e2
e0
b2
e2
0b
06
f8
19
11
eb
30
0d
16
16
ff
0f
ea
ea
e4
df
c6
de
dc
e6
ee
df
e2
05
f5
db
b4
f8
e3
fa
e5
f5
1b
08
0d
26
03
f4
d2
e2
d3
e9
c5
cd
d8
eb
d8
d7
d6
9c
e2
e3
d5
cd
b9
11
0e
e1
f3
f0
ff
0c
0a
01
e7
e4
ae
af
aa
b0
c9
aa
c0
d2
ca
e1
e4
a4
c1
de
ea
bd
bd
1c
fa
f6
fd
03
f7
00
fc
02
cf
af
b8
d5
ca
cc
95
8e
a5
93
ae
c9
cf
ce
cf
bc
d3
c1
b8
f8
f5
f6
ec
07
ff
02
d9
ba
ed
d7
9b
aa
a2
bd
a8
cb
d2
a7
98
bd
b3
c3
d3
b8
c9
dd
f9
ed
0d
f6
f1
f8
02
ed
dc
c5
f3
d1
c5
b8
d0
bd
9d
c6
b8
ce
99
a5
b2
cd
df
e1
d6
ed
f8
fe
02
26
12
36
32
19
fd
04
04
d7
cf
f1
cc
cb
ab
c9
d9
c8
aa
f9
e9
d2
ee
e8
de
06
fd
02
fe
f2
07
18
a9
b6
05
d7
09
dd
eb
e9
df
4a
1f
e9
f4
11
ff
c9
ea
c5
e4
f7
32
11
e6
01
02
38
2c
22
3c
df
0c
e8
e2
14
1b
13
b8
17
fc
f1
c9
1d
43
16
d3
04
33
fc
ed
c7
e3
ed
17
33
0a
e6
f8
de
e0
dc
e7
fd
0f
32
2c
f4
0a
0f
02
f1
d3
db
f6
e6
ca
dc
f2
e3
d4
ec
f7
1c
dd
08
df
d5
e5
eb
02
f3
e2
fd
f6
15
f9
0d
ef
16
fa
f8
e6
e4
d7
d0
de
d8
c0
ba
d7
be
c3
db
1b
03
e6
e3
05
ff
e3
eb
d8
ef
fe
ff
13
03
29
08
1a
14
ff
f8
ba
d4
76
9a
31
c5
b3
01
25
0a
05
02
01
ed
e0
e0
dc
ec
02
eb
02
05
13
10
1e
1e
1c
f8
f4
d7
a0
a8
01
c9
d5
12
2d
24
11
00
18
08
0f
14
05
13
00
e9
07
2e
17
2c
14
17
0d
26
1c
08
d9
ba
1f
37
ec
e1
04
fa
fa
17
1c
0e
00
0e
13
17
1a
14
05
1a
2c
2a
13
21
25
2c
14
ed
cf
cb
39
30
f6
01
2f
0a
32
18
1d
0e
01
09
fa
f4
fa
f0
e4
f5
ff
02
0c
19
16
f9
0b
15
f0
bd
46
28
03
0a
2e
10
30
00
1e
09
0c
f9
18
f5
fe
f8
00
f5
fb
0f
09
0a
06
0d
18
0c
d2
be
50
21
fd
04
ff
0b
0e
05
02
e4
f7
f0
00
f5
02
16
13
f3
f8
06
04
f8
08
05
ff
f4
c1
b5
4f
f7
e0
e5
f4
18
26
f6
f3
e6
07
f2
fd
f8
d6
f2
f2
fa
ed
ff
07
fc
19
1a
1b
f1
f0
74
eb
e7
ed
f5
ef
03
eb
e7
ec
d7
08
fc
fd
c1
bf
e5
df
e4
f9
1b
01
f2
fb
fa
04
fa
e9
b7
ea
ca
09
21
16
11
00
08
f6
f9
1e
f8
cb
d5
af
c9
dc
e7
07
18
fa
02
07
17
26
00
e4
df
ed
f8
d5
1f
fa
0f
1d
fe
16
11
f6
f1
dc
da
ce
d8
dc
da
f8
15
05
f8
04
14
32
f8
26
40
e1
e7
f9
28
f1
1a
f9
1e
0c
09
f0
d9
c5
dc
cd
c4
d7
00
0f
fb
20
01
fd
ff
33
f3
f1
c6
05
ef
08
08
fb
1b
0a
0f
12
1e
07
de
d2
eb
e2
fd
f1
1f
27
ee
18
26
1e
0c
cb
bc
eb
fc
eb
11
11
0c
f3
0f
01
0d
09
11
06
0a
e7
ca
f3
03
06
02
fc
fc
07
f9
05
04
ec
ee
00
fa
07
1e
1e
25
11
16
ee
ff
02
0e
fc
fb
e5
fb
e6
10
0c
ef
fa
fa
00
1f
16
e5
db
e9
34
e0
e1
15
3e
27
16
0c
f9
ed
dd
fe
15
02
07
0c
f7
f9
ea
dc
e2
f5
03
12
f5
e2
df
f7
3e
c8
dc
10
1f
19
06
ed
0b
e1
e2
ee
10
17
21
22
fa
e6
e9
f4
db
dc
ee
e4
e5
d0
d5
d4
4a
fb
c8
f2
1e
0b
f3
15
f4
03
ec
eb
f4
f9
08
13
fa
09
df
13
d0
e2
f3
0f
01
ee
df
f1
1c
f7
d7
09
df
e1
e8
f0
f0
06
0c
09
0b
23
17
26
12
0a
11
15
fe
02
07
1d
09
d5
c3
c1
c1
dd
c0
f2
db
f3
f5
f7
ee
f7
e2
db
e2
fe
0a
28
12
17
0a
14
f7
0b
e3
fc
c6
a8
cf
e6
d5
06
f6
de
e9
d5
cf
d4
c7
c5
d7
dc
d6
0a
e2
00
f7
01
e9
d0
c8
b5
f0
c8
a3
c5
cd
f7
d6
0b
02
05
09
fc
9d
ac
ba
c8
cd
d0
ee
e1
f2
da
a9
c8
bb
a8
a3
b2
bf
ce
bd
e4
d2
f0
f7
0f
f9
fa
bf
b9
73
a3
cd
cd
c4
ae
86
84
83
91
9e
95
bf
b1
c2
c0
cb
d1
e9
e6
01
f8
f5
02
ff
0d
43
4f
40
2e
25
f4
e4
d8
e6
d4
c7
a9
aa
c7
b5
d1
c1
97
a7
b7
8a
c6
c4
d7
ec
f1
ea
3a
3a
fc
f2
de
b6
e2
fd
f4
ea
0a
ee
05
ff
fc
04
e6
f1
d4
cd
d4
d0
df
0e
25
22
14
f6
2e
15
d3
e7
e0
f2
f8
11
0b
01
00
fb
02
04
fe
f5
f6
df
0c
f0
e1
eb
15
01
d9
c8
c8
ed
0f
41
fe
ec
f5
0d
fc
0c
02
23
09
01
f5
07
26
04
23
27
fc
07
ff
e4
03
0b
b7
eb
c3
ef
a4
d5
1c
2c
24
16
f3
e7
06
1a
f1
fc
ee
0e
0b
0b
16
06
06
f9
f0
dc
ed
cf
c2
a4
6b
dd
e5
b8
01
1a
1a
02
e5
cc
0b
01
08
d4
df
f6
e7
d9
04
df
05
1a
18
f5
10
00
eb
d9
c9
3a
30
2e
e3
d8
da
f6
d1
e8
0c
03
d9
e5
ff
0e
02
1b
01
04
0e
fb
e5
13
04
08
e8
e1
b9
4e
4b
23
e9
e4
ea
e9
ec
fb
f6
ed
c8
b9
ea
17
0f
1d
01
29
12
f6
f2
f8
0d
f6
14
0a
d2
24
46
35
12
ff
e9
d9
e2
f0
0a
ee
f2
e0
14
06
03
1b
14
06
1c
0f
e1
da
fc
f4
e1
db
b0
24
41
28
13
ee
d4
04
01
f6
11
02
07
f7
fa
ee
03
28
1b
0f
0f
fc
09
06
f6
02
f6
f7
bb
42
39
2b
f9
d8
d2
e6
bc
ef
dc
d9
f6
da
d2
b8
fa
0d
0f
03
ed
f3
08
f0
e8
f8
0f
cd
99
41
2b
1b
12
e9
e1
c5
03
03
eb
f6
da
e5
ce
b2
0c
fc
e7
01
fe
03
ee
fc
fa
02
00
f8
b1
07
1e
19
27
0d
f7
f4
fd
06
d7
d4
eb
de
c1
b6
c4
d5
f2
e5
eb
14
d9
ff
e7
ee
e0
ea
d2
f7
ec
fb
fd
27
fe
bd
bd
d0
ec
f3
ff
f0
e1
07
e0
a7
ae
1f
f1
fa
dc
d9
f0
ea
01
09
cb
e8
c1
0f
02
29
d7
9e
c8
bf
df
e4
04
00
e9
cc
f3
eb
c6
d9
17
0c
e9
eb
f6
00
02
04
b6
11
0f
e8
19
02
d1
bc
e1
c2
d3
df
db
ea
f5
f9
14
02
ca
15
f8
f6
f0
e7
da
f2
04
e0
a3
b1
e8
24
01
06
fa
eb
e4
d8
10
f7
d2
dd
f4
f3
f7
04
fa
fd
e0
fb
e6
d4
ec
d9
fd
de
8a
e0
24
fc
bd
b4
a5
e1
e8
ef
ec
f0
f3
fe
21
17
fa
03
0e
14
e8
fb
d0
d7
04
f5
e2
ca
b7
ff
fe
d1
2b
cb
96
f1
fa
f8
ef
f7
f1
1c
0e
1b
11
0c
15
0d
e1
f3
d0
c8
0b
0a
02
f1
97
1e
0b
fd
dd
bc
96
d5
e0
03
fa
fb
f2
0d
04
10
fa
f5
0a
f3
e6
f8
c5
c4
be
d5
ed
10
f4
ea
d3
9c
5b
81
b4
ad
c7
ed
10
0d
f7
17
08
02
f4
e2
ed
00
02
e7
f8
d9
e2
df
d9
fc
f2
0a
eb
ba
c2
a5
a5
f0
04
17
02
db
0a
0a
05
21
11
e3
0a
c7
dd
da
bf
d5
15
1e
fe
08
22
0d
e5
ca
b0
b1
b1
fb
fb
f4
ed
09
f8
0b
e3
f8
fe
02
05
dc
d4
08
c9
c3
0d
14
e7
ce
13
f9
f4
1c
a6
94
c9
c3
0c
11
22
24
48
3d
07
f0
ec
1b
34
f4
db
bf
a2
79
90
bb
af
bf
f4
00
02
df
b0
b4
9f
cd
e8
17
36
4b
2b
1e
0c
ec
b2
89
88
a7
cb
b2
c8
a2
b9
d1
e5
ec
05
e5
01
ee
f7
ed
f2
da
e5
33
25
2a
31
1e
b7
c1
97
9c
a1
c7
ac
c3
ea
e0
e6
ea
fd
e5
0b
0e
f1
16
09
0b
f3
f4
e4
16
e5
17
ec
fb
c5
e7
eb
c3
db
e0
e7
ee
ee
cf
f7
e4
f1
00
00
0f
09
df
11
eb
0e
f8
e2
f8
f3
f3
f5
d4
e9
e5
eb
d5
e4
ec
e7
e7
eb
e6
02
f7
01
06
03
f8
fa
f2
06
05
0e
01
00
e2
ea
ef
d8
52
0a
5c
42
18
3f
54
34
25
22
20
e2
dc
e8
06
f9
13
18
36
18
da
ca
ab
ad
af
97
d0
e7
19
1d
11
1d
d9
f4
0c
02
f0
0c
de
d3
e4
e7
c0
e8
08
1c
2f
17
f4
0e
fe
e8
03
cb
fd
fb
c8
39
d7
0c
c1
de
ea
1a
05
1b
eb
c2
ea
f8
d6
d4
fc
f8
54
19
0a
2c
15
18
23
f7
eb
f2
e8
29
fd
fb
12
ef
f7
2d
09
0b
21
eb
07
1d
e1
ba
0a
03
2d
00
db
26
23
13
37
26
38
19
17
2e
1c
0f
0c
21
fe
0b
10
04
20
fe
f0
24
f3
9f
05
eb
ff
02
ec
e9
41
36
47
2e
47
33
3d
32
1a
1e
19
0c
ff
04
17
23
07
12
fb
07
e3
90
0e
04
ec
02
0f
d0
15
35
11
f2
2f
55
37
3d
36
27
0b
07
ff
03
22
0b
1b
27
1c
1e
cf
86
f6
f2
da
ef
2b
e5
09
2d
e3
c7
08
4c
1c
18
13
18
0e
06
fe
fc
03
f6
0f
21
21
07
da
99
07
fd
c6
ef
25
2f
0e
19
f2
c7
03
1d
f6
f0
03
1b
fb
0e
0a
09
fb
e8
03
1a
3b
0b
e8
94
02
15
f1
e4
11
1d
fd
ed
de
c5
f2
01
c6
e9
0f
f1
00
15
11
fc
0a
e3
02
1d
17
fe
fc
d6
0a
21
e0
e1
35
1f
f0
e5
cd
b0
d1
d0
ce
f7
ff
08
10
12
1a
24
0b
ee
e9
f6
21
fb
ec
fe
08
1a
df
c3
30
3b
04
af
b7
c2
9d
c3
e2
ee
f6
06
0e
12
15
fa
15
06
ed
f2
07
14
cf
1c
fe
fc
f9
e2
35
15
07
c7
b8
c2
d8
d1
f8
e5
00
0f
12
3b
0f
1b
1b
f1
0f
00
fe
1e
08
23
19
e2
0a
e5
20
16
19
f5
e5
d9
01
d5
ed
02
28
14
21
17
19
1b
09
10
11
df
f3
e2
20
0c
0c
f9
19
17
45
14
16
09
f2
fb
01
ef
f3
39
3b
26
2b
0c
1c
14
06
12
10
ff
e7
e8
35
14
fc
01
fb
35
2d
08
c9
ba
b7
fd
04
ea
19
2a
37
2a
1f
17
24
13
06
19
17
ce
de
e1
29
10
fd
0d
09
23
1e
e3
a6
bc
b9
ec
d8
f1
1b
2f
1d
2d
0b
1e
ee
ff
12
fe
eb
c1
de
e4
0a
fa
f2
07
16
ff
ee
aa
a4
b1
da
ce
d1
ee
1e
2d
38
1b
fe
02
03
03
fd
fb
e1
d9
ea
f5
02
0c
f8
f2
ea
ec
d8
a1
8c
bb
cf
dc
fd
f5
08
20
12
f2
f9
fc
fc
0a
0b
f8
da
e2
f0
fe
04
21
f7
f3
07
07
d7
86
aa
be
c6
de
04
eb
f3
fa
11
02
e6
e4
ff
0e
14
f9
ff
eb
d9
0a
21
3d
f3
f8
1e
2b
04
d1
b1
9c
fc
e9
ee
f7
0b
0f
ed
f3
f4
03
0d
22
17
f4
01
01
03
0c
19
44
11
fb
f9
05
e8
d1
df
f8
f3
dd
fe
0d
0f
e3
ff
ec
12
fc
29
02
14
e8
ec
07
02
05
24
1c
f2
e6
25
08
ec
d6
fc
18
00
ec
29
29
1a
0c
06
0c
11
0f
07
0d
06
fb
f7
ef
c8
0c
47
1f
13
f1
01
01
f9
16
26
0b
fc
5a
4b
0e
14
26
20
3c
22
24
f8
1e
1e
22
2c
f2
d1
d5
3d
49
05
0d
0c
d9
ec
fb
0a
18
0b
33
37
0e
06
fd
0a
2e
08
1b
ed
37
0f
28
11
ec
cb
bc
0d
53
0a
e4
0d
02
ef
fa
40
2c
01
12
18
d9
ef
01
1b
19
00
d6
ea
2a
ff
0d
09
10
e5
a8
15
37
03
03
03
ec
e7
f8
2c
1a
cf
32
14
ce
bf
c7
03
13
12
e2
e6
f2
05
e6
ff
0e
c4
bf
0e
1d
f1
f4
0a
01
f2
fa
dd
f5
ee
28
0a
c2
90
f4
dc
0b
0a
f7
e2
99
9c
96
a1
d4
cb
f0
d7
fd
fd
ec
fa
0c
fd
07
e0
dd
e5
d5
ef
f5
dd
52
22
fc
49
39
04
1f
16
ef
de
e9
e7
f4
17
fb
ff
03
0f
f2
bd
c3
c1
b8
de
02
c6
f8
31
e4
c4
76
e5
e8
cb
d7
1c
d6
bc
d2
d6
dd
01
f6
12
fa
31
11
bd
fe
16
03
0f
27
06
fe
11
12
17
ef
2e
f7
99
15
1f
e2
fe
08
f0
cd
db
01
1f
2b
e8
df
dd
28
2b
21
f0
e4
21
12
0b
e9
e9
04
ff
dc
cb
e9
f4
18
14
1f
17
e2
e5
eb
28
27
fe
23
12
f3
f8
31
21
06
02
f3
e7
f4
e8
11
fe
da
db
d7
ee
eb
ee
f9
df
d2
d7
e3
32
26
20
39
33
02
fa
fd
1f
0e
18
fd
f3
e5
08
0b
04
f4
de
c4
eb
e2
e0
e5
d9
db
07
cf
e4
06
04
1a
17
04
ee
d6
d8
0a
f8
03
0c
04
d8
df
de
e3
c7
d1
cd
d7
fb
d7
f3
df
d3
c0
eb
d5
0a
e7
e9
f5
db
b4
e3
f5
1c
14
19
12
e6
f6
e2
f0
e8
eb
e7
f8
e9
e3
cf
91
ad
9a
d8
ff
10
f2
e8
d8
cf
da
d6
fe
fe
f7
f6
05
1b
07
15
04
ea
fe
25
03
0a
db
ca
d7
9e
a4
f4
dd
0c
f2
db
f9
e1
ff
f8
ff
f3
02
ec
02
13
26
3a
3b
1c
06
f0
06
f9
f5
09
03
1e
b3
ed
db
10
da
cb
fb
19
17
0b
05
16
fe
df
e4
f0
26
4d
2c
19
f9
f5
0a
09
04
d6
cf
ce
e0
ff
c8
19
e7
c8
c9
e2
e2
eb
07
fd
fd
db
de
f5
16
1c
1a
05
0f
17
36
f4
e5
f8
0f
ff
17
c6
b8
06
ef
02
ed
d3
da
e7
0d
1a
0a
ed
ed
04
17
19
00
fa
23
31
38
24
1b
26
3b
27
00
c3
a1
1b
15
14
02
04
00
0b
15
11
00
ee
f7
1d
32
09
e0
f3
fc
11
0c
f4
ca
ac
bd
da
d5
eb
f1
3a
2d
25
fd
ef
09
02
12
05
ea
08
f2
22
1a
08
01
fb
24
2a
11
0f
0f
4a
0f
16
ec
06
0b
33
20
e9
b2
dc
05
0b
fb
f9
f8
21
19
34
1e
08
00
0b
14
fd
0c
15
f5
00
40
35
47
04
0e
1a
1b
e4
d1
d9
f3
fb
f9
f6
22
18
35
47
ff
cb
b9
cc
09
d0
1d
23
0a
e9
e6
e7
04
13
e1
c8
1b
0e
f7
ec
ed
00
02
f8
1a
38
2a
33
0f
de
fa
09
0b
11
13
37
25
2b
37
16
fa
0a
ce
ab
16
ef
d4
d4
db
00
f1
f2
07
fd
1b
21
09
e4
02
0f
18
0e
e8
f3
fb
f4
e1
f6
db
14
ec
91
e0
e4
07
18
39
fe
f6
ec
e7
03
f7
2e
0a
0c
fd
fd
0d
13
f3
e7
fb
04
1e
16
27
d1
d5
ef
da
0d
0e
17
28
05
0e
ea
ff
e9
16
18
08
17
2d
1f
20
15
1b
0f
36
2a
1c
fd
23
ea
f0
fe
f9
19
10
fc
f9
05
fc
d9
e1
01
fe
0c
12
27
0d
14
1c
14
07
07
18
05
15
0b
1c
b9
b5
ed
17
25
1b
13
09
fc
fc
fc
e9
f7
f3
15
0d
07
fc
e7
0a
07
ee
ed
11
05
1d
28
13
ba
c1
d8
19
37
1e
05
fa
32
06
f5
04
10
12
02
ef
f4
e9
f2
00
08
f8
db
f6
eb
0c
3c
34
a5
b5
d9
0a
01
e2
e1
03
f8
ef
fb
f6
02
c5
c3
de
d1
f7
0a
25
22
fc
e3
f8
ff
16
40
3e
e2
f5
d2
e9
e1
b5
eb
14
01
f6
f0
01
06
fa
d3
d0
93
f1
10
17
08
f9
f0
cd
ff
e2
14
21
f3
df
c1
c4
c9
a5
fc
10
04
c5
97
c9
e4
10
dd
e4
bf
e6
b3
ea
c8
ca
d6
ec
e6
f7
d9
07
16
08
d5
f6
e2
c5
26
04
74
73
e6
df
de
d7
d5
f5
89
77
90
9d
c2
a1
c9
dd
f8
f3
ed
ff
06
02
ea
03
14
ef
df
f7
d2
fd
ec
db
19
63
37
3f
43
57
5f
4e
1f
2b
2e
d6
d0
cf
f7
09
e9
1e
2b
cf
ba
b3
7d
9a
97
ad
e8
e1
19
f6
f3
f0
d9
fc
f3
fd
f2
f0
d8
c1
c9
9c
c3
d6
1e
21
13
f0
26
05
e8
ed
f9
e9
f1
e8
e5
dd
e6
d3
c9
de
03
f6
f0
fc
f2
d3
ed
e7
da
b7
23
4e
2c
19
20
15
38
08
e7
f9
f2
e4
ee
e7
e8
e2
0f
f7
e0
ed
e4
f9
fb
f5
11
06
f0
a7
fe
0d
2c
1e
1e
20
0e
f8
ef
03
f2
db
ef
ea
fe
ee
f2
ef
c9
c3
f3
00
f5
fe
07
02
ea
95
cf
f5
f8
08
07
26
13
f6
06
03
09
e2
f1
e3
c1
dc
de
e1
d2
d9
eb
fc
ed
f7
04
fe
e0
82
e9
ea
06
0a
e2
f8
0f
36
17
fe
00
fd
db
e3
b8
de
da
cf
c9
e5
f2
eb
e4
e2
e7
df
c0
72
ef
e7
c3
1a
0d
cd
f8
1a
3e
12
f3
00
df
dc
cb
b9
d1
de
cd
f5
05
f8
e2
c5
e3
dc
b2
9f
0a
f3
f0
c4
18
f0
12
14
21
13
e1
d1
d6
c1
ea
e7
f9
c9
cf
d8
ca
f0
f5
dc
fb
06
f5
e4
31
17
c9
d8
9e
c2
02
18
26
2a
10
c4
d6
d5
f7
e6
04
cc
d7
f0
dd
eb
d6
d7
1f
01
f5
10
0b
f0
01
0d
fc
fa
d4
f9
d4
f7
f2
cc
da
ca
18
e7
12
ee
e7
f9
d2
df
0f
f9
08
df
ed
1b
02
fb
cf
fb
19
42
11
fd
e3
13
fc
e2
fa
14
09
14
15
d9
ae
be
d6
03
04
28
1f
e9
ce
e1
f0
f6
fd
35
1e
00
f0
e2
01
0f
e4
c3
ed
da
dc
0d
02
d9
cf
cc
d3
07
15
23
1c
0c
f4
0d
0e
fe
34
34
e7
85
9e
db
0d
f3
04
e1
9d
92
d7
f9
fd
d6
b4
b7
d7
1b
00
07
dd
ef
fb
06
03
3f
39
2c
18
21
f6
e3
08
fa
bb
c5
66
ad
2c
10
19
e1
bc
d3
fc
02
fe
07
ed
31
3e
1c
20
22
22
31
1e
30
f1
1f
1d
07
d2
a3
7c
91
fb
ea
d2
ce
b7
f3
f7
f6
08
06
0a
07
0c
0e
fb
0e
1b
0b
1e
13
f1
f3
fd
fb
ed
ab
9a
c2
06
e8
c6
ca
c5
01
01
1b
2f
21
f9
0c
f6
f5
ff
f1
a0
b0
97
a7
e8
02
11
16
f6
da
c2
e2
0c
e6
d7
c6
e0
00
ff
16
1f
19
0c
08
13
09
f8
dc
9f
ab
d6
02
f3
15
fd
f6
14
0a
e5
d8
ca
ca
d8
f9
03
08
03
14
1b
0b
f3
13
07
f5
f4
f6
28
25
04
25
1b
0a
00
1a
18
30
1d
e8
dd
e4
09
16
14
08
24
2b
17
07
d9
0f
18
26
fa
e9
f2
18
0e
01
06
e9
07
0c
2d
2a
0b
ed
de
fa
00
1a
0a
3b
1c
20
1c
03
f0
f2
ff
13
ae
a0
e1
07
22
32
15
f8
10
1d
00
03
c6
d1
e0
0b
09
fe
1c
43
28
1b
fa
ea
cb
f2
16
1d
01
d4
f7
04
b1
cc
d6
e7
f7
eb
ba
c5
c6
04
16
3a
42
14
11
1b
2b
49
14
fb
c7
cc
28
34
02
ec
f8
e7
9a
b9
c1
8d
df
b8
d9
e1
e3
f0
fe
fa
2a
2e
02
fc
17
10
06
f6
d6
c4
25
41
fb
fa
f5
03
cb
ae
99
97
aa
f2
ff
62
f3
0b
19
07
c7
d2
36
13
20
0a
01
01
e6
d0
0e
1f
10
ec
fc
f4
d5
e7
d9
fa
13
d4
ab
d9
9d
48
34
08
1d
c7
a0
a0
bb
a9
b6
05
cf
b8
d5
fc
f2
13
ea
ea
f3
f4
db
ec
f8
0c
ee
c6
c7
d1
8a
8e
27
1f
04
ef
07
cc
e5
ee
13
e8
f4
05
09
fa
0d
fb
02
0a
f5
f7
ea
fe
ed
08
f0
d5
bf
ad
f4
d6
e9
e4
e4
f7
f0
f4
eb
01
ef
fb
f9
f1
fb
03
f0
0a
05
f0
3e
3a
45
5a
fd
02
c8
05
12
f6
d8
fa
cf
be
dd
fe
01
1b
fe
fd
f9
ea
ff
ef
da
e4
f2
d2
08
e9
20
32
24
fe
f0
e7
1a
2d
fb
d8
00
ce
c8
1e
23
1b
fd
05
00
d3
f1
da
d3
ff
12
13
00
37
01
25
4a
f6
1a
02
f6
0c
2d
eb
da
ed
b1
df
e5
cf
f7
fe
ef
02
f7
20
ec
cf
0c
21
d6
1c
13
33
28
fc
fb
f0
fc
eb
ff
ea
df
f3
de
fb
ec
f7
0a
01
01
ff
e1
1d
22
b9
0d
fe
f2
db
0a
11
0b
ed
fa
f1
f9
fa
f0
f0
fe
f1
f8
eb
f6
d4
f9
2a
01
f1
d2
ef
27
08
de
eb
f1
ea
df
f2
0e
f9
f7
06
04
05
00
e9
01
df
e1
09
f4
e7
f4
47
fa
f2
e7
cf
29
24
d0
bf
c7
cc
df
c3
ed
f2
13
f7
02
11
0b
f4
02
fc
eb
0f
dc
d2
e8
46
dc
de
18
e3
19
ee
d5
ae
d2
e3
f2
f9
fa
ff
08
1d
19
0d
1e
15
e6
0c
11
fb
fa
e1
ea
2d
03
e9
0e
01
0e
bd
d2
dc
e2
d9
01
12
17
f8
12
00
0c
05
10
17
01
05
1d
17
09
08
08
3c
f9
d6
0e
1f
46
b0
d7
e2
ef
fa
dd
fd
dc
0e
02
07
1d
02
f2
29
f2
07
14
2f
04
0a
23
f4
0a
d3
f0
00
15
92
e3
e5
d4
03
f5
0f
05
eb
02
f9
19
22
06
19
07
14
2f
28
13
20
3f
07
f7
fc
c0
c1
c4
b3
ec
e1
c6
c0
d4
e9
ef
d8
ec
f3
f9
0f
16
15
28
17
26
23
26
2a
32
34
eb
fe
eb
d3
d6
c0
d0
a4
d8
c6
da
de
cc
dc
ee
dd
10
06
0e
1e
2a
24
11
02
32
23
51
25
d6
ef
02
01
f8
f2
d7
b3
b2
b1
c2
c5
bf
d2
f3
f7
eb
f8
00
13
2d
18
f4
1b
01
0a
2e
0f
f3
f8
ef
07
e6
d0
c9
98
b5
b9
a8
ed
ea
da
00
fd
fa
f2
12
0f
1a
1c
09
ff
02
16
37
37
fc
dc
d9
14
cd
cc
ca
cd
d4
d1
c7
02
d0
f8
04
11
0c
f4
16
10
f5
09
06
2c
e4
f4
12
14
09
ec
d0
34
00
db
f9
ea
d6
d5
ec
01
f8
0a
06
fd
1a
12
13
fb
0d
13
e9
fb
e4
e6
db
18
ef
e7
fd
43
ed
12
0b
ff
e3
e0
fb
02
10
fc
13
0f
07
f5
01
d9
10
05
f4
f1
ec
d3
d5
1e
e8
f8
f3
15
f1
18
20
15
04
f9
01
01
03
fa
24
01
f2
f1
02
05
ff
f6
f1
f9
e0
f6
d8
26
fe
eb
f9
15
ff
28
22
05
f8
21
17
08
f6
11
02
dc
16
fe
12
f4
f4
f0
f9
ed
e9
e2
d7
16
f1
02
07
16
3f
12
2b
34
24
24
20
11
0b
f0
f7
e3
f4
f0
02
ec
e7
ee
ec
db
e4
c4
bd
f6
13
09
f9
1b
1b
2c
2f
21
24
22
17
12
ec
07
02
fe
05
f7
ec
f1
06
0d
e0
d9
c9
f3
f6
f5
f8
1d
10
11
06
17
28
17
12
15
05
de
e0
f5
e9
03
fe
f5
ec
e7
19
00
d0
f2
e7
fe
e5
e6
f7
ef
f1
0d
2b
ef
e0
08
0d
0c
ec
eb
e2
d6
cf
f3
c8
0e
10
f0
f1
ee
f4
d6
07
f6
13
d8
1e
08
00
16
f8
e1
9d
05
f5
f0
cc
b8
d6
c9
b1
c8
ad
c4
f0
e5
cd
e2
d4
fa
e8
f6
18
ec
17
f1
f1
ee
06
f5
c5
b8
cc
97
8a
8a
ce
d0
a9
b3
bc
cd
ce
cd
c2
ba
e2
02
f0
e9
1f
00
f6
e0
ff
ec
ea
ba
84
93
b9
82
79
a4
c3
c5
96
bc
c7
a9
b6
bf
ad
b9
10
05
ec
d8
1e
0d
1b
ec
1b
f5
da
b8
a4
b0
a2
79
6f
93
a9
bc
c6
ec
dc
c4
b0
c5
ac
c3
c9
b6
e2
d9
e8
fc
fc
ff
fa
03
fa
f5
20
18
ff
37
61
fa
10
b2
0d
08
c1
cb
11
ed
d2
16
cb
24
33
00
10
00
09
0c
13
03
08
eb
eb
de
d3
3d
0a
d2
05
0c
10
36
58
fd
e0
00
7a
ed
26
0d
ff
0d
dd
07
f4
dd
fb
1a
e2
e8
2c
4d
35
0d
13
ed
f4
2b
1d
1e
1d
04
13
d6
e3
ce
ca
b8
d4
fe
02
ef
ff
e0
d7
d6
18
f5
d2
0a
20
27
0b
0e
2b
33
35
27
04
f2
ee
0c
28
26
11
21
f1
20
f3
e5
f7
e0
aa
d0
e5
1b
2c
1b
1c
09
0d
fd
f5
fc
16
1f
0a
12
1c
14
1b
28
ec
c1
a7
1f
09
e3
d8
ca
d1
b7
e2
01
1f
14
06
f8
12
fa
11
ea
fc
08
1c
04
35
14
20
27
15
fa
d9
24
c6
18
cc
36
2a
e7
ef
f8
f4
fa
e8
12
00
f8
fb
02
11
07
0c
1c
01
0f
1f
1e
ee
e3
e2
bc
ad
ed
dc
0d
1d
00
0b
0a
06
08
07
fd
09
08
f6
0b
1a
14
1c
12
25
15
0a
ed
d7
b9
ec
c2
0c
52
cb
27
14
0b
1a
f5
0e
ef
f0
fc
ea
09
f2
f3
f5
07
f5
05
e5
fe
02
07
d7
c6
10
f9
0b
54
c3
29
1c
1a
ff
eb
f2
e3
f4
0e
ea
f1
f0
ef
f7
da
d6
fa
f6
00
f6
11
ed
03
1a
14
83
06
af
17
d9
04
f3
f7
02
ed
ed
f4
f2
df
e7
d1
d5
e8
d9
01
f9
08
f5
f7
02
f5
0e
2e
32
16
ab
06
c8
f7
fe
1a
09
f8
04
0a
d4
d9
f2
e2
d6
cc
ce
d9
da
e6
0e
02
00
06
22
0f
1a
10
96
02
c2
fe
14
ec
e3
f9
02
18
ef
d0
b6
a9
a1
bf
e3
d4
c2
05
17
f1
fc
05
0f
28
49
47
d5
dd
e3
e6
df
d8
da
dc
eb
df
c7
bc
9d
b5
bb
bb
e6
e8
e8
09
f6
f9
d8
ef
f7
1c
2a
2f
dc
e9
eb
d5
df
f0
f9
f4
d8
c9
d0
b8
cd
c0
c6
d7
d7
ed
fd
fe
09
23
32
11
31
42
75
68
e6
0d
f0
01
0b
05
06
e4
f8
ed
e7
bf
bd
ce
e5
f2
f6
f8
e9
fb
18
18
17
18
2c
29
5a
3a
2e
3b
e8
ee
ee
06
16
06
09
0d
e5
e1
e7
ee
f7
0c
01
0d
f9
09
13
14
17
26
32
36
51
20
3c
4f
f9
de
18
14
14
09
14
08
19
31
f6
01
fb
10
11
17
e9
0b
19
1e
1c
02
10
07
34
43
3a
4a
09
37
26
22
13
1e
1e
fd
06
0c
01
16
08
17
12
13
12
1a
07
37
f2
fb
f9
15
28
22
17
23
0f
13
0e
13
22
26
29
13
ef
1a
fd
0c
06
13
18
32
16
f9
0b
0f
14
19
1c
fe
f5
27
3f
47
2e
19
03
ef
14
19
2b
15
0d
23
10
11
04
0d
02
ff
1c
0d
07
f9
f5
fc
0f
ec
f1
1e
5f
4c
3b
34
24
1e
06
06
10
1f
25
18
03
0f
e6
f5
ec
0d
0f
03
f5
02
e0
ec
0e
06
ff
12
5c
52
1f
32
2c
12
29
24
1e
23
07
2c
f2
ed
f6
f9
f7
05
12
fc
da
f8
00
19
1a
26
05
0f
69
34
1c
03
1f
21
36
1e
08
1c
14
12
04
08
f9
fa
f5
d1
e4
dc
d9
ee
f6
f6
0c
f9
0a
f4
49
d4
cd
d8
fe
13
15
24
29
08
1a
2d
13
16
ef
eb
e3
bc
af
bc
c4
dd
f1
f1
f3
d8
07
fc
fb
bc
ad
be
ea
03
fa
f1
0b
09
1d
13
28
04
f9
e2
d2
be
d1
cd
f5
f4
fb
f5
0a
ef
07
1e
ee
9e
8e
7a
d3
f6
ed
db
dd
da
07
de
0d
fd
e4
e3
d3
d2
af
c6
f2
ed
ef
db
f0
ee
01
ef
ec
e3
d7
6c
fa
08
c4
6f
7e
8d
b7
a9
f0
ff
e4
bd
bb
ac
ba
ae
bd
e7
e5
e9
c9
ff
f5
11
e2
f7
fd
05
0a
1c
2c
5c
55
61
5b
4a
1a
eb
f2
ff
00
ee
d4
dc
f2
ca
dd
ef
2b
24
1a
f8
fd
f8
f3
0b
e0
eb
f4
fd
0d
2a
15
02
14
17
04
13
26
0b
f9
e4
dc
d2
db
03
23
0b
0a
f2
ee
dc
c2
be
c4
e9
20
14
0a
06
1f
20
1d
fa
16
08
06
14
fd
df
f1
d2
d1
be
b4
aa
e8
05
f6
d8
b7
cb
f5
f9
15
f0
f3
1a
f9
1c
01
04
02
07
01
0d
08
03
fe
0b
fc
ef
f9
e3
e8
23
eb
ce
fd
e8
e7
e2
0f
20
16
06
16
07
e7
17
f8
04
04
12
1d
11
05
f9
fa
fb
eb
bd
eb
1b
d5
fa
f8
08
0f
07
0a
0a
0d
e3
f5
13
07
07
16
13
06
10
ed
13
0c
e4
ee
eb
e5
dc
06
63
eb
fd
ef
13
1f
05
ff
02
f6
13
1b
08
19
1f
17
25
07
02
0d
dd
f5
bf
e1
fe
e2
c7
dc
2c
dc
db
e9
f1
f5
f6
fb
eb
e1
1f
0a
1e
0c
ff
22
16
05
08
04
0a
e5
ec
fa
e6
f1
fc
27
33
d2
dd
f8
b9
c8
03
0a
ee
14
24
37
32
0c
25
32
26
29
fa
f9
fb
d5
fc
f8
d8
fb
0e
fc
fa
bc
f7
03
db
2e
20
2c
f7
06
ff
e7
f5
f9
22
30
2f
05
10
f9
04
fd
df
d7
0f
f9
15
0d
12
c1
b5
d7
13
33
25
27
15
f1
fb
05
24
3d
1f
27
01
1e
07
06
ee
f7
ed
d2
ee
eb
19
00
0d
e6
ee
98
e1
21
2e
1e
2e
05
f6
f7
23
19
10
02
03
e7
f5
f4
da
f2
0c
e4
14
14
1a
33
1f
dd
bc
e9
e4
02
0b
33
44
26
47
2f
1e
33
28
16
f6
03
e1
e1
d8
d7
f6
ee
17
16
2f
34
2b
c4
08
fb
3f
35
43
1d
22
18
13
19
08
14
02
17
37
13
06
e4
d0
ea
fd
00
0e
04
35
34
26
e2
35
3e
0b
0c
19
f6
05
f2
06
02
f9
f3
f2
19
11
fb
ee
f9
d8
f9
04
1d
36
1f
21
38
43
10
29
12
05
de
03
f8
fb
e5
f9
e3
f3
12
fd
26
19
0e
01
f0
ef
26
05
09
09
2a
3a
1c
5f
23
11
05
d9
f1
c6
e4
fe
ea
de
e7
f9
e9
ff
f0
e2
16
fe
e6
ea
fe
1f
43
31
22
22
06
41
ce
09
03
16
22
0f
13
f5
ce
c3
da
d4
df
0b
ea
ec
03
11
0a
ff
11
0e
1e
16
0d
f1
fd
3b
de
14
1d
f5
f2
fb
d2
e9
ea
db
ce
fb
fa
fb
ee
0a
f4
ed
08
19
1d
22
45
41
19
17
19
07
1e
46
3c
27
f8
f8
c2
dd
e3
d9
d6
f7
e0
02
04
0f
4a
47
25
41
16
06
23
2d
1c
f6
e6
12
f7
42
39
2d
28
ce
be
ed
c2
bd
df
ec
ed
f9
0f
0c
ff
23
3a
4c
2d
35
3f
33
ff
13
26
02
35
39
47
c2
bf
b9
ac
c2
c0
c2
d3
e6
fd
f3
04
03
11
28
47
35
34
2c
2a
2c
21
0f
18
fe
00
ba
9e
b8
6e
94
af
d5
ec
e0
f5
f9
dd
f6
02
03
1d
26
31
2b
34
30
27
18
2f
28
1c
f6
f5
d8
b7
9d
b4
71
a1
ba
b7
bc
c8
e2
e7
df
0a
19
30
34
58
66
42
16
39
03
d9
34
0e
01
f0
ed
df
cb
b9
28
27
0c
18
ed
eb
05
f3
f4
21
3b
4c
6a
75
63
48
13
4c
28
c6
ce
0a
0e
f7
05
11
d8
00
e6
c3
91
fe
20
1b
19
13
17
fc
31
48
37
0e
52
2b
09
03
f2
e0
e4
05
1b
11
0f
00
ff
0d
0c
fa
d0
cc
cc
d2
98
97
b9
c0
ee
0b
f0
a4
a7
c3
f7
c6
e2
e5
e3
f1
13
1a
02
ee
eb
04
06
fc
e6
c8
f7
b4
bc
d0
da
ec
dc
d7
ca
e3
d9
e3
c4
e0
db
f7
f0
02
f7
f9
03
0b
fd
fa
f1
d0
cc
ac
c4
d9
d2
da
fc
ed
00
ee
ee
e0
c4
b8
d2
b9
97
b4
ce
bb
fe
10
07
e7
d7
df
e1
04
53
1f
57
06
f0
0b
f7
db
e6
04
ee
e5
e6
e5
13
0d
cc
a1
bc
d9
fa
08
ed
ff
2c
0b
02
22
1d
2b
26
3c
ff
0a
06
c5
e7
e8
08
ec
e2
f0
01
12
e9
b2
93
af
b8
d7
01
0d
0e
2b
f4
f4
0a
25
ea
fd
04
0b
f3
e5
e3
f8
00
ea
d9
f4
e0
f0
fb
fc
fe
f6
ad
fe
fe
1b
08
2c
cf
00
1f
00
fe
e4
f0
18
0b
ff
17
12
05
f3
f9
09
ec
ee
dc
fd
1c
25
a0
10
00
32
16
ed
cb
db
1a
1c
e8
ea
f9
10
04
08
0a
27
00
0b
02
fd
fd
f7
f9
e9
11
4b
72
11
15
f2
29
ed
b6
f1
f0
e8
d8
00
f8
14
db
17
19
13
14
08
fd
f1
02
e4
f7
05
0b
4d
53
f3
3b
fe
e4
f6
d2
eb
d4
e1
cb
d8
ce
de
e9
09
16
2c
fe
21
15
13
28
15
fe
27
03
39
4f
06
19
00
de
cb
1c
1a
e1
e1
e4
e2
ad
d4
f3
f1
f9
05
fb
04
0f
09
01
0d
2f
01
24
04
9b
fb
0c
f5
30
c0
e4
f7
ef
eb
d9
d8
c6
e5
fe
fa
d5
e3
f0
04
15
ff
15
1c
0a
14
20
b0
c9
ca
04
f8
3e
f5
c3
ca
cb
e0
ba
d1
bd
d8
e1
e8
e5
fb
07
0b
0f
1d
12
3e
33
1c
2f
83
f8
0b
0e
e4
46
05
b6
b2
c7
df
d1
ef
cc
ca
cc
e1
d5
ed
fb
f1
00
f2
07
01
08
2d
1c
7d
de
17
f5
f1
08
c7
bf
e0
f0
ef
ca
f8
e4
cf
a0
d0
e1
ef
fd
fa
16
fe
f2
d8
ef
e7
19
e2
d5
f8
f6
02
ef
c9
d4
ea
f6
00
0b
07
f8
c3
ca
f5
e3
f2
07
f2
ee
05
e1
e3
c9
d1
fa
dd
a2
f5
1d
fd
e0
f1
ad
e0
20
e8
f4
14
d5
d7
ec
13
fe
f3
0d
02
dd
f2
f0
dd
cc
fa
03
10
7c
fe
16
3a
d2
ff
f2
05
13
f4
f8
fb
de
ef
f8
f3
0f
f4
f8
f9
08
f2
f8
e7
cd
00
1b
3f
7f
fb
12
38
e6
cf
0d
f7
12
dc
01
f0
f0
f3
07
15
00
0f
e9
fb
06
01
f4
fd
fd
22
0b
2c
be
08
11
1d
e6
f6
04
cf
e2
ee
e3
f0
ea
d1
07
22
f4
08
fa
f4
19
f5
1b
f7
15
27
16
09
b8
f5
13
e1
1d
02
06
e6
dd
d4
d5
03
eb
ef
06
fb
d8
03
ef
1f
07
05
0d
14
24
28
00
f2
8d
0d
05
e3
fd
0b
d4
f8
e5
ff
f0
e6
dc
c2
d2
f5
d6
fe
22
16
ef
fd
06
0f
2a
17
0b
23
90
20
19
19
ec
f8
00
f1
f1
db
e4
e7
ca
b4
ab
ea
f2
0c
02
00
08
16
f3
0e
13
18
29
27
8b
14
35
21
cd
f0
f0
cf
eb
ed
e5
e1
e0
ca
d1
f0
ec
ec
fb
f9
11
01
12
11
fc
3b
12
16
9d
e3
12
41
f1
fd
cd
c5
d0
c8
e3
d4
e0
d4
d1
e0
0f
f1
f5
fe
09
04
08
0c
08
17
24
f3
c8
fe
07
49
f7
1c
e5
e6
e0
cd
ba
c7
cc
e5
c4
f3
e6
fa
f1
f5
1b
03
04
fb
0d
09
19
02
e6
ec
ec
40
e2
2c
2e
0f
f4
dc
e6
e6
ee
02
ee
1c
ef
e4
f9
07
18
e6
25
f8
10
17
1a
e0
d6
03
fd
43
f0
08
df
b9
d9
06
f9
ff
04
0b
10
2e
f1
fa
fd
1a
21
13
15
0b
e3
00
16
da
11
0e
01
1e
fb
0b
e9
e4
ef
e3
fe
f4
04
26
2f
3d
0e
cf
12
22
15
ef
fd
f5
0d
04
f3
b2
e8
05
15
0c
0b
0c
c8
bc
d9
cd
fa
f6
f1
fb
16
58
0f
d5
f0
12
07
eb
f1
da
e9
db
ba
de
08
fa
0b
fb
f5
fe
f4
bd
c3
df
f0
c8
e1
ea
de
b3
f8
12
f7
c6
b9
bf
a7
ee
ca
dd
14
fd
f2
f8
08
07
ee
b9
09
1e
3e
61
e4
e6
18
e6
d5
f7
fb
eb
eb
eb
1a
32
ea
b4
d1
e3
f5
fe
04
0d
1c
ee
ec
26
1e
13
f1
d5
fb
12
16
2c
2d
dd
16
30
1a
ef
ee
16
ea
f5
b5
7e
b9
dc
f8
e8
1b
ed
19
10
10
25
31
05
00
fc
06
1a
45
44
1e
2e
2e
0f
0e
de
d0
c9
ff
c9
ab
d6
e3
01
2f
35
26
1a
2a
29
ff
f4
16
02
ff
1d
18
38
2e
36
20
f7
ed
df
e3
c5
7b
ab
6e
c3
e2
ff
2e
48
0a
f6
02
f1
e5
e8
17
fb
ff
fc
04
24
0e
1c
16
f9
08
00
e9
02
d2
ac
77
82
bd
0a
38
5c
07
11
ee
07
e7
00
13
fc
04
1c
f1
19
0c
11
0c
11
e2
0b
fd
04
08
e5
c4
8b
a0
18
1e
1b
f3
e4
1f
0f
02
03
fa
08
f4
f8
03
14
16
04
0f
f5
ff
f7
e8
c9
e8
c5
de
25
62
f7
1b
10
05
e1
06
f4
09
fa
e5
f0
ff
f8
00
fb
fe
fc
11
fd
db
f1
cc
d0
07
0e
dd
32
6a
fc
06
f3
11
0a
16
09
0f
f9
07
06
f7
e8
e9
f4
f6
d8
0c
fd
f4
fd
f0
fd
e3
b3
86
ac
a9
e0
12
18
fc
ea
fa
07
f4
06
f2
0b
08
f9
09
f2
fe
f9
06
0d
11
00
fd
ff
e1
f9
23
d2
ca
c9
13
18
0b
06
fb
12
f5
f5
fe
f0
00
00
0e
07
11
05
1a
1e
15
06
f3
fb
d7
d8
0f
f3
f0
c6
e5
eb
fa
fa
f3
fd
0c
04
ed
fd
fd
24
0f
0b
07
04
15
31
2d
18
12
d0
a0
a2
cb
b1
f1
c4
c4
ea
d2
f7
f8
f1
fd
0b
ff
11
28
28
1d
29
11
0c
27
1d
24
2a
08
04
0b
cc
ab
b2
e1
e5
c1
e8
e2
c1
cb
c8
ff
fc
06
12
0e
1b
2a
1f
1f
03
15
06
00
f6
d7
d5
cb
bb
bd
73
d6
f4
bb
e4
cd
cc
d0
da
ed
f3
f1
03
2c
25
3e
2b
13
03
f1
e9
d9
fa
ec
e5
df
a6
9d
a7
e4
f4
c2
ba
d7
e6
dc
d7
d5
f4
f2
1c
28
2f
2d
19
08
f5
e4
f5
05
f8
e9
0d
17
e7
c9
0f
c9
d4
d2
e7
06
f1
d2
c0
ce
d6
e9
02
0e
2a
17
fa
f1
e4
f6
ea
0b
11
f0
15
f8
e0
03
24
be
ea
05
e9
e3
e0
e5
e3
e5
dc
f7
0a
17
0c
0e
f8
d0
dc
f0
f0
15
ec
fa
07
fc
f3
c2
8f
c4
da
ff
f1
06
dd
ec
e6
cd
da
e1
f8
fe
09
ed
e4
cc
0c
f4
e3
06
f4
03
db
f4
e8
f5
d4
c0
b1
04
d8
02
db
01
13
f8
0b
02
fb
ea
d7
de
dc
01
d2
f1
ed
fc
fa
fc
e9
ee
cb
d9
21
ca
ad
f5
ee
e3
d5
ee
f2
04
0b
0b
ff
f3
e5
fd
f9
f8
dc
02
05
e6
f9
d8
de
fc
fb
ed
07
b1
a9
dc
c3
cd
e2
fb
e1
f9
0c
07
04
e4
09
e9
ec
f3
f6
fa
03
19
e6
01
f9
eb
c2
b2
cf
ce
eb
fa
f5
d8
e6
e9
fd
fa
f1
01
14
1e
1c
fc
f8
ed
fa
0d
1d
f3
07
f6
f7
f8
cb
d9
08
e3
11
3f
09
14
16
0b
fc
f3
11
27
23
fe
05
fa
fb
05
06
1d
18
fb
0e
14
29
36
34
3e
0e
f1
20
45
27
16
20
2a
27
0b
15
14
24
23
2f
2b
2a
2f
13
13
1f
3d
1d
21
f8
e4
d7
e7
dc
0a
0b
34
1e
06
13
42
22
14
32
17
23
58
32
23
1e
44
1b
3c
26
1c
fc
d5
d3
d9
f0
14
cc
0f
02
e0
d3
ec
2b
29
38
30
11
fe
5a
65
25
33
21
28
12
29
e6
e2
f3
e8
c3
e4
d9
de
da
09
fd
21
f2
ec
e2
bc
c6
c4
ad
96
c9
eb
db
fc
ff
e3
02
d3
ba
b2
b9
bd
97
8f
c4
d4
d1
00
f2
dc
ca
cc
d8
ee
28
4a
2c
27
13
fc
ef
f3
e4
eb
03
fd
01
f1
09
0b
10
a7
a3
d1
d4
e7
07
da
01
1f
2d
0a
0f
17
18
f9
27
0e
04
06
f6
f2
f5
21
0b
01
fc
0b
22
e0
ed
8b
6f
bf
00
1b
3f
3e
14
00
18
25
f5
06
ee
08
f6
05
2a
24
0c
0d
0c
02
f6
15
f1
08
08
ff
f8
88
28
1b
2d
4b
01
fc
0f
ea
11
fa
14
14
1e
1e
14
0f
09
09
0d
ea
f9
03
e4
f7
fe
10
45
38
22
2d
28
1e
10
06
ea
f6
19
2a
ff
10
05
32
03
11
16
01
f3
fd
f1
e3
05
dd
ee
10
2e
20
22
21
23
1b
09
0a
f7
1c
0c
1d
08
1e
18
2c
13
03
11
10
ef
ee
04
e9
03
eb
db
06
12
14
0c
07
23
19
25
0b
f8
0b
0b
20
22
33
21
20
02
0b
fa
f2
fd
fe
dd
f5
ee
fa
ed
11
de
81
14
27
13
0e
0f
13
05
e5
03
ed
2b
13
11
0e
25
12
f8
f2
05
ed
fa
f1
00
f9
ef
d2
8a
cc
ba
e7
0d
ff
e6
0d
28
20
fd
07
1c
05
08
18
08
10
04
ea
fb
ee
cd
eb
e0
fe
02
d1
7a
ee
d9
d8
04
14
31
23
18
1c
f8
cc
eb
ff
ec
ec
f1
fe
eb
02
07
01
da
d8
ca
d1
f4
ed
88
f0
e1
ea
c9
0e
29
40
06
fa
08
e5
e3
fb
00
ef
ef
fd
fe
eb
03
fd
e4
f9
da
c0
d3
ee
b1
a6
fc
09
02
22
35
1f
26
fb
f1
e4
c4
e8
d8
fe
18
09
28
1f
fa
12
19
19
f8
d4
db
fa
da
7a
14
08
e6
ee
37
44
32
26
19
08
d6
ce
e1
0a
08
0c
05
09
13
08
19
09
f8
f4
f8
e8
e1
93
10
01
cd
13
26
17
04
0b
12
f6
e6
c3
e8
e8
08
15
23
f9
1b
0f
f4
11
fb
db
e8
04
04
a0
09
1b
06
1a
1e
17
04
03
34
09
ec
f1
f9
15
fe
12
0f
29
24
07
fc
f9
fd
f0
05
17
f5
b8
f8
12
25
2e
2d
21
17
1e
28
20
f4
ff
0a
f9
14
fb
1b
1e
23
1c
0f
f9
ef
ec
e5
f3
04
93
27
ef
fa
f3
22
1d
25
21
33
07
2d
27
0f
f4
1c
20
23
05
0e
02
fc
e4
f7
e2
e6
e7
e8
9a
ce
ca
08
ee
12
34
13
28
22
17
18
16
26
14
45
1d
11
14
16
f9
06
d4
f7
dc
fb
00
f5
88
19
d5
ea
ee
22
1c
2a
1f
1d
10
1d
16
02
17
32
1b
20
26
05
e0
ed
04
ee
f6
f8
04
f2
92
2f
cf
04
ed
16
2b
18
26
2c
ff
18
eb
ef
1c
fd
1b
03
01
09
d9
d6
0a
e3
dd
e3
15
e0
b3
26
40
18
24
3f
3d
26
1d
13
0c
13
ef
07
11
27
0d
02
ff
fe
d0
f4
e2
bc
c6
f5
e7
c5
b2
3a
5d
28
15
50
50
19
1c
20
0e
0f
15
03
2a
09
13
09
e4
e4
d8
c2
a1
89
a1
c2
cd
e2
c6
ce
35
09
f2
0d
0f
3f
32
1f
27
27
e8
fb
29
0c
fc
fe
b6
a5
bd
c9
cb
dc
e5
09
3b
10
01
11
e0
cc
bf
f8
49
17
15
61
46
28
15
0f
de
c9
ca
9b
ca
a6
ca
dd
e2
d6
ba
03
23
f0
ff
fc
03
a4
ac
96
1d
30
3e
4b
2d
01
e1
28
00
90
86
6e
fd
07
b7
d2
e3
ae
d7
c6
c5
d0
0d
03
05
e5
05
f6
e6
a9
ce
9a
aa
a9
cb
d5
c9
a5
4d
53
25
17
e6
cb
a3
d8
e4
ee
14
ee
03
ed
06
fe
07
0b
16
01
e1
c6
d5
f6
e3
05
c7
e1
eb
02
ca
d7
df
c3
bd
f4
ef
ff
03
e3
f7
ee
0c
c3
ba
ca
d5
e6
f3
dd
d1
b5
aa
e3
ce
e6
dc
d4
ae
c7
b2
7f
9a
a6
f0
d9
ee
d1
e7
ec
11
c8
bf
b2
bd
c2
cb
b4
d7
ad
b2
df
c8
d7
e5
f2
d2
c5
e0
a1
c2
ef
c9
a8
b5
b2
dd
f8
0e
e3
be
b9
bc
b7
e6
cf
de
b8
96
d2
cd
e5
e5
e0
d3
d1
f7
d9
ec
0e
23
f2
16
2f
01
f6
02
03
c9
d0
c4
c0
e5
f7
d9
fd
cf
dc
03
e9
ec
f9
06
f6
0f
f1
f4
04
1f
08
03
1b
0b
de
fc
ec
e5
ee
df
c5
0d
10
ce
ee
e4
ea
2c
16
f0
f9
0e
0c
ec
f8
fc
06
03
13
ff
16
31
f2
eb
f7
e0
e2
0a
cc
08
10
23
2f
27
40
1c
1a
18
13
0f
17
16
0e
1a
03
1d
0a
14
00
1c
e6
f7
0b
f3
cc
35
d9
1b
08
40
56
45
54
38
3e
39
14
1a
12
26
14
0d
10
0c
25
f6
08
15
1c
f0
fd
f7
f3
f9
07
33
2f
4e
56
24
59
36
44
28
3a
2a
1d
27
18
08
08
1a
00
f7
0b
26
f4
cc
e3
12
e8
12
0f
08
15
22
39
0d
41
19
5c
2c
21
2c
0d
06
16
23
1d
0a
fa
fa
0d
0f
f8
ec
f3
18
fa
36
f7
18
27
10
40
10
27
1f
2e
33
2b
2e
24
0b
18
2a
02
04
ff
0c
1f
14
f3
ed
b6
1b
e3
11
08
11
25
1b
1d
14
1e
1d
16
20
13
2a
29
0e
0a
1b
1c
03
ed
e3
fd
c7
ea
fb
e2
07
e7
04
15
fb
06
2f
14
13
07
26
09
15
ff
2a
18
09
2d
1f
1a
0e
d1
d9
ef
e5
dc
ff
02
e0
e8
e6
24
10
fb
11
fa
0d
20
27
f9
05
05
35
0a
16
1c
15
0c
0b
f9
d2
c0
f1
ff
14
0f
f6
e6
e7
20
16
06
0d
0b
0c
14
14
f8
f9
04
22
f5
16
2a
10
0c
0d
f2
be
bb
18
00
07
10
d4
03
09
f7
f3
12
02
06
f8
f0
00
e7
0f
0b
21
1a
0b
05
08
fb
d5
f1
d8
de
18
f6
ff
f8
cd
2b
19
06
fe
08
13
fe
f7
09
f6
e6
f8
08
09
1b
1b
ee
fd
f2
e5
cc
db
d6
0f
ef
0f
0b
fb
01
0e
e3
1a
0f
13
ea
fe
f7
ef
b3
d6
0e
fb
f5
fd
00
0c
0d
fe
e6
d3
ee
1e
ee
e3
d6
db
11
10
e8
0e
0b
f4
f4
fc
fb
d5
de
f4
ff
db
fb
e5
01
fa
e4
00
f2
e5
f0
00
f2
a0
cc
d3
b8
f8
fa
df
13
03
ca
02
ea
08
f1
e9
eb
ed
f8
ef
f6
ed
1e
f0
d9
d3
e9
99
03
a0
dc
ce
03
d3
e7
e7
cf
e1
ed
c7
ff
f9
0c
1d
01
ec
de
f2
f2
f9
e2
ec
fc
ee
e4
bc
fb
b1
c5
ed
d3
c4
b9
be
c5
df
0c
fd
07
12
01
f7
01
10
09
df
0b
0a
04
f5
ef
dd
cd
af
f1
de
b0
dd
bc
b9
d4
c8
f1
00
18
0a
0e
10
08
ff
0e
26
27
ef
f6
f9
15
fe
0d
f2
dd
c0
fd
fb
f4
ed
b8
ce
bd
f8
08
1a
16
0f
15
05
12
1b
27
20
16
17
fb
f8
0f
13
07
ec
e4
d9
fd
fb
04
fb
f3
c6
d8
0d
16
0a
29
1e
1b
31
21
15
25
21
11
0f
17
14
0e
1c
e1
01
ee
bf
01
01
fd
fa
e9
c3
e4
1d
1e
fc
22
2a
1f
05
03
22
0f
0a
1c
0d
16
17
17
0a
02
ef
dd
e9
0c
f0
de
fc
f1
17
2f
3e
32
f0
2a
28
38
06
03
16
eb
e9
f5
11
f6
e1
e0
08
f9
d6
df
f2
f5
09
04
14
e8
28
32
2b
29
f8
1f
07
13
e0
01
11
e7
d6
ee
02
e0
c4
c2
fb
0b
e1
c6
1c
0d
f7
03
08
05
f7
3b
33
2c
e6
d9
20
ef
f0
de
fc
09
ed
e9
1e
b5
a4
8b
f2
e0
e8
dd
f7
04
d7
06
c6
a7
f0
e3
de
ce
e7
b1
9d
02
0f
f4
c8
c0
ee
d1
b5
c7
cb
db
de
dd
f5
fd
06
fd
e4
f4
aa
ac
ef
c0
e9
fd
b0
d8
ee
e1
93
c6
0a
07
ff
93
cc
f2
d3
b6
cc
ce
ea
bf
db
f8
b3
c9
b0
db
f0
cf
da
12
e8
00
ee
e9
08
ce
ad
cf
ff
ea
cb
1a
46
30
fd
31
1c
16
0a
f7
c7
b6
d6
c7
be
db
cc
e7
d1
08
d5
e4
d9
de
e9
ed
fd
00
d7
da
e1
c7
12
12
3c
d8
ed
01
b4
ec
d7
d1
f6
ed
e8
d1
be
fe
10
06
f0
e9
e7
e6
f4
c6
ed
f0
00
06
0d
f2
cb
bf
27
ea
be
e8
e3
e5
00
26
24
e3
e2
09
33
3e
32
0d
06
e8
fb
d8
ed
03
03
1d
17
35
13
49
33
0e
df
f4
f9
16
0d
12
fb
fd
df
f4
f7
e7
ec
cd
dc
cc
cb
c5
db
f0
ff
05
1c
0e
28
17
0d
06
fc
e5
17
37
2c
e6
e1
d8
bf
d3
dd
c7
de
cf
df
d5
c5
c6
e6
e4
da
0b
ef
20
fd
b3
f1
09
12
0d
0c
1a
06
e9
d4
d3
c8
f7
fb
f3
df
d1
0d
f0
eb
e5
14
e1
ea
f1
07
20
01
39
2b
0b
19
e2
fd
e7
e6
d2
e0
e5
de
e0
eb
dc
f6
f2
fe
10
10
f4
fe
f7
fc
ec
06
11
24
f6
0f
fa
05
da
de
cb
b2
ce
eb
d5
e5
ee
ef
00
12
dd
ec
11
e8
e1
10
2a
ef
0a
14
ee
c1
b4
e0
fa
31
ff
e8
e3
dd
d8
dd
fb
ff
fe
f1
ef
ef
f3
15
17
02
f2
23
fe
15
05
33
07
2d
28
d5
fe
14
0b
f5
f8
fe
f3
f2
04
01
07
1a
28
35
fb
e5
02
e8
fb
1b
1c
18
1e
0e
08
fc
ac
c0
01
fa
e7
01
fa
0c
f2
23
20
00
1c
0f
24
18
09
fd
dc
f7
f7
12
43
28
20
2f
ec
1c
09
ff
fe
e3
ee
ff
09
29
30
36
17
20
1f
31
15
08
0e
08
ff
20
fc
07
0e
19
f3
ec
fe
f1
fb
14
f9
f4
40
27
33
1b
0d
1d
24
14
22
1f
04
05
15
1a
f1
19
1c
de
0a
f8
ff
ed
f8
05
e2
03
f1
0e
41
2e
1c
1a
26
17
f9
0c
f7
df
f6
04
1f
1a
1f
11
f6
f5
f3
0e
ee
f9
ef
03
04
21
25
1d
27
14
1a
17
23
2d
13
08
d9
dc
00
e1
1f
13
06
05
0b
0d
16
14
ed
f0
09
fc
e7
e9
1b
07
0a
15
ff
06
0d
12
e1
f7
ee
e1
fc
fe
f7
17
f0
07
fe
26
06
1e
17
fc
00
03
e5
b1
02
2f
09
0d
df
fa
0c
0e
03
e8
d4
fb
05
ff
12
f3
12
0b
05
29
28
f0
12
ee
1b
f0
04
d7
f7
26
f9
08
0c
0f
24
f3
f0
e1
fe
e5
fb
eb
f7
fd
07
19
0c
16
0a
f3
e4
da
e8
c8
d8
d2
0c
09
f0
f6
17
25
0f
0c
00
e8
e4
f4
e2
09
00
00
04
03
22
08
0c
f6
0c
05
e1
b9
d0
c8
1d
0b
d1
07
09
08
1b
f3
ff
f0
e0
f9
db
eb
fe
f5
ed
f4
01
09
12
32
27
06
04
f8
dd
e8
df
06
d2
ed
ca
de
f2
fc
17
f5
f6
f0
e7
f6
e2
fc
fd
f4
e5
e6
fc
0f
f4
d8
f7
00
11
f4
06
eb
89
a0
e1
e0
e9
10
11
d6
f3
d4
f8
ed
f0
d2
ed
ea
ee
f6
00
05
06
fa
ca
e1
04
f2
03
ed
29
1f
1e
0a
f5
ce
f6
03
f2
d7
d8
ee
f6
ed
fe
04
fa
d5
e9
06
01
f7
16
f7
ea
19
f1
fb
3c
3f
2b
16
f7
cb
fb
d8
dd
c9
cf
e8
f3
ec
fc
13
de
b4
c2
cf
c9
d7
c9
f1
e3
15
00
ff
36
39
3c
27
d8
af
f8
e1
9b
c6
df
ee
bf
fa
16
e0
8a
9e
a0
bd
d0
ca
e8
0f
f2
02
03
02
cd
b5
c6
d6
eb
d8
d6
ae
94
af
d5
ed
ef
e1
c4
8f
97
91
69
89
c3
bd
d1
c9
c0
e7
fd
ba
bf
c5
a0
8f
cc
cf
c4
aa
b8
ca
e2
da
e4
e9
f3
df
cc
c3
b1
d6
b9
ac
ac
9d
ad
bf
fd
b2
a2
a6
cf
be
ee
ec
dc
e8
c8
99
c5
e0
e9
e9
ea
e3
ee
f8
f8
0b
37
16
02
fc
37
1c
ee
f6
03
d2
d2
d7
f7
ec
f9
0b
e1
b6
c6
be
e6
f2
01
db
d9
f3
f4
e7
1b
fd
2a
30
05
16
f4
ea
c5
d8
fd
ff
07
0a
02
13
d2
b9
d8
eb
f3
d0
cb
f2
e2
d0
f5
f3
fc
17
1f
1a
07
c9
f1
c8
e5
db
f6
11
0b
f9
fb
dd
ef
f8
c8
e2
cc
d0
df
e2
db
e4
d5
eb
fa
04
0d
2a
10
14
dc
41
1b
18
15
13
06
e6
fb
f7
00
1c
ff
e3
bc
d4
d4
d0
e6
df
e6
0b
09
05
fa
23
18
31
0d
15
2c
eb
0e
2c
22
03
ff
f9
15
0e
f4
ff
d5
ef
cd
d4
dd
cd
e9
fc
03
08
01
16
19
37
dc
00
05
03
16
0d
fc
0d
08
f1
fc
df
d4
ca
d7
e0
cd
e7
d0
d8
e6
ea
03
19
ea
02
3f
36
b7
a5
ff
02
1c
0f
14
2d
10
06
08
fa
c3
be
cf
d2
b6
b6
bc
db
da
fb
ef
f6
c3
ee
ec
c1
d9
10
d1
e4
30
41
27
20
18
0f
e2
ec
da
d0
f7
dd
bf
c4
d7
ec
d2
ef
0c
09
f1
ec
f6
b8
e6
cc
de
da
07
10
04
d6
f5
14
f8
fc
f6
ec
f8
e6
cd
cd
dc
e7
f5
04
10
02
00
fc
de
d8
f7
de
d5
f8
24
f5
d7
d5
c7
e5
07
f7
0e
23
10
dd
cb
b5
e1
02
0d
23
21
28
11
fb
e3
d6
04
0b
08
c6
cf
c5
cf
f8
06
e4
f4
17
05
02
06
f5
d2
e1
f9
f1
05
09
1a
2b
2b
f2
fe
ec
ff
15
18
d6
cc
eb
f1
04
e0
0b
13
0f
21
0c
fa
f5
f3
10
0b
0a
fa
09
09
fd
0e
ea
e0
11
fd
03
dd
eb
cf
df
dd
da
e1
f8
1e
0c
18
34
0f
f5
dd
d0
ec
e9
fe
1b
fc
24
f0
f2
e7
f1
f8
ff
0a
07
fc
10
ed
d9
fb
05
24
0c
14
2d
16
01
dd
06
ff
0f
1b
07
05
13
0e
09
ec
d9
b2
13
10
13
eb
f9
ed
03
e4
d9
f2
2a
2d
2c
03
df
d9
d0
e5
0b
f6
1d
17
19
0d
ff
dd
a9
a4
d4
36
43
f9
18
01
c8
e4
03
0a
1d
31
19
0d
f3
f7
fa
ff
1f
0f
0c
0d
0c
1f
15
fd
a2
9e
8e
94
0b
1f
0e
fd
e6
d7
03
04
25
06
24
e2
ec
ed
03
ff
07
0e
f5
e6
e6
e3
cd
ce
b7
f1
dc
c1
26
26
19
ff
fe
e3
f2
ec
e5
ef
bc
a3
e3
f1
0f
ff
11
11
1e
10
1c
f3
e3
c8
c8
f1
dd
da
74
d2
ce
d4
ca
e8
ba
bf
cf
c1
8c
89
bc
d3
ed
04
0c
22
30
22
1d
10
e5
e2
c6
f6
f1
cd
9f
ff
aa
a7
93
b1
b7
b3
cf
f2
d3
86
b1
ee
12
04
11
18
05
24
01
28
f2
fd
e4
0b
de
b4
17
3e
1f
a5
d3
6e
75
82
a3
bd
ea
10
32
1b
37
09
25
11
18
19
02
ed
00
f5
dc
14
f4
4c
3b
29
27
89
88
a2
c8
8d
a1
f0
f0
1d
32
24
16
09
07
fb
df
0a
13
0e
dd
dd
0e
08
e7
de
55
5b
3d
37
c3
bb
02
c6
1c
1d
1a
f6
2a
17
04
0c
22
e4
ae
e3
31
17
f7
cc
e8
fa
e4
03
e8
ef
dc
67
48
ed
e1
b6
15
29
ec
f6
27
57
31
27
f8
ee
95
bc
bc
cd
03
e0
12
03
ff
01
0c
01
fb
0c
0e
f7
de
de
0d
df
fe
d3
df
f5
06
cf
cc
f8
d9
f0
f4
0a
02
f0
fa
fe
fb
09
fe
fa
fa
f5
0b
e4
e4
de
cc
f6
dc
9e
bb
cc
e6
17
1c
0e
ed
c1
bd
c2
f1
ea
01
01
04
f5
40
4c
4c
44
b4
e9
fd
ce
fd
e4
e4
e6
e7
21
07
3f
5d
4b
26
3f
18
b4
af
0e
12
f7
fe
05
0d
2c
24
e3
d1
c6
db
f3
d7
07
f4
14
05
1a
37
0d
43
22
1d
2a
14
07
fa
13
3c
f9
f9
d8
bd
35
07
06
d5
e2
ec
1a
dd
ea
d0
f4
0a
d8
14
1d
27
3b
3a
2b
10
0b
12
f2
0a
f6
2e
03
22
08
3a
09
02
f7
ec
09
09
fa
c6
f5
31
e8
1d
17
0e
07
1c
10
fe
f6
07
16
15
fd
e9
0e
37
0e
51
2e
0c
01
04
23
16
fd
dd
e5
f3
fe
16
10
03
21
19
39
f2
00
f6
0b
10
ff
d7
f1
26
fb
22
3d
30
0f
29
31
06
e7
ed
cd
c5
e8
fa
fe
ef
07
04
e7
bd
ea
ef
d7
23
06
ca
06
f8
24
08
20
39
2a
1e
04
02
0d
05
06
d6
dc
dc
d0
e7
d7
e1
ee
d9
ce
e4
e7
10
08
ed
e3
f0
0f
ef
17
3a
2e
0e
1b
1d
0a
08
ea
c7
e7
c9
d2
c9
c4
b5
c5
d2
da
eb
05
02
0e
e2
df
f0
28
0b
fc
fd
1d
2b
33
31
15
16
f8
e9
e1
c5
c2
ae
a2
a5
a7
b0
d5
fd
1a
1d
fd
f7
e1
f0
46
4a
10
2a
22
28
08
1c
26
14
06
e3
da
d4
dd
de
da
b4
b2
9d
be
f1
17
12
f0
ff
dc
d8
34
0d
04
03
18
13
0e
17
21
14
e4
f7
f2
f2
f2
d5
d8
c1
b2
98
c3
df
f0
13
07
06
e7
e5
f5
e6
e4
0e
12
11
12
f7
1f
14
01
fd
e8
ea
ff
eb
e5
cc
bf
c6
a1
c5
d3
ec
37
06
03
0d
e9
c6
e4
04
fe
11
1b
15
1d
1c
10
ee
0e
ee
fe
05
d6
dd
c5
da
ce
cd
d6
cb
04
01
ec
db
12
dc
ea
fe
18
17
ff
1d
1c
21
fc
03
11
ef
e3
00
ed
cb
d1
df
e8
ee
03
bf
08
0c
d8
c7
02
c8
d3
ed
eb
e9
1e
2b
12
04
0d
0a
e9
02
04
df
fc
07
03
eb
f5
12
08
bf
eb
11
c4
dc
d6
c6
ef
e1
d3
db
00
f0
01
06
fb
18
f9
05
0d
00
fb
fc
f5
ec
0e
19
03
c6
ee
10
f7
f3
f4
b0
ed
e6
e6
c7
de
f3
04
f4
f4
04
f6
fe
11
13
f2
02
16
04
07
fb
f8
9e
02
00
24
f5
08
be
08
ef
dd
e0
d2
e8
f1
ee
ee
0e
f9
ed
f3
13
16
05
f4
23
1b
ef
0c
cb
ea
dc
26
17
ea
f3
f7
fa
e8
f6
e6
e6
f6
f4
f4
fb
01
f8
02
eb
1a
fa
18
1b
0c
00
f8
16
f1
d7
f3
0c
f0
dd
04
cc
f3
de
e0
e8
ec
ed
fa
f4
f2
08
0a
0d
10
0c
20
17
0c
f9
0e
2a
ee
ed
ff
22
ef
c8
f9
de
eb
e8
ed
e3
d7
e4
fc
d2
19
f7
f8
17
01
0c
22
10
29
0b
22
34
e6
08
ea
2f
e6
11
08
e8
e7
ec
d2
ea
d2
f7
f3
f9
07
f6
f0
02
05
20
1c
1c
1d
13
16
2c
04
fd
f6
11
d4
f0
07
e6
e5
f2
ce
cd
db
d6
e3
d3
fe
ef
f3
17
05
04
f6
1b
19
1b
23
31
1d
0a
03
0c
e3
f0
f4
c6
b3
d9
18
16
eb
e1
05
01
f4
fd
f5
09
18
0e
11
0a
1f
ef
2a
21
07
fd
10
08
1a
0f
0a
b7
aa
c7
d9
f7
02
f0
d0
e4
e8
f6
f9
00
0e
f3
f7
0e
22
29
3c
08
ff
08
e6
03
fb
08
da
f1
ac
be
f0
ee
de
05
dc
d6
f4
f5
ee
04
f6
d4
f0
f5
2b
25
42
d3
ec
f6
01
03
12
f1
e6
e3
c0
bd
1d
de
d7
ea
1e
b8
e5
0a
09
e0
de
c1
b2
e4
f6
0f
29
f1
01
fd
f5
06
0b
01
07
f6
e8
c2
bd
e9
ce
d3
da
bb
d7
1e
27
0c
cf
c4
d9
ff
fc
fc
00
f7
0f
16
10
3c
4a
44
eb
e9
bb
fb
22
f6
e0
fb
fc
21
df
0d
46
4e
5c
3f
f0
b8
eb
20
19
f5
ff
13
06
1a
d3
be
d5
c9
c5
b3
e0
11
fe
e1
dc
08
07
16
25
29
e6
df
1a
62
4d
1e
32
02
f8
3a
42
42
0f
16
18
22
03
ef
f5
fb
d5
d7
b7
ad
f1
0c
15
08
f4
ff
04
f1
0f
23
15
18
fb
3b
37
d0
bd
c0
bd
e9
f5
17
ee
f2
f8
eb
e0
d5
fa
f0
07
12
05
fd
2c
20
44
71
16
20
09
42
0b
14
e3
ce
cd
e3
ef
04
0d
0c
0f
ee
e3
f1
fa
e4
d6
c9
e1
0a
1b
15
46
34
0e
0f
32
2e
d6
f5
f9
fa
15
0b
0d
0a
f6
06
fd
0b
f7
f2
f4
0d
07
fa
fb
f4
fa
e9
fd
15
ef
de
13
ee
d4
fe
fb
dc
07
07
0c
1c
00
17
04
13
22
18
14
14
14
00
09
f5
ed
e3
14
1d
49
21
0c
b7
be
fa
f9
fc
0b
fb
0b
e1
0a
27
11
26
0c
2b
19
28
fc
12
ff
f1
e4
da
f2
f8
13
26
e6
6d
df
e7
ec
05
01
16
00
f5
09
16
2a
20
26
1e
35
19
1f
ee
18
02
ff
02
0a
18
1a
fd
a4
85
10
0a
04
04
fe
0e
1a
ff
06
1b
1f
17
2a
2d
0e
1d
0f
11
ff
00
05
19
11
18
1c
18
c7
c4
ea
ea
ec
07
fa
0e
e9
ee
09
ed
16
20
07
12
16
06
f2
0b
00
f6
04
f7
e5
00
1e
3e
e2
20
e6
e2
f3
06
03
f4
06
e7
ee
fe
fd
14
00
0b
fc
fc
e3
e6
d8
e4
ea
d5
e4
b2
d8
01
03
1d
e3
ce
f0
20
15
2e
05
e5
1b
01
1b
11
e7
fb
f9
f1
d6
da
d3
c0
d1
c9
c5
dc
e5
13
e5
2f
fb
c7
e4
f4
12
14
12
f0
13
14
fc
f4
02
dd
e2
e4
e5
da
d2
eb
d1
ec
d7
c4
95
d5
d5
00
09
d9
10
e7
ec
fd
0f
19
0a
ff
d6
e7
e9
dd
d5
d0
db
f9
e7
e1
0f
ed
f8
ed
f6
ab
ae
e5
0c
dc
e4
ca
cd
c8
fe
00
fb
e2
f6
e4
c3
d8
ea
e1
02
06
ed
06
da
e5
12
1c
33
14
b3
e2
f4
db
e1
df
e2
03
ee
ff
03
f0
ea
b1
c7
eb
f2
ed
e5
f4
f2
25
00
f5
12
06
f9
b2
8b
ca
0b
02
25
fd
e9
f2
db
ec
ea
d8
c3
b9
cf
e7
d7
ec
04
ef
15
1b
0d
fd
ed
df
1e
bb
21
e9
06
fb
05
e6
07
eb
e9
d7
e2
cf
e3
e6
f8
d4
d7
eb
f7
fd
0d
1a
16
f5
fe
09
19
cd
2d
e6
e6
02
ff
f9
ee
f9
06
00
07
d1
d4
d3
fd
f9
fc
1a
12
02
f6
f9
fe
0b
fc
04
de
da
1f
c9
ac
f0
e7
db
e8
fd
0f
fe
10
00
fd
f5
04
f4
04
03
eb
fe
17
1d
18
0c
16
0d
0c
0e
01
b1
f0
05
fe
e5
e6
05
11
0a
04
12
fd
0b
04
0b
15
01
ff
0d
0e
03
f8
0d
2e
3b
19
1d
72
e4
0f
0e
0f
eb
ef
0d
1a
1e
24
1d
01
0d
0a
19
0c
23
15
fd
0e
0d
20
19
25
0c
0f
12
74
11
2c
21
e9
fd
f5
1d
21
35
17
03
27
32
12
1b
2a
01
1d
0b
07
00
fd
e8
f4
f2
fd
07
9f
08
28
0a
ed
d1
e5
07
12
fb
0f
24
33
54
3d
26
58
28
15
0c
fc
09
1d
38
2c
39
38
0f
e6
07
ef
d4
dc
f7
05
04
eb
06
2f
34
47
25
05
4e
2b
18
12
f2
05
0d
32
39
20
f9
10
e7
05
08
de
cc
d6
cf
c4
ce
e3
24
43
42
f0
f3
28
31
03
14
ce
e9
01
c5
d7
c3
f4
fa
0d
fa
e3
08
fc
fa
06
fc
f0
db
c4
c5
dc
e3
eb
a6
89
a7
d5
05
17
29
f7
ca
a7
b8
c2
fe
fb
f4
0d
01
25
62
59
4c
3c
c7
c2
00
fa
e8
da
d3
fc
e6
fe
fd
0d
46
44
38
32
ee
d0
c0
fb
07
f6
38
40
59
27
fa
c0
c7
af
d1
db
f5
f7
ed
f0
f6
ff
09
19
3a
22
29
f5
1c
2f
25
2e
24
ed
fb
b3
ef
e5
f5
e0
e1
e0
ed
e8
f9
00
0c
fd
fa
fc
f2
0b
0c
17
fc
0e
02
1c
0f
01
0d
01
43
27
ef
f3
fa
d9
ea
de
04
f3
f2
f1
01
fa
12
f1
0c
f6
07
01
07
0b
0f
1a
08
11
2a
fd
0d
0b
cd
04
12
f7
0a
e9
db
f2
ef
e1
f3
dd
f5
fd
05
10
08
11
0b
fd
13
21
ff
fa
24
ad
09
de
e5
ee
f1
ef
05
f4
fe
ef
e6
fa
f5
ed
ff
12
0e
07
18
20
2d
10
f4
f9
16
06
22
c5
b1
70
b4
a8
e3
f0
df
ea
ef
df
ff
f4
d8
0d
06
1c
18
01
16
23
19
1d
02
e5
0a
11
fe
a2
a3
bc
fd
01
da
cd
e0
ed
e3
e0
d7
d6
ef
f0
fc
10
0e
04
1c
19
14
0a
10
11
0c
0c
15
c0
b7
a7
06
1e
10
be
cb
0b
f1
f7
0b
08
0b
f9
14
1e
34
38
3e
13
0c
1e
03
0a
0f
f9
03
0b
ee
06
b4
f1
00
e4
f2
16
f0
07
ed
ea
f9
0b
12
14
fe
2c
1e
28
27
1d
0e
17
1a
29
2c
eb
17
02
b2
97
ac
eb
0d
fb
06
1a
08
f4
0c
07
29
2c
08
1b
02
20
1f
17
1b
0f
ef
03
ef
11
f9
d5
a8
88
e4
1d
02
f2
fa
12
09
f7
08
1c
2d
1a
2a
33
1d
34
02
25
20
14
e6
fc
d0
20
09
0a
c6
d0
e3
2e
48
21
e8
db
10
13
0e
2b
27
1a
13
08
f4
05
1f
05
fc
16
0b
fd
e3
1c
e6
06
2d
2a
41
3c
3f
29
f1
ef
ee
04
14
0c
29
28
1f
22
f5
fb
13
0a
fc
03
ff
01
ca
af
c1
f1
07
30
53
47
22
1c
17
1a
1a
00
08
24
0a
29
25
f8
16
eb
e9
db
ee
f5
12
09
dd
d4
c2
e2
03
2a
38
49
3a
26
1d
23
04
15
20
18
16
34
fc
fe
f1
f8
04
e4
db
dd
03
1f
cc
b0
f7
14
2b
18
19
1c
37
37
30
27
3e
10
16
01
0d
27
0e
15
01
ee
f1
e7
f7
e1
10
1c
df
3b
36
17
13
1a
1f
0d
f2
17
29
3c
18
1e
02
05
fa
ff
01
ec
fe
db
e7
f8
e3
07
ed
0d
1f
c2
1a
1b
0e
1d
24
0b
34
15
19
13
1b
2a
06
13
03
f9
fd
f1
f8
e8
d8
ed
07
f1
07
19
1c
91
88
cf
15
05
15
27
2d
0e
eb
16
0f
28
e8
f1
ed
f8
ef
09
06
e8
c9
d7
fb
fe
ee
02
1f
b7
fa
ea
ec
0c
1a
21
0e
01
0a
19
0a
0c
21
19
fd
f3
f4
d8
f4
c4
c7
e4
e8
e8
18
1a
35
e8
d1
48
1b
0a
1b
1c
f3
ff
fd
0b
11
06
fe
e5
f7
dc
03
dd
c3
b9
cf
ae
bb
d0
e9
12
16
f9
02
22
01
30
36
39
1a
2b
2b
19
18
09
04
dc
07
ea
db
d3
a7
b6
c1
b7
c8
de
e3
0a
07
10
09
2d
eb
df
d3
1b
31
0c
16
30
26
fb
fe
e7
bf
d9
b0
b4
ad
c0
ea
d1
d1
fe
0a
15
fd
0a
ef
e5
20
20
21
1d
30
1b
da
1c
22
27
e8
02
d9
cc
e4
cb
ac
c5
d5
d9
f5
18
32
31
e3
ff
f1
06
ff
f2
f1
03
ce
d6
b6
cc
dc
0c
04
9a
b9
9b
7c
6e
ad
9f
83
89
c7
a6
fa
11
f0
10
f6
ff
f2
fc
0c
eb
f9
04
d5
be
d4
da
fe
d2
fc
e4
dc
0a
cd
dc
de
9a
b5
ae
fe
22
01
fe
f9
fa
03
04
f4
1b
04
0e
eb
e0
03
01
0d
09
e3
03
1d
03
26
46
4a
4b
43
3e
10
11
0d
f4
f1
09
ee
f2
1b
2c
26
1d
04
0f
07
f4
27
18
0d
21
fa
da
08
11
0d
10
04
2e
2c
1e
08
14
fa
ef
ee
24
13
3f
12
19
04
f4
2f
0b
19
15
05
f5
f0
08
f5
21
0b
15
07
39
1c
df
f3
05
fe
cf
d5
00
11
39
17
2d
26
f3
33
13
e1
2f
02
09
0f
17
fc
0d
0d
00
06
15
0e
fb
f8
08
0e
ef
ce
03
1c
69
10
28
3f
23
2b
0f
13
14
19
09
f0
fb
0f
12
13
0b
f3
f0
2c
f5
11
ff
03
f7
cb
17
08
26
f6
23
39
1d
20
fe
33
19
fd
e5
e9
02
18
16
1f
10
f6
f6
11
01
d9
05
de
12
e7
11
0b
44
03
3a
08
23
28
17
0a
e4
ee
0e
ed
ef
f6
f7
13
f2
e9
12
15
ff
c8
0e
f3
f2
09
14
23
28
02
27
07
05
26
08
f2
ef
f3
06
eb
f5
f2
eb
fe
04
10
08
fc
11
b6
f7
fa
f2
e3
35
29
17
01
1b
0c
15
0d
02
ea
d9
dd
e4
e4
e3
e3
d9
fe
02
e4
d5
e5
d8
5f
ea
02
f3
de
29
21
12
05
2e
fd
03
0d
f9
fa
14
de
f3
e2
d7
d2
de
d9
ff
e3
af
d5
dc
81
fd
00
db
d9
30
18
04
07
14
28
0a
02
e4
fe
fa
dd
d6
ce
d1
a4
dc
f4
ce
d5
bf
d6
d5
c1
eb
f4
f2
f2
23
1c
06
10
09
1b
fb
ec
fe
fe
f3
e3
d5
e4
c8
bd
ca
c6
d9
d2
cd
06
0f
bc
ef
06
db
e6
15
31
25
0e
fd
1d
ed
f6
fd
00
f6
d4
bc
da
cd
dd
e6
ee
d5
e8
fb
0d
24
e7
0c
ff
f5
ed
e9
3c
32
20
1e
09
1d
0a
f2
20
f3
d8
f6
f5
e4
f0
06
f6
04
fe
29
2c
26
e8
f2
ed
df
e3
b6
67
1c
1c
18
09
2d
11
ea
0e
ff
ea
f0
e5
ee
f8
09
11
14
21
28
06
08
10
f6
1a
ee
e1
c6
40
28
1d
1c
0b
0b
28
26
3e
23
04
04
03
04
01
fc
0d
12
03
0b
05
01
25
0e
ea
e4
e9
b5
17
28
03
19
24
1d
21
3f
25
0d
07
02
02
fe
fb
1c
fe
35
03
f2
08
05
27
14
f2
e6
e3
09
07
30
02
34
39
1b
28
31
19
f9
10
13
0d
14
07
07
e2
fc
e1
f8
00
1e
20
f9
fc
f2
f6
1b
25
23
27
2e
18
36
11
2a
ff
d5
19
26
09
0b
fe
1f
f2
e3
f9
0f
01
01
13
03
fd
e4
eb
13
2c
08
14
2d
24
1b
16
16
13
0f
04
22
0f
f7
0f
e0
0b
ec
df
f0
f0
e8
24
fd
fb
eb
d8
fe
f7
eb
01
1b
28
28
1d
0b
ff
18
17
01
00
ed
ff
f6
ec
02
fe
f3
f3
eb
03
0a
f8
ea
e0
ef
d6
ab
f8
04
17
20
18
17
16
06
3f
12
d9
f7
f0
f0
fe
fb
e9
02
d5
f6
39
0b
dd
fc
e6
e8
f8
ef
d2
27
0e
19
04
f9
11
04
ef
d8
ea
e7
df
fd
f4
fb
ed
e7
d7
c5
17
0d
e4
e9
ef
ee
f1
e1
e8
ec
e9
f3
04
03
ed
c3
eb
e3
df
c9
ee
0a
24
21
e3
ed
bf
c1
ef
08
f1
03
f7
fa
07
e6
f3
d1
d0
ec
dd
d9
cf
ef
ea
f1
02
fd
ef
20
13
ff
e4
d6
a4
bf
d1
e9
f2
fa
00
f5
e5
fb
e8
d4
d1
e4
cd
cd
f9
c4
a1
ec
fa
ef
f7
15
22
ee
ed
bf
a8
ea
d9
ed
07
02
ef
fc
f3
f1
fd
eb
d4
d7
e4
d5
d5
e6
ce
db
1a
08
1e
ef
f7
dd
9b
96
b7
09
f7
f3
07
0d
01
10
fb
f3
f7
e9
f2
ff
ed
fd
11
ed
e7
ec
f9
fb
ed
ff
04
dc
f9
fc
fd
02
15
05
fa
0b
f8
12
11
fb
0b
2a
e5
e2
54
1a
ee
01
02
15
f4
e9
07
2b
3c
33
09
fa
ed
06
05
ed
03
04
dc
35
28
3a
29
04
52
0e
1c
37
e8
4a
1e
00
fd
21
0d
df
f7
f7
2d
20
ec
15
27
1b
df
e9
e3
0d
20
19
e3
00
29
06
c8
d7
e1
e2
db
f3
e7
e6
17
17
0d
09
fe
e7
da
e0
2e
fe
d6
02
f6
34
30
1c
0f
f6
fb
03
e8
f0
fb
07
e1
f3
10
11
f3
ec
f0
0a
fe
0e
08
0d
05
e1
cb
0a
23
22
07
e7
fc
f0
dc
d5
e1
d9
f1
e6
ec
b1
ce
e9
fb
d8
eb
05
d0
d6
f4
2b
03
dd
bd
1f
0d
fd
0b
0e
0e
06
f7
05
e2
e2
e0
e1
d7
e1
ec
00
f0
17
15
f9
02
04
df
fe
e3
f6
df
1e
12
dd
15
17
08
06
fb
e3
ca
fa
fd
f5
fb
eb
02
03
fd
fc
0e
f0
05
0f
38
3b
20
fc
cb
10
02
dd
0e
17
26
0c
dc
de
e1
fa
15
11
f1
e9
09
09
ff
0f
06
11
09
0c
ff
e7
f0
fd
ed
28
01
cd
fa
0b
31
0c
00
db
bf
e4
f0
09
d2
f7
d6
e5
e0
f4
fc
fd
d8
10
f2
ff
98
fd
06
44
f8
d0
19
08
13
09
f8
ed
d4
e0
d6
e6
ef
f6
ec
0f
10
f8
dd
e0
fc
db
b0
b3
a5
03
fc
28
e3
e5
ed
fa
18
02
f4
eb
d9
c7
c9
e3
c2
cd
ff
04
02
02
cd
e2
e9
f1
d3
a5
c7
f1
eb
02
f1
cc
02
f6
42
1a
ef
f4
f6
e4
ec
fa
d8
f2
f9
27
02
cd
ce
e1
f8
cf
c9
a5
9f
f0
da
d6
eb
fa
f1
02
0e
1b
21
04
ea
e6
e7
e6
e5
05
1a
ea
e9
df
e5
11
04
e8
d6
b3
e8
e2
d0
f4
fb
12
1a
10
1a
18
05
fa
ff
e8
c4
f8
f9
0a
f0
ef
0a
c7
e7
fa
eb
f7
f1
13
c2
f8
f5
d4
00
17
09
07
1d
08
1c
03
0d
e4
f0
e9
fa
04
14
f4
0d
03
03
07
f2
ef
e5
e3
c9
08
e1
a0
00
10
28
21
30
18
09
10
00
0e
f2
f4
fb
02
12
1c
fb
f4
1b
ef
09
07
f9
cd
c1
f0
de
b0
09
31
14
24
1c
11
01
1c
fb
f8
de
db
ff
14
10
16
1b
11
e8
fc
09
f0
ea
ca
b3
fd
e8
d8
26
ec
06
2b
1c
2d
2e
16
1a
07
ee
f3
01
19
12
f8
ea
ed
fa
f5
10
fa
1c
de
06
f4
f8
22
17
05
00
fc
07
13
2b
31
19
2f
18
09
05
0b
f8
07
06
13
09
f5
f2
03
0a
d0
eb
f2
f0
42
1e
1e
f7
05
e7
19
29
32
3b
3f
43
33
29
19
ff
0a
03
f0
07
e4
e9
f4
03
db
0d
ee
eb
37
30
17
04
06
f2
03
12
33
37
29
2e
25
1d
1d
04
f7
e5
ea
df
fd
ef
ed
15
0a
12
e2
ea
27
03
f2
fe
fd
1b
02
1b
21
26
38
3c
25
33
00
19
fa
eb
f8
fe
ff
fe
27
f7
05
03
f6
f0
0b
eb
ce
f5
f1
18
19
07
1e
1b
18
27
07
ee
0d
fb
f6
fd
fc
05
d1
c5
e2
cd
aa
14
e9
ef
e3
bd
8e
bb
db
f7
fc
f7
1a
12
01
f1
f4
ed
12
f7
0e
2a
29
14
f2
d0
e5
d2
de
c8
e9
fa
f3
ba
71
b5
ca
cb
f6
f2
d8
e1
f3
fd
07
fe
00
16
23
0b
10
da
c6
9d
d5
cb
d9
fd
0c
00
e7
07
a3
a6
a8
c2
b4
b2
ec
e8
fb
15
01
20
2b
ff
0e
e4
db
a9
a9
a1
bd
b0
e7
ea
f6
02
15
e2
e7
a2
94
a0
71
bc
fa
0b
0b
2c
26
14
fc
ea
dc
b5
dd
c0
d4
d2
ec
c3
f0
ff
11
0b
0e
fb
f6
df
ea
e2
e0
dc
e5
cf
a4
c8
d5
dc
e2
e8
d4
ea
06
f4
ff
ff
06
ee
f9
14
fb
05
04
fb
12
17
17
1a
fe
f3
fe
f4
04
ef
fe
02
0a
1b
fa
20
44
5d
69
5e
48
16
f7
f3
16
da
df
ee
28
59
3b
0d
0e
04
fd
f8
fb
1f
0f
0b
01
ff
ef
fc
0b
ff
fe
19
2e
34
2e
22
f0
ef
d9
f9
1c
13
0a
13
15
ff
0d
00
06
09
04
f5
e6
01
e6
0a
f7
03
04
0d
19
fa
db
f6
ff
c8
f3
1b
1f
07
05
ff
fb
13
ff
e0
c9
e8
dc
01
09
0a
00
d9
f7
fb
0c
0d
04
e7
da
fd
01
cb
fb
1b
00
0c
10
f8
07
fb
eb
c1
ce
e4
e4
e4
f8
fe
ef
ef
ed
05
f7
06
08
15
09
f4
ef
f9
11
0f
0b
03
ec
02
f7
f4
f1
da
ad
d0
ea
de
f4
fb
f1
f8
0a
fa
fe
f3
01
02
fa
dc
f2
f5
ea
00
da
ce
cd
dc
d8
c3
ab
c4
ca
bc
af
ca
eb
e2
f9
fa
fb
0e
15
ff
07
ed
f7
e2
f9
05
d3
c5
b1
b1
b8
d8
c5
81
97
b1
bf
a2
8c
b7
e1
f3
01
ef
0d
16
2a
0d
ef
dd
9c
b0
f8
f7
15
d1
c4
da
d1
c2
b7
bf
b4
a2
bd
aa
ba
e6
00
fe
01
04
1e
21
1a
04
e8
db
bc
6f
f3
06
cf
0c
ea
d8
b8
b5
bd
c7
dd
b6
c7
d8
da
e7
01
10
0e
1d
03
25
1e
07
d3
c5
c5
8c
ff
e4
d0
b4
af
b6
c3
a2
c5
d9
cc
bc
d7
e8
e3
f9
19
0a
23
24
29
0a
12
fc
13
02
f7
a7
ea
eb
bd
ab
c3
b1
c2
9a
cf
ea
a9
bd
c2
f5
ea
12
17
2e
35
1c
19
20
fe
0b
19
11
ed
b2
f0
f6
b4
95
c8
c3
a8
a6
9f
b5
ca
cd
c4
ea
15
26
18
21
27
18
08
05
1c
02
00
ff
f9
c3
03
f2
c3
da
e2
cb
bc
b6
9c
93
b2
bc
ed
dc
e8
25
27
29
1c
fd
2a
19
fd
0c
00
fc
f0
e6
0f
e5
cf
c5
00
f8
cb
ba
d9
ac
c3
d6
15
00
1a
13
25
42
1e
20
1b
fa
06
08
ed
fe
1f
11
05
e0
08
0a
c0
c4
04
c9
d2
af
d9
d2
fd
1b
0c
18
15
0f
2c
0a
0f
f7
0d
fb
ee
e2
03
0f
ff
e8
18
12
df
cb
fc
f5
df
c8
aa
d3
f9
0f
10
09
10
3c
29
f9
14
f3
02
f4
21
e8
10
f1
ef
fa
20
f6
ca
69
aa
d9
e6
e0
bb
d2
d9
e8
01
fe
ff
1f
20
32
0c
eb
05
00
02
22
f3
04
06
f4
02
03
f5
c1
98
ef
bb
ef
ee
be
eb
04
fa
16
05
0d
02
01
ed
e7
d8
fe
f4
d7
f4
06
f4
e6
d9
f5
f3
fb
c5
f0
f5
de
ef
d6
e9
0a
1c
ec
f6
fe
f5
f5
f3
e5
03
f4
2f
19
11
30
03
f9
e2
c5
d9
c6
eb
c8
03
10
f2
eb
fe
09
0a
1e
e9
e6
ee
02
e5
cc
03
0f
f9
f5
00
28
f8
10
f2
ed
9a
b8
a5
af
b7
e2
f0
fb
fd
15
0e
17
08
19
03
f1
c0
da
e9
0c
00
d3
ea
35
16
18
ff
e9
cc
8e
7b
a9
e1
ec
f1
ff
df
30
2b
11
02
ed
f1
d9
11
e8
03
08
c8
8f
9e
ce
11
e4
ff
0a
fe
c5
a1
8b
7c
35
12
e3
08
1c
09
3b
14
f9
bf
90
b4
f3
0c
00
fd
a9
bf
ca
18
06
e6
fc
fd
f8
ef
c6
bc
c2
cb
da
c8
99
84
a0
dc
36
f5
b7
7e
a7
a6
8c
a8
c9
d9
08
f8
02
0b
f2
02
fb
f7
ec
de
e3
de
f2
f2
02
f6
b0
a0
1e
ee
e3
cd
e9
18
f9
e8
c7
e6
f4
11
00
f8
e0
05
fe
f3
fa
fb
d4
fc
da
e0
d5
07
f1
d6
01
eb
ed
0e
e0
f4
e2
00
dd
f4
f9
16
f2
0a
fe
0b
fc
0d
f3
16
ff
0f
f0
f7
f2
f0
f3
04
ee
03
07
f6
fe
fc
f8
fb
f8
f9
ef
02
f5
f2
fd
e8
fd
fe
fd
e2
fa
ed
08
ee
ee
dd
d4
f2
f7
f2
e2
04
f4
f9
0e
01
f6
05
e8
e6
ff
ec
c4
ed
d3
ed
c8
bd
b0
c0
d1
db
e8
d0
dc
d8
e0
d7
eb
f0
ee
e5
e5
e8
db
f3
07
ff
fc
f6
e0
af
ad
bb
a0
87
92
73
c7
c5
da
dc
f0
e4
ec
8e
96
eb
14
32
34
1e
ad
f0
e5
fc
f7
fd
b5
b6
0f
e9
e9
06
e1
e1
f5
ed
bd
0e
f9
09
11
eb
ea
d4
de
dd
23
e8
a1
b0
fb
ff
01
df
e9
f6
4f
df
d9
03
ec
d8
e2
f5
d4
e6
00
ff
f2
fb
f7
ed
0d
d7
1f
fc
85
87
b2
32
ff
28
12
ef
13
fc
cb
c2
ef
ec
d2
d8
e9
f3
eb
ed
e5
fa
06
d4
fb
fa
08
f0
d2
af
96
18
22
40
33
29
11
14
06
14
3e
0c
0b
0c
f9
fc
d4
ef
e7
ef
fe
f9
f7
0c
08
07
ff
d9
9c
20
4f
52
47
18
fe
24
06
2b
3b
17
26
ec
f8
05
f8
dd
e2
fe
0c
fb
10
0c
19
f6
02
f2
de
07
43
67
24
de
2f
09
1b
e4
0c
fb
1a
e7
00
f9
17
07
15
24
1c
0b
19
0d
0c
08
2c
fd
f2
15
2f
56
d6
c5
0e
30
f8
e5
f5
03
02
f1
00
f0
f0
f7
08
21
ff
1f
17
21
2f
0a
f4
dc
f3
05
28
39
b8
a2
14
fd
00
fb
df
e9
f4
ed
0c
c5
ed
04
0b
12
1a
17
2d
18
13
15
fa
c6
ff
13
fe
05
fc
d2
ec
ff
09
e8
ce
eb
0d
fe
eb
2a
18
04
15
11
01
08
0e
14
19
16
ed
d3
05
f8
04
04
f0
cd
f1
c2
db
f5
ee
f9
0c
03
e6
2e
15
12
1d
28
02
04
1b
2f
0e
fa
c1
da
16
ef
fc
3d
fd
06
fe
ea
cc
de
ed
ce
ed
ec
d6
36
0e
12
2a
fe
21
0b
fc
0f
1f
ea
ca
e6
0f
09
03
16
e5
f0
ee
f5
ce
f2
ec
f4
04
01
d4
f3
f1
e0
fd
07
1d
2a
05
11
06
e3
03
ea
bc
0e
fc
03
e0
e9
bd
e1
dc
e1
f9
01
03
f5
f4
11
03
f8
15
fa
07
2a
11
17
1d
fd
12
f1
9e
03
07
f3
f6
ef
c9
08
fa
fb
15
18
f8
fa
e0
ee
fb
1a
fb
f7
18
06
fc
14
1d
04
0e
03
c8
31
56
2e
09
d9
ea
00
f8
0c
19
fa
ee
e8
e8
ee
13
06
ff
ec
ed
dc
fe
10
0c
f2
08
06
ec
0f
4e
2f
d1
de
00
f7
d7
04
21
f1
eb
fd
0d
f3
23
01
f7
f3
e2
df
11
f7
fa
d2
f7
24
03
0f
3b
27
f0
e7
19
f9
0f
f3
0c
d6
12
fa
15
00
1d
f1
00
e6
e1
cd
fa
fa
db
c5
e1
35
13
04
2b
41
17
c5
05
20
1b
34
e5
0c
07
13
23
22
ff
0b
07
01
fc
f0
f1
f0
e9
e4
eb
3c
f1
05
26
2e
fb
b0
e3
1b
ff
fb
f8
0e
28
13
29
f5
18
0a
fa
f4
f9
df
f0
fe
f8
d3
fe
14
cf
e6
ef
08
e9
d1
e4
d3
07
18
05
12
32
09
13
27
05
10
1c
0a
14
fc
00
fc
e5
f5
ba
13
d8
03
12
00
de
d3
e3
fb
1e
3d
04
01
13
3b
1d
2d
20
1d
0b
10
15
f1
0a
ff
02
f6
bd
eb
e3
f8
0b
f7
fa
0c
ef
19
3a
13
0c
2a
0f
11
0a
fd
2b
20
29
14
14
09
07
eb
fc
f8
bc
ec
05
0c
0b
fb
f6
1c
1d
2c
31
1f
0f
38
02
3a
1b
2a
10
2d
1f
1d
23
1a
00
ef
08
16
c2
e1
dd
0b
01
f6
0d
17
db
df
0e
1f
11
36
44
06
12
f3
16
14
0d
05
f5
26
36
05
21
1d
cc
ec
f7
05
ff
03
10
20
20
dc
e6
01
09
2c
3d
11
1c
fd
f3
0d
23
13
fd
18
22
40
28
44
e9
d3
fd
0f
f3
f3
e0
f3
f5
f3
07
f0
eb
e7
f5
f1
dd
eb
e9
fe
e6
e3
f1
05
0a
f0
e0
ea
03
07
ec
fa
ec
00
eb
d9
e5
ef
e5
ab
aa
ee
dc
d4
dc
cc
d8
ef
df
ec
f2
e0
e4
d4
da
10
fa
00
fc
0e
ef
d5
f3
dd
b0
aa
b6
a0
ae
89
83
cd
ef
1e
11
a9
7a
99
c4
8b
41
37
b8
f4
0b
02
01
f6
c4
d1
46
95
db
1d
ff
09
28
f7
d7
dd
32
27
e7
f6
fb
07
de
48
9e
cb
93
94
d9
db
da
f0
04
de
06
19
f2
fe
e0
d4
de
d3
ec
0d
ff
11
08
ea
03
fb
16
20
41
4e
ed
b0
98
cb
fc
ff
ef
d8
2f
38
3a
27
53
18
e9
07
ff
26
1d
1e
2d
15
11
f4
ed
da
ff
06
21
15
f8
df
f3
ff
fc
e2
1f
10
1e
12
3a
1d
19
13
30
1b
35
1b
14
eb
f5
ec
fd
db
fd
17
59
28
e9
e0
c5
3e
09
02
fd
ff
01
0b
14
fe
01
f7
10
16
07
f0
f2
f3
11
fe
f1
e0
f7
db
04
00
f4
14
2c
4a
dd
f2
fa
f1
e7
ec
e9
19
11
12
05
11
1e
05
17
24
09
ff
0b
d7
eb
d9
d4
f1
f3
ea
f4
12
d8
fc
e3
f1
f9
df
00
f9
fa
fd
fb
0e
10
1a
1c
12
18
09
fc
f7
fd
06
e4
d4
06
ff
19
18
d7
14
f0
0e
e4
e5
f8
f9
ed
f9
dd
e2
e6
e9
07
19
10
24
09
0a
2b
1a
e1
e2
13
0d
25
1a
da
17
0f
fa
ef
e6
ee
eb
01
d6
e4
dc
ee
eb
ee
f8
e3
02
1d
2e
1d
15
da
f6
24
07
a9
14
fa
21
06
ed
ed
e1
03
16
1a
23
ec
d3
de
df
e7
fe
3d
23
31
36
01
17
04
f8
12
2f
25
1b
24
16
25
0d
17
e1
2e
0a
e7
ff
d2
ce
b0
c7
fb
12
10
16
0f
07
00
ff
0f
25
2b
32
68
35
55
0e
32
0b
f3
fc
f2
f3
ff
09
cc
d5
c2
d1
f7
01
fe
00
12
08
fc
e4
fd
f2
e2
f9
06
3e
2b
0a
0d
06
e0
f4
dc
ef
e6
f2
d4
c4
f0
ea
fb
0b
14
0c
17
fd
17
09
ef
ec
04
b9
d9
37
35
03
0c
f4
f2
f2
f4
ef
06
eb
e5
cd
f6
e8
0d
0c
13
f4
15
0d
fa
0a
d4
d3
b8
ae
ad
d7
36
0d
12
16
ff
0e
f5
00
fb
d0
ea
f4
18
f9
0a
ff
02
eb
1d
02
fc
03
f7
06
0d
0d
c4
11
df
35
2b
07
e4
e1
f9
f3
f1
e8
ee
e0
eb
11
14
1f
07
d3
ef
f1
ea
01
03
16
0a
3c
33
35
f3
17
11
fc
dd
ef
e3
fc
df
f1
da
fe
1f
f2
0b
fa
14
07
26
19
06
e2
df
00
e4
f7
d4
45
e0
01
e5
ea
e0
ff
f5
f4
dc
e6
ee
f1
01
f7
0e
09
1a
0e
1c
0d
f7
ef
d3
fb
0d
3c
b3
1e
c3
e6
11
14
17
07
e1
ea
cd
d6
f9
fc
db
e4
16
14
0f
fd
f0
dd
be
fc
f8
e8
a5
f8
d6
d2
95
f6
f5
fc
17
01
f6
e8
d2
fa
ec
00
ec
02
1f
04
26
00
0e
0a
0f
fa
fb
e4
d5
0b
ec
de
a0
fa
e3
05
0b
fe
ed
f5
e8
e4
ed
02
0f
0d
13
ff
06
ea
e6
d3
e8
ef
b2
b4
be
d8
f6
41
d1
0b
ef
2e
2d
29
11
de
f9
04
ec
f5
e3
f2
f4
f6
f9
ef
ef
e5
f2
fc
e8
e1
fd
df
fe
37
10
1a
21
3d
2f
18
16
f2
ee
e7
ee
e5
f2
f1
e6
17
12
00
0a
ef
fb
05
b3
d4
c1
fa
ed
29
49
05
f6
f1
e1
f0
2d
fe
03
ff
00
f4
fa
05
17
05
ff
0a
0d
2d
19
18
f6
0f
e5
f1
e7
f2
5c
ff
d1
d5
d9
0d
24
22
11
e1
e8
20
17
17
04
04
24
1d
2c
24
26
25
23
29
23
f1
08
07
00
f4
cf
df
f1
f5
00
00
f1
e8
f4
f2
e6
dd
db
eb
ef
d9
fd
eb
ed
e4
ea
15
06
0a
fe
20
ec
e2
da
c9
e3
b4
92
b4
96
94
a0
df
ba
b4
bf
db
dc
e9
c6
ca
c2
bf
bb
d7
fb
f5
0b
09
fd
e0
ce
92
a9
7e
89
65
4d
6f
9e
bb
d6
e2
f0
d8
b8
5e
0f
e3
1e
41
35
05
8a
d5
e8
06
fc
96
b2
d8
0c
f1
09
11
0f
f9
ee
ff
fe
0e
15
04
1a
f6
e7
c4
a8
ca
d0
a2
67
99
c3
ee
da
d5
04
11
12
00
01
1d
0a
eb
fa
0a
14
fd
17
07
18
02
f6
00
f8
16
fb
e3
8c
70
74
30
0e
07
09
ff
2c
21
14
06
25
1d
2a
2b
17
43
21
e8
06
f9
11
fa
eb
02
f3
fc
d7
ce
ad
3a
34
0c
f9
ec
0e
01
06
1a
0e
2c
31
28
2e
16
ff
e6
23
10
04
fb
f5
07
03
0d
14
bc
80
4f
30
14
06
0f
16
28
28
10
17
20
13
20
18
09
f1
e8
02
fb
f2
f8
f2
00
fe
02
0d
ec
e2
f8
31
17
1d
1d
15
2b
22
2b
2b
1b
31
30
00
f7
fb
01
fe
f7
e4
15
e0
fb
ff
27
1b
0a
ea
56
55
0c
1c
18
29
05
20
25
46
1a
26
2a
24
22
06
0a
13
22
f8
02
0a
10
06
0e
dd
e9
ff
fd
29
3f
0a
e3
f0
08
2e
2c
3a
61
43
16
28
0b
fe
fc
ed
06
0d
fa
fe
f4
03
0a
e0
f3
3c
2c
35
3c
fd
09
13
21
2c
33
1a
0f
08
d8
fe
0b
1f
fb
01
ef
f2
e7
f2
e5
d0
ee
ce
13
21
1b
58
43
1e
13
0d
2e
00
f7
f5
f4
08
f6
df
de
f1
df
cc
ee
01
f8
ec
01
fd
fd
14
25
40
ff
ef
29
fd
0d
fb
f4
f1
ef
05
19
03
12
df
ad
c8
e0
01
f7
0d
03
03
fd
fc
fc
1a
ff
fa
e7
1a
f6
f7
ea
e4
de
dc
f8
0c
19
11
e8
a4
9e
be
cf
ed
07
20
24
1f
0d
ed
f7
db
bd
64
10
d7
5b
3f
0c
cb
de
f1
0f
1d
fb
e2
ce
ba
bf
0a
0a
f4
18
16
22
fb
05
f9
fb
06
f6
bf
12
37
1c
c0
eb
d8
cd
c5
f2
fd
08
f1
e4
e4
fb
ed
f2
01
08
1e
fe
e8
df
e9
e6
fc
fb
04
43
2b
34
18
d2
df
d7
d7
04
fa
e8
e1
f2
e0
f1
0a
f3
fb
f9
23
1b
04
06
f6
1b
28
3b
38
48
60
61
31
18
18
13
12
09
12
e7
f7
06
e7
bd
bd
d6
f5
23
14
1d
eb
fd
cb
ce
ed
1c
44
3f
46
53
1a
cf
c1
e2
e7
e2
e5
e4
e2
f2
cf
d1
ad
c7
ae
06
00
10
32
11
ef
e7
f4
24
aa
fb
d6
05
03
bd
c1
a4
c5
0a
07
02
d0
d4
e2
d1
bc
fb
da
e0
cb
e9
df
d4
cb
01
e0
2f
ca
0d
c9
bc
f3
0b
f1
d7
dd
c6
e4
e1
c5
da
d6
fc
f5
01
f5
17
09
0c
ed
05
e7
c5
b7
fe
d8
da
f5
cf
db
f3
07
01
de
b6
be
9a
b2
ce
cd
e2
bc
f6
de
d6
df
ed
ec
e2
d3
87
ba
e3
fe
26
2f
28
48
fe
fd
bf
c3
cc
8d
7d
93
d6
ce
da
ca
fc
d9
d9
db
ed
05
fb
d6
c6
ef
da
ed
02
43
44
10
e8
c0
d2
c2
9a
7a
6c
e0
e5
fa
df
0d
f0
d2
f2
fa
19
1a
00
e8
e7
cb
e4
09
fb
ec
f1
bb
ad
90
ba
b5
9c
a0
a5
c8
c0
04
14
fc
fc
e3
f5
18
26
1a
00
16
16
c3
e8
f7
0e
e1
fa
1b
34
43
c5
b4
3d
1c
bf
df
ea
d5
2a
00
f1
ec
fe
ed
12
17
30
41
41
ff
eb
f2
fa
fc
f3
f8
ff
ff
04
05
0c
37
3a
12
35
dd
15
ea
36
36
4f
39
d9
1c
0b
34
46
1a
e9
eb
15
ff
f8
18
f2
eb
fe
f4
fc
f2
ce
b0
96
a8
8f
88
9e
d1
a6
d9
cd
e0
e3
c7
c1
cf
f3
ec
10
e8
04
f8
da
f5
eb
a9
f2
c9
14
02
17
03
1d
0d
06
f1
07
06
e3
bf
11
18
3f
26
dd
bb
15
f3
ef
e9
f5
d1
f4
d3
dd
f3
10
ee
f4
1d
0b
14
0e
fa
0e
06
e6
cc
f0
f9
ea
19
00
e6
e7
1a
cb
d2
0a
ed
1e
e9
d6
f4
d8
ae
f0
17
08
fd
ff
0e
04
f2
da
e6
ed
fc
d2
ff
0c
fe
ea
e0
eb
f4
f0
e6
1d
f1
ce
e9
d9
f8
07
f3
f0
d5
00
e3
03
e9
d0
fa
0b
1d
0e
f8
0d
20
b4
b6
bd
da
a2
d0
fc
0b
fa
e8
db
ec
e7
db
dc
e7
fb
16
05
fe
fb
08
e2
f7
f1
f0
01
01
c5
b1
eb
d3
d4
d6
fc
33
0c
08
d7
e6
d4
11
e3
db
f8
02
f0
09
0b
ec
fa
fa
f9
14
15
0d
c8
b3
d9
e9
e7
06
de
04
1f
17
e9
eb
11
f8
02
ec
ee
e7
f2
12
1a
f3
f2
11
1d
2e
0c
0c
e1
92
bc
e9
04
17
ee
f7
f0
f7
07
e3
fe
05
e7
f6
02
f9
02
1b
07
10
fe
17
fb
05
fb
14
d3
a0
9c
bd
b3
3c
fd
23
04
09
0b
ee
f7
08
16
fa
f3
04
04
fe
f9
07
19
09
ff
09
0a
2c
00
ab
72
9a
a2
1d
18
22
fd
1c
12
0a
1a
fd
19
0c
f5
f0
e1
fc
0a
0f
13
18
f4
05
06
e0
ea
c5
79
76
0b
2d
01
0b
0e
1f
21
33
17
1f
12
0a
f5
00
e7
ee
d5
fc
01
fe
07
fe
0a
fd
fd
fb
7f
98
36
27
f5
08
1d
2c
0a
0d
35
25
27
f4
e9
e5
03
07
05
08
f3
e0
10
08
1e
ff
f4
00
86
af
e8
0d
f2
02
06
17
13
0d
06
1a
f8
eb
ff
dc
ed
e6
e0
fe
e2
fa
e5
ee
12
1a
ea
00
b7
97
97
e5
0e
02
15
24
f6
13
09
e7
18
dd
03
e8
f6
ec
e8
d3
da
e5
f5
de
e1
15
f6
cd
d5
c1
ba
a9
36
fe
0b
0b
e7
de
eb
e8
fd
f2
f5
f5
e9
e5
ed
d1
e2
cf
d4
f4
f3
f2
03
cb
e2
f5
2b
ee
05
eb
e9
d0
04
05
e4
ef
f4
00
01
08
0b
01
ea
d9
db
de
d8
f0
fb
02
e7
e7
e6
f5
29
ee
f8
d5
eb
09
0d
31
0a
11
ee
e8
0a
ff
f1
f1
01
08
f3
da
21
04
26
d0
fa
0a
c2
dc
ee
06
e7
ed
fa
0a
f9
11
06
0c
fe
fa
1c
12
03
0c
fd
ff
04
08
0e
26
21
da
f8
c8
c7
b3
18
1b
0e
16
1b
23
10
f8
19
17
f2
25
18
0f
07
14
23
03
05
0a
10
1f
17
cb
fc
fa
db
9b
e7
35
1c
17
0a
29
2e
29
0a
24
fe
08
0b
11
02
16
0d
01
1c
01
1b
0b
e0
ba
0b
0c
c3
c2
fd
1a
0e
23
37
1d
26
1d
1d
22
1e
1e
06
07
f5
06
05
09
fc
14
e8
f5
c5
b1
0c
01
d7
c0
14
4f
14
1b
25
0e
2f
18
29
fc
0b
fd
f8
e3
fd
f0
fd
fc
0c
08
fc
e7
a7
dc
ff
e8
ce
ee
f4
33
1b
20
02
07
09
d7
f3
e7
f9
f8
fa
09
f1
f0
0e
19
1a
fe
12
fb
b6
cb
f0
f9
e0
f7
ed
ef
00
e4
d1
eb
00
d1
eb
e7
dd
ca
f7
06
01
ef
0e
01
fa
eb
f2
0b
c7
bf
f5
03
08
e8
01
af
a5
d2
c0
cd
e5
be
d1
ce
ff
d7
0e
04
f1
05
ec
11
e0
c2
f6
f0
b7
d0
0d
fa
fe
fb
ed
c7
b4
ae
ad
db
b5
c0
cd
f6
0d
d5
db
ee
12
e9
05
f2
d0
c3
b9
ea
cd
fb
f4
00
fc
00
e4
c5
c9
d4
c7
c7
95
d0
d0
f4
05
16
db
b6
fa
00
f6
01
e0
b5
b0
d5
dd
09
16
07
01
f4
f9
fc
05
fe
ff
eb
c6
a6
bd
87
97
b9
ab
b2
ea
d8
e3
ea
e9
b4
d1
f5
f9
f0
eb
0e
e6
f2
04
cb
f7
be
86
e4
ee
1b
05
07
1a
06
07
fb
02
a5
79
3a
43
4b
03
b9
a6
c2
0e
f1
f0
e9
ed
f1
0a
ee
ea
e8
ed
f5
fb
d2
fa
19
de
e1
ff
c7
fd
25
cf
ca
ed
2b
fb
06
e8
e4
be
ab
f8
ad
ca
f1
e1
f5
fd
0c
fe
f1
f5
d3
a0
db
da
0c
24
2f
24
cb
ef
ba
19
f6
cc
a4
cc
a8
d3
f8
ed
ea
ff
0a
05
0b
00
06
f4
df
f6
f6
f0
31
21
04
04
29
19
f1
e2
c2
b1
a6
cd
9d
d2
f4
08
ef
f8
e3
f4
f5
09
f2
02
1b
e9
0c
21
0d
01
0c
f9
f6
f0
ce
f6
f1
bf
b1
d6
f5
e3
f6
14
11
1d
05
01
f5
10
0a
f5
01
10
ed
04
11
15
fe
fb
20
1f
ff
19
0f
bd
b7
22
ec
05
0a
04
03
0d
1c
17
32
0e
0e
f3
fd
03
fa
e8
1b
0d
17
fe
0b
e1
fc
cb
cd
8e
e0
06
f0
14
21
29
13
0f
29
33
14
22
18
2b
e9
fc
e8
e4
f7
06
1e
06
00
fc
fe
da
c5
87
e3
06
05
fb
fb
00
f5
04
03
0d
0d
20
33
0a
05
ea
f8
fb
fa
0e
02
fa
fb
2c
1f
46
41
7c
c6
f0
e5
f4
03
15
0f
f5
09
1d
06
14
1a
09
05
f6
f7
dc
e6
e8
f8
11
fa
0d
05
e0
e4
7c
de
20
04
0a
00
0c
21
04
08
1c
04
29
07
0e
ef
ee
dc
e7
df
e8
df
1c
e2
ea
d5
d2
e9
76
15
32
13
06
f7
fb
0a
0f
e3
e0
e6
00
f9
08
e8
e7
ff
ff
f1
fd
eb
ef
10
ff
02
11
fd
6e
1f
0d
f9
ec
e3
e5
ed
de
d4
f2
f8
07
09
09
ff
01
fc
1e
04
15
07
04
09
0c
f4
e9
de
90
1e
c2
ea
fa
eb
e5
de
f0
ec
ec
fe
0f
0d
f7
00
f8
04
10
17
12
fc
0f
21
de
eb
bb
bf
7b
12
a4
fc
e8
e9
ed
d4
ec
ea
df
ff
f7
0a
00
07
18
14
16
34
1d
ff
0e
fe
fd
b7
ae
a9
c4
d9
cb
07
f8
f2
01
fb
ec
f2
d4
03
01
fa
f6
05
fa
16
19
1b
f8
eb
06
f5
d4
a5
54
0a
c1
af
06
f9
f1
ee
e5
ea
e6
d5
ee
fe
13
fb
0a
05
14
23
f3
f2
fd
db
e6
ff
dd
ac
a1
e9
b9
5d
d9
da
04
fb
05
0a
ef
ff
fa
1e
39
08
09
fb
eb
f6
dd
d6
e5
e7
fe
07
fd
0a
c8
b8
92
b4
fd
0b
ff
02
df
f2
09
0a
00
0c
25
f3
08
f6
e5
f0
c2
e0
d7
e1
0c
17
ef
be
dc
0e
b0
c6
0e
0e
02
0c
03
f5
0a
f5
18
10
09
17
fe
fd
e1
02
f6
01
04
09
0d
02
fb
05
dd
9c
a3
d0
03
ef
04
11
1c
19
fb
ff
20
11
0e
1b
fe
fd
f2
00
0e
f9
09
06
ef
f5
de
05
cf
ba
ad
f3
22
f0
05
06
1b
f7
0b
f1
02
1a
06
08
03
ff
f2
05
02
03
fc
01
0b
e4
cb
b8
ba
bc
b2
04
3b
08
22
f8
06
00
f1
fb
ee
f4
09
06
f5
01
0e
1d
29
0f
13
24
01
09
f6
0a
ae
c9
c8
1b
11
04
f3
e8
db
ed
ee
f3
fa
f3
e8
f8
f7
04
0c
02
01
2b
16
f4
0a
ed
e9
06
aa
da
d5
da
d1
c8
bd
c0
d7
ca
ea
f5
fc
0b
00
ff
20
05
0d
fa
37
00
f4
e5
db
e7
bc
c3
ba
dc
e4
ac
81
90
c0
e1
f0
df
d1
1e
16
0d
16
ff
16
ff
0d
1d
e6
10
e1
cf
be
c6
a8
e4
dd
f4
16
de
8b
8f
e6
d4
c4
ee
28
fd
07
0f
17
ef
d9
e4
f8
0c
fe
b7
a6
cc
d6
01
c3
ef
e0
0a
fd
f3
02
16
07
f5
02
e9
f8
be
76
76
5c
4b
71
66
60
9d
c2
be
e1
9a
98
9b
b2
bc
cf
ff
fa
e6
e8
cf
d3
d3
b5
c1
e2
e1
03
f2
14
1f
18
15
0e
0e
11
eb
c0
e7
18
34
1a
12
d0
bd
e9
f9
d5
b4
bd
d6
d1
ea
0d
0a
08
f8
03
18
18
09
15
05
05
f5
dc
e9
ed
13
e7
0d
05
d1
dc
de
a9
a3
96
d4
f3
f6
0a
16
06
03
11
0d
f6
1f
03
ec
fe
f9
f9
12
07
09
dc
f8
08
fe
f8
ce
d6
be
ce
fa
13
00
10
e8
fc
00
07
00
f7
f9
01
00
05
08
04
05
e7
ee
f9
0b
0a
12
99
99
c4
e8
ed
d6
f8
fd
e7
01
f7
0d
07
02
0f
0b
f5
ff
f9
07
19
10
14
03
fc
f3
fc
fc
a3
94
e4
f4
f0
e6
0b
f8
fe
f7
e5
cd
ed
f5
01
fb
10
00
15
f7
11
12
15
fd
07
fe
ed
f3
a3
c1
ef
06
00
f7
fc
f6
f9
f4
ec
04
f3
eb
02
fd
01
0d
03
08
0b
09
08
21
fe
06
26
04
c6
73
af
fd
f3
e5
f4
e9
04
eb
ed
14
25
f8
d4
d4
0c
18
05
1e
25
12
14
f7
fc
eb
09
08
ad
63
e4
09
e7
ed
e8
e3
f4
27
f3
00
ea
1f
1a
01
f1
06
ec
10
2d
25
24
15
16
1d
1b
28
ce
b8
db
12
01
de
1c
fd
07
fc
f3
0e
28
31
22
19
f5
fb
e0
08
06
0b
f3
ed
e9
fe
01
06
ba
ac
e8
0d
f4
d8
f4
08
0a
ea
05
15
1b
28
24
ee
fd
f3
f0
15
01
18
00
f3
e1
f0
f8
fb
d8
74
57
b8
c8
c2
f7
1f
1f
0f
1d
2a
1f
09
f9
db
d4
e2
fe
00
fa
08
fe
b9
cd
e4
e1
e0
db
d1
91
b2
bd
0c
07
0c
0e
25
28
1e
07
11
e0
cd
c5
ed
0a
24
06
fd
fc
f4
ed
c6
d6
e1
e2
b6
0c
f7
d7
e7
1a
03
02
1b
f7
ef
1d
06
ed
cd
d9
f7
08
18
f8
fb
02
09
02
fc
e4
e7
f0
dc
f3
06
e6
cb
f5
0f
10
10
06
0e
04
00
f3
de
f8
fe
1a
ff
06
ed
25
0c
0b
f0
da
b1
ca
72
b3
0b
fa
13
f9
07
f8
d5
de
fe
f5
e4
c8
ed
08
07
25
1e
19
fe
16
0c
f5
f8
d5
ba
cb
61
ae
14
f9
f3
e8
d9
e2
c9
d2
e9
e6
f7
d8
f3
29
1a
35
0f
19
fb
fe
f7
eb
f7
db
bb
b9
f8
f8
ed
b3
da
cf
dd
e1
d1
ae
b7
cd
ea
0e
2a
1d
0f
04
0d
fb
f1
f4
f7
f5
03
da
d7
bd
d3
f2
e5
cd
ad
c3
f1
df
df
cf
dc
e7
f1
fe
13
21
fc
0f
00
f6
ca
f3
ee
e0
c6
c0
e1
e5
07
07
d4
b1
f1
f6
02
da
f5
e5
fd
0c
e6
fd
04
08
03
e8
e7
e8
1b
e8
ec
06
e9
ab
a6
ba
e6
b2
0d
ba
d9
f8
fe
09
f0
17
fd
07
0b
1b
f4
f1
03
db
e5
0b
03
ed
e6
fb
f3
b1
b4
df
07
f6
dc
d9
e6
e7
01
09
08
fb
0e
10
f9
f1
f3
fa
f0
01
0b
ff
eb
01
11
02
fa
d6
d5
f3
c2
84
6a
c5
ca
eb
0a
01
ee
2b
0d
1d
14
08
e7
db
dd
fa
f2
e1
d7
d9
0a
3c
05
bd
ac
f8
eb
ab
b5
73
5f
0d
1f
39
1d
26
21
04
f5
03
13
fa
0e
dd
cd
85
ae
bc
b8
e2
fa
cc
d2
05
df
f0
aa
ab
74
bf
02
32
20
23
c7
b9
c6
9a
6f
8e
f1
22
fd
ea
d7
ce
a5
c2
ef
b7
d9
fd
0a
f1
01
ef
f0
ec
c3
23
05
e5
9f
e9
02
0f
27
c1
7d
86
22
01
e7
df
cc
f0
ef
fa
e2
04
f7
07
f7
f7
0f
f8
f8
ec
c7
b0
c6
eb
a9
ea
d6
ee
cf
c4
f1
e5
fc
ff
e7
ef
ea
f2
fa
14
12
06
ff
e9
f0
31
0e
f6
e8
e3
eb
f5
d4
e3
e7
d1
df
de
c3
f7
02
fb
01
0b
f8
01
04
05
ff
f7
e5
ee
ea
ec
f0
f4
ed
ef
cf
c2
c0
af
9f
bd
b8
96
9a
af
c2
b6
9c
fd
e5
f0
f9
f6
04
08
d0
e1
cf
d7
e6
fa
c2
bc
eb
e3
04
08
2c
1f
1a
07
f1
d3
09
e4
97
bd
bf
df
c2
18
10
f1
e9
db
dc
cb
c2
d2
e5
cf
12
20
02
fd
f8
e6
ec
fa
f0
f0
f3
fc
a6
76
55
a8
d3
03
cb
f3
d2
fa
c9
d3
f3
fa
04
d3
0b
02
04
ea
da
cb
ed
fb
f5
e4
f0
06
e0
d2
c5
b3
b4
d0
d5
b7
c4
ae
c0
cf
a4
be
ca
a6
aa
e7
e0
f9
e3
e9
f9
f8
ee
f4
02
f1
dc
e6
d5
cc
c2
ea
97
b1
bd
c4
b9
ab
92
b0
92
75
aa
cb
d9
eb
de
df
f3
06
f4
12
00
13
e8
d9
f4
de
ec
c7
b0
9d
b8
bf
af
a0
c0
c4
97
af
de
c1
e0
d7
fe
07
03
02
f8
fb
f3
fa
da
df
ef
f3
d3
b8
9e
9c
b3
c0
b8
e5
d2
e7
fd
e2
f7
bb
fd
d5
03
ee
f8
06
f2
ff
ff
f5
f1
d7
fe
f2
ee
cc
cc
b6
f0
fc
b8
f2
fe
10
f2
fa
15
06
08
03
1a
f7
e2
f0
00
f9
e8
ee
e1
f6
cc
ed
ed
ee
d4
e7
31
40
fa
04
fc
12
11
1a
0e
12
15
0b
06
ea
f6
0b
0b
00
e9
f0
e6
fa
fa
f4
36
ee
c0
15
03
3c
16
0d
1a
1e
22
18
12
18
15
0c
0a
fb
e5
f1
f8
01
dd
ea
04
07
ff
02
1b
f7
d2
2b
1d
2b
24
16
17
0c
09
16
1d
13
fc
d2
ff
f9
0d
f7
e2
f2
fe
01
06
04
07
ca
e5
fa
df
de
24
2a
35
21
1c
20
12
19
13
14
02
e9
0b
0a
14
fb
e8
07
1f
05
16
0d
fa
b1
cc
ea
ee
b4
33
55
2d
fa
0a
07
06
13
11
ef
09
ea
12
0f
19
ee
ff
f8
13
0d
f6
19
01
d1
b6
fa
fa
f4
13
27
2b
f6
09
1a
01
04
0b
ea
dc
e6
01
0e
1e
fa
ed
e5
04
03
f7
13
f0
be
dd
03
04
00
fe
1b
1b
04
08
07
f7
03
f5
e0
dd
e2
f0
f7
13
ef
f7
12
13
f9
e7
1b
e3
cf
fa
cd
bf
cf
eb
0b
05
e8
15
09
17
fd
d4
b9
c6
e6
fc
fb
f3
10
fb
f7
f0
fd
ee
13
f6
df
a9
f9
bb
de
06
f8
e0
02
f5
c5
fa
e7
a2
9a
da
f6
04
0d
0a
05
fe
09
32
eb
f4
ee
0f
f1
ae
e0
c7
93
f6
e8
1a
fe
f6
e7
bd
c9
bf
e0
ec
f3
f2
07
ff
fe
10
03
23
ee
09
0a
09
fd
dd
ff
bd
cc
b4
ec
fb
0c
01
d3
b0
e4
dc
ff
0b
f5
f4
f3
09
f7
0f
fb
0d
f4
f8
29
08
1a
e2
0c
b7
b2
a8
00
f2
14
d2
cf
c3
e7
e1
f0
fb
04
f7
04
fb
0c
02
12
29
04
06
10
0f
29
ce
de
e6
ae
c0
d1
fd
ce
b5
de
01
f3
d6
e5
fc
08
13
f6
09
18
f5
08
02
0d
fb
19
13
11
f4
fa
fe
ae
f5
eb
07
bd
e4
f9
03
11
0a
fa
fd
0e
03
0d
1f
1a
ed
f4
05
fb
dd
12
04
24
f8
fc
03
cf
f4
e0
ce
ea
1e
17
2f
1e
29
0e
3b
24
12
0c
19
09
f7
08
24
20
00
f7
30
0e
f7
ff
fa
c5
f5
f6
db
f5
19
12
32
fd
46
23
20
0e
1e
1a
16
10
0a
1e
36
1f
ed
ee
16
f4
e4
e9
03
ff
cc
09
fa
0f
07
20
36
0d
2d
03
17
0e
05
2b
27
1e
13
23
1b
14
f8
e1
17
0c
ff
fe
ff
fc
13
13
1b
33
28
31
48
26
17
42
17
e3
10
1b
16
42
18
3b
40
45
f9
dc
f3
2b
fd
fd
04
11
f7
de
f8
1a
f8
ff
f7
e6
07
e1
e6
f5
df
d0
f6
f1
ed
f0
f7
f6
06
f3
06
f6
f9
f6
f6
03
ed
d9
03
0a
fc
ee
d8
cb
c4
b6
98
ae
b7
c4
a0
d2
e0
9b
ad
e5
f3
fe
f7
f0
f8
1a
f0
ef
e5
ed
c2
e3
e5
d9
c2
98
df
05
eb
12
2d
1b
fd
0d
ff
11
84
a1
cf
ee
e5
ef
f8
fc
e9
d3
d3
e6
d7
c8
a2
a5
e2
ee
07
20
f4
ac
ad
ca
f5
e4
17
f4
e7
b4
4d
90
ba
e5
d9
fb
f3
df
c5
e5
b4
b4
be
dc
f2
dc
07
f0
f0
0f
dd
24
32
13
ca
f0
de
ff
df
b7
89
bc
d4
f1
e6
d8
d0
c6
a8
a5
91
d5
0c
02
fe
d9
ee
da
f7
0e
f6
06
ee
f0
de
eb
ff
bb
62
79
b0
a3
a8
c2
a1
a6
ba
e3
01
f0
0c
ea
08
e3
ed
ee
02
02
17
1c
33
05
f7
e4
d3
aa
85
99
db
b7
ad
a8
ab
e3
f1
04
09
0e
0b
e6
f1
fd
05
f8
11
14
0d
14
29
19
23
2a
31
04
cd
89
60
9a
da
c9
f8
0c
1e
31
1f
17
0d
f6
fa
ff
e7
0d
f3
e8
06
05
03
0d
09
29
11
f8
0d
c8
d0
9e
08
fb
fa
0b
0c
27
f4
2d
20
1f
20
1e
1b
03
fb
f3
fd
f9
0e
0e
f7
f3
e4
d4
b2
8f
ac
b2
f4
e7
f7
1f
16
36
00
0c
10
19
38
15
17
03
e2
dd
f2
18
07
00
0f
d8
01
01
c3
88
ae
09
0a
e3
00
f6
1a
10
fd
16
28
1c
34
48
31
08
1b
15
0b
14
0f
ff
dd
d2
04
22
13
0d
4e
05
d7
ef
0c
21
18
29
0b
fb
31
2a
2d
29
2a
39
30
22
ff
0b
13
d7
fb
f2
e2
20
db
85
ef
eb
ba
fc
fc
26
11
19
0e
13
fe
0f
0c
24
18
31
17
1c
13
e6
e6
ee
07
0f
10
d9
b2
75
b4
d8
e9
29
06
f7
ed
09
f4
ee
e8
00
26
27
2d
2f
1f
29
fd
03
d1
fa
fc
fc
e8
b9
be
d9
c9
b6
d1
33
fb
fe
ee
fd
ea
e4
0e
1f
2b
2d
15
03
1c
0d
15
22
f8
f6
19
f7
d7
a2
dc
bc
df
ab
c3
29
f9
12
08
f3
e0
e6
0d
23
2c
0f
1e
11
06
0b
f8
09
f5
ec
fc
0b
14
f0
db
8e
e3
eb
b1
f5
d5
dc
0f
fa
f3
fe
1d
04
f7
f5
f8
09
05
09
00
0a
f5
f1
fd
ef
fd
f2
07
b4
d0
d5
d4
da
dc
dd
e3
f0
e7
15
10
03
d2
ee
f2
10
02
f4
0b
09
0b
fe
d4
ee
e1
e7
a8
cc
e7
97
db
cc
df
eb
e7
e3
ea
09
29
04
09
fc
ec
06
09
f5
12
01
1b
19
05
ed
fa
1a
05
ab
b8
a0
ab
c9
f0
f6
f9
e3
f8
fe
f3
ed
db
c6
d1
f7
f7
ff
e9
00
06
2e
1e
1c
10
1d
17
15
09
9d
b4
dc
fc
03
ed
e2
f4
f3
f6
ec
e1
c9
de
f2
f1
f4
08
0e
00
f4
22
15
0b
0c
fb
d4
d3
a5
07
01
0a
ef
de
e0
ef
f2
f4
cf
c9
d0
f3
f7
f2
0f
ff
0c
01
05
e4
03
0f
3a
01
04
d5
92
0b
12
0b
f3
e8
f5
e5
e8
d7
d2
e8
e1
10
17
22
11
f9
04
21
f8
f3
0b
11
11
fa
0d
e8
b9
04
13
12
0b
16
0f
0d
08
07
03
fa
12
f6
e1
0e
24
08
14
0a
0d
f8
0f
0b
47
19
f9
cf
c3
f8
1a
11
e7
14
1b
05
0a
00
fd
02
f4
e2
f3
e4
f6
ea
dd
05
ff
14
08
02
f6
fe
00
e1
b9
a9
fa
33
09
2b
1f
f8
24
12
06
d1
d3
fd
16
f5
f4
f0
05
20
07
03
ef
0c
f6
1d
07
03
07
aa
d8
3a
35
1c
21
20
fa
12
f4
ff
0d
0c
1b
ff
0c
25
42
2d
29
19
0d
05
dc
cc
fc
fc
e2
f4
ea
ed
e6
04
f9
eb
0a
fb
f0
e9
de
b7
d2
ce
c5
cd
d8
eb
e8
f3
11
e8
f0
fc
ff
f2
f3
f9
f0
e0
f0
d7
fe
e7
ee
bb
b4
b1
76
81
39
6d
59
8b
94
98
b6
a1
a9
b9
f4
e9
03
f5
e7
e9
f6
da
d0
c6
92
9f
9e
98
de
eb
0b
18
29
22
36
1c
07
10
d1
ed
c8
5c
77
c6
c8
f2
19
05
d6
b9
b4
c9
be
c8
e6
d3
f7
27
26
26
21
fc
f8
f2
1d
06
02
14
d1
b5
4a
45
72
d4
eb
c7
d2
c1
9f
ac
f5
10
1d
21
1d
1a
08
0d
06
f6
ed
16
12
09
03
f9
14
d1
df
b7
93
af
c4
d2
b8
91
a6
df
fb
1c
25
13
05
05
0d
0d
09
19
12
3b
16
13
fa
11
ef
f9
fc
01
e8
c8
bf
99
8b
de
dc
fe
fa
02
f8
dd
e7
d9
08
07
f5
04
22
ff
23
1d
fe
1f
1a
00
ea
d7
da
d9
94
a6
c9
04
f7
05
ea
dc
ea
d8
df
ca
07
1e
15
24
1b
fd
0e
05
f7
08
05
00
e4
f1
d6
bd
a6
c6
f9
f0
d2
07
e3
cc
c8
da
e7
e9
09
22
0c
09
09
28
02
09
f6
f7
eb
ed
db
d9
e6
ea
b2
e0
f7
dd
cb
cf
de
e9
dc
a0
c7
07
13
f3
df
fa
fb
f0
17
21
fe
fc
fa
f3
f7
b5
d5
ef
d7
e7
e0
d4
df
d0
e9
c0
e8
f2
ef
fa
05
f4
c5
e2
04
08
f3
05
f2
f1
eb
ee
0e
fe
d4
09
c2
0b
14
fd
fe
db
dc
ef
e2
e0
18
1e
35
e6
de
d2
de
0b
f6
f2
e7
d5
f3
03
00
ec
ca
fa
c6
db
03
02
cc
d1
e1
04
0e
18
30
15
dc
ea
e7
f6
23
ef
ee
e8
ed
cc
ec
e1
07
b2
74
a6
d3
e7
a3
d5
b0
b5
dd
f4
fb
04
19
28
ff
f7
f4
ff
ff
eb
da
ca
e4
ca
c9
f0
e4
c5
8a
b8
e2
b2
a6
af
ee
c2
b0
f3
1d
19
20
13
17
f2
0f
09
c1
df
dd
d6
f5
e3
d4
db
d3
af
a0
e1
c4
e2
7a
52
d0
f9
e0
ef
05
11
28
29
12
ca
de
d4
df
e6
d1
e7
d1
f2
eb
dd
e3
be
89
dc
e5
b8
a8
77
9e
c8
fa
e9
08
29
31
42
37
01
ee
ea
da
b1
b3
ba
bd
e7
e2
fd
ea
f1
92
a3
c0
b8
82
61
93
ba
ec
f6
0d
28
3d
38
f3
f4
fa
da
c7
9d
92
b6
b5
ee
e1
f5
e5
dd
b7
b0
bb
9d
6e
59
91
d4
fe
fc
2a
25
2b
2e
fb
ff
00
ee
b2
a5
bb
c6
03
11
04
e9
05
0e
fb
ca
bd
a1
73
a7
e1
fe
e6
06
26
1e
12
00
00
fa
d1
db
ac
bd
ad
cd
f1
11
0b
1f
2e
07
1c
e5
02
d1
ae
c6
ee
cf
f2
3f
24
04
fc
01
09
ff
05
ed
d3
db
e9
e5
e4
07
fa
f0
08
2a
23
e5
d8
d8
04
11
10
2a
1d
21
1a
15
18
38
1a
24
09
c7
cb
e5
d6
e6
e0
f4
fe
fb
f9
02
fc
de
bc
98
7e
fa
1e
1c
03
04
20
06
08
03
f8
04
1c
ff
cf
01
ef
fd
dd
12
13
01
13
28
f9
f5
00
a4
de
16
04
1d
f9
e0
e3
f5
f0
fc
fe
f4
e4
f1
fc
fe
08
09
eb
15
15
22
24
28
0c
fb
f5
cb
7f
cd
08
04
e4
d0
ad
b7
bc
de
fb
cd
03
00
00
29
fe
f5
f2
1d
0d
fa
17
4b
17
fa
e8
06
36
3d
44
3e
f9
ed
ce
e0
d3
c2
02
f7
62
46
23
0d
09
19
f8
2c
2a
02
f6
15
f7
fd
f0
f7
01
f5
ec
df
4d
44
04
0b
68
57
21
2b
f7
15
09
1a
14
43
3a
29
39
06
da
08
0f
04
00
fc
09
fc
0a
08
00
f7
00
2f
0a
31
0d
54
30
68
f4
03
de
27
44
fb
19
1a
07
e4
f9
ea
