ee
0b
0e
f8
00
ed
10
0f
03
fe
00
05
03
fb
f8
0d
00
07
f0
fd
1f
04
02
13
ff
fd
fe
fd
fb
fe
fd
00
fd
01
fa
00
fb
fe
fd
fb
01
00
00
00
01
07
00
00
fe
04
00
04
00
00
02
03
01
00
02
ff
05
00
05
00
fd
ff
ff
06
00
00
00
06
00
00
00
fd
02
fe
03
fc
01
f6
fe
fa
fa
00
fb
01
fb
fb
00
fe
f6
ff
00
f8
fe
fd
ff
fc
fe
fb
fc
f8
00
03
05
00
03
02
02
03
01
05
00
0a
00
00
ff
00
fe
fc
fe
fa
04
02
00
ff
fb
00
fb
fa
01
00
02
01
fd
00
fc
fd
fe
ff
fc
fb
02
f9
fd
fd
fa
fe
00
ff
fb
f9
fa
08
f7
fe
fe
01
02
ff
fe
00
fe
00
fa
fa
03
fc
03
09
f8
ff
ff
01
fe
05
08
fc
00
00
00
01
fb
ff
ff
fe
f8
01
00
00
f7
fc
fc
fe
00
fa
01
03
01
fb
fe
fd
f5
fd
01
01
02
02
f8
f7
f2
fd
03
fe
02
fe
fe
fb
00
0a
fc
f6
ff
ff
f9
00
fe
00
06
02
fe
03
01
06
03
fd
00
04
00
00
f9
02
fa
01
06
01
00
00
00
fd
01
08
05
00
03
fc
f8
02
fe
00
00
01
ff
f9
02
00
ff
02
01
00
00
00
00
04
00
00
fa
00
00
fd
02
ff
f3
fa
fd
02
f8
fd
02
02
ff
ff
ff
02
00
06
ff
fc
fc
fa
fe
fd
fc
ff
fa
00
ff
fa
09
00
fc
00
fd
06
02
01
fe
01
09
01
00
fd
fa
02
07
05
00
01
fd
01
fb
fe
05
00
02
04
00
f8
02
fe
00
04
fd
f3
ff
fd
fd
ef
f9
02
08
fe
03
fa
00
ff
04
01
00
fe
00
00
fe
fd
fc
fe
fc
fd
04
fa
f4
00
01
fc
01
fd
fb
03
00
01
f4
fc
01
00
03
fb
00
f4
00
02
00
fb
fc
ff
03
fc
00
03
04
01
00
f9
f9
fc
02
fa
f9
02
f4
fa
00
00
00
ff
00
00
00
01
00
fb
ff
fe
05
fe
ff
00
04
00
00
fe
fc
fb
fd
01
01
00
fc
00
fb
00
f9
00
fe
fa
06
f7
05
fd
00
00
fb
fd
fb
01
fe
00
fe
00
fd
00
ff
07
ff
02
fe
fa
02
03
05
fa
03
fb
fe
fa
f9
fe
f9
03
f6
fd
00
fb
01
0b
ff
ff
fb
04
05
fd
01
fc
02
fc
fe
03
01
03
fa
ff
02
ff
ff
ff
fc
f6
ff
04
00
02
fc
fd
fc
fa
06
00
03
fe
00
07
ff
02
03
00
01
03
07
02
01
02
ff
05
ff
0d
00
01
05
f9
fe
fb
fe
01
ff
f0
f8
01
00
00
02
04
01
ff
ff
00
fe
fd
fe
01
01
03
00
fc
01
ff
02
fb
05
00
f9
07
fe
00
ff
00
00
f9
02
00
ff
00
fc
01
04
fe
04
fa
02
ff
ff
03
fd
03
f9
05
f8
02
00
fc
05
f7
08
f8
09
ff
02
fd
fa
f9
00
fb
00
fc
f7
03
fd
01
fe
fb
01
00
00
01
fe
04
02
02
00
fd
02
fa
00
00
fd
02
fd
03
00
fe
02
fa
fd
00
00
ff
ff
00
fe
00
fc
00
ff
01
ff
fe
05
00
00
00
01
02
fa
07
fa
00
03
00
fe
00
02
00
02
01
fa
00
00
fc
fc
f8
f8
fe
01
05
f0
00
fc
03
06
00
00
f6
00
01
fd
00
ff
00
01
00
00
fe
00
fa
00
fc
00
03
ff
01
fd
03
f8
ff
00
fd
ff
fb
05
fd
fc
fe
fc
01
f7
fb
fa
01
00
fd
ff
fe
03
fa
02
01
04
02
01
06
ff
02
ff
fd
00
ff
fe
f5
03
00
02
01
05
03
00
03
ff
01
02
01
04
fe
00
00
fd
00
fc
fe
ff
01
fd
06
05
02
fd
00
02
ff
03
01
00
01
fd
06
00
02
02
03
00
00
05
fb
07
00
07
00
f9
03
fa
00
f4
00
05
f9
f4
fa
01
00
fe
fd
fc
f7
f5
f8
fd
ff
fc
01
02
00
fd
02
fd
0a
04
05
03
fe
04
00
04
00
04
01
fd
00
fc
04
00
00
05
00
01
ff
01
fa
01
00
02
00
ff
fe
fc
fa
ff
fb
00
ff
01
01
01
00
ff
04
00
03
00
06
ff
fe
fd
01
fe
fd
fa
f9
f6
00
00
fe
06
fd
fc
fb
fd
fe
07
06
00
ff
06
fb
01
ff
04
fd
ff
fa
02
00
fe
00
00
03
00
fc
00
02
00
04
01
03
03
04
00
01
fd
00
fc
02
ff
00
fe
00
01
01
fe
fc
fd
ff
02
00
03
00
ff
fa
fa
00
f5
f9
f9
00
fd
f6
fc
00
fb
00
ff
fc
03
00
fb
02
fb
01
ff
00
01
fd
03
f7
fc
fc
ff
ff
ff
04
fa
00
00
05
fd
00
fa
fc
00
02
01
fd
ff
00
ff
f4
00
fd
fd
02
fb
fb
ff
ff
05
ee
02
05
04
01
03
02
fe
fe
00
ff
00
ff
f9
fe
09
05
03
00
fe
01
ff
00
01
00
00
fd
fe
05
fb
01
fd
01
02
fb
04
fc
06
ff
00
03
f5
00
fb
02
02
01
02
ff
fb
00
ff
ff
00
ff
03
fe
03
ff
ff
fe
fb
05
fd
00
fb
00
03
fe
03
f6
01
00
ff
fe
fb
ff
fe
fa
09
fc
00
00
09
00
ff
f8
00
01
01
08
01
00
00
02
01
02
ff
00
03
00
01
f9
02
fd
00
fc
ff
00
fd
00
fb
01
fd
fd
fe
f7
fe
02
fc
02
00
fb
05
fb
00
01
02
00
02
ef
00
04
04
00
fe
0b
fd
08
04
fd
00
00
fb
01
fc
fb
f6
04
fd
00
00
ff
03
fe
02
fe
02
f9
ff
fd
fe
03
03
03
01
fe
02
00
04
f2
03
04
02
02
05
00
06
05
fb
02
fc
06
fe
03
00
f9
05
ff
01
fe
01
ff
fe
00
fb
05
f7
fc
fc
01
04
03
fb
f4
00
fd
00
00
07
03
02
04
ff
00
02
02
05
02
02
fd
00
02
02
04
fe
06
fd
fe
00
f6
02
fc
04
fb
fe
00
00
03
00
f7
ff
ff
04
01
03
03
01
02
00
05
01
05
fd
00
00
01
02
00
04
00
fe
fd
01
fc
fb
fb
02
00
fc
ff
00
00
05
05
06
00
03
fb
fd
ff
fe
04
f7
fc
fd
00
00
00
fc
fe
00
fd
02
01
00
fd
fa
ff
fd
fa
03
fc
02
01
00
fd
fe
03
ff
06
02
00
00
00
02
02
03
03
fe
05
fe
00
00
fa
01
fe
00
fd
ff
02
f5
05
ff
01
fe
fd
00
02
01
02
00
05
02
ff
03
01
00
fa
01
ff
01
fc
fe
00
f8
fe
f7
03
fe
00
00
fb
02
fa
03
fa
03
00
fe
00
fc
03
f9
02
00
00
04
fd
01
ff
00
ff
fe
05
00
fd
f4
01
02
fc
fa
f0
f7
00
fc
00
ff
fe
00
01
01
00
00
fe
00
f8
ff
f6
fd
00
fe
fe
00
fe
fe
fe
03
01
00
05
00
fc
00
02
ff
01
00
02
fb
00
00
00
00
fc
01
ff
fd
01
ff
00
00
00
fc
00
01
00
fb
ff
fa
f9
01
00
02
fb
03
00
fb
03
00
02
00
03
03
02
02
00
02
08
ff
00
fc
fe
01
fa
ff
01
ea
03
fe
00
04
02
03
fc
00
ff
09
02
ff
00
ff
01
03
03
fc
ff
02
06
01
02
06
fb
ff
fe
00
ff
01
fb
ff
00
ff
ff
00
00
08
ff
00
fe
fc
00
00
fc
00
f7
fc
fd
07
02
05
ff
01
04
04
fc
fe
04
fc
fb
ed
fd
fc
00
fe
01
fd
00
00
fe
fd
09
04
00
05
02
03
01
00
02
01
06
fd
02
fc
00
02
00
00
04
01
01
02
fd
fd
00
03
03
fb
07
ff
fd
01
fe
01
00
fc
fa
f1
fa
fe
fe
ff
00
f9
02
07
02
00
06
02
f3
f9
ff
fd
ff
01
fd
ff
fb
fa
fb
f5
00
f9
fb
00
03
03
00
00
fb
ff
00
00
01
01
ff
00
06
02
00
fd
f3
00
ff
fe
fb
fe
fe
05
01
00
00
01
03
04
fd
01
01
03
fe
04
00
ff
00
ff
fe
ff
f9
fe
fe
fc
ff
fb
f7
00
fd
00
00
01
00
fe
fd
04
fb
ff
f7
01
ff
03
02
00
00
f2
04
00
00
01
ff
ff
f0
05
fe
01
00
fe
00
f3
01
fc
fe
03
00
00
f9
02
fc
fe
fd
00
fd
f7
01
00
00
01
00
ff
f7
01
ff
fe
02
f8
01
fd
02
f6
05
f5
00
ed
00
02
03
01
fc
f3
00
00
00
00
fd
03
ff
02
f5
ff
00
00
04
fd
ff
fa
05
fe
01
00
fa
fb
fc
00
fe
00
00
fd
00
fa
ff
ff
fd
03
f7
03
f8
fd
fd
fc
fe
f8
ff
fc
02
00
00
fd
ef
00
00
f8
f9
04
00
ff
fe
02
ff
01
ff
f6
fd
03
03
04
ef
00
fd
f6
fe
fe
fa
fc
f9
00
f9
fe
fa
00
ff
02
00
07
00
ff
02
00
04
00
0a
01
00
fe
02
00
02
01
00
00
f4
fe
fd
00
fe
ff
01
ff
02
fc
01
fe
01
00
01
ff
02
03
01
05
00
08
fc
00
ff
fc
f9
03
00
fe
f5
ff
fd
04
ff
fc
f8
ff
00
fd
02
f4
00
00
05
01
03
fc
01
09
04
00
fb
04
03
fc
04
f8
fd
ff
02
01
fe
ff
ff
02
00
fe
ff
f5
f9
03
ff
ff
fe
01
f3
fd
02
01
01
fd
ff
f8
fb
ff
00
05
fd
f9
ff
ef
ff
f4
fb
f7
00
fe
01
fc
04
00
fc
04
f3
00
fd
fa
ff
fa
00
fb
00
01
fd
fd
fa
04
fb
00
fd
03
ff
fb
fc
fd
06
fe
01
f7
f3
f7
f8
00
05
04
fd
02
fa
f8
00
02
fd
fe
01
00
fe
00
ff
00
07
01
ff
00
