a0
2f
70
8f
f0
6f
ef
40
d0
2f
5f
a0
c0
5f
df
ef
50
bf
f0
4f
00
a0
10
20
60
cf
00
af
20
00
e0
0f
ef
00
0f
a0
ef
cf
8f
0f
50
f0
f0
0f
00
cf
20
90
00
30
f0
20
d0
10
00
20
10
00
10
00
f0
e0
20
00
10
f0
20
20
ef
d0
ff
80
ef
70
bf
00
ef
cf
f0
4f
10
bf
f0
af
9f
bf
9f
e0
af
40
af
0f
c0
9f
c0
3f
60
f0
df
f0
df
00
00
90
ef
bf
10
20
00
30
60
f0
20
10
10
10
f0
f0
00
f0
bf
f0
20
df
0f
cf
00
10
00
30
3f
2f
af
ef
10
30
10
cf
2f
40
bf
ef
1f
ff
20
ff
50
df
cf
af
6f
6f
00
3f
00
cf
7f
cf
d0
5f
00
c0
00
00
40
20
df
cf
e0
1f
d0
ef
00
80
2f
df
2f
10
bf
10
50
af
00
b0
c0
00
6f
9f
e0
00
bf
ff
00
00
4f
40
df
e0
bf
3f
1f
bf
10
cf
00
8f
7f
00
f0
00
6f
60
af
ff
5f
f0
90
ff
f0
ef
10
70
30
30
df
a0
30
50
e0
00
50
4f
50
40
b0
00
ff
30
00
9f
e0
30
20
40
ff
00
9f
00
20
70
d0
0f
df
0f
20
10
20
10
50
df
af
00
5f
00
ff
0f
1f
e0
f0
bf
00
df
10
1f
b0
40
0f
30
d0
0f
6f
6f
d0
0f
f0
e0
af
ff
0f
b0
0f
f0
50
e0
d0
00
ef
00
f0
0f
00
cf
ff
0f
cf
00
cf
0f
00
00
1f
af
30
8f
ef
70
20
10
00
00
10
30
80
00
3f
f0
0f
a0
30
df
f0
f0
10
50
ff
00
20
00
e0
30
ef
7f
90
20
f0
00
5f
df
10
bf
f0
0f
50
7f
0f
40
cf
df
0f
0f
40
ef
ff
df
00
00
ef
a0
cf
f0
9f
00
50
ef
00
e0
00
20
e0
10
0f
1f
b0
70
6f
6f
00
ff
20
af
f0
df
10
f0
20
40
20
e0
e0
ff
30
30
af
20
e0
ff
9f
ff
10
df
90
2f
bf
e0
0f
ff
1f
f0
e0
00
30
60
ef
af
e0
00
e0
bf
ef
c0
40
20
cf
00
d0
cf
00
70
00
b0
e0
40
9f
20
9f
00
ef
bf
10
8f
30
af
f0
e0
10
df
df
00
3f
ff
e0
2f
df
40
ef
50
f0
30
ff
0f
10
ef
d0
9f
f0
bf
ef
1f
8f
8f
9f
00
70
00
7f
ef
ef
00
d0
60
4f
10
50
0f
00
6f
00
8f
00
e0
f0
0f
5f
ef
20
ff
ff
30
cf
0f
6f
50
cf
0f
ff
ef
1f
af
50
10
20
20
20
90
20
20
20
10
e0
00
90
10
00
40
0f
40
bf
b0
20
cf
10
ff
ff
bf
df
0f
0f
c0
af
ef
10
cf
00
6f
3f
10
df
20
0f
00
cf
2f
8f
ff
10
cf
40
10
00
c0
40
00
ef
20
30
80
ff
80
00
6f
ff
40
0f
00
9f
00
1f
1f
f0
cf
40
00
80
8f
0f
20
9f
50
3f
40
cf
cf
6f
e0
20
d0
60
10
8f
df
ff
9f
f0
ef
00
f0
8f
40
0f
f0
00
00
10
30
e0
00
7f
20
7f
ef
00
df
00
df
ff
0f
df
50
bf
0f
8f
0f
f0
af
0f
ff
ff
f0
0f
20
0f
10
df
3f
00
e0
00
bf
10
df
f0
ff
0f
2f
bf
40
8f
00
50
0f
00
20
20
0f
0f
a0
ff
10
cf
2f
d0
e0
30
30
3f
80
6f
2f
df
0f
20
70
f0
9f
00
ef
0f
20
00
ef
1f
f0
00
00
30
df
10
af
00
10
af
20
8f
70
4f
ff
e0
bf
ff
0f
10
9f
df
0f
0f
ff
ff
0f
e0
00
0f
ef
10
70
00
70
20
40
80
70
d0
60
cf
3f
8f
ef
00
c0
00
2f
0f
2f
00
10
50
60
2f
30
e0
10
f0
40
10
bf
00
ef
40
0f
ef
e0
ef
df
30
80
10
00
ef
0f
10
00
40
30
e0
f0
df
20
b0
30
40
a0
3f
2f
10
df
a0
d0
6f
50
70
80
df
3f
0f
00
af
2f
bf
8f
bf
6f
2f
af
7f
cf
ef
9f
00
0f
5f
00
40
30
6f
30
f0
60
f0
40
40
60
50
ef
30
df
50
30
df
60
20
20
8f
00
10
30
10
1f
ef
bf
f0
00
0f
ef
50
00
e0
cf
10
8f
40
00
00
e0
10
20
9f
10
f0
00
b0
00
9f
f0
e0
b0
10
ff
70
bf
ff
0f
9f
cf
70
8f
0f
0f
0f
c0
ef
50
8f
cf
00
ef
30
ff
40
df
e0
cf
00
20
60
00
00
50
50
40
f0
00
00
10
1f
20
00
00
00
00
e0
f0
10
30
10
1f
8f
f0
60
cf
f0
e0
e0
df
0f
0f
20
20
00
ef
1f
6f
2f
2f
cf
70
df
00
10
df
00
ff
af
df
50
f0
1f
50
bf
0f
af
0f
00
0f
80
9f
af
ef
00
df
40
9f
df
20
10
e0
0f
30
20
0f
2f
50
00
0f
10
10
0f
cf
8f
df
8f
60
60
2f
c0
ef
0f
af
c0
70
00
d0
e0
0f
cf
c0
00
df
00
df
6f
cf
30
00
2f
5f
90
0f
00
30
40
0f
a0
00
df
10
7f
10
9f
f0
20
ff
20
9f
df
ef
00
30
af
20
af
a0
0f
2f
00
30
9f
0f
80
e0
cf
ff
00
cf
10
af
f0
1f
ff
20
ff
00
ff
0f
00
f0
50
8f
bf
f0
1f
00
bf
00
0f
70
8f
20
70
bf
40
2f
00
af
d0
50
10
20
30
f0
00
50
ef
40
30
00
00
0f
00
4f
20
7f
d0
9f
ff
df
0f
df
e0
00
0f
cf
ef
af
8f
cf
bf
30
00
30
a0
f0
10
10
00
e0
40
2f
60
ff
00
10
ff
30
10
ff
0f
9f
af
90
00
7f
ef
40
ef
00
0f
1f
10
ff
00
0f
50
df
30
5f
ef
10
f0
10
0f
00
2f
1f
e0
0f
00
df
20
d0
20
00
20
ef
70
00
ff
20
2f
50
df
40
00
2f
e0
e0
10
9f
30
0f
00
00
df
20
ef
40
df
f0
00
0f
b0
cf
f0
30
ff
4f
50
00
10
20
10
10
20
5f
70
30
10
e0
f0
f0
00
10
0f
40
df
00
0f
bf
30
9f
60
cf
00
4f
50
10
20
8f
00
e0
40
1f
70
d0
40
10
00
20
ff
50
ef
bf
c0
c0
20
bf
ef
40
00
0f
ff
0f
6f
bf
ff
00
0f
00
e0
e0
a0
ff
40
df
b0
0f
10
cf
ef
10
ef
cf
00
70
c0
00
0f
bf
00
bf
7f
f0
a0
0f
0f
cf
df
bf
00
df
10
20
d0
f0
00
00
e0
0f
20
0f
30
10
50
0f
00
00
ef
70
f0
00
00
8f
f0
0f
0f
af
7f
6f
5f
e0
10
af
e0
f0
b0
b0
00
ef
10
00
20
0f
10
00
0f
bf
00
9f
10
7f
ff
f0
6f
cf
9f
40
7f
10
ef
ff
20
7f
00
af
50
d0
00
0f
6f
f0
af
70
0f
ef
40
ef
df
0f
0f
00
10
f0
df
cf
2f
e0
d0
30
60
9f
5f
00
3f
00
bf
c0
00
0f
0f
ff
0f
ef
cf
3f
2f
1f
20
00
bf
10
ef
0f
20
df
90
0f
0f
1f
30
1f
1f
50
1f
00
af
10
ff
30
0f
bf
af
ef
00
8f
20
00
d0
10
30
0f
0f
f0
70
20
df
d0
ff
df
00
ef
20
8f
00
1f
e0
50
10
30
90
20
60
40
40
f0
cf
0f
6f
df
7f
0f
9f
6f
cf
cf
80
70
20
00
60
e0
00
ff
df
10
c0
20
0f
e0
50
e0
d0
00
cf
20
d0
00
f0
00
50
ff
0f
0f
00
00
00
c0
ef
10
c0
00
df
30
90
c0
5f
bf
10
10
00
b0
df
0f
ef
0f
df
00
bf
20
40
f0
ef
df
cf
00
bf
20
10
6f
20
30
10
20
b0
10
f0
20
0f
60
00
30
80
10
ff
e0
60
0f
af
ff
e0
00
0f
3f
5f
cf
30
00
cf
0f
50
df
50
20
e0
9f
6f
b0
df
d0
df
e0
0f
cf
50
af
ef
0f
30
3f
d0
d0
bf
00
60
3f
ef
bf
e0
00
40
ff
af
e0
10
df
f0
00
e0
10
bf
00
7f
00
50
ff
20
7f
0f
60
00
0f
30
0f
40
df
0f
30
ef
40
bf
6f
ff
a0
ef
ff
1f
10
0f
20
a0
20
30
50
00
30
00
00
00
d0
00
30
ef
0f
0f
af
ff
cf
f0
9f
7f
00
1f
ff
df
7f
ff
df
df
f0
8f
10
00
ff
1f
7f
10
00
30
20
40
e0
df
60
30
1f
0f
00
cf
2f
00
00
bf
00
e0
00
2f
1f
70
ff
e0
ef
40
cf
10
10
10
df
10
0f
bf
30
0f
f0
00
00
30
3f
0f
0f
ff
df
df
30
c0
e0
ef
80
4f
bf
10
0f
30
1f
20
20
0f
00
4f
00
f0
f0
20
f0
10
ff
00
e0
4f
40
c0
0f
6f
50
ff
10
10
1f
ef
7f
00
00
20
e0
20
00
df
ff
ff
bf
f0
6f
00
0f
d0
e0
f0
00
df
f0
9f
20
00
30
6f
ff
ff
10
0f
ef
9f
0f
ff
cf
00
9f
d0
90
1f
cf
ef
a0
00
9f
af
0f
8f
ff
7f
df
ef
0f
00
80
df
bf
20
00
40
c0
40
10
c0
00
00
00
20
50
30
00
cf
d0
20
ff
d0
10
9f
ef
10
7f
10
f0
00
df
0f
20
00
0f
af
30
00
40
2f
60
30
30
20
00
df
0f
cf
6f
9f
00
e0
f0
8f
ff
cf
6f
f0
6f
ef
1f
10
40
30
0f
1f
30
7f
20
10
3f
10
b0
50
c0
00
0f
ef
00
bf
20
cf
1f
0f
1f
00
bf
ff
6f
50
00
0f
e0
7f
cf
00
ff
d0
ef
00
0f
f0
30
00
20
50
ff
60
10
af
00
ff
bf
2f
ef
30
9f
bf
20
6f
2f
bf
10
00
c0
30
0f
00
9f
40
cf
5f
00
bf
10
1f
d0
e0
30
af
7f
e0
7f
f0
6f
20
ff
af
7f
8f
ff
cf
40
20
0f
8f
b0
00
50
20
ff
30
0f
50
f0
50
7f
3f
70
10
ff
50
0f
50
00
00
