3d
1c
8f
18
09
43
52
3f
ac
f5
98
9b
86
d8
16
3d
28
51
16
cc
a2
85
64
e9
ff
4d
d2
b2
9d
99
e0
66
57
ee
4e
10
01
d9
e0
fb
da
ce
be
2b
07
de
e0
fc
03
e9
ff
eb
0a
c9
c5
f6
df
21
fc
ff
ec
ec
f4
f8
2a
00
0e
f9
d9
01
0b
48
02
12
1a
fd
24
15
25
fc
0d
1c
08
14
15
e9
05
f3
26
05
25
02
f0
19
ea
fd
23
20
f8
fd
1a
11
05
25
e5
00
ee
43
e9
f3
3d
f8
ce
06
16
df
dc
08
ea
9d
e2
e5
d3
be
00
cd
cf
f7
d8
a8
de
ee
be
ce
26
d8
c9
06
b7
4a
c6
38
14
1d
c8
df
f5
e7
1c
f4
16
d9
03
f0
14
c6
ee
05
d8
24
13
17
37
0e
1a
ee
0a
f5
19
28
09
f6
0c
0b
f6
f9
f8
e7
fb
f2
03
c2
f3
cb
fa
e8
00
0f
db
f9
e8
09
00
f4
1b
ec
26
11
11
02
ef
16
fc
1f
15
ff
dd
f8
ee
22
e5
f3
ec
13
f2
f1
26
1d
f3
dc
14
e7
d5
00
c9
05
d1
a9
f1
a3
92
d2
0d
d9
d2
d8
df
05
d5
2e
0b
f7
da
f6
f6
00
a5
06
16
c3
1a
e0
18
30
0c
01
e9
eb
eb
f3
46
0a
14
e2
d5
fb
09
39
dd
0f
0f
e2
cf
ef
1e
d8
f3
e1
ff
e2
dd
c2
e0
c7
02
d2
f6
f1
e9
10
fb
fe
a6
21
d1
ff
f0
15
02
97
04
c6
d4
10
ee
da
a6
05
c0
e6
ee
05
e8
ca
07
a3
02
36
89
e6
f3
b8
eb
f2
e6
dc
f2
0e
ea
ec
fb
eb
3f
e9
cb
1d
0c
1c
cc
df
f9
2c
29
0b
03
26
21
24
ea
32
23
04
f3
07
1e
e6
18
f7
fe
c8
0e
0b
1d
ea
e4
21
b1
12
fc
3b
ef
06
fd
c3
3b
1e
16
02
10
fa
fc
0c
e9
08
2a
19
0d
ed
1e
e5
ab
2d
fc
f3
dd
fd
ff
87
fb
fa
f9
ea
03
0c
d2
e4
e9
e7
ed
0f
0c
16
26
22
0d
33
1b
bd
fb
01
0d
03
32
e3
c0
fb
f5
97
ed
d6
39
f5
c4
e5
d7
fb
27
f8
ce
28
ea
18
27
06
db
d3
02
e6
e3
06
0a
e4
e0
f6
12
f9
00
ff
04
d8
fa
02
06
dc
05
2c
d0
ca
df
36
b9
0d
00
3b
02
f8
0c
f2
12
01
0f
b3
19
0c
0e
fa
ba
e7
f8
2a
13
cf
f2
02
e2
07
f8
f4
d6
0e
2d
1c
10
ff
07
b6
fd
fd
1d
1e
12
f9
b6
f0
f8
16
b6
fb
fa
e0
c6
e7
f8
c6
d8
a2
02
fe
57
d0
b4
f7
f1
21
ea
df
e8
15
e8
fa
0d
03
f0
02
26
e4
fd
eb
ff
d0
e0
ce
dd
f9
f4
13
ca
06
c3
d6
ec
f1
f8
ef
e0
42
14
03
f7
0f
da
0c
86
93
1b
3f
fb
e2
31
30
92
f7
0e
fc
cb
0c
a8
e3
16
dd
f7
fa
13
25
e9
2b
ea
0c
1a
f3
32
d2
1b
d5
ec
14
cd
ba
f1
10
fb
f3
d3
d1
e8
48
aa
13
0c
1f
e9
0a
d6
f8
f2
3a
f7
1b
e5
ff
cf
d4
37
0c
d0
d0
fc
f4
00
dc
fb
d5
08
fa
e0
f3
cd
11
d3
ef
00
0c
ea
da
05
08
b1
0e
07
d4
03
22
20
b4
d9
17
ff
c7
06
23
f3
d3
18
f9
ba
f3
16
cd
f9
09
ed
d6
12
e7
12
fd
05
f9
fa
f2
f7
28
11
f1
02
24
f1
c5
2c
07
0d
1d
15
f6
ff
f0
d7
ef
08
f1
c5
f7
f6
d1
bb
e1
83
aa
d9
b9
bd
c4
00
37
cc
00
ec
0c
ee
de
0d
04
ff
f6
33
26
e1
09
12
1f
01
eb
27
36
12
1c
bd
0a
0b
ee
27
fd
05
fa
ec
f0
11
17
f5
01
2e
1a
e3
02
02
18
d5
28
d9
b6
fa
ea
ca
ee
42
05
cf
18
3b
0d
0d
36
14
01
1e
4a
fe
13
15
13
0c
0f
47
15
00
ed
1e
0f
02
52
23
05
26
21
08
ef
d5
08
bd
d9
03
04
f5
9f
db
d3
ef
08
00
e8
f8
61
ef
24
ec
17
d3
dd
06
14
ab
fa
04
0b
cf
06
12
be
07
07
e5
fe
13
02
c8
f7
00
ed
de
24
fb
0e
20
22
e0
b6
fc
07
19
2e
10
0c
bd
47
e2
2f
43
02
fe
35
06
ef
21
03
fe
05
11
df
ff
22
0f
0b
0e
14
dc
ee
17
f9
02
06
42
be
23
13
ba
f4
2c
bb
e1
26
28
72
e0
16
ee
ee
6a
cf
e7
17
09
0f
cd
f1
e4
06
db
c5
03
c5
ef
cf
e2
f8
13
ee
26
08
94
f5
f4
e1
ff
ff
05
1c
cc
04
fe
15
d9
14
0b
d3
ea
28
19
e5
fc
24
e5
ff
15
04
bb
07
2f
b7
cd
07
f6
cb
fe
19
d5
cb
e2
1d
f5
0d
03
f3
f9
f9
12
01
ea
0b
04
07
1b
13
d6
ef
00
d5
d3
06
19
e5
02
29
f1
d2
12
12
e4
f6
24
e6
c5
04
ed
e7
fa
1a
e0
10
15
01
ff
12
f4
c9
16
f2
0b
f1
f8
14
09
d6
eb
1c
fc
1a
ba
10
45
d1
2f
16
20
6f
02
04
ea
38
13
0c
c5
1f
03
e9
1b
e6
11
de
16
ea
f1
12
f3
06
23
fc
0e
f4
e6
ee
15
cc
f9
1d
08
c2
06
15
be
d1
3e
ed
c3
f3
e5
ca
d3
17
f1
05
f8
f1
c3
ed
ee
03
04
02
f2
da
ef
fe
d9
dd
07
fb
b3
ea
fd
f7
3f
27
1d
3e
2a
2b
21
34
17
3c
14
29
33
e9
21
97
d4
d5
ef
f4
0b
db
fa
21
8c
00
05
15
1b
fb
09
10
06
32
e4
21
1d
10
06
0b
20
f6
27
ee
f3
d3
0d
18
ec
d9
cd
02
ee
40
f0
fa
09
e5
1f
fb
44
0a
09
01
f7
fa
04
17
15
fa
12
20
1e
f4
1d
f5
e5
cb
17
14
00
1c
17
04
d0
00
01
15
3d
11
e3
5d
0e
e5
ce
0f
29
cc
e1
46
cb
23
1d
00
e4
05
ab
25
14
16
c8
be
0c
d2
af
ef
be
c9
c3
0e
df
d4
15
c5
03
f5
fd
cf
0e
00
0a
1c
1a
f8
40
1a
f7
fa
36
08
cd
22
2c
fb
36
1f
2a
ee
1b
2a
e4
04
26
1f
00
11
35
d3
e8
14
10
07
02
21
d9
19
f7
fe
0f
13
fc
d4
10
d6
fb
a1
03
ee
d4
d4
fa
fa
b2
e0
10
de
ba
10
fa
fc
1a
20
ed
c7
31
14
01
fd
0a
f0
17
06
e2
09
f9
d7
e2
f8
f1
a5
d8
e8
ef
f6
f0
94
d4
b4
e9
00
1c
bf
da
e2
b5
bf
f5
cc
00
32
03
e0
e0
cc
28
2c
df
db
12
c9
ec
01
e7
f7
fd
05
e6
e9
c2
de
f0
15
14
01
e9
fd
0c
18
28
e4
20
20
f2
1b
05
f9
0e
0c
11
03
17
e2
14
07
f8
07
03
fb
00
f1
26
e2
19
c9
25
09
f7
0b
f1
f5
f9
df
f7
0f
eb
d7
eb
e2
0a
ef
06
fc
d9
13
f2
27
ef
be
02
af
90
ca
90
db
d7
b3
e9
e4
fd
d8
bf
e8
eb
13
f3
1a
11
e3
ec
41
f8
d1
23
2c
00
fd
00
f2
e8
02
0f
bf
fc
10
0f
c5
ed
10
ed
04
df
e6
b6
fc
c6
02
09
15
0b
10
eb
e0
34
1b
00
05
06
09
fa
2c
1d
d5
03
fb
15
0e
24
f6
dd
f3
0f
e4
cf
8d
30
f2
b8
12
f3
1f
eb
18
f5
c9
16
de
3d
1a
af
e5
e2
31
03
fc
ff
da
fc
e5
e7
f2
4c
e5
26
ff
dc
37
fb
07
d1
3a
2e
ed
1d
07
51
de
19
d8
29
fb
f0
08
05
e2
ee
0e
ca
ec
0b
16
a6
f8
28
d5
f2
0d
14
c2
06
11
eb
c6
c7
1c
de
01
17
f0
ef
c9
04
07
11
dc
05
19
b1
f5
02
00
e1
ee
f0
f4
f5
fb
d8
df
08
fa
c9
e5
0c
08
ed
f7
13
f1
d7
04
0a
da
fe
f0
0f
f1
f4
08
bf
f6
25
f2
eb
c2
fe
c3
1e
fd
44
fc
3f
13
b4
16
1e
16
d8
00
3b
17
f1
71
cf
ef
0a
2e
0a
0d
15
dd
13
f6
b8
e2
28
f9
05
20
02
86
00
1d
18
07
20
f7
20
e8
fd
b3
20
11
c1
2f
f1
e5
c5
e8
e8
e2
e6
00
e2
1c
e0
b2
25
cb
ed
ed
e0
e7
e7
1a
e7
00
1a
04
dc
f6
1d
b2
0a
01
3b
ec
0d
0d
11
35
01
f3
d2
54
09
07
06
18
fa
d0
f4
c6
08
c6
05
ff
4c
d4
38
38
d2
09
25
f6
0c
fd
43
04
0c
08
12
f4
0b
09
ff
0e
16
e4
d9
19
a4
e4
0e
0c
10
0b
0c
ef
f1
ff
1a
ad
0c
1f
fa
fb
2a
e7
e4
0e
1f
e7
f2
1f
00
53
08
ea
c3
1d
fd
03
19
16
f2
36
29
01
ee
24
06
d9
89
ec
f0
ef
1a
21
c8
d2
fe
03
ea
36
04
c2
09
16
b1
0a
21
e9
d6
f2
b7
7d
fb
0c
ff
df
fa
ec
1d
10
1b
27
0d
fb
04
f1
1c
11
e2
0d
0e
3f
f1
2c
08
33
1f
df
08
ee
15
23
f3
ff
fb
0c
e5
e6
21
fb
da
00
28
cf
d7
1c
ff
c7
06
1d
db
0d
3c
20
f7
ee
09
e6
06
40
3e
0d
eb
24
02
08
07
19
e3
fd
18
09
01
2c
13
0b
fc
28
00
f4
d7
16
ff
de
0e
eb
d8
f2
ee
24
f2
d1
02
a5
e6
fa
22
07
d5
1a
b8
fc
11
04
fb
e6
f5
ee
28
e9
f8
e0
29
e8
db
30
fc
f1
cc
dd
cf
f5
0b
e1
15
e0
fc
02
38
0e
15
06
ee
00
d7
f3
19
d7
de
fd
f5
00
d4
02
ed
cf
db
21
1a
d7
1a
c5
e8
f6
1c
14
e6
28
f3
1b
df
01
10
eb
06
ef
fb
f9
2b
f9
0a
f8
43
07
ec
12
04
15
ff
3c
ff
f1
07
fc
ce
bc
f2
14
fb
f3
16
cc
a7
15
aa
02
bd
eb
c4
e0
c9
f5
05
f4
1b
16
59
1f
00
f0
00
01
fb
07
e9
fc
cc
fc
ff
14
03
d1
fb
f6
c4
e3
ee
b2
a3
16
f8
c0
ff
dc
d9
d9
25
e5
da
0a
02
b2
f6
20
f7
b6
21
00
cc
dd
19
e6
ad
42
ff
c5
1b
f8
e9
c9
3c
e9
6a
e9
ec
f5
f0
0d
d8
fc
0a
e6
fa
10
e7
f6
b9
15
db
18
ed
ee
90
c6
1c
f4
06
c3
36
ca
fc
02
ea
00
d5
01
de
fd
f3
ff
f6
fb
f8
f7
d4
e9
ef
fd
93
ed
ae
0f
be
df
01
ed
f3
86
13
ea
fc
22
3e
e8
00
ff
f9
10
43
0c
15
2c
0e
00
17
28
e0
0b
fb
ed
ec
0e
04
ef
1d
c2
ff
d7
fd
03
ed
fe
03
be
f5
11
07
15
fc
0e
eb
e9
ff
4e
21
f8
f8
19
15
fb
2b
e6
07
ec
e4
29
f1
f0
05
1c
bb
e4
1d
0a
0b
0c
29
bd
1d
1b
00
01
11
0d
cd
20
1c
22
f4
ec
e7
03
e6
dd
e5
f0
af
7b
0b
dc
32
9f
04
df
02
99
3a
1d
00
fd
19
f6
ea
01
07
f8
de
11
09
f4
fa
10
fe
d8
ee
10
13
f0
ef
1d
fb
1a
3d
12
17
b1
00
55
00
ff
e3
e1
f1
17
35
06
13
b9
00
18
fd
e0
f2
07
0a
de
1f
06
e1
dd
1a
0d
17
dc
bf
96
d3
26
d6
0b
0f
e9
d2
fa
fa
fe
2f
f3
fc
49
03
00
e6
da
17
26
00
f2
f0
06
e4
bb
c3
fe
4e
b9
8b
0c
ff
a9
db
0a
18
8d
2c
17
ec
34
0e
23
14
16
18
f3
31
2b
ff
1b
29
24
0a
29
3a
ee
e1
13
ff
f3
58
f6
cd
14
fc
e0
03
1a
0c
ee
dc
cc
bb
fc
37
fe
01
fd
e0
e1
04
60
12
f6
ee
c2
d0
32
d7
07
db
e1
f2
d7
ee
f5
bf
df
bb
fe
cf
05
43
7b
d3
cc
91
04
1a
e2
1c
ed
00
00
de
1c
00
f3
d2
d0
f6
03
c0
f4
f4
fb
19
ee
17
e7
e1
ea
e4
f9
d1
dc
08
b2
08
02
14
06
f9
f4
93
f8
fa
05
3c
08
07
ac
1c
f1
05
2d
1f
fd
fc
2c
e6
08
0d
1a
ff
00
24
e9
df
aa
e9
d2
cc
d1
08
f1
ef
11
08
0a
0a
12
26
1b
17
03
fb
29
11
0b
1a
22
09
01
0e
e4
e8
33
e8
19
fa
ec
06
0b
af
cf
11
fb
dc
ef
eb
c6
f5
01
07
ec
b3
f6
cc
07
3a
f2
e9
e2
2b
ae
f2
2f
a5
0a
f7
f2
f5
f3
0c
b2
05
ee
00
0a
0e
17
e1
29
e9
ff
fc
33
02
c7
09
f8
05
00
07
e0
15
e4
00
02
e4
09
07
1e
ed
04
ec
ea
0a
00
da
f3
16
a6
ef
fc
dc
5e
00
f7
0a
02
f4
e2
c7
f6
02
05
11
1b
06
f4
f2
05
b9
f9
06
24
1b
f4
02
06
c1
00
e6
ad
1e
1d
e5
d5
f0
cd
f4
bf
9e
bd
d4
1f
e8
fa
0a
05
0d
d5
0d
12
cf
e9
00
0b
d7
02
10
95
f8
00
ff
f8
ec
09
74
ec
18
ec
ee
1f
25
b9
fd
fc
ff
d9
28
18
75
0f
e3
e5
0c
11
fe
b7
1b
f8
fd
cc
00
ee
73
d6
07
f9
f4
f8
fc
f9
d2
0f
03
ae
f2
cb
07
f6
03
ea
da
0b
03
07
08
f1
fb
cb
14
d8
ec
1d
0e
fb
75
c7
d8
0a
05
7e
f0
0f
aa
fd
12
e9
e0
f9
eb
c1
c3
04
c3
1a
c0
dd
02
f4
cc
04
ee
c6
c1
e1
02
98
93
f4
f5
b0
e1
f4
9f
fe
f9
ff
b9
08
e9
d5
11
f7
fb
16
15
de
d3
09
0d
07
35
02
1f
ef
06
19
01
2b
dd
04
04
f8
13
e4
05
c7
f1
bc
fb
0a
0f
1a
ed
23
be
b1
09
08
f3
fc
29
e7
01
09
13
07
fe
05
03
2f
19
30
dc
20
36
03
36
27
17
1b
17
40
04
f8
f7
06
03
99
ae
f1
c3
fe
e6
d8
f5
e8
f4
f3
32
8a
a9
ef
df
a9
0c
17
86
f2
05
23
db
0d
06
0d
0c
1b
f8
f5
10
f3
c4
1a
31
de
d8
31
00
dc
11
18
07
ea
e9
fe
bf
ef
15
19
c4
0d
f9
dc
0f
f9
fe
d5
10
0b
a9
e8
ed
05
ac
f4
ea
17
ee
df
22
07
f5
00
01
e9
10
f4
04
07
08
19
14
e3
14
aa
12
f1
1d
1c
0c
19
f5
fc
ce
fd
d8
82
a2
ea
99
1c
c7
ca
26
14
c8
21
16
b8
e0
0d
11
99
de
00
d8
05
1e
08
c7
db
28
da
d0
f4
fd
e8
f3
08
ff
dc
e7
d6
dc
18
f0
b3
b6
f8
cb
b3
19
e0
b0
fa
cb
f3
b9
29
b2
f2
bb
f5
ef
9e
25
a6
0e
ff
fb
11
d2
04
dc
2a
2a
24
f5
99
06
01
28
1d
f5
15
cc
b8
29
4b
3e
f8
2c
f8
0b
1a
07
08
54
fc
00
