01
fb
fc
04
fb
07
02
02
02
00
f9
06
02
fe
ff
03
02
09
03
fc
ff
01
00
00
00
ff
00
fe
00
fe
03
ff
00
02
00
00
01
00
02
00
01
01
01
01
00
00
01
00
01
01
03
00
01
03
ff
01
ff
ff
ff
fe
00
ff
fd
fe
fb
00
fc
03
ff
00
03
fc
01
00
fe
ff
00
fc
fe
00
00
00
01
01
00
01
05
01
00
00
ff
00
fd
ff
fe
00
02
01
fd
ff
00
00
01
00
ff
fe
00
fe
01
00
ff
fe
fd
00
00
fc
04
fb
00
00
00
ff
00
02
00
fd
00
ff
04
01
00
00
00
00
fe
04
00
00
01
fe
ff
00
01
00
00
00
ff
00
01
01
00
f9
ff
01
01
00
00
01
fc
fc
03
ff
00
00
fe
00
02
fb
ff
fd
00
01
fe
01
04
00
03
00
00
02
00
fe
01
fd
00
00
03
01
ff
00
00
00
01
01
01
fe
ff
00
00
ff
00
01
00
00
01
01
02
ff
00
00
ff
fc
00
00
00
01
fe
fe
01
01
00
01
ff
01
fe
00
ff
ff
ff
02
00
00
fe
00
01
00
03
00
fb
00
00
00
ff
fe
00
02
00
01
00
00
01
00
00
00
fc
00
00
02
00
00
ff
01
f9
01
01
fa
fd
ff
02
00
01
00
00
00
fe
ff
fe
01
fd
02
01
fe
00
01
01
fe
00
fe
f7
02
fe
01
00
01
00
ff
00
00
00
01
01
fd
fd
00
02
fd
02
01
fd
fd
00
00
00
fd
00
02
04
ff
00
02
00
00
00
ff
fe
01
00
00
ff
00
00
00
00
fe
02
fc
00
ff
00
00
00
00
ff
ff
00
00
01
03
ff
02
fd
ff
00
fd
00
fd
fd
00
fd
01
fe
00
fe
fe
00
00
00
00
ff
01
00
fe
00
fe
01
01
00
00
01
ff
fb
fd
01
01
ff
00
fd
ff
00
ff
01
01
01
00
01
01
00
00
01
00
00
06
00
00
fd
00
00
00
ff
fc
00
00
00
02
01
00
00
ff
00
00
ff
01
fe
00
fd
fe
00
00
03
ff
ff
00
fe
01
00
00
01
00
00
00
fd
00
00
01
04
02
02
fd
02
fe
00
03
fc
04
00
ff
fa
01
fe
00
fc
01
fb
00
fe
00
02
00
01
ff
01
00
02
fd
00
ff
01
fe
00
ff
fd
00
00
fe
fe
00
00
fd
00
ff
02
ff
00
00
00
01
ff
03
fe
00
00
02
ff
00
00
02
00
fe
00
fc
06
ff
02
ff
02
01
fe
ff
fb
01
01
00
ff
00
00
fc
00
fd
00
00
01
00
fd
01
00
00
ff
00
fe
ff
00
fe
00
fe
00
00
00
00
ff
00
01
00
01
fe
03
00
01
ff
fc
02
fb
00
00
00
00
00
01
ff
01
00
00
00
00
00
00
ff
ff
00
03
01
01
00
ff
00
00
02
00
03
ff
02
01
02
01
fe
01
00
00
fd
00
00
fe
04
fd
fe
ff
00
fd
f8
fc
fb
fe
00
00
ff
00
01
00
05
01
03
ff
01
02
00
01
ff
00
ff
01
00
00
00
00
00
00
00
00
00
ff
00
00
fe
00
00
00
01
00
02
ff
01
03
00
01
00
00
fb
fd
00
fd
ff
00
ff
fe
00
ff
03
ff
00
fe
01
ff
ff
01
00
00
01
00
01
02
ff
01
00
00
01
00
01
00
00
00
01
00
00
00
ff
fe
fe
00
ff
00
00
01
fd
00
01
fd
f7
fd
fb
fd
ff
00
00
00
00
00
00
00
fd
01
ff
01
fd
fe
ff
fd
02
00
00
02
02
00
fe
00
01
ff
00
03
fa
ff
02
01
ff
01
00
00
01
02
00
fc
01
02
00
00
00
00
ff
fc
00
00
fe
00
00
00
00
ff
00
fe
00
fd
01
fe
02
00
00
00
ff
00
fd
01
00
ff
fe
00
ff
00
00
ff
00
00
01
ff
02
fe
00
00
ff
01
fb
02
fe
ff
ff
00
fd
fc
ff
00
00
00
fc
00
ff
04
00
01
01
00
00
00
00
01
fd
01
00
fe
00
fd
00
fe
fe
ff
ff
ff
01
fd
02
fe
00
00
00
01
00
f8
00
ff
00
01
02
04
00
00
00
00
fd
fe
00
ff
00
00
00
ff
02
00
fd
01
00
01
00
00
ff
ff
02
f9
03
02
01
00
fb
02
02
00
03
ff
01
fd
00
00
ff
00
ff
00
00
ff
fe
fd
01
01
00
01
ff
00
04
01
02
00
00
00
00
01
02
00
01
00
00
03
fe
02
fb
ff
ff
fe
01
ff
01
02
ff
00
00
fc
01
03
00
02
00
02
00
00
00
00
00
00
ff
00
02
fe
fc
fe
00
ff
01
02
00
02
fe
00
00
02
fe
00
00
00
00
ff
fd
00
00
fe
fd
00
00
00
fe
01
00
ff
00
00
03
01
02
00
02
00
01
01
ff
00
02
01
ff
01
f8
01
fc
fc
00
01
ff
01
04
00
02
00
00
00
00
ff
00
00
fd
00
ff
fd
01
fc
fe
fe
ff
01
fd
00
fa
00
01
00
01
fe
01
ff
00
ff
00
00
fe
ff
fc
00
fe
01
01
00
f8
fe
ff
ff
01
00
ff
00
fc
ff
fd
00
00
00
ff
fd
00
00
02
fe
fe
00
ff
00
ff
01
00
fd
00
fe
ff
00
00
00
ff
00
00
00
00
00
00
fd
00
00
fe
00
00
01
00
00
01
01
00
00
00
00
00
fb
01
fd
00
00
01
02
01
01
01
03
00
00
fe
00
fe
ff
01
00
ff
03
00
02
fe
03
00
00
00
00
00
ff
03
00
ff
00
ff
ff
00
fe
00
02
ff
00
fe
00
00
00
fe
ff
fc
fe
fc
00
00
01
00
00
00
02
04
ff
01
01
02
00
01
02
00
01
00
ff
00
ff
01
00
ff
00
00
01
00
03
fd
fc
ff
fd
fd
fd
02
00
ff
01
fa
01
ff
00
03
00
fd
00
03
00
ff
00
00
fe
00
00
fe
fd
ff
00
00
00
00
01
ff
00
03
00
00
ff
00
00
00
02
ff
ff
02
00
00
01
ff
00
03
ff
02
00
00
ff
00
fd
00
fd
00
fe
00
ff
f9
00
00
ff
fb
fe
02
00
00
01
fc
00
01
00
00
02
01
f8
ff
00
00
fe
00
00
f8
01
00
00
ff
fe
03
fa
ff
00
00
00
fe
00
fc
00
00
01
ff
fc
01
01
00
00
ff
ff
01
00
fe
00
fd
00
ff
00
ff
fb
00
00
02
00
01
02
fc
00
fd
00
00
ff
01
00
00
00
01
ff
ff
fd
fc
02
fc
ff
00
00
01
00
fe
f8
f9
03
fd
ff
00
ff
ff
00
00
00
ff
01
ff
00
ff
fc
ff
fd
fd
00
fd
00
01
00
01
ff
00
02
00
02
00
ff
00
00
01
01
00
01
fa
ff
00
ff
00
fd
01
ff
00
00
ff
00
01
ff
00
00
01
fe
00
ff
00
00
00
fd
ff
00
fe
fc
ff
fc
01
00
00
02
fe
01
00
01
02
fe
01
fe
02
fc
00
01
ff
00
00
ff
fa
00
00
02
00
00
fe
fa
01
00
00
00
00
fe
00
00
ff
ff
ff
00
00
01
00
fa
00
02
00
00
fa
01
fe
00
fe
00
00
fd
fe
fd
ff
00
ff
01
fd
fe
fa
fc
00
ff
00
fc
fb
ff
ff
01
00
00
00
00
00
00
fd
00
02
00
00
00
