c2
bf
40
02
00
bd
3d
01
06
80
40
fc
40
be
41
00
00
ff
00
ff
00
80
00
00
00
00
00
00
00
00
01
01
c0
01
00
40
00
c0
00
c0
00
00
00
00
00
01
3e
ff
be
00
bf
fe
ff
00
3e
00
41
01
00
00
bf
01
00
3f
40
00
01
80
00
00
00
00
3e
00
c0
00
c0
00
00
00
00
01
00
00
00
00
00
00
3f
bf
00
be
00
fe
3e
01
3f
01
3f
3f
00
c0
80
01
00
01
00
3e
3f
80
00
00
00
00
00
00
7f
00
00
c0
bf
00
00
40
ff
81
bf
be
7f
00
00
00
c0
01
ff
3f
00
80
00
42
00
40
00
00
40
00
ff
ff
00
00
00
01
00
00
40
c0
01
bd
40
00
00
00
00
00
01
81
40
c0
00
00
3f
c0
00
ff
00
c0
00
00
00
c0
ff
00
00
c0
40
00
3f
00
00
00
c0
01
3f
81
3f
00
3e
00
01
40
40
00
00
3f
3f
ff
00
40
3e
c0
00
c1
00
00
bf
00
c0
00
00
fe
00
7e
ff
c0
00
00
00
00
00
be
fe
41
00
00
00
00
00
40
00
00
00
3f
41
00
c0
00
3e
7d
00
00
3f
41
c0
fe
00
00
40
00
ff
00
00
00
3f
01
00
3f
c0
00
00
7f
41
00
00
80
00
01
01
3f
00
00
00
3f
3f
3d
00
ff
bc
00
bf
00
c0
3f
c0
00
fe
c0
00
00
3e
01
00
00
00
3f
00
00
3f
bf
c0
01
00
00
42
00
00
00
00
00
00
00
00
00
ff
00
00
c0
00
be
82
00
3f
00
00
40
00
00
00
00
01
00
00
00
40
3d
00
00
40
41
c0
00
c0
42
00
3f
00
81
3f
c2
41
00
be
00
c3
00
00
3f
c0
ff
3e
00
01
00
00
00
3f
02
00
ff
c0
40
c0
ff
3d
00
00
00
c0
00
00
01
00
00
00
40
c0
00
41
00
3f
02
00
00
fe
3f
01
00
00
c0
00
00
3f
00
00
02
c0
00
00
01
c0
00
00
00
00
00
3e
40
00
c0
c0
00
ff
81
00
00
3f
00
00
00
ff
00
01
01
00
80
41
3f
be
00
00
01
41
00
82
00
00
01
00
01
41
3c
00
00
40
c0
00
00
80
01
00
00
00
02
01
40
c0
00
01
bd
00
00
00
80
fe
00
00
c0
ff
fe
3f
c0
00
00
00
3f
00
40
01
00
00
40
00
00
00
00
c0
c0
00
00
00
00
3f
ff
00
00
ff
ff
00
01
00
00
00
41
3f
00
7e
80
fe
bf
ff
3f
3f
40
00
00
ff
c0
41
00
00
00
40
00
40
00
00
01
42
00
00
00
80
40
00
00
00
00
00
00
00
c0
41
ff
3e
c0
3f
ff
7f
c0
00
c0
00
00
c0
00
00
00
ff
41
80
3f
00
c0
40
00
ff
00
00
40
81
00
00
00
ff
00
fe
3e
00
40
c1
3f
01
3f
00
bf
00
c0
40
40
00
40
01
ff
41
00
ff
41
00
7e
00
00
3f
00
00
ff
00
00
00
40
00
00
00
01
c0
00
40
00
00
00
00
ff
00
01
01
01
00
c0
be
3e
40
ff
00
3f
00
40
00
00
00
00
00
c0
00
00
fd
3f
00
c0
00
3f
00
c0
00
00
00
00
00
00
00
00
41
ff
ff
bd
c1
00
40
00
01
00
3f
00
40
00
c0
3e
00
00
00
00
01
3f
40
00
01
42
c0
00
01
00
00
00
01
40
ff
00
01
ff
c0
c0
00
c0
00
00
00
00
01
00
00
40
00
00
00
00
ff
ff
00
00
ff
c0
41
01
00
40
00
01
00
41
00
00
01
00
00
00
00
3f
00
c0
00
7f
00
00
00
01
c0
00
00
00
00
00
00
3f
01
c0
00
00
fe
01
00
00
00
00
41
ff
00
00
01
00
41
00
00
00
00
80
c0
00
fe
00
bf
c0
00
83
00
00
3f
c0
c0
00
00
fe
fe
bd
00
bf
bf
00
00
be
c0
00
ff
00
00
00
fe
00
00
c0
c0
00
00
bc
fd
7e
ff
00
00
00
00
00
00
ff
00
41
00
ff
bd
00
00
82
00
00
01
3f
00
00
00
01
01
c0
80
00
00
01
00
40
00
01
00
40
00
00
41
40
00
40
81
00
42
00
00
00
fd
c0
3f
02
40
40
c0
00
00
00
00
00
00
80
41
c0
40
00
00
00
be
00
00
00
c0
00
00
c0
00
00
00
00
00
40
00
40
00
c0
be
00
00
fd
00
40
00
00
00
41
00
01
83
01
c0
3f
00
00
40
00
c0
3f
00
00
80
00
c0
3e
00
80
fe
3f
00
fe
00
81
00
00
00
00
00
ff
00
c0
00
00
00
00
3e
00
00
40
00
00
00
bd
00
c0
01
00
00
40
ff
00
40
00
80
00
01
3f
00
ff
fe
fe
00
fd
00
80
00
00
00
3f
00
7f
00
00
00
ff
00
00
00
00
00
00
00
00
00
3e
00
00
00
3e
ff
00
00
00
00
00
be
01
00
ff
3f
00
3f
00
bf
00
bf
00
00
00
00
00
c0
00
40
ff
00
40
00
00
bb
80
c0
00
00
00
3f
3e
00
40
3f
3f
00
00
c0
00
00
00
ff
01
40
00
00
00
00
00
00
3f
c0
00
00
7e
3f
00
00
3e
00
00
00
00
00
00
7e
00
00
00
3f
00
80
3d
00
00
c0
c1
00
00
3f
01
00
00
00
02
00
00
00
40
bf
c0
c0
00
bf
c0
00
01
ff
00
40
00
3f
41
00
bc
c0
40
01
00
00
00
3f
00
c0
3f
00
00
00
00
00
00
40
00
00
00
00
7d
3f
bf
bf
00
00
c0
01
ff
00
00
3f
c0
3f
00
01
fe
3f
00
00
fd
be
41
fc
00
ff
40
01
3f
00
3f
40
00
00
00
80
40
00
