03
80
02
c3
3f
7f
82
ff
01
40
01
43
c0
3b
00
00
ff
00
c1
3f
00
c0
3e
00
00
00
00
00
00
3e
01
00
00
00
00
00
00
00
00
41
00
00
40
3d
00
00
00
c0
fe
c0
00
be
fe
41
c0
00
00
00
3f
00
3f
80
00
00
3e
01
00
40
00
00
00
3c
00
c0
00
40
ff
00
00
00
00
01
c0
00
00
c0
00
00
ff
ff
bf
ff
00
bd
00
3f
00
01
00
fc
00
3f
00
00
00
00
be
00
3f
01
00
80
bf
3e
00
ff
be
00
00
00
00
00
00
be
00
00
00
00
fe
00
00
00
02
be
00
00
00
c0
00
00
01
3d
00
00
00
00
00
be
00
00
3f
80
00
01
be
00
00
00
c0
c0
00
00
00
00
00
3f
c0
00
c0
00
7d
c0
80
ff
40
01
40
3f
00
00
3f
00
ff
3e
00
c0
c0
00
00
00
3f
41
40
00
00
c0
3f
3f
00
00
00
00
00
40
81
41
00
ff
00
40
c0
00
00
00
40
00
00
00
3d
00
c0
3f
3f
00
c0
00
fe
3f
01
c0
00
00
00
00
ff
fe
00
00
00
80
42
ff
40
c0
c0
00
00
00
00
00
00
00
00
00
c0
00
40
00
00
fe
01
00
c0
00
01
00
fe
c1
40
00
c0
01
00
00
00
00
00
40
3f
00
00
00
00
fe
00
00
fe
be
00
c0
3f
00
fe
01
00
c0
40
00
00
3e
00
00
80
00
3f
00
00
3e
c0
03
00
00
3f
00
00
41
41
00
00
41
00
00
41
00
3f
3f
3c
c0
00
00
00
3f
00
00
00
00
00
c1
00
01
7f
00
00
01
c0
ff
00
00
01
00
00
c2
00
00
01
01
00
ff
00
41
00
bf
c1
81
ff
00
3f
ff
ff
bf
00
40
3e
00
00
01
00
40
00
3d
00
fe
02
40
00
00
3e
3f
3f
c0
40
00
ff
3d
00
bf
3f
40
00
c0
00
00
00
00
00
c0
ff
00
40
40
00
c0
41
00
3e
00
00
00
00
c0
00
ff
00
40
3f
c0
00
00
00
00
40
00
00
3f
00
bf
00
00
3f
c0
00
00
00
00
43
00
fd
00
00
3e
00
00
00
3f
00
00
3d
00
00
40
3f
00
00
3c
00
3f
00
00
00
41
fd
00
00
00
3f
00
40
ff
fe
00
7e
ff
fb
c0
00
3e
fe
be
01
00
00
01
00
82
00
00
41
40
00
00
00
00
00
00
00
00
00
00
3f
00
00
c0
3e
3f
00
80
00
40
00
00
00
00
00
00
ff
00
3f
3f
3f
ff
00
00
00
00
00
00
00
00
00
3f
3f
00
40
00
00
00
00
41
00
00
c0
00
00
00
3f
00
00
3e
c0
00
3f
00
bd
fe
bf
be
00
00
00
3f
c0
00
00
c0
00
81
ff
c0
3f
00
ff
00
00
00
00
00
00
ff
3f
7e
00
00
fc
00
3e
3f
3f
00
00
00
fe
3f
00
00
82
3f
7e
00
01
00
00
00
00
00
ff
00
41
00
ff
00
00
ff
00
00
3e
00
00
00
01
00
3f
01
00
c0
c0
00
00
be
00
00
ff
00
00
c1
ff
00
00
00
00
80
00
00
01
00
40
00
00
00
00
00
ff
00
3f
00
3f
00
7e
00
3f
00
00
00
00
00
00
40
00
41
42
3f
00
01
c0
42
40
00
c0
01
00
00
be
00
00
3f
00
40
00
7e
01
01
41
bf
00
00
01
00
00
01
40
00
00
00
fe
00
01
00
fe
3f
00
be
00
01
00
40
01
3f
00
00
40
3f
00
00
7f
80
ff
00
3e
3f
00
80
41
00
00
01
00
40
00
3f
00
00
01
3f
00
00
c0
3e
00
00
00
02
7f
41
3f
00
00
c0
00
c0
00
00
01
3d
00
ff
c0
c0
00
00
3f
00
00
40
00
00
00
00
00
41
00
40
00
00
3f
00
00
00
3f
3f
00
00
00
00
00
00
00
00
3f
00
be
ff
00
00
fe
3e
00
ff
3f
00
40
ff
00
00
ff
00
00
00
3f
01
c0
c0
00
00
fe
c0
00
00
00
00
00
ff
7e
00
c0
00
00
00
3f
40
3f
00
00
be
00
00
3f
00
01
00
00
00
00
00
00
c0
00
c0
00
00
00
3f
00
00
00
00
00
00
00
00
ff
c0
3e
00
c0
00
c0
01
00
00
40
00
00
00
c0
00
00
00
00
40
00
c0
00
00
00
00
bf
00
00
00
00
00
c0
40
00
00
ff
41
3f
bd
00
39
00
00
00
01
00
bd
00
41
00
00
00
41
01
00
00
00
00
00
3f
80
01
00
c0
00
3e
ff
ff
3f
fd
00
00
00
7e
00
c1
7e
c0
40
00
c0
00
c0
00
ff
00
00
00
c0
00
00
3c
00
00
00
00
00
3f
40
ff
00
00
3f
40
01
3f
00
00
01
3f
00
fe
00
bf
c0
00
00
3e
00
3e
3f
3f
00
80
00
01
00
00
00
00
00
3f
00
00
00
00
3f
fe
00
00
3f
00
00
00
bd
00
00
40
00
00
3f
3f
00
00
00
bd
00
00
ff
00
00
00
00
00
00
c0
40
00
00
00
00
00
c0
01
00
00
00
00
3f
be
00
3f
bf
00
00
00
3f
00
01
be
fe
c1
00
00
3f
ff
3f
bd
00
00
fe
00
fe
be
ff
00
00
00
00
00
40
00
00
00
3e
00
00
00
00
00
00
3f
00
00
ff
00
00
00
00
00
01
00
c0
ff
00
00
00
40
3f
bf
00
00
bf
01
00
00
c0
c0
00
02
c0
40
00
80
00
00
00
00
3f
3f
00
00
00
bf
00
00
00
80
00
40
00
41
c0
00
3e
41
3f
3f
00
00
ff
00
01
ff
80
01
00
00
00
40
00
3e
3f
01
7c
00
ff
40
bf
3f
00
00
00
c0
00
00
00
3f
00
c0
03
00
