ee
0c
01
09
04
08
0d
00
ff
f8
00
08
01
f0
01
f9
fe
06
fd
fb
06
00
05
07
04
f6
fe
fc
fc
fc
ff
06
00
fa
fd
fc
00
ff
f7
00
fa
00
ff
ff
00
fd
fe
fc
03
02
00
06
fc
fe
fa
01
02
02
02
05
fa
fe
01
02
01
00
06
ff
f9
03
00
03
fc
02
fe
fd
01
00
04
fb
ff
f6
03
fb
f8
f8
f8
00
f9
00
ff
fe
fb
fa
04
ff
fe
06
fc
fe
00
fc
00
f4
fd
00
00
05
fd
02
fa
01
00
00
01
00
02
f7
ff
03
fd
03
04
fa
fc
ff
02
03
00
01
00
00
01
00
00
00
04
00
fa
02
fb
00
fd
fd
01
fc
00
f6
f9
f7
00
fa
01
f1
fd
ff
f3
00
00
02
00
02
00
00
03
01
ee
01
02
fb
01
fe
01
fb
ff
00
00
01
00
00
f4
fc
00
00
fe
00
fd
fa
00
ff
fd
00
00
ff
f2
ff
00
00
fd
fc
00
ff
ff
fd
00
fc
f7
00
02
09
f3
fe
fa
ff
f3
01
fe
ff
fd
fd
00
08
00
fd
fb
fe
03
03
00
f8
03
00
06
00
00
04
f1
09
04
03
01
fd
ff
fb
fb
ff
f6
00
fd
01
04
fb
fc
01
02
06
05
02
ff
f9
f7
00
fe
ff
04
fe
fe
f4
04
00
fe
03
05
fe
01
03
fc
05
0a
fc
02
03
ff
00
01
00
ff
fe
f8
fb
02
fe
00
02
03
06
fb
07
01
fa
00
fb
f7
fe
ff
00
f5
00
ff
02
00
fd
02
02
01
03
00
00
05
03
fe
00
ff
ff
01
03
01
00
00
00
07
01
fc
01
04
fd
03
01
01
03
fe
06
ff
00
02
02
f9
fd
00
fc
fc
ff
09
fa
ff
fb
fe
fb
01
fe
03
fe
f3
fd
ff
06
fd
03
f8
f4
fb
fc
03
ff
01
fd
03
fd
05
fd
fa
06
00
00
f9
00
03
ff
01
fe
ff
fc
03
02
01
04
fd
04
05
00
00
08
00
07
06
fd
ff
f3
02
ff
01
00
f9
fe
ff
fd
00
00
00
06
03
02
fe
04
ff
00
02
fe
fe
fe
fa
ff
08
00
00
fc
02
03
00
ff
01
05
fd
02
fb
fc
04
f9
03
f4
01
02
02
02
00
00
00
fc
02
00
04
01
fe
06
fe
03
00
ff
fc
ff
01
ff
02
fa
fe
f2
00
f3
f8
ff
fe
00
00
04
fc
00
03
03
fe
01
04
03
02
f7
01
03
00
fd
01
02
01
00
0a
ff
00
fe
01
ff
fa
02
fb
00
fc
01
fb
fb
0d
f8
03
00
01
fc
02
08
01
00
04
00
03
01
03
03
fe
04
00
00
00
ff
05
ff
ff
fa
f0
fd
fe
f6
fe
0b
fc
01
02
ff
04
f8
ff
00
fe
00
03
02
fe
00
fc
ff
02
06
06
fc
ff
00
02
00
01
04
02
08
fc
07
06
04
00
06
00
fe
fc
fd
08
fb
02
fe
03
04
01
02
fe
06
f9
06
f8
00
ff
fd
00
01
0c
fc
06
03
f4
fd
fd
fc
00
00
00
ff
fa
03
fd
01
fd
f6
ff
fc
03
00
05
03
eb
fa
00
fd
01
06
fb
fa
f8
06
f9
00
01
fd
fb
00
fa
04
fc
fb
01
f0
ff
00
fd
03
03
fc
f2
fc
05
ff
01
fa
fe
f4
fd
01
fd
03
fd
fe
fb
00
fd
fe
02
01
01
01
fd
fa
07
03
fe
02
00
00
00
00
fe
01
01
f8
00
01
00
00
00
00
ee
ff
fd
ff
02
01
02
ff
00
f5
00
04
fd
03
fb
05
fc
fb
00
00
ff
f8
02
00
fa
00
00
00
fa
ff
00
00
03
fc
fe
fd
00
06
01
07
00
08
01
0c
fd
f9
f7
fa
fe
fd
01
fd
04
00
09
01
e8
02
fc
03
fe
03
01
f1
02
00
04
fe
02
00
ff
00
f9
00
02
fe
01
f3
f9
fc
00
00
05
00
f3
04
fd
05
00
fe
03
f3
fe
fc
03
fb
02
02
f9
fe
fd
02
fa
f6
f1
01
fa
fd
fd
fc
f8
fc
fd
f7
fa
fd
ff
fa
fe
01
fd
00
01
02
ff
07
02
04
03
01
00
03
06
02
02
00
00
01
fd
00
ff
01
01
ff
01
fa
00
01
00
00
01
fd
fb
fe
f4
f9
fe
f8
fc
fc
00
f9
01
02
01
01
00
04
fe
05
01
05
00
01
00
ff
f4
fc
fe
fa
f7
f6
01
fb
02
fe
fe
fd
00
06
ff
03
fd
fd
01
01
05
fe
00
fe
02
fe
02
fb
03
01
04
02
00
01
02
03
fe
02
ff
02
02
fe
fd
00
01
05
01
00
fb
ff
00
ff
01
fe
00
ff
fb
00
fa
fb
07
fe
02
f9
fa
fc
f3
f9
fe
f8
f4
02
fe
ff
fc
fb
fa
00
00
fd
fc
fe
fe
06
fc
03
05
fc
fd
fc
f8
00
00
fb
00
f9
ff
fe
01
00
fc
fe
00
00
fc
05
03
fa
03
01
fe
f7
fd
03
fa
01
f4
f7
fd
f5
00
f2
00
0a
05
fe
02
f8
01
fa
00
f8
00
00
03
fb
08
f8
01
01
01
00
01
00
04
f9
04
00
fc
07
fa
ff
fe
03
03
f4
00
fb
fd
00
fe
02
fc
00
00
f9
01
f8
ff
fe
fd
02
ff
01
fa
fd
03
fa
01
04
fb
06
fe
03
fd
02
01
00
04
ff
01
ff
00
00
f8
ff
fe
00
fe
09
03
01
00
00
ff
fe
02
02
ff
01
00
fe
00
00
00
05
04
02
00
01
02
fe
02
07
00
fb
05
fc
f9
fc
fb
00
fe
fa
00
fc
fe
f7
fc
00
fe
00
00
00
fc
00
01
00
01
01
03
02
00
fe
00
01
fb
09
fd
08
f9
fc
05
0c
fd
00
ff
03
fd
01
fe
02
05
fe
02
00
03
f7
00
00
fb
02
fa
07
f7
02
05
01
03
00
03
f9
04
fd
fe
00
04
02
00
02
fa
07
ff
ff
00
01
00
03
01
00
01
ff
03
ff
02
03
fa
06
f6
04
fc
fd
fc
f9
00
fa
00
fd
01
00
00
02
ff
fb
00
00
05
ff
ff
03
fd
fe
fa
04
02
00
fd
fc
fc
f1
00
fb
02
f8
fd
fb
fd
01
00
03
00
fd
00
04
04
00
00
00
ff
03
02
02
fc
00
00
fd
07
07
00
fe
fe
fe
ff
fe
fb
fa
fe
00
03
00
fd
02
0a
01
05
01
fd
fc
05
fe
00
00
00
01
fb
fd
fa
00
04
00
00
fb
f4
fb
00
03
00
ff
fc
f4
fe
00
03
01
00
00
fa
00
01
03
03
04
00
00
03
ff
fd
00
06
03
02
04
00
03
00
f8
fe
fa
fd
f4
f9
fd
fd
02
00
fa
00
03
04
fe
01
04
00
01
00
fc
03
fd
ff
fc
ff
fc
00
f9
f7
f7
f5
00
f7
03
f7
00
f5
f8
01
f5
03
fc
04
fd
fb
01
fa
01
02
01
ff
fb
00
fe
00
ff
fe
06
fe
01
f6
ff
fe
02
fa
fd
00
f9
f7
ff
f7
ff
fc
fd
ff
00
00
fb
fe
fb
fd
f5
f3
f7
00
00
fd
03
fa
00
06
fb
f4
04
03
03
03
fb
ff
ff
ff
02
01
00
ff
02
02
fe
03
fa
03
fd
00
f4
00
03
00
fe
fb
04
00
02
fc
03
00
00
03
fa
06
fd
03
02
00
05
00
00
01
01
ff
02
ff
00
ff
fd
fd
ff
ff
02
00
fb
f3
fd
02
05
05
ff
06
0b
02
ff
00
02
ff
00
fd
00
01
01
fe
f6
fe
00
05
01
06
ff
00
fb
fe
ff
02
02
01
f9
fe
00
fd
04
fd
01
f7
00
00
ff
01
fd
02
ff
fe
fe
02
01
ff
02
fd
fe
04
00
00
fc
f8
01
f4
06
01
fd
00
02
ef
05
ff
00
00
00
ff
fd
06
00
04
00
01
00
07
01
fb
00
00
00
fa
00
02
fe
ff
02
f9
fe
00
fd
ff
02
02
03
f6
f6
fb
fa
fc
01
fc
f8
00
f3
fb
f9
00
f8
00
ff
fc
08
00
07
03
f2
fe
00
03
fb
00
fb
00
00
00
03
01
00
fb
fc
01
fe
02
ff
03
f8
00
05
01
03
01
fe
f4
ff
00
01
00
00
fe
f9
ff
ff
00
fc
fb
ff
fc
00
fc
00
01
02
02
f9
03
f7
03
01
04
ff
ff
fa
f8
f8
f9
f6
fe
00
02
01
f5
f7
f8
f5
fe
03
00
01
fa
fe
06
f4
03
ff
ff
04
00
03
ff
fe
f9
01
00
01
fd
00
fe
fe
fd
02
fe
00
fe
00
f8
00
00
00
03
00
00
fe
03
00
ff
fd
01
00
f4
02
ff
ff
00
01
00
fa
ff
fe
fa
00
f3
00
ff
01
00
fe
f8
fa
02
f8
00
02
ff
00
f8
00
02
01
00
00
ff
00
00
00
02
ff
fd
02
02
03
00
02
ff
03
00
f7
fa
fd
fe
01
01
00
01
fe
f8
fe
ff
fc
01
fd
02
fd
00
fe
00
fd
fc
ff
fb
01
01
03
fa
f6
ee
fc
f4
fa
00
ff
00
fd
00
fa
f4
fd
ff
fe
00
fb
01
fd
f5
fe
f8
fc
fe
fc
fc
fb
ff
ff
03
fe
01
fd
03
00
03
00
fd
02
02
01
00
02
00
fc
ff
fd
02
00
00
00
f6
f8
01
00
01
f6
ff
fa
fb
00
fd
fe
ff
02
ff
08
fe
00
02
02
02
00
00
00
00
fd
fd
05
00
00
ea
f8
fa
fb
ff
f7
01
fb
01
05
00
ff
fb
04
fd
00
00
00
03
09
05
fd
01
fd
00
03
fa
05
fb
fd
ff
fb
00
fb
fb
fd
fe
03
ff
ff
01
fd
01
fe
00
01
04
fe
00
01
00
00
06
ff
00
00
00
fe
fe
fd
ee
ff
fe
ec
fa
00
f9
ff
f6
00
00
00
03
00
04
f8
fe
fe
fe
04
fb
fd
01
03
00
00
fe
fb
00
f8
02
fc
fe
fd
ef
fe
f5
07
ff
00
f9
f5
fc
fd
00
ff
04
fd
00
00
ff
00
04
fb
ff
07
08
00
0a
00
ff
04
00
