6e
6a
f7
75
a1
da
00
81
d1
81
a3
f9
1e
3e
cb
00
56
54
1c
2b
a5
bb
07
ce
ff
2e
ba
7e
cf
c7
f8
4f
64
16
59
61
f5
ee
d7
eb
10
de
d1
f2
1d
e6
1f
cf
e5
fe
00
cd
e9
15
d5
dd
e6
e8
f2
d9
0b
ea
03
f9
2a
f1
09
06
d7
fd
3d
0a
f0
21
0c
05
fc
03
07
13
18
12
19
3a
0e
ea
2d
12
18
08
2e
12
0d
29
e2
ff
e5
11
04
f2
25
29
01
44
15
fb
03
24
ff
fe
0a
06
02
0b
16
c7
f6
1b
d4
d7
0e
e8
c1
eb
f8
cb
d0
f6
ee
d3
ca
02
d1
b3
02
04
da
df
aa
df
eb
02
e3
ca
ee
f9
2c
f7
f8
02
f0
df
1b
d9
1a
31
01
02
f5
2d
05
14
1f
1c
05
14
2f
fb
0c
46
1e
00
18
00
00
04
4f
f4
f3
1b
f0
fe
01
eb
f7
dd
26
fb
dd
05
e2
0c
d8
33
fc
d3
18
ec
09
06
ed
11
e6
00
e2
de
eb
e0
06
21
ef
c9
ed
e0
e0
e9
17
07
c1
e3
0a
d0
d0
e3
f1
02
ce
bc
d3
74
84
cc
00
e5
b6
c5
f3
ef
ce
f7
11
f6
01
ed
01
07
f0
e8
0b
d0
1a
d5
1a
3a
e9
1b
08
e5
ba
f7
24
f1
1b
f5
ef
f8
fd
42
f0
0d
f9
ea
e6
03
07
06
d6
ef
27
f1
fb
e9
c0
eb
00
02
eb
f7
b2
d8
04
da
b5
ff
fc
00
f9
0c
0a
bd
0d
f9
eb
ee
e3
e0
a6
0a
db
0d
f5
02
14
95
3d
c0
00
17
8a
d2
ee
1e
c4
0e
16
c4
e5
ec
d5
e8
f9
e3
18
dd
db
19
f1
08
03
c2
eb
0a
e9
09
0a
37
0c
f1
ed
3d
17
0e
11
0b
1c
2b
1c
03
07
f3
fc
3b
11
c7
0a
0a
ce
10
21
30
e3
15
ff
b9
12
ff
20
ee
09
0c
f3
2b
e8
2d
19
06
fe
ba
0b
df
ef
1e
fe
f9
d0
fa
f1
d8
f4
14
f4
fd
f5
03
e9
0f
14
f3
00
11
c9
fa
14
1e
05
0b
08
cc
f0
f0
00
03
d0
12
c5
f3
91
9d
fe
e6
49
e8
be
31
1c
12
0f
2e
f1
de
0b
f5
28
21
ff
e0
33
f4
ec
e5
d9
df
f4
ea
19
e8
d9
d7
15
cb
dc
ed
f1
ee
0b
4d
d7
c9
dc
17
c7
e8
19
26
14
ef
11
ec
02
08
4a
ea
21
fe
04
fc
cc
ea
0e
38
11
0a
00
e5
f5
e5
03
13
d2
05
17
2a
19
01
14
ba
fd
07
05
37
10
08
a6
f9
d2
00
e2
06
08
f4
04
c0
e7
e3
df
c3
06
d3
43
d1
bb
19
f3
1e
fa
ca
ee
20
ef
e5
ff
f0
f3
07
07
f2
ec
ea
17
db
e8
0d
e0
05
0a
21
fa
fc
9f
d7
de
0b
d5
12
08
19
fb
d7
f1
01
02
1c
e8
9e
d8
03
08
19
ee
1e
7d
f8
fc
fd
c7
fa
98
c3
00
f9
fe
d9
f4
04
1d
24
fb
07
00
f1
22
c7
28
01
f8
42
c8
9b
e4
17
fc
ab
c8
e7
d6
9e
bc
f3
f9
27
13
02
f1
e5
fa
3e
12
01
db
24
00
00
00
f7
e6
ed
28
e0
01
f3
fa
f7
27
0e
01
fb
c8
02
dd
19
fb
e7
03
e3
0c
09
46
dd
f3
0a
d5
19
13
c5
f0
28
ec
d9
10
32
f8
c0
2d
f4
b6
fb
02
ce
d1
f6
09
d7
1a
e5
ee
10
10
e9
04
f3
e1
00
f7
f5
f2
24
f5
e5
1b
ed
06
f9
12
ff
e8
2b
e3
f2
1e
f6
ae
e9
06
cf
c3
f7
ba
c8
ed
db
aa
ad
fd
00
c2
33
08
05
7b
f5
35
1d
d5
18
2b
28
f8
1c
0a
a8
e3
11
20
cd
e9
0c
e3
0b
f7
0a
cc
f1
f6
10
00
f1
f7
b0
ee
da
0e
ff
f3
0e
97
02
e4
0f
e0
9e
f7
dd
d9
d8
31
0b
be
18
2e
09
01
32
18
f7
19
3a
1e
12
fa
0e
fe
0b
3f
2b
02
0f
24
03
f6
5c
1e
f8
1a
1f
04
da
49
29
e4
f4
eb
28
f6
ef
de
d4
f1
fb
f1
be
e3
55
00
2b
e1
14
dd
ef
0a
06
b5
f6
01
ff
ec
16
04
ec
0f
07
0c
ec
f7
07
e3
f6
0c
e6
d3
14
29
fc
2e
fa
fe
c2
f2
1e
ec
21
19
f3
de
26
03
16
35
14
eb
e3
f3
fc
1f
df
12
26
23
eb
16
22
22
e0
11
df
eb
f5
19
f9
e1
16
f8
c3
00
00
c0
fe
34
00
ed
1d
2f
b5
e8
42
f1
18
4c
c7
00
13
2b
11
cd
0b
e6
04
d1
e4
fa
ad
ef
b5
e0
0b
e6
08
2b
e9
b3
2b
0b
f5
ff
00
12
fe
ee
10
fe
11
e9
13
05
f7
df
13
06
e2
05
01
c1
e6
00
cb
e1
fc
1c
05
cb
f3
17
f0
f0
e8
ca
c4
05
f6
e9
f4
fb
00
f0
f3
fc
dd
0f
22
f7
d2
f6
f6
d5
03
28
0b
c3
fe
20
dc
0c
18
f1
cb
01
e4
c9
f2
17
1c
e6
03
ed
dd
e5
17
08
0b
13
0e
e4
d0
04
0c
fc
ec
fb
e0
12
de
ba
e7
32
0d
d6
30
7f
10
1a
df
01
f5
36
ac
f7
fd
00
0a
00
11
e6
e5
f9
f8
f8
fb
fd
0e
0a
e9
fe
e1
06
fa
fa
06
00
06
c7
04
04
a3
f8
28
2a
e6
fd
03
bc
cd
25
fb
f5
f5
f6
e8
f2
2a
11
eb
dd
dd
f4
de
09
f5
b2
0b
d3
cc
d6
e6
fa
aa
0c
f7
c3
e7
1c
07
11
11
06
34
20
2f
1d
0b
32
1b
f1
2b
25
f4
fe
ae
02
c5
d9
f0
09
07
18
f6
ee
14
f7
f7
28
11
09
ff
10
05
f2
22
0c
11
dc
25
21
de
14
03
f9
f0
e7
08
ce
da
f9
ec
f5
29
00
e5
fd
f2
28
dc
37
e2
19
10
12
23
e9
1e
fa
fd
f9
28
1b
e6
22
0f
fd
cf
22
11
fc
22
02
ee
2f
2c
03
e4
3f
07
f5
3a
20
09
c3
0d
fb
ca
11
61
9c
03
97
28
d3
03
9b
54
ef
0b
05
c4
ef
de
d5
da
b3
e0
a2
f9
d0
e1
f3
d1
dd
f2
df
10
fa
13
e3
40
0e
e7
08
14
25
f4
59
18
f5
15
21
fb
fb
27
18
f4
25
13
ee
e8
07
2d
dd
fc
05
fa
e7
14
2a
00
12
0b
f2
2b
09
ef
f0
0f
0e
e7
11
fc
01
f3
13
ec
da
03
00
f3
fc
c6
01
f0
bd
0e
f7
fe
08
27
07
f4
1b
17
01
1e
0f
02
f2
38
f7
f6
29
e8
0b
05
f0
b6
04
cf
c1
de
ad
e2
f3
f9
12
d0
31
c8
e5
db
01
d2
e7
f3
e6
3e
03
0e
fe
cd
0e
37
c8
e5
08
d4
f1
20
e8
dd
f8
fb
d6
11
ef
e4
f0
ff
ff
04
02
08
fb
24
43
ff
17
00
ff
33
04
0a
f2
fa
1f
f0
1a
00
16
1b
e2
f1
00
e0
05
28
f8
f1
07
e9
17
e3
0c
1d
00
ee
04
cb
e8
fd
06
11
ee
cb
1e
d9
ea
f2
fc
fd
ca
3c
e0
a1
03
d7
c5
d2
a1
e3
b2
fe
dd
eb
02
d3
c7
f5
f5
02
cb
1f
f7
c9
d6
dd
fc
d5
fb
0e
f5
ea
dd
08
ce
eb
1c
c4
db
da
18
c0
f2
07
f7
f6
f8
c8
cc
11
d0
05
05
00
e1
f4
0e
d0
18
ff
f9
fc
de
0e
ec
2d
f7
a5
e5
f8
1f
1f
06
0e
f2
e3
f2
f4
d3
c2
22
f7
b2
ef
28
3e
be
11
14
a3
24
0e
5b
1d
e5
fb
ee
57
ce
01
e0
f9
ff
e5
cd
c3
4c
e5
4b
f8
c7
1a
07
35
eb
3b
f7
f8
e9
f7
0e
fe
21
00
0f
e9
eb
24
0d
d8
08
2e
e8
db
28
15
a3
fe
22
db
bf
34
21
d9
07
12
e9
a2
ea
1d
d7
04
18
11
e9
02
12
fd
ec
d4
fa
0e
f5
04
f3
02
de
fa
1b
eb
f7
1a
f2
f4
f3
0c
f0
d8
01
e7
e8
07
1d
d5
dc
05
1d
b4
f5
1f
1a
02
0e
00
ad
f5
2b
12
d8
df
01
e9
d8
fd
4a
e1
5c
00
c6
07
4d
0f
d6
f5
fc
f6
fb
44
e4
0f
e2
32
0d
f5
fe
fc
04
09
0c
0b
19
f3
ed
2a
18
a5
1a
0e
11
ed
16
00
e3
06
fd
e5
f1
1b
d4
e6
12
e3
d8
10
d7
e8
af
ff
eb
12
e2
eb
f3
8c
dc
d8
ee
05
e4
0d
2d
06
fd
fd
e8
fe
17
01
11
15
2e
0f
01
0e
75
21
2a
f5
ee
33
fd
e7
ec
2b
20
d7
f1
01
e4
c5
d6
c3
59
db
44
f7
b0
00
2f
e6
00
17
01
df
f2
1a
04
e2
11
ae
f5
12
fa
a9
f5
23
a3
ee
10
11
1e
08
13
0b
16
14
17
98
f5
20
11
f3
1a
14
d1
13
05
1c
29
28
03
30
00
ec
d5
26
34
de
18
10
ef
3b
17
00
07
1d
2a
e9
92
0e
f9
ff
0c
0c
c5
e9
00
dd
d1
30
09
b7
10
0c
da
ff
20
27
c6
00
d7
9c
a7
fd
db
dd
ff
0e
03
3e
f3
f5
11
14
19
f6
39
00
13
0d
08
28
09
f1
17
ff
16
05
3a
0e
12
14
08
ec
f8
1b
e5
d6
29
fa
df
fe
14
d7
c0
23
ff
cb
f0
fe
bd
fc
ea
f3
06
f3
18
f1
28
c7
26
fd
0e
19
02
f3
09
31
07
fa
2e
26
0f
13
16
e1
fe
1b
01
f4
f0
17
f1
0b
27
d9
e8
ef
03
0a
08
d2
f2
d7
f6
ce
15
ee
ec
dc
97
10
fe
00
05
2a
15
fb
35
37
e0
1b
00
f4
e8
34
f1
ed
e2
f1
b2
d7
fe
e3
17
f7
06
ec
0f
de
fb
0f
fe
0c
f8
10
d1
e1
f9
03
02
ce
f2
cd
e5
ce
f1
1b
05
e9
12
e9
c8
f9
08
04
f0
10
0e
f5
f1
11
14
f1
ed
07
ee
f5
13
0b
03
1e
3f
f1
ef
03
1d
ee
f3
38
f9
f7
19
0d
e3
8f
01
29
ea
f7
00
d6
a4
fc
dc
f7
72
fd
ed
f7
a5
06
fc
ff
0a
48
28
fc
0b
f1
15
e7
19
1f
ca
f8
01
07
f9
08
0b
ae
0a
f3
d9
ec
07
b2
c0
0d
f9
b8
00
e9
eb
c8
03
00
c6
19
13
c4
c3
19
f1
a0
18
00
e3
ee
2a
0f
da
25
ee
c1
fe
0f
00
e0
10
21
cb
da
0c
06
bc
05
f5
f4
ea
f4
03
03
ea
fa
9b
fe
c1
16
e2
02
c9
ff
08
b5
18
bd
dd
a9
02
f3
cd
11
fc
d7
00
0b
f8
f7
02
e3
f3
01
ee
dc
f1
00
88
e5
1e
b7
ee
d5
00
03
00
fd
f0
d9
d5
18
14
f0
07
18
ed
fc
07
e5
07
08
c6
f2
1f
05
fc
04
15
d3
ff
08
f9
f6
12
fb
06
ed
0b
09
f3
e1
e4
ea
f6
2a
03
fc
1a
04
da
e9
dd
0f
04
01
d3
e8
fb
ce
04
34
0b
e5
b1
13
e0
e7
18
10
f6
d4
3b
f2
f9
13
20
f9
1c
3a
1a
0b
1f
14
1d
20
11
18
0f
f1
ff
eb
da
d5
e1
0e
a1
aa
f5
96
de
49
f1
d5
eb
b1
38
26
db
00
1d
ec
28
00
16
e1
4a
19
24
f2
f2
0e
f8
18
fa
19
e3
fb
dd
2e
14
16
ff
f9
0d
cf
07
35
f4
01
f3
06
c5
fe
37
f0
0c
d4
16
f5
02
11
f4
1f
16
fd
ff
19
45
f5
09
fc
14
fd
de
d3
e9
04
e5
05
02
d4
41
df
f7
e2
3d
e6
f0
29
ff
05
0f
d6
20
24
07
00
ec
15
ca
e0
cb
09
66
d9
05
d9
00
c5
ef
1d
07
e4
00
2b
fb
3a
1a
e7
0d
0f
20
f9
f9
2b
01
27
18
2a
02
fe
2c
fd
0a
09
d9
e8
1b
f8
e0
fe
0d
12
03
e8
f9
d0
f8
0c
cf
22
12
f3
f3
e7
d3
f3
1b
48
09
d7
cf
d0
f3
10
fc
0a
fc
01
0b
db
0c
db
b7
f7
88
ff
d7
ee
02
9b
f1
e8
ae
c1
26
0e
3d
f2
41
00
35
da
15
fd
9f
c2
db
17
e4
15
de
0e
eb
0a
f1
db
eb
cf
00
0e
a3
e8
fc
c6
0c
f9
fa
e8
11
1a
e2
f1
02
fc
b4
f8
fa
00
fe
f6
f5
0b
17
d6
fe
1d
ea
10
e9
06
e1
eb
15
03
f6
bb
ec
ee
03
ea
01
d9
29
0a
01
fb
fb
1c
0e
18
19
23
fd
0a
0b
1b
fe
1d
05
0c
25
f9
fd
f5
f4
0e
f1
d2
f8
f3
01
d2
ed
0d
ae
dc
ba
e5
d1
f7
16
00
ac
d2
04
05
7a
0e
eb
df
ee
f9
ff
24
cd
00
f7
19
d3
09
01
c0
1d
10
1f
05
0e
0d
8f
0f
fd
fd
fc
20
0e
7d
f6
f7
0d
0a
29
e9
77
0f
e8
00
ed
07
15
91
f1
f9
df
e9
f8
1d
c5
ed
fb
d5
f2
13
fe
ba
f0
ec
fe
00
25
d8
b1
0a
e2
fc
04
0e
09
ae
0b
f3
cc
22
09
13
c9
ef
0c
ea
be
00
f5
e5
d2
0d
a9
e7
17
a7
fe
f9
61
b3
d4
14
c1
ea
0d
15
e8
97
11
fa
f9
10
01
fa
ee
07
19
a4
ff
10
07
00
f4
0b
c7
04
0c
fd
e8
eb
2d
cf
07
f6
ea
f5
1b
01
d9
1f
d5
ce
be
07
06
e3
02
da
02
e7
03
06
cb
f9
08
f6
fa
e7
19
ba
e2
1d
f6
ce
e8
f7
e6
db
08
06
bb
07
0b
e0
09
fb
02
c6
1d
e2
f9
39
fb
e3
ac
ba
eb
fe
23
c2
f1
f8
ec
e6
14
f7
d2
0b
ef
c3
b0
f7
fb
1f
be
dc
20
f1
03
fb
cc
d3
af
e8
f5
eb
b1
e0
da
c0
c2
fc
b9
e8
ef
d8
fd
06
fa
ef
12
eb
fb
3c
18
01
f8
0c
fa
04
2a
14
07
eb
07
0f
19
27
eb
e6
03
07
f8
1b
0b
ba
f8
fa
c6
0d
ef
e9
e1
03
00
d4
f4
29
00
f1
12
df
df
f7
19
ec
fb
f5
fd
17
0c
f8
f7
23
1e
ea
20
2b
e2
13
42
3b
fe
00
d1
f4
da
b7
9c
1a
da
1b
ef
e7
20
f5
fc
dd
24
b8
c7
da
f1
a4
f1
02
ab
e4
fe
19
9b
17
e9
f9
0b
1e
0e
b3
0c
de
01
f7
48
00
05
fc
22
20
26
24
ef
d9
ef
29
ba
ff
2d
f7
ac
e7
0b
f1
dd
f6
f2
d5
15
f5
e8
ec
fd
19
a1
ff
00
1d
03
ca
f5
a6
f3
0f
3a
f4
e2
f9
ba
08
24
47
e8
f5
00
ba
24
f5
f7
35
0d
29
e3
0a
c6
f1
f1
77
b7
e8
9f
36
78
b5
26
02
ec
1d
ee
e0
a7
0d
fb
c0
f9
22
eb
f8
07
f8
a7
c9
09
dc
cc
13
ff
d8
e9
04
0e
ff
35
e8
c7
0e
23
07
b1
00
e5
e3
1d
c2
d4
d1
12
d2
e6
08
db
eb
94
f4
b6
bc
2a
b3
05
e2
00
f2
02
24
d4
08
10
1a
e1
bd
20
d0
13
04
ff
ec
f6
ae
00
17
44
02
f9
f1
04
09
db
0a
0d
44
00
