ffff6da70000979100003d95ffff6d7e
ffffe3d3ffffe8990000563600001425
ffffd9cd00004cc400001c6c00006a74
00006176ffff9769ffffea5a0000589b
fffff921ffff885dffff8e7afffff62e
ffffd779fffff009fffffc28ffffacf1
00000cc2ffffae680000181000007525
00005716ffffc784ffffb0aa000006e4
00001b9600003ef200000964ffffa0ce
00004ac0ffffcbfbffffaaa3ffffbf0a
000056d3000029fd000043b8ffffd90e
00002b3c000001810000413b00005143
0000238e00001ec800005208ffffff7d
0000563500003e9bfffff3290000408a
00004cb6000000e400003f3300008110
0000477cffffdcafffff4fbdffff631d
000027d300003acaffffab99ffffd00b
fffff4f0000043df00004d66ffffa8f1
00006c1effff9581fffff4330000813c
00001a0600008bbcffff6af5ffffc961
00006b44000039b900009810ffffa238
fffffd460000455b00004e0a00007e2e
ffff7e7affffe406ffff9a0ffffff8b3
ffffd1cdffffe01600003d72ffffcaf3
fffff2b2ffffda67000086a700001e54
00002491ffffe2b2ffffe1f200002c1d
ffffd61d0000013dffffd71d00003ee4
ffffba72ffff8575ffffc470ffffed7e
ffffc4c3fffffc39000016d0ffffca5b
fffff802000046ab00002c3900002dc3
000005d200001a1200003d8400000088
ffffb263ffff95d500002f6dffffd964
ffff6872ffff8b3100002832ffff55d2
0000457fffff74edffffc64b00002eb1
000055e900004c7f00005176000054b5
0000324b0000199800005a4500003b72
00000d2700001e950000160c00001cdb
000002f900003fffffffdbcc0000012f
ffffd9b1ffffe173ffffcbd800002b58
ffff7eb8ffffc082ffffd41cffffd219
ffffb88700001310ffffa17fffffa41e
ffffb456ffffc8fbffffbe27ffff8b24
00000fb30000c97d000085b0ffffba39
0000349700004fbfffffe52affffd524
000018020000561c000064a70000072b
ffffc17900006a7900004a8300006882
ffff97ecffff9353ffffe811ffffcd4d
0000437200001f9f0000085dffffbfde
ffffebb400001b20fffffe54fffffe74
ffffafc7ffffce7800002f0a00002853
000079a300008e6200004d7d00002e8b
0000326300002ea700003e5500003fc8
0000351e00000b8bffffd16bffffb9e1
000030e6000073070000482bffffdb5b
ffffe013ffff7cbfffffb112ffff7d46
000000f900003771fffff34400003221
ffffd34afffff07affff9c0cffffced7
ffffd684ffff7af3fffff655ffffe4b2
00007e4a0000a78fffff98dbffffc69d
00006eaf000085f80000af120000af57
000031f3000083920000e0220000f80d
ffffee4100002c8bffffff07000037ca
00002f0c000010bf0000665000004f45
fffffa47ffffe78e00002d7800002671
00003942000039f40000575900006462
ffffbdcfffffbac90000149600002723
00002e76ffffd544ffffed220000160f
ffff3a09ffffbd790000095e00002c14
ffff54d5fffff7e000004eb7ffff5802
000039bf00002a890000bb330000991e
00004e5d00001cfc0000108f00006166
000042580000186c0000380c000039c8
0000278c00002df5000001f7fffff48a
ffffece600000890000035ea00003aa1
fffff2ddffffe10cffffd8b5ffffedf7
ffffa82fffffc951ffffdcacffffe383
ffffd45bffffdd45ffffdf8bffffd6b2
ffffe222ffffe38affffd03affffbd02
ffffea07fffff0cefffffaa4ffffea8b
0000136c00002e3c0000000c000010a7
ffffed78ffffdf14ffffd94700001076
ffffde7ffffff5bfffffef36ffffe313
fffffd3300000c03ffffcdadffffdd0f
ffffdb39fffff61fffffe63effffef85
ffffdbb0ffffc803ffffbd7effffd0d3
00001b5b000002530000175400001387
00003667000007ef00002bf1fffff1ed
ffffdd48ffffcf17fffff5a7ffffe9f3
000004cf00000c950000071d00001d3c
ffffea240000120fffffdaf6fffff2a4
fffff471fffff998ffffddbaffffe55e
ffffeea7ffffd104ffffed410000150f
ffffec01ffffeb94ffffdf6600001fcb
000035b5000008d100000b34fffffb35
ffffde28ffffe8abfffffbd8ffffced6
ffffc95f0000105bfffffa8b00000a7e
00000326fffff54a0000034fffffe425
ffffd6d5ffffd7edffffeb9ffffff561
ffffd728ffffcf12ffffe8b2fffffdde
ffffccf0ffffe1adffffe08500000bf5
ffffc83effffe8fcfffffe5900000069
ffffcc88ffffded8ffffd6f3ffffe3d1
ffffe348000007a7ffffea71ffffcce9
000011e900000fbbffffff1cffffd645
ffffe711fffff11a00000a82ffffe8d0
ffffdb54ffffdddaffffe99f000000d5
ffff9c52ffffb21affffc83200001566
ffffbbc6ffffe138fffff6e1fffff397
fffffe33fffff513ffffc4b6ffffd4b9
fffff3b300003e22ffffed97ffffd113
000000e2000009e1fffff501ffffdcb6
fffff1e4fffff09dffffd304ffffeecb
000007d6fffff06fffffdee1ffffe5d1
ffffa9a9ffffd5c1ffffe3a000000643
ffffb0fd00002a5f000021edffffe70e
0000104d00001147ffffbc6affffc4b4
fffff78fffffffcefffffb0cfffff108
000004dffffff6b1ffffdae4ffffd6ac
ffffe0c500000b60fffffebaffffd8e4
fffffb5c0000231cfffffe81ffffef9e
ffffcccfffffea48ffffec0100000b5e
ffffed76000019fd00002a7800003027
000003a1000004d8ffffeba6ffffe92e
00000079fffffbcbfffff0e8000003d8
fffffe22ffffe46efffff39900000315
00000e7100001ca5fffff344ffffecbd
fffff523fffffe34fffff7cdfffff82a
00000466000005fcfffff19300001ead
0000127400003bcc00002a1900002aec
fffff44afffffdbbffffcaf4ffffffdb
0000162efffffaa6000000d4fffff040
fffff265ffffeb74fffff94d00001407
000001840000017c00000e2e000009e1
fffffb12000008420000029800002427
fffff1fefffff62bfffff81d0000064b
ffffe09400003fcf000038ed00003804
000012daffffe5e9ffffd863ffffd6fc
00000ed5000018f2ffffff0afffff05b
ffffef77ffffeea90000010ffffffc8c
000004b900000e2f0000137e00000fe8
0000057ffffff71900000b1700003d53
ffffda18ffffee780000148e00000099
fffff140fffffda70000488000000a34
0000009effffe6e0000009e0fffff0ad
000018fa000018bc00000228ffffef4e
0000092600002ab20000035d0000146e
0000271200001f4a000012fa00002152
0000153700001c8b000011b1000022c4
ffffb787fffff30600001ae400000ce6
fffff2f50000074c0000469600000f38
000006a1fffff404fffffc8f000005fe
ffffe59c0000105cfffff2860000143c
000000e9000021b300002426fffffbd6
00003231fffffeb4000018ab00002796
000009c900002815000015a800000347
ffffc170fffffbb9ffffffa600001a41
ffffda18000015280000258b00000785
00001443000020ddffffe791000006e3
0000072b0000037afffffb0100001366
ffffeafd00001ac000000de8fffffd57
fffffe25ffffe92800000d99000018b7
00002928000026a3000019b300001abb
ffffccc1000018ad00001c93000012a5
000002d0000025effffffdd4fffffc94
00001f7b0000304b00000856000019c0
0000093100000c4bfffffd5300001880
00000a2600000cc50000141000003a9a
00001f4200002fc0fffffd77000011ec
0000117f00001c340000157d00000e12
fffff62500000efb00000b4200001577
0000142c000005f1ffffe82fffffe97e
000013970000290100001d85fffff967
000012b000001fd9000005a200002d14
000001f2fffff54b00000f2e00001b86
000013f5000024defffff2d1000012f0
00000bf500001b9600000eda00001358
fffffac2000006470000265100001900
000029dcffffe89200000654fffff30d
00001a180000232400000547000008ac
0000068b0000310e00001e3d00001bdd
ffffcdc6fffffe100000251300002e3f
fffffa2f0000295dfffff24300000152
ffffffa80000087e000002d700001244
ffffe8f1000017c9000010680000072e
ffffe48200000196ffffef7d00000d7a
0000115200000f570000169700001e16
00000f180000296800001932000029e4
ffffd59dffffe8b20000132a000020ce
00000bb200001c47ffffe9a6ffffe1aa
0000146900000cd6000027f0fffffede
ffffd00d000011a3fffffcc3fffffe8c
00000e0900000d6bffffeea9ffffeeb1
00000ad000000c9a0000230effffe4b2
0000182400000ecb00000e330000123f
00000317fffff4c5000020ca0000112c
fffff9400000158900001aadfffff43c
000018f2000007acfffff778000004ce
ffffc388fffff06b00000b0200001242
0000329affffe3d5fffffcbffffff138
fffff90b00000c05000016f400003732
00002c7e0000102e00001a5d0000254c
fffff4c0ffffd9f3000008c300003276
ffffef5e00000dd0000011b4000029ff
0000096e00000bf200000b0200000397
ffffc444fffffb92000005840000018b
00002f8600000af6ffffebf8fffff7ab
00001b60000002c7000025e10000446e
00001aad000011e800001ba1ffffffff
0000061fffffe8f0ffffe4c200001597
fffff058fffffb89ffffdfe30000124a
fffffcbc00000c52ffffffddfffffa73
ffffb612ffffe202fffff1c6fffff14e
000017c600000493ffffedba0000037f
00001c1700000161000057b5000036e8
fffffe9f0000070e000043a100002440
0000064b000005c0ffffff2000000ef0
ffffdbb2ffffc32effffe876fffffe26
000002acffffe466ffffed67ffffec08
ffff9b48ffffdd0dfffff2f5fffffd68
00001713ffffea970000073a0000050c
000012d8fffff69800003d0a00000ad1
00000cbe0000004300002c2700001d5b
ffffe94dfffff13efffff7a2000006e7
ffffe4a2ffffe900ffffd21dffffc84a
fffff57dffffdbf2ffffcd8700000207
ffffe283ffffb2e2ffffe0caffffe2c0
0000192dfffff8b7000006ed00000b36
00000dc800003009ffffebbc00001124
00000fe6ffffff4f0000163c00001624
ffffdf56ffffe468ffffea4affffea1f
ffffe69cffffdcabffffdefeffffc695
000005e8ffffe2faffffdf95ffffee0f
fffff82effffb43cffffdb69fffff5b6
fffff569ffffe51dfffffa80ffffe3c2
0000265b00000dd10000082b00001b93
ffffe229ffffd2d1fffff4550000032d
ffffcd0dffffc53cffffe99cffffd3f1
ffffd70dffffd88bffffebe3ffffd847
ffffe3daffffe236ffff9cc8ffffd602
00001149ffffb983ffffcdceffffd5b0
fffff022fffff396ffffe1d000000e92
0000013900000a0d00000ce5ffffffc5
ffffaffdffffaea3ffffe4cdffffe787
ffffaa28ffffc93cffffb0ebffffaa8c
ffffe1fcffffcac1ffffd207ffffc008
ffffdecdffffc1d0ffffa426ffffe440
00001c71ffffbd84ffffbdadffffead8
000003b1fffffdb1fffff615fffffaf2
00000286fffffc330000008efffff70a
ffffd59affffb8e6ffffafcdffffcf0d
ffff8e6effff95e2ffffcc21ffffca51
ffffc9fdffffae91ffff934cffffa527
ffffbc37ffffcfb3ffffcedaffffcfe3
fffff829ffffb8abffffc1beffffd3fe
00000766ffffecc3fffff60afffff5c7
ffffbab3ffffd955000002eeffffff21
ffffaa34ffff9b04ffffd72effffed43
ffffcb2dffffa88fffffbda6ffffa22c
ffffbd92ffff9896ffffa7bbffffd281
ffffb8c2ffffd343ffffc3fdffffb363
ffffed89fffff9cdffffddf1ffffc951
fffff869fffff119fffff6ff00000d9e
ffffc5b7ffffdc4dffffed77000002e7
ffffb80effffc5a7ffffd128fffff36c
ffffc649ffff9df5ffffbdaaffffd067
ffffa5e3ffff994cffffced9ffffb85c
ffffe120ffffdf3cffffcde4ffffb29f
fffffe4cfffff8b3ffffedf7ffffd68d
000036ef0000128300002688000002b2
00000458fffffde3000019070000327c
fffff1b3ffffcff9ffffd745000004c8
ffffc9d5ffffab6fffffcba3ffffccc2
fffff948ffffaac0ffffc882ffffd913
ffffe809ffffee2dffffd206ffffe91d
00000267fffffda30000067effffde34
000018a1000007f6fffff2c7fffffe43
ffffd72e000005acffffb611ffffa931
ffffe93fffffebacffffdd5c00000925
ffffe95900001f5000004a11ffffdf00
ffffc959ffffffda000011b3fffff491
fffff758ffffe4d6ffffc548ffffea07
00000125ffffe6fb00001176000032fc
0000229100002cd30000382500000270
ffffe84a00000c04ffffdff500003c9c
0000133600001bf90000149dffffe28f
fffff1f1fffffc2f00001722ffffb82b
000016a40000431a00001db6ffffc992
fffffc8e000033ef00000488ffffd30d
ffffedc6ffffe3e2ffffc792ffffed0e
ffffe60700000a270000336100001758
ffffdc6dffffe03bffffde45fffff878
0000321f00000f14fffffd7bffffe729
00000f8400000a51fffff48100002c30
ffffdb1effffd33cfffff1df00000282
ffffdc21ffffca6dffffe6f3fffff645
ffffeccfffffd477ffffe346fffff2af
000008abffffddb600001c56fffff79e
ffffeb64ffffe54effffd5dcffffdfea
fffffdbaffffe297fffff3a70000021b
00000decfffff92a000015e6fffff60b
fffff89ffffffa650000167fffffef6d
ffffd0c9ffffd7b6ffffe4afffffe6f1
ffffba29ffffc01affffd8e7ffffde9a
ffffdb08ffffc3a7ffffbea7ffffd7b6
ffffe3cdffffe6600000031e00001b95
ffffeb5dffffe3d0ffffffb6000005b0
ffffff57fffffeadffffef85ffffd8fa
0000080a000029cb0000039c0000139c
fffff85effffffc0000014ea00001af4
ffff9ae4ffff76a3ffffd44effffba54
0000013effffb3c5ffffc58f000031ea
000002840000054b00000a770000258e
ffffe077ffffe060ffffed780000018b
ffffeb40000002ebffffec67ffffdc40
0000107f000013100000055b000002d8
fffff82200001ce400001e9700001e35
ffffa896ffffa02effffd702fffff47d
00001265ffffd561ffffc90200000181
000000bd000011f20000247800002d15
0000141a00000f9100000866000018c8
ffffe9dd0000000f000013420000053f
00002c91000017e800002e5700000720
0000260f00000d9d0000171300001467
ffffba9cffffd9cd000008bd00001cb6
ffffe143ffffec8d0000371e00001f19
000017e4fffffa96fffffae90000042d
00000e78000000bb00000e1b00001c4b
0000146a00001a980000173d00001374
00002a3300002c5f00001aca000005ef
00002c460000252d000021c40000132f
ffffcbabffffcf77ffffed03000014ea
0000015dfffff6fe000030a4000039c8
000018ef0000323400000afa00002f1f
000009650000013500000e2a00001d90
fffff009fffffaabfffff4f7fffffab6
000002c8ffffff09fffff596ffffe407
fffff9720000169b000019d200000cf7
ffffbd77fffff03d000015c700000bac
00000a9f00000399000028f20000460a
000000950000300b0000102700002e7c
fffff96300000c03000009e000001eac
fffff8dafffffed1fffff54000001883
00000f7ffffffbd1fffff59a00000073
00000d910000064b00000aaf0000098d
ffffbe92ffffd21a00000ca1000018a4
000004c8fffffd4c0000219b00005062
0000059600000eaa00000b0affffff3f
fffff063fffff7f6ffffe4db000002c5
000016cf00000231fffff51f0000004b
0000061afffff899fffff3af00001341
0000054d00000827fffff8300000042a
ffffb5e4ffffc1fcfffff461ffffff67
ffffe58bffffe022fffff7cf00004f65
fffff6a9000026250000180bfffff41f
fffff27300000764ffffe6e9fffff390
fffff205ffffd6a7fffff87ffffffd16
ffffff26ffffedcafffffa04fffff246
00001abb000019d4fffffc9b000007ef
ffff7471fffff030fffff1f300001bae
fffff540ffffed42ffffe7cfffffebd7
ffffe75effffebf0000003d7ffffefd7
fffffc9500000846ffffd7eaffffecd4
ffffe50dffffbf76ffffc118fffffdb4
00001b0bfffff97affffe4f6ffffdf2e
fffffa8efffffb2bfffff254000001a9
ffffb7ddffffe957fffffadd000004de
000021a50000090bffffca3effffeacc
000008e9000000430000115d000016a5
fffff82900001eb3fffff98efffff6d5
ffffc9adffffafa0ffffd593ffffcbe8
000018a700000750ffffe706ffffdc47
000017b90000078800000288fffffa04
ffffdf18ffffe4180000001c0000264d
00001f52ffffd522fffff860ffffed23
fffffed100001dde00000fd4fffffa3b
fffff1c4fffff612000011fc00001655
ffffd849ffffce92ffffda21ffffdc5e
00001552fffff809ffffda95ffffdc5f
000014d800000417fffff87a00000512
00004067000026e5fffff832000032d1
000028b1fffff96fffffe7d5ffffe12a
00001efffffff93d00001ad7fffff13e
ffffd952fffff00e0000090600000c9d
ffffc460ffffcd7effffdce9ffffc514
fffffb4500000f61000000cfffffd7aa
ffffff87fffffde50000018800002058
ffffc631fffff1eefffff35b000033fe
000008d20000085affffef49000005f3
00000fe900000ad800001b30fffffb50
ffffdee60000075c00001ea7000012a7
fffffde6ffffe2c1ffffebe0ffffd2aa
ffffeefb000027fe00001f32fffff14b
00000c8300001e61000026c800001814
fffffc54ffffeb29ffffbc81ffffcbfc
00000c22000011ae000011e7ffffeb7b
00000d92000001e700000f4afffff349
00000a540000069100001141000009dd
00000392fffff310ffffca0dffffe7a0
fffffc24fffffc99000002e2000006d2
0000043e0000058bfffff96a00000764
fffffad900000053ffffee31ffffec39
0000250500001eaa00001e97000007ad
ffffffe3ffffee620000168f0000110d
fffffbc6fffffc6b00000e78000002d9
0000107bffffe6f8fffffb8affffe588
fffffa68fffffa70ffffefd900000cc8
ffffe57a0000160400001f5b00000043
ffffe0540000343dffffe925ffffdbe2
0000272e00003ef5000015b7ffffe112
ffffed49fffff91000000cc7000016ba
00000281000015fcfffffeabffffddb9
fffff919fffff7c300000c4200000753
fffff58fffffe2ebffffdc94ffffea49
ffffe241fffff545000012ff000003fa
ffffc87d00003eaffffff761ffffdf9c
0000194300001f970000101affffdc25
ffffe1e900000b7affffed5a0000062c
000017f9000010f1ffffeea8ffffe2bc
ffffe63bfffffa68000022980000215b
ffffdcc9ffffdbdcfffff412ffffe94a
ffffd0b4ffffe5e1ffffe4feffffee11
fffffb2700004ac3ffffd424ffffd59e
00000b3600001eb1fffff288ffffc8fc
0000034afffff40c000015f5fffff3c3
fffff999fffff421ffffeb38ffffec8f
00000973fffffa1d0000139e000008c9
ffffe227ffffd093000013eeffffdfab
ffffee120000013900000fdcfffff341
fffff7f200001ccefffff1c1ffffdfcc
ffffe15affffdf1f0000095bffffd70d
00000695fffff046fffff092ffffe8ce
000023fb00000b160000091e00000cd2
00000a6b000012e00000260e00001704
00000287fffffeba0000153000001150
ffffd50b0000091500001da200000755
ffffdd69ffffc1b6ffffc124ffffc332
fffff3e1ffffdbe3fffff2d3ffffc050
fffff7d2ffffee54fffff7e7fffff57a
fffffe1affffe2e2ffffdb60ffffe259
0000176d0000120b0000289800000ac3
00000bbdfffff7960000140200000a68
ffffa824ffffc6a2fffffcddffffe372
0000065dffffd5d4ffffe6e7ffffcf45
ffffd576ffffe925ffffde12fffff6ac
ffffc543ffffc70dffffd414ffffcff0
00000a3dffffd6b5ffffdcf2ffffd7aa
0000015afffff745000000c6ffffe23f
ffffb521ffffc801ffffd000ffffe97f
ffffc586ffffa323ffffc81efffff0a8
00000be0ffffd616fffff761ffffcdee
fffffce6000009fe000005ba00000202
ffffc8a3ffffba9bffffac38ffff9dbd
ffffe1f7ffffee9cffffd002ffffcdfd
ffffc86effffa9e5ffffda5afffff279
ffffb288ffffa37bffffa82effffbb56
ffffe473ffffbd93ffffcea8ffffbf78
00000f6afffff773fffff003ffffd2de
ffffb934ffffbf87fffffa67fffff93c
ffffcd83ffffcd1dffffa301ffff7368
ffff8452ffff86e3ffffae3affffc4fa
ffff950dffff9ef6ffff91c0ffff832b
ffffc0daffffc26cffffb1ceffffbf71
ffffe670ffffe997ffffd1b1ffffcbdc
000002a8fffff598fffff81d00000175
00004ffe0000438300000d76ffffffb0
fffff4280000252300002e57000040e0
ffffd401ffffe6eeffffd845ffffe47f
ffffc7d3ffffaa11ffffa98bffffc77e
ffff9782ffffc134ffffd142ffffb566
ffffc665ffff8a21ffffb798ffffa773
fffff1a9ffffecc9ffffd786ffffc4a9
fffffca700003a0300003a32ffffea72
ffffe20affffb6bbffffde88fffff27f
00000ab0ffffea62fffff48efffffde8
fffffc5bffffffd20000050fffffeebf
ffffd471fffff187ffffe67600000476
ffffdf18ffffd0cbffffd489ffffcdcd
0000141b000022450000251900000e3f
ffffd3b4000015a300002e0bfffff67e
fffff8bdfffff243ffffe0afffffe717
000000d4000001e100000b650000116a
fffffe50000004ed00000275fffffb09
00000c12ffffdf35fffff6bbfffff595
0000154dffffeb50ffffe195fffff0a2
ffffc823ffffc8e6ffffd94400000150
fffffe8b000041a400000f3dffffed83
fffffc0a00000debfffff5d3ffffec68
0000095d00002319000002db00000cae
00002676000007ccfffff577000001c5
fffffc5e000027b90000238c000004de
000003fbffffe43effffff500000071b
ffffc345ffffeb59ffffb71f00000bc3
00001c5bffffd5ceffffa48bffffef18
fffff3290000166e0000246700002c75
fffff1f600001ae2000006d6ffffe7a6
00000bf300000e01ffffee50fffffc20
000006f1000006180000160300000b6a
ffffed06ffffdc46fffff0b3fffff967
ffff6b6affffa4f8ffffc276ffffcf78
000001d7ffffb86effffe592ffffddf1
ffffe50a0000028100001a4900001a7a
0000086e0000015200000bb1ffffcc5f
ffffe7bafffff61affffdf2dffffd4c1
000005c1ffffdfe3000004d8ffffd9d8
0000107bfffff5220000181f00001a67
ffffc9daffffd9adffffebcd00000003
ffffe3e100002ecc000030d800003acb
ffffd1fdfffff64dffffda59ffffd878
ffffd95b000003f600000cd6ffffe808
0000025b00000ef0ffffffc9ffffe5d9
00000e230000041d000001c000001b17
000004c5000013d1ffffe56ffffffbb8
ffffb906ffffe15bffffe82000000878
ffffe9be000023ea00004ba600004e15
ffffec37ffffe9feffffea66ffffe4c2
ffffc8e4ffffedf5fffff6dcfffffbf9
00000f5700001761ffffea28ffffb9f8
000012100000292b0000013a00001da6
00000d39fffff873fffff297fffff6a6
ffffd2e700000aff000014fdfffff6c6
000012fa000035f70000461f000024f1
ffffe286ffffd9aeffffe9c4ffffffb1
fffff24fffffee8400000af4fffff068
000003a30000061c00001416ffffe026
00001cfe0000063a000014ac00001b2a
fffffc4effffda7affffe1f700000f5f
ffffb085ffffdbafffffe1acfffff4da
000013f8000028160000419c00002494
000001d9000004e0ffffd4deffffee09
0000073f0000025e00001146fffff67f
000003ffffffee9bfffffa3efffff714
00000feb00000ffa00001b0500002854
fffff6f7000006820000094dfffffc4b
ffffbba7fffff732fffff6f400000270
fffff96700002bfc0000399400004234
ffffbc7bffffe62cffffd2e6ffffd83a
fffff687ffffd998ffffdc37ffffef50
fffffa44ffffb8c3ffffd20bffffda0b
ffffed490000030700000fce00000d13
ffffe817fffff01d000008d7fffff3ec
ffff99c6ffffcdf900000fa4fffff894
0000124100001b7e00002b84000041c3
00000350ffffc5f0ffffe12cffffe959
ffffda13fffff679ffffeb4700000367
00000c28ffffb27effffceefffffe52e
fffffe8600000166ffffe736fffffc74
fffffa49fffffc10ffffee2800000359
ffffb1a1fffff80f000000130000028d
000027c10000191100001e900000079e
fffffd66fffff496fffff7f300000ddc
ffffebefffffd499ffffd7af00000643
ffffc441ffffb65effffc195ffffde4e
ffffeb04ffffe56bfffff22cffffd503
ffffe78bffffffe1ffffd9d400001497
ffffd27effffeaadffffe09effffee8c
fffffdaafffffb2fffffec86fffff765
ffffbde9ffffbd09fffffe9d0000278c
ffffff1cfffff35effffeccaffffd089
ffffe028000007bfffffe17cfffff053
fffff19300001f93ffffaed3ffffa733
fffff009ffffd907ffffdc17fffffa99
ffffcb8f000009c700000111ffffea39
0000022600000fd7ffffc1dcffffe814
ffffc8b1ffff9e63ffffd7df000029a3
000004f3ffffe45bffffdf9dffffbfb9
fffff33fffffcc6affffe97800000098
00001793ffffd910ffffc655ffffeb00
fffff688ffffeb93ffffe9e000000ca8
ffffb6c80000041c00000285000000d8
0000191fffffe8a800000f01000011c9
ffffe11effffbc23ffffd165000002ce
ffffdb6fffffdfe0ffffd309ffffc2be
000014a0fffff99efffff538ffffea0c
fffff80b000015d9ffffca29000002da
ffffdaadffffe722fffff0befffff673
ffffa3c1ffffe062000004e7fffff2f0
00000131000024f5ffffe88dffffb166
ffffe4cfffffeb45fffffa66000006a2
ffffd2b3fffff74a000010a0ffffd800
fffff75dfffff3fafffff409ffffdd36
ffffe07afffffdfcfffffa9d00000424
ffffeceaffffd412ffffe676fffffbcf
ffff8a01ffffdea9fffffdd0ffffd987
ffffbd70fffffc8e000024ebffffe01c
ffffe889ffffe15effffa504ffffb484
fffff372fffff0fbffffec7effffefb9
fffffad2000017330000212cfffffe6b
ffffe8dd000014c500000ef0000003f8
000004c4ffffd7f1ffffd097fffffbe2
ffffb7d8ffffca6effffe2bdfffff563
00002bbdffffd1bbfffffea1ffffff3c
fffffa59fffff1c0ffff96fbffffcb91
fffff1b6fffff7d3ffffefb1fffff863
000011c400001bef00000eab00001c8a
ffffe1b000000dee0000155800000c4f
00000b15ffffc8edffffd0f8fffff384
ffff9762fffff15e000002e000000a61
ffffdd32fffffd5800000b4100001ef1
ffffe0c0ffffd5efffff967fffffbcd8
fffff27cfffffbdcfffffa3000000392
fffffa8f0000100f0000049500000dbd
ffffe698fffff36200000ab1fffff52a
ffffbe7fffffc4d0ffffc54efffff896
fffff41900001063ffffed61ffffd586
ffff5bd0ffff9cdfffffd3bbffffeaee
ffffc75bffffade3ffffb4c7ffff8163
fffff7bd00000da500001058ffffede2
fffff4c40000028b0000088800001732
00000237000000ebffffed7effffe27d
ffffe293ffffd909fffff819ffffe7e0
fffff2aefffffc19ffffd969ffffdfb3
ffffc2dfffffba47ffffeb3b00000abb
000004e6fffff014ffffa57dffffa56d
00000ad6ffffdb7c0000028d000017b9
000011a30000219f0000058d00000a57
ffffddd7ffffc78600000a70ffffe3a6
0000153effffd571ffffbfbeffffdabf
000022ac00000854fffffe9800001e01
ffffb0f0ffffcac1ffffe5db00000d3a
fffffb30fffffbe3ffffb115ffffb1ed
fffff87300000925ffffed6ffffff4af
fffffed1fffff88effffe3ef00000bbc
ffffd473ffffdc8f000005f50000022a
00000d36ffffc383ffffc934000008b1
00001393ffffcea9ffffe784000014db
ffffa6ff00001cedfffff4b3fffff946
00000c30ffffc36effffc992ffff944a
0000483e0000240f00002299000011f0
ffffec6afffff0e60000070200003d01
ffffdb95fffff4f9000034b100001b5c
ffff90d3ffff7964ffffa21fffffbfd1
fffff41cffffbf2fffffafebffffbb3e
ffffb0aeffffdfa300000206000000de
ffffe85dffffcd62ffff9f1effffb44e
00002bca00004b560000360700001762
ffffb2f8ffffece000000c0e00001ef0
ffffcb50ffffa795ffff88fbffff89d4
ffffb9dbffffa28cffffc8c8ffffb210
00000582ffffeca1ffffe5afffffd139
fffff79affffee000000011affffe5d7
ffffe5f6ffffdad6fffff28dffffedca
000031cf00002a60000025140000337f
ffff97d6ffffc1e7ffffb75800001eaa
ffffac0cffffc772ffffa172ffff9c8a
ffffe608ffffe046ffffea9fffffc3f6
00000b00ffffe5a1fffffd74ffffeab0
000009fd00001602fffff19000000ec5
ffffe4cefffff476fffff38600000bfb
ffffecb40000173cffffe5bb000016ea
ffffebc5ffffe7feffffc54cfffffb26
ffffe74cffffe02effffdb9fffffc34e
fffff769ffffcfdaffffee6effffee85
000000d400000062fffff152ffffe406
0000115cffffdff30000098b00000f2b
ffffe20cfffff85900000e62ffffeb61
fffff5cdfffff36bfffff354fffff8fc
ffffebfaffffe5b4ffffe9b6ffffd4f0
ffffe78dffffec8bffffe4f2ffffd52c
0000024effffe6eeffffeb2effffe7eb
00000383000006a300000126fffff7ae
0000064efffff21ffffffa19fffff8f5
000000ea0000015300000ead000005e5
ffffd8f4ffffef7affffea9effffe2f8
000042bc00005ca400000af40000526e
000034040000546600003f4800001817
ffffe2df00002090000022bd000025aa
fffff96e0000061dffffe89affffdcdf
0000188000003690000018cc0000132a
ffffad0dffffab0affffcaabffffdaa7
ffffe757ffffd0d2ffff976affffaf33
00001d4a0000111200001d63000019ba
000002e800000c1efffff43affffd9d9
ffffd3c6ffffde4500000c64fffff0fa
ffffe845ffffc051ffffe75cffffe430
0000175600002fa900001cb8000008b8
ffffe8b7fffffe5700000e31fffff479
fffffbf1fffffdf4ffffcbcb000003e8
00000cdbffffd751000039e6ffffc899
00001ab9ffffea2cffffde34ffffc19d
ffffc26fffffeb7d00001b07000005f4
ffffd46dffffd61afffff81dffffeab4
0000192c000054a9fffff84ffffffcc9
000018580000151f00002c9000000af6
fffff216ffffebf8fffff7bf000023fc
fffffb13fffffd1f000029a2ffffe83b
00002d7cfffff725ffffefa700001202
ffffeb72000021b200000bcc00000969
ffffba16ffffe1e300001dc50000076e
0000000a00002d140000035500000a4c
000013c30000235c000026e5ffffdbfc
000019ec00003841000026ee00003726
00000f1800001c9900002eb3000017ed
00000bc2fffffe8b000021a500000c89
fffffe6a000020ea000004ac0000106f
ffff9f17fffff32c00002462fffff089
00000275ffffffa7ffffebc4000005b8
0000366e000041bcffffe975ffffec0f
000033db000047aa00002e3400004798
00001e0400001a830000326a00003d54
000004a1ffffff9300000cd300001958
000012b300000735000023a5000017c5
ffff900fffffe319000007b5fffffbb1
0000027bffffece00000040700000ea8
0000351400001517ffffd06f00000f89
0000555200002f35fffff287000011bb
000027c20000368c00003ddc000037d1
0000035dffffff8c000007cf00000b0a
0000275100001bf600000b2e00002233
ffff865effffcf1a00001e2700001c4b
ffffef4affffdadbfffff24ffffff641
00002db00000094effffe5b100002b5e
00004c4f00000889ffffc779ffffe3ec
000018cb000013d2000018ba00001c77
fffffcbcfffffe590000068600000e72
000021e200000f21fffff6120000039d
ffff990fffffda130000072700002155
ffffeff3ffffc674fffffd2b000007be
0000194600000ede00002f870000259d
00001d46000003d4ffffc7f0fffff2a9
00001b0600000378fffff02bfffff69e
0000092a00000a3600000ee7fffffb96
00001af40000036bffffe8d3fffffb6f
ffff9462ffffe81600000bb900003b77
ffffe446fffff1760000152500000266
ffffed98fffffd5900001ddc000011f8
000001b6fffff2b7ffffc534ffffde71
fffff10000000f5fffffe954ffffc6a4
fffffc8f00001158000015fd000000ca
00001d950000021effffe39500000a43
ffffd6c8fffffc23fffffe3600001776
ffffe1dfffffe02a000021fd00000a99
ffffe57ffffff07c00001f84000035c7
ffffd06fffffd1a6ffffb0d5ffffcd6f
000008dcffffff51fffff7e6ffffce1a
0000249800001af2000012e2000010c1
fffff680ffffe93cffffee7b00000b48
fffffe8fffffec3bfffffbb1000021fb
ffffc34cffffdfef00001a3000000857
ffffafc5000004cc00003b88000030b1
ffffc380ffff9d13ffffc2e4ffffb7ef
00000686fffff6a2ffffeefcffffe2a0
fffffa7500001582000012cf00000eb4
fffff29fffffede5000006f0000015ee
00001c02ffffcf370000145e00000785
ffffe217fffff9b1fffffcd7fffffe27
ffffc7f500000702000015dc0000354c
ffffd103ffffd8c1ffffc2d8ffffb8f9
00000f080000001dffffe551fffff84e
00001bf500000f6400003be800001201
000000e000000f93fffff13200001b25
0000236c0000081f00001e73fffffeef
ffffe5bf00000a9bffffe21e00001934
fffff5f600001941000016470000205f
ffffd5210000019fffffd90affffe50a
0000144f000028b10000022affffedcf
00001b2c00001952000017e900002138
ffffdf54000011db000010c500000915
00000c82000020d2ffffe280fffff391
0000178e00001922fffff96400000ced
000009a4000016040000146d00004540
ffffefb200000112fffffba9fffff2e0
0000268300003b0300003926fffff3cd
0000142600001ca800000c2500002bab
ffffff7a00001008000012500000061c
000014e3000035f5ffffe8c7ffffe76e
000035bdfffffb69000001a1fffffce2
ffffbae7ffffc9a1000008b400002d78
ffffea2f000004a2fffffd11ffffb79a
00002a370000372800002ad1000019b2
000013e10000240b000017a000001f4d
ffffce5f0000170e000019ab000006ae
0000101700002911ffffe19fffffdecc
000023c10000096700000d56fffffd1f
ffffbcd0ffffa66bffffe39d00001e97
fffff1baffffd87affffec22ffffb93e
00002d6700001d7500002f0d00001b4d
ffffff92ffffee9700001edc00000b4a
ffffc19bffffebcdfffffef50000124b
fffffaf800000a38ffffe4f8ffffde18
ffffff100000162200000788fffff2ec
ffffb1a4ffffa4c2ffffaa7dffffeed8
ffffee4affffd11dffffce0dffffda5a
00001b830000380f00002d4300001e6c
000003820000031900000219fffffeb5
ffffd949ffffe17cfffffb80fffffd22
00000cad00000242fffff556ffffeaca
ffffecc8ffffea21fffff2b1fffff8fd
ffffbbf1ffff8c37ffffa1f1ffffd8d4
fffff558fffffde5ffffdcc6ffffcfa3
fffff27e000012a60000206a000008de
00000a71fffffc86fffffcaafffff9d7
ffffe20fffffda53fffff81200000b51
0000211100000409fffffe6dfffff0f4
000007ee000007ddfffff37cfffff7a6
ffffbe62ffffaa67ffff86d2ffffd715
ffffeb2200000404ffffdef1ffffc679
000002a0000011c0fffffa68fffff3c4
00000ef5ffffffa7ffffe4aeffffe63f
ffffeb2affffff81fffff96f0000144f
00003d76000021df00000a16ffffd975
00002bd100001e29fffff811fffff3ae
ffff9c79ffffb143ffffd102000004ef
fffff7afffffee39ffffe91afffffc0e
fffff380ffffed0f00000f3b00000b2f
000022a700000da8000003a5fffff447
0000015b00000138fffff47f00001750
000044da0000199d00000cf10000033e
0000055dfffff966fffffb5a00001160
fffff8cdffffdf10ffffd142ffffe899
00000d09fffffe50ffffddeffffff36a
ffffec8bffffff7cffffe31100000f93
0000026d000029c7fffffccb0000120d
00000708ffffecb0ffffe8f70000148c
00001c01000024b7000005eb000002cb
000008b100002541ffffe699fffff2df
000018effffffc15ffffd6e1ffffec18
0000295e0000294effffec4d00000001
00000c45000006b800000cd100001a1d
00000d6d0000071500000ffc000011c4
ffffef8afffff795fffffb0200000691
00001f38000047ed00000c3bffffc8bf
000001d2000001e6fffff1dc000013f5
00000b410000261b000016c1fffff971
00000e7400004b0000005a3efffffcb8
00003cbb0000204b000026b5000014df
00001eddfffff8d50000247e00002250
fffff2a100002cd20000229a00001ef0
000049ae00003dcaffffd5b8ffffd1d3
ffffd94000000c9500000d0d0000053a
0000188700000a18fffffb9effffec81
00000eac0000375b0000332700000b99
00002e0500000acdfffffd8400000609
000037a1ffffed6700001b95000008d9
ffffec58000011510000284100000f4d
0000532500000de8ffffbc2dffffcbe8
0000029500000d91ffffe48200000adc
00002c03000040d2fffffa01ffffef8f
ffffd953000018ce000012a3000001d1
0000198500001b820000010effffef72
00002aa1ffffeaf0ffffd668000000d8
00001002000009cf00000d2affffffa1
000037d5000015dbffffa8faffffe58c
ffffeca9000003e7000003790000032f
00001a4500002c9ffffff8a7ffffe749
ffffced5000014c000003272ffffcf32
000013d8000003c9ffffc795ffffbf7c
fffff2c2ffffe6c6ffffe21800001279
00000eacffffff4fffffe66400000547
00001df500000ef3ffffbf3cffffc421
000001fd00000ab2fffff47dfffff167
fffff517ffffddc0fffffa64fffff2d4
ffffc27c00000a4600002832ffffee54
00000bb1ffffdc42fffff4baffff90e7
ffff9972ffffe25cfffff7cf00000a57
ffffd469ffffa14bffff9604ffff9c19
fffffda2ffffd79afffff079ffffcb6c
00000cb4fffffa87ffffec6ffffffd15
ffffdd7bffffe039000007a1fffffdaa
fffff5d1ffffefeeffffd5c9ffffe56d
fffffc99000022de00005240ffffddc5
00001f1b000004c100003916000049b9
ffffe946ffffde7affffef0600001648
fffffba7000017f1fffff46effffe770
fffff2a800000f5100000367ffffff78
ffffb82fffffc110ffffc39cffffbdf6
fffff8ccffffc6ac0000029dffffde35
ffff76f4ffffc4d3ffffe4f8000031b4
ffffd715ffffcb0fffffe81bffffe585
ffffd2cbffffbc9fffffd69400001c51
fffff68c0000013bffffdd8bffffd658
000011a90000312dfffffa8c00001276
0000037900001696fffffe28ffffbd0b
fffffeaa0000067f0000279700000f4f
ffffef91000017cd0000123d0000111f
000015e5ffff9995fffff72d00002eff
000008c1fffffe7effffe26d00001f57
00000183ffffdb93ffffcd60fffff066
ffffdfc2ffffe8ea00002b6300001fc2
000021a900002b68000028cfffffdd05
000012df000021b0ffffe48efffff010
0000046effffe985ffffe99000000ba1
ffffe9d6ffffcbf7ffffdc30ffffff7d
00001f48000014d6000018c7fffff419
ffffebc8ffffe5f9ffffe2af0000172f
00002372fffffe360000271300002879
00003151fffff859fffff3cc00001292
fffff32e000002bc0000063f00002160
0000119dffffe807fffff419ffffe72e
ffffd758ffffdb26ffffda61fffffe5a
fffff9e7ffffee46ffffeb3bffffee40
ffffe3c6ffffd7f3ffffd282ffffdfd2
000039d40000208e0000262f000032cd
fffffd76fffffaf700000295000033ae
fffffd400000185a00000e6600001f5d
00000b8d00000831ffffe5d3fffff320
ffffc420ffffdec4fffff4b600000403
ffffe55bffffe0e2ffffe2edffffebae
ffffcf64000007b6ffffdb05ffffd956
00001ad200000440000006edffffe437
ffffd6e4ffffee42000004d000001750
000003f9fffff82e00000aadffffd848
ffffdf77ffffd8a9000004d700000cb1
ffffd15effffc70cffffe3f9ffffdeec
ffffd7b9fffffbe1ffffd789ffffcd44
ffffc04dffffd3deffffdffefffff3a9
ffffe7ee00000a49ffffd5b2ffffeb81
ffffb416ffffdb12fffff5adffffe94a
0000141500001c59fffff5d5ffffe3a9
fffff6b5ffffe6130000127000001968
ffffeb30ffffe88efffff0c0ffffe262
ffffe3e4ffffe9fbfffff891ffffe7cc
ffff9a84ffffada6ffff9173ffffcfa6
fffff2ff0000107fffffffe9ffffd858
ffffdaabffffcfdbffffd876ffffe8d8
fffff70bfffffec7fffffefdffffd690
000007ef00001b73000005c5fffff6cf
fffffe3affffea100000048f00001594
ffffdbb600000a820000038300002513
ffffa45cffff9e56ffffd7d7ffffca48
fffff28600000cedffffdd8bfffff48c
ffffff8cffffe1f8fffff96bffffdb8d
00000225fffff340ffffffcdfffff8e5
000026e600001336000002ecffffec75
0000064a00001c3400003b2000003a47
fffff59dfffff90e000006f4fffff0dd
ffffb31e00001ebe0000036600000970
ffffda8500001084ffffdb12ffffed66
0000177b0000191dfffffb41ffffcb41
fffffeae0000160e0000053b00000b5c
00002605fffff010ffffe429ffffdf82
fffff92f0000196600002cec00004de2
000004c3000009c000000a7cfffff5d3
ffffe042ffffceebffffcfe5ffffd694
ffffe7800000194cffffc8ebffffff44
ffffe2c6ffffe25affffc9f1ffffc8ca
fffffd4afffffdef000007c1ffffebed
000016b0fffff521ffffde05ffffdbb1
00000f370000059f00001a5800001cfc
ffffe57ffffff4ab0000368e00001767
000017b4ffffffd700000f18fffff894
ffffef20000006a2ffffb8c6ffffc67d
ffffdad9ffffd30fffffedca00000251
00000af500001ae500000db4ffffe7e2
000017a400000479ffffed8dffffed79
000023fcfffffa5a000000ca0000192d
00001b42000024e2000038620000315b
000000b20000276700003b55000026ac
000015cf00001bf4ffffa1dbffffc3b1
0000001c000004b2000002fb000014bf
00000028000011040000158200000b5c
0000322f00001d26fffff7eeffffee88
fffffc6bfffff354ffffe08e00000948
ffffca51fffff44800000c3300001149
ffffd50fffffda52ffffbd36ffffac12
00002df800003a17fffff12bffffeb14
0000091fffffef93fffffd1d000025c9
ffffea460000053400001208000002bc
00001a03000022c2fffff288000008fa
0000248cfffffbb80000017600000886
00000fbc00000fd80000112700002a51
ffffec940000161600000fd000004a5d
0000201d0000331b00000b5e000006fb
00000555ffffdc63ffffb29fffffe926
fffff8d1fffff97afffffb2800000bfb
00001e990000348f00001941000021c4
0000143500000b58000000de0000081a
fffff59f0000159300000cbefffffd0e
0000475f000035390000403d0000000e
00001b8700001aff00000e2e000004a2
fffff341ffffd977ffffd1b6ffffe46b
000022eefffff605fffff94afffffbe8
ffffffd4000047ee00003512000018f9
000009e9ffffcc30ffffb9ccffffcbc8
00000af50000237a00001d53ffffd0f0
0000041effffe754ffffe639ffffe959
00001b2bffffc846ffffe1ed0000132d
ffffedc9ffffec0afffff7f200000ed4
00001a3bfffff80f0000027d000000d7
00000f890000336f00002a84000038cf
00000b260000092dfffffa5bffffdea9
0000250600003787000013f700001105
fffffad8000016b50000372400002b27
000016daffffab87ffffce2d00000ae1
ffffdb3effffd452ffffd4c5ffffefe6
000007b5fffff210fffff1ec00000026
0000092f0000214e00001bb8fffffdf9
000018f700000f5600000220ffffe488
fffffbc0fffff3fdffffe8c800000e69
ffffdb02fffff6e0ffffe156fffff4b3
ffffe0f8ffff91e0ffffec8b000014c6
00003926000018cb00000707ffffe4ba
ffffe7b6ffffec62fffff66ffffffe45
00000ab600002e5afffff7d0000003e6
00000dbdfffffd58fffffd1b00000c7c
fffffb18ffffe75afffff3cd000013ca
000027880000166600001ebd00000480
ffffda47ffffefb8ffffd53dffffd1d9
000028610000179e00000e1a00000d3e
ffffff9cffffea3400000e5e00000587
00000871000018a800001652ffffe976
0000206200001fb400002db100001744
0000366900000ffb00001bde00001584
00002396fffffdda00001c2300002a73
fffff969fffffe67fffff058ffffea90
fffff9f2fffffca6000010ea000019c7
ffffe1dbffffd92bfffffcca000005a6
0000127900000cd5fffffec500000120
00001cf10000143200000d040000273a
000018fe00000704000007620000149b
00001c2300000bec000015d600000558
0000179bffffed38ffffb585ffffb90b
000009800000139600001bcd0000258a
ffffe915fffffc8efffffc09fffffc7c
00000dcd00001587fffff3c5fffff7e4
00000a47ffffe70dfffffc97000007f4
00001104ffffed11ffffee440000071e
000013e9000028a500001db600000565
00001902ffffd826ffffc1e8ffffbad6
fffffafe0000058e00001ef300003770
00000417fffff57e00000613000032d8
ffffef8a00000265000012a7000010e0
000000fffffff269ffffe962fffff45d
fffff66fffffdb6dfffff8920000082a
000034bc00003c6900000c54ffffeb44
00000af1ffffd998ffffb5d4ffffa54c
00000373ffffe1f4ffffe2f5000001b1
fffff628fffffba7ffffef53fffff829
ffffdec8ffffc3c1ffffc5e000000284
0000251000000ab0fffff7bbffffd1b9
fffff80cffffe3a3fffffca700002267
00003e76000040e00000162cfffffff7
ffffe9b7ffffd272fffff5edffffe294
00001458ffffebb0ffffb581ffffe117
0000019dfffff0f2fffff67900000155
ffffd0c0ffffd3ddfffffa05000006fc
000017e400001011fffff15cffff939f
ffffcd29fffff0ccfffff9d2000008e1
000021260000149dffffe2abffffff6d
ffffc48fffffc1b5ffffdf5cfffff336
00001077fffffc9cffffa5f5ffffc96c
ffffc9b9ffff9728ffffc57e0000045a
ffffe4a1ffffdd82000010a2ffffe42c
ffffea3dffffb3ebffffe674ffffbf13
ffffec1dffffd60dffffca5affffc87a
0000073bffffd981fffff719ffffe6c1
fffff6bfffffd543000008a20000166b
000004f100002636ffffc59affffe228
ffffdf50ffffe650ffff73b4ffff743f
fffff5c7ffffd576ffffd731ffffde3d
ffff9d68ffff9075ffff77c3ffff89a0
ffffdd8cffffc957ffffa141ffffc201
ffffffe6ffffedaffffff36dfffff81c
00000333ffffea8b00000292000006f4
fffff7d1ffffdf31ffffef6b00001487
ffffdbe8ffffecd5fffffd7affffd255
00003f11000037d3000063bd00001980
00004e8400005f6800005706000043cc
ffffd6ab00002e1400002b7300001f5b
0000099efffff7c2ffffcfb8ffffd051
ffffcf2f00002b1300001e3bffffe92f
ffff9a1dffff7ddfffffb3e0ffffbac1
ffffe142ffffe8d1ffffadc4ffff9787
fffff023fffff3b7fffff65300001994
fffffdd9fffff321fffffca9ffffd917
ffffc173ffffd8c1fffff02afffff259
ffffd603ffffc365ffff9c0effffc9bf
fffff0b100001348000021fa00001e36
ffffed4cffffe8f40000051600002607
ffffe817fffff128ffffe92cfffff919
ffffd3acffffe6a8ffffdd32ffffe564
fffff60200000316ffffdedcffffc93a
ffffd32dfffff21dfffffceefffff0de
ffffb7dfffffdaa2ffffe7dfffffed70
0000193200002c2400004e8000002333
000008c200003875000015d4000020f3
ffffe4bbfffff2b2fffff943ffffe7cd
ffffe255ffffe862ffffe796ffffeea5
ffffed84ffffe035fffff7d100000f08
fffff5ecfffffba6fffff9cfffffe4ea
ffffa709fffff06000000672000011fd
00001e0b00002c3700000dc4fffffeb1
fffff81400000e9a0000203000001e67
ffffdbc2fffff21c00000319ffffef41
ffffee1cfffffefcffffea15ffffef9c
ffffc3abffffc923ffffef95fffff23e
fffffea8fffff5440000005cfffff3bf
ffff95a4ffffea17000002c60000078d
000008dffffff80ffffff5c1ffffcf9b
fffff6e000001393000026d700000784
ffffe2310000095e000003a20000066e
ffffdca1ffffc1b6ffffe36efffff1f3
ffffd98effffd29cffffe1d6ffffde8b
fffff7c8ffffeddbfffffc6affffeb81
ffff825dffffe054fffffe7e000004ed
00000aee00000637ffffea84ffffe9ef
0000361a00000f08fffff828ffffe2cd
fffffd5e0000007dfffffeef000017f8
ffffde25ffffb89affffe3eeffffdb0a
ffffe577ffffc996ffffcfdcffffda7d
ffffe255ffffe416ffffebaffffff2f1
ffff72efffffc08bffffdffcffffe79c
00001a1affffc3b6ffffe78dffffef1d
00001a03fffff830ffffcdf300000daa
00000097fffff37f000012ec00003e36
ffffb9c3ffffcb01ffffdcaaffffdf42
fffff519ffffcd65ffffde1bffffd113
ffffc5bbffffe209fffff8040000051c
ffff9f36ffffb2f3ffffdc4fffffe3c2
ffffc430fffff03efffff32f00000a36
000014a800001204fffff00800001829
ffffd10bffffe17b0000139900002177
ffffe7c2ffffea4fffffc1a6ffffd60b
ffffd8adffffcfeeffffc98cfffff978
ffffdc61fffff55dfffff01affffca4b
ffffe4bafffff57f00000637fffffb49
ffffd8abffffc90a000017fc00003165
000018d1000002c3ffffc2ebffff9e8e
ffffc42e0000100d00002a96000026b4
ffffe6fefffff77cffffd5c1ffffd685
fffff01affffd7e3ffffcc760000045d
ffffd7b7ffffd656ffffeb8fffffdd8e
00001067fffff55d0000011000001fb1
00000d54000001e7fffff0c500000b3f
fffff9e1ffffd405fffffa69fffffc39
ffffcc50fffff29cfffff7b9ffffd4e3
ffffe7d5000018dbffffcaa2ffffdae8
fffff938ffffe758ffffee66000012cb
fffff9b600000f2fffffdf7bffffd214
00001b84ffffed85ffffdf38000008a1
fffffb55ffffcfdafffffbfd0000029a
fffffd620000119d00004278000019ff
ffffe2fefffffceb00001378ffffe3bf
00001423000009f600001439fffffa5b
ffffbe1fffffaef8ffffd9bf00001561
0000285c00000412000003cdffffd6ce
ffffe131ffffceffffffe94800001f96
0000358dfffffd23fffff623fffff091
ffffe2fbfffff0340000006900001e7f
ffffc341ffffe43600000faa00000127
00000d86ffffdc5fffffdae5ffffedec
ffffccbeffffcfb6ffffd9e50000029e
000023f10000159e00000795ffffd3a8
00000d41fffff40200000c7600001c0b
0000347d000034ddfffffeb800000e8e
ffffdb8dffff9e9dffff852affffe705
ffffe13100000470fffff35800000d31
fffff9b5ffffd702ffff9234ffff9dc4
ffffb774ffffb481ffffd61ffffffd9f
000007630000004300001b10ffffd73b
000006adfffffb1effffef3cffffdd5f
00002c440000393500003f82000003dd
ffffe35afffff661000021cb0000181b
ffffc5d4ffffbb62fffffae900000848
0000106100002cebffffad3cffff6652
ffffd324ffffbc0cffffe1f50000196b
000007d7fffffe160000025dfffffc70
00001c9e00003e4400003144ffffed5e
000031cd000022940000228c000020d0
00001f2dfffff19d000030c400001e0d
ffffa352ffffd29f0000072600001d7e
ffffeae3fffffb14ffff91eaffff7c97
fffff389ffffb701ffffcee2ffffd200
000006b10000086ffffff617fffff735
00000e2c00000cc6000007ee00000acd
00000bca00001b0800000eadfffffbf3
fffff3e6fffff1ee000013e700001eb6
ffffab9cffffedb0fffffb10fffffd00
ffffe8110000061effffc206ffff9ad1
0000018cffffc597ffffca1cffffc690
0000215500002fb200001b62000001ca
fffff53dfffff68900000cabfffff9f7
ffffb097ffffa00dfffff196ffffff2a
0000029fffffe868ffffa747ffff9754
ffffda52fffff6f9000016d8000011f8
ffffe6e500000c64ffffe206ffffc2b2
000000ebffffe041ffffc6c6ffffd709
000019c100001f37000016cfffffff8a
00000935000013310000084a00000c60
ffffab37ffff9ff4ffffdc6ffffff84e
000015a9fffff38900000288ffffd687
00000a5e000014cafffff671fffffd44
ffffca4affffcaa2ffffd8bdffffe516
0000087e00000300fffff9dfffffd85b
00000b5100001b51000014e3000003ab
fffff5f40000078600001366fffff3aa
0000259a000028cffffff682fffff4a0
00000af800001bb60000256800000491
000030a10000189100001aef00000076
ffffe4dbffffdd63ffffe82d00001daf
000008eb00001477000016ec0000093e
000007840000174b00002b5a000024bb
000026660000183d00000fd3ffffd93f
00001807fffff2f8ffffe9cefffffa37
ffffe9160000062f0000012500000e79
00002aea00002d8a00000cc30000079a
fffffa95ffffde89ffffedcf00000ba9
00003b4e00000ac000001af0000000a2
0000030900001c27000020d200001c24
000013d8ffffff68fffff295fffff0e8
0000074bffffe195ffffa0cbffffaecf
fffff8b200001512000032bd0000221b
000003b6000000a700001d77000010a3
00000bc2ffffe06cffffd1bfffffc6d7
0000435800001c0bfffffed80000095c
ffffea9cfffffa5100001b1700002814
00001d1a000016c2fffff206ffffcb39
00000433fffff7caffffd472000001b0
ffffe7cbffffd602ffffcc66ffffb189
ffffc537ffffba6affffeb0dfffff732
00003a51000016480000047affffc621
00001b9b0000113f000014ed00004233
fffffbfe00001482000049c500002b0b
000034440000289cffffcc06ffffc793
ffffe728fffff868ffffec4700000234
ffff8dc6ffffc140ffffb9c2ffff9ab3
ffffe195ffffd90affffb8bdffffdf6b
fffffaa5fffffee8fffff0e1ffffe329
fffffcef0000021c00002e9a00002a11
fffff64a000006ab00001009000017b5
0000412f0000253affffc407ffffd60b
0000032cfffff5dffffffa67fffffbe7
ffff9744ffff991affffae6dffffcbc8
000062fbffffff08fffff2c6ffffaaef
00000798000019cd00000b53fffff3a9
000013eb00003626ffffd236ffffc7d5
000001ea000001c700000ac6000020ed
00001fe300000e5effffd08cffffe652
fffff498fffffc9effffec8b0000106d
fffffa69ffffd9dfffffe7e5ffffd578
ffffd96fffffab42ffffd4bd000013bc
00000872000034e00000489bffff9dda
ffffa025ffffa0e6ffffc7ff00001d2d
00000517ffffb65dffffa996ffffbb50
fffffc55ffffd5ceffffb823ffffcf6c
ffffea88ffffeac4000013d6fffff293
ffffec78ffffdbfffffff43cfffff388
ffffc648ffffee4a00000cf1fffff813
ffff8e74ffff8a01ffffd1b5ffffc785
ffffef02000004d300001f7300002721
ffffee14ffffe5d5ffffccbf00000787
000005c4fffff4f9ffffe869000013d6
fffffb5200000d61fffffa9a00000951
fffff760fffff58300000aee000002f9
000008b4ffffed2efffffe23ffffeaa7
ffffade1ffffbf7cffffd542fffff096
ffffe477ffffe9eeffffd6dafffff467
fffff42ffffff0a8fffff7a6ffffe45b
fffffbb8ffffefde0000017bffffebf7
0000035efffffb45fffff112fffff904
fffff0bc0000059c00000a43fffff06b
00005a580000454c00003a8e00003ef2
00000543ffffc85a00000201fffffd69
fffffab4ffffd8eafffff6cc000012df
fffffe15ffffdd4fffffbebdffffcf0f
fffffd9efffffeda00001b7700000124
ffffef60ffffffebffffea54fffff9de
ffffd207fffff2b7ffffe414ffffdae9
000032010000208dffffe93200000811
ffffe7e0fffff05cfffffeed000024f3
ffffd861fffffb7000002d6100001a49
00001e24ffffc8c8ffffcec90000008a
00000560fffffd7300001bc500002390
ffffda95fffff1b6ffffd32b0000001f
0000130b000012dcffffff7dffffd345
000025fc000001cf000037ed00000064
0000023800001ae3fffff6da00004af3
ffffeb5300002da700000cdafffff65c
ffffdfd0ffffb1c2ffffedd5ffffda8f
fffffeebfffff71fffffcfd6ffffe508
000020c4fffff7bd00000209ffffef5d
0000216300000caeffffcff1ffffec6f
000033770000132500001cb6ffffd698
fffff051fffffbd8fffffc00000028f0
ffffea95ffffff5affffeb96fffffc87
fffffb9fffffde49fffff3ffffffdf8d
0000015800000a2afffff761ffffec52
00001d17ffffe1a1ffffff470000016e
fffffe6000000d95ffffb954000022f0
0000113b00000a8cffffdbc1fffff20f
fffff1b1fffffabcffffed4000000baa
fffff053fffff024fffffa96fffff93f
ffffeb79fffff8a0fffff179fffffecf
00002aa7fffff9b5ffffd410fffff606
ffffefe5ffffd286fffff12d000001f7
ffffebc0ffffde1d000008e4000027ea
fffff204ffffdf8fffffea18fffff17a
000006bbfffff7ecfffff9a900000ece
ffffe95600000085000005170000044b
000009e7ffffe11dffffdf7d000001cd
000047c0fffff4e0ffffe769fffff45e
ffffcf56ffffe777fffff22afffffa8f
ffffbf7fffffd0900000240200002958
ffffc329ffffdfccffffccc6ffffc75a
fffff772000013f1fffff267ffffed1d
fffff4a700000b8100001183000002f6
00000f96ffffeb63fffffcd8000002fa
0000462affffe877ffffd2d9ffffdcea
ffffe37e00001824ffffdef6ffffdc1c
ffffaeb2ffffd506ffffee4d00001992
fffff916fffff2b7ffffe3bbffffd285
00001d2a00000809ffffffa3fffffaa2
0000159700001e3700000d18000019e9
fffffb86000011f600000ccdffffe6b9
00002d3cffffeaa2ffffe13dfffffa4d
0000015f00000ec4ffffe9e00000031b
ffffdca0ffffd248ffffbd7400000efe
0000127d0000019bffffd955ffffe2bf
0000008e0000120efffff89400001760
000017d5000010550000051000000ce8
0000179900001d3200000599000001a3
00003c7d000008de0000088c000009e2
00001fe800000e3effffd6a1fffff9fe
ffffe265ffffd79effffb08100004668
fffffd53ffffdd85fffffa0fffffef10
000007c40000027f00000ed7ffffdc90
000029cdfffff26f0000028900001d1b
00002f170000149a00000761fffff296
fffff404000023ce00000a7700000428
000000a2fffff0aaffffd31b00000a15
ffffe5abffffe3e3ffff925800001511
00000fb1fffff50400000320ffffd4c1
fffff9e100000245ffffebc900000577
00001931000006a0000022930000199c
0000286d00002fc4000014170000074c
000007cb00003fa90000203c00001324
ffffc1c3ffffc02efffffcfefffff760
ffffe123ffffec44ffffb3f5ffffc46b
ffffe9fcffffd43fffffc014ffffc683
fffff3c6ffffec53ffffd8e0ffffef86
00001524000016b600000f95fffff998
00002373000026cf0000171b00002866
000034d30000321a00002a6b00002693
ffffd399ffffeb0cfffffe47ffffebf6
ffffa4fcffffd088ffffc069ffffd690
ffffde9affffda2dffffc6f3ffffd815
ffffddd0ffffee44ffffdc6cffffcc0a
00001e9c00000eed0000063100001034
0000021b000011880000243100002a40
0000253e0000519000002356000032a8
00000197000002d0ffffef23ffffd629
ffffb3e9ffffd728fffff242fffff801
ffffc5f7ffffc2e4ffffb176ffffb2f2
fffff7cafffff3c0ffffd298ffffbfb5
0000136200000001fffff808ffffeb5c
00001b68fffff478000018bd00002de5
00000fdd00002ef600000ad500000161
000007c8ffffef27fffff8b4fffff350
ffff98c7ffffc997ffffd0a1ffffe645
ffffedc1ffffa898ffffb9d4ffffb51e
fffffdbb0000002affffdaf1ffffea8c
00000fc400001206fffff2e5fffffa23
ffffffb10000095700001c4c00001a69
000037dc00003706000016a300000247
000014a7ffffd9f1ffffdc0cfffffc9b
ffffcd5affffca82ffffcc40ffffcdd7
000002a1ffffc72dffffd1b4ffffd461
0000110300000432fffff82bffffd0c5
0000103b000016a5fffff4bc00000cd9
00002cdc000006f600000934fffff5f3
0000144200001225fffff4baffffe4ed
00003460ffffd080ffffec4c000009a9
ffffea1bfffff9a2ffffdb7400000081
000001a6ffffec37ffffd59affffd629
fffffdf6000006cd00000a3ffffff80c
fffffb50000013a7000012e300001ab2
fffffb55ffffe9f90000139400000dde
0000183cffffdbadffffe671ffffe4d3
000043befffffdaaffffe777ffffef3c
ffffff0e00000b970000129dffffeda3
000002f2fffffbc6ffffe030ffffe319
00000fd300001385fffffccb000010c0
ffffd928000001f7fffff5fe000007cd
fffff1cefffff46d0000051d0000104d
00001e97ffffd5dbffffd31dffffec0d
00001562fffff3dafffff8f7ffffe8c7
000015350000202c000018fffffff1a6
000001cf0000019ffffff9b20000048f
00000128000024e9fffffa78000003a5
0000050100000273fffff1f5fffff2e4
fffff945fffff1befffff614ffffffd8
00002623ffffd825fffff6c6ffffe0ff
00001510fffff98cffffeb80fffffe08
0000059a0000226200002827ffffff27
000008de000017ec00002108fffff8fb
ffffdc110000023f00001116fffff653
fffff41100001262fffffe2e00001609
ffffed32fffff924fffff0fefffff4a0
000016efffffd795ffffe223ffffe96c
000016260000072000000297fffff135
0000341100002bfd0000122100003f62
00001103000020e10000243c000024cf
ffffe32ffffff797fffff0ad00000b98
ffffec3500000299fffff0a2fffff493
ffffdbf0ffffecc4ffffeedfffffe7fb
fffff6ccffffbd82ffffc40bffffe4da
00001b2dfffff955000009d40000134e
0000213900002f1800002c0c00001b71
0000126a000017e5000022be0000244a
fffffe6500000219000007eaffffec80
fffff11effffec3cfffff706000005ad
ffffd9e8ffffe0ab00000d1700000619
fffff592fffff6f3fffff363ffffc984
0000114f0000102300001d7ffffff870
0000178500002868000017650000064e
ffffdecf0000051f000015340000124b
00000306ffffe9ccfffff574ffffe0d5
ffffe753ffffec98fffff5cffffffee7
fffff268ffffd08c000000e5000019c5
ffffe685ffffe587fffffe93ffffe7f3
00000d45fffff1f8ffffef8cfffff740
000008bfffffe07fffffef4500002ba9
ffffebcaffffecba00000cab00000db4
fffff388ffffcffaffffd650ffffe2c1
fffff0f5000010e700000ec5ffffc8f8
ffffd6bbfffff4e2ffffee95fffff137
ffffd88a00001376fffff66b0000078f
000016dd0000009e000008a500001ec7
0000057effff9dc7ffffe1dafffff81d
ffffb8b6ffffcc49fffff09bfffff54d
ffffc888ffffb1e8ffffc964ffffd63d
ffffe5ccfffff006ffffc442ffffad30
fffffa1cffffd46cffffe2f4ffffcdcb
ffffeced000018f4fffff603ffffe837
ffffee4ffffff148fffff1c6000017cf
ffffb844ffffc593fffff592000006a9
ffff8aa7ffff8a65ffff9704ffffccb9
ffffb310ffffa953ffffd0f4ffffced9
ffffcda3ffffced5ffffcd7affffbc45
0000024dffffe2d7ffffbad0ffffc20c
0000000800001f42ffffe9b1fffff083
ffffec9bffffffdaffffe063fffff6c4
ffff938bffff8490ffffba23ffffea4f
ffffa435ffff7956ffff8214ffffb923
ffffbc0fffff961bffffc5f4ffffc3d2
ffffbf59ffffb6e6ffffa945ffffc7a2
000005570000103bffffb991ffffad28
00000dd200001e73ffffd8dfffffec36
fffff57c00001b0effffecb400001b3c
ffffb014ffffa4b1ffffb83fffffdab9
ffff93abffff6f9bffff791effffa2fb
ffffec64ffffc622ffffbcaaffffa97f
ffffc5e7ffffb02bffffc4afffffdca4
ffffb65effffc97affffc3f7ffffacc9
fffffc75ffffe829ffffd98bffffe211
00000351fffffa60ffffff26fffffc29
000018350000203dfffff5e2fffffa3d
fffffa1000006118000037abffffffdc
0000082a00000de9ffffb22f000010b8
ffffed0300001188ffffcbaaffffc133
00002479ffffcb8500001643ffffd2a9
000000fd0000104900000094000033ed
000003cc000013cc00000ced00000911
ffffde74ffffeb0fffffeb21000008ee
ffffd26900000aa500003dacffffd3fe
000036e4000010c000000cb00000052f
0000001bffffe099fffffd0500005850
00000dbd00002624ffffed99ffff7a0b
0000074affffddb500000d21ffffff0e
00001a1afffffbcfffffdd7efffff4c3
00004d1c00002c3effffe8f8ffffe2d0
ffffed080000139100000de0000035dc
00001ead00001dce00002b9cfffff46f
ffffd68e000013c30000049000001d5f
ffffb89bffffcaddffffce48ffffe3af
ffffef2500000222fffffec2ffffd457
ffffd6f0ffffd7ebffffe099ffffff09
00000a1affffd299fffff5670000186e
00000e7100000bc5000027ab000020c8
0000274700003542000033b100002b1a
00000c7dffffee30fffff2d4000004df
000021c5000011b20000263d00002847
ffffe54ffffff37300002012fffff1c1
ffffd00cffffaab8ffffe005fffff734
00001b3500002cce00001b92ffffe5ad
fffffd4700000d190000097300001c4d
00001f4e0000164afffffc6afffff5af
0000140e00001ca70000127100000ae7
ffffc181ffffecb40000280a00001bfc
ffffe3000000090a00001fe7ffffa7c3
ffffb74dffffd157ffffca8dffffd886
0000141900001fcc000001d0ffffe2e4
fffffa94000012f6fffff8a2000006f5
00000809fffffc15ffffeac1000011d4
000014e50000355d0000048400001c2b
fffffa3d000015a90000272f0000205e
0000181fffffc660000024f7ffffd9ba
ffffe7c700002a4f00003630ffffccaa
fffffad6fffff4e5fffff8c2ffffef7c
fffff85400000089000012d7ffffe8da
0000077c000011b80000029dfffffb18
00000fc50000016900001c2500000c1d
ffffe3b0ffffee4000001e2700001fcf
ffffed0affffad94ffffbc6fffffe2d3
0000004a00001d6500000dc7ffffdca0
000008670000060700000a5800000bbd
000008e2000009fafffffdc5000007c4
0000144f00001a6600000bc7fffff649
0000154b0000250b000012c200001cef
ffffb955ffffd727ffffeda500000a6d
0000525f00000cf9ffffc274ffffec9c
00000b8a0000147c00002717ffffcb38
ffffefcf00000e0ffffff5b000001a07
00000928ffffea2cfffffc7dfffff0ba
000007f6fffff549fffff3e2fffff2f4
fffffe41ffffe568000005b8fffff547
ffffc65cffffd7c70000072c00000238
000054de00000bebfffff96f000010fb
00001a2500001c8400002922ffffc321
ffffe313fffff225ffffeb31ffffff5b
fffff132ffffea6200000ef8fffff44c
ffffdac7fffff744ffffefa9fffff074
00000083fffff60dfffffa2fffffd61a
00000343ffffed4000001187fffff6dc
000006ddffff830f000014cb00001a71
000004dfffffd9ae00001725ffffaf5c
ffffed7f00000268fffff734fffff394
ffffdf35fffff2d4fffff48cffffede4
ffffe84cffffd5a3ffffd1c0ffffe7b5
00000866fffff905000001efffffd90e
fffff568000002a9fffff74cfffff5bb
000016160000326e00002e0100000e5e
fffff78bffffc8e400000667ffffab44
fffff8cd0000093b00001ae9fffffe17
ffffd960ffffd42c00000ae700000428
ffffccabffffd6f3ffffe225fffff225
ffffe600ffffdae6ffffd9c1ffffcea9
0000063b00000041000002ed00000ebf
0000101900001a2900000f110000227b
fffffeacffffc21400000248ffff968e
fffff9d6ffffe3c7ffffecdf000014a4
ffffd0e1ffffef6c000018da000002d1
ffffbf22ffffa1f0ffffa9a8ffffb68f
000005aeffffc2b3ffffd4fbffffe352
00000587fffffce7fffff1cd000017a4
0000477a0000491a000028a800000fce
ffffe623ffffe3c1ffffddedffffd52d
ffffdc70ffffdab1ffffd81bffffdf74
ffffbc3dffffc79bffffdf3affffeb63
ffffbb9fffffbba8ffffb5b7ffff9db7
000009b5ffffe840ffffe896ffffe679
ffffefd4ffffd80bfffff973fffff672
00002f8900002aba00001ca8fffff730
ffffd5fcffffeb49ffffe9e4ffffdccd
fffff4cefffff9fcfffff0e2ffffdf6a
ffffb80dffffd0feffffc9e0ffffd851
ffffd7d5ffffc642ffffc086ffffcd48
fffffe76fffffd7effffed89ffffd74f
00001161000032570000238300000974
000068e900007565000042d300003163
000001c5fffff03000000d2fffffe6fb
ffffe42b000006e3000005ab00000b80
ffffbf05ffffe734ffffedeffffff8df
fffff217ffffe509ffffcebcffffbd4b
fffffb28ffffe90cfffff8a3fffff66c
000018af00001706000018d000001832
00003aaf00005ab80000294e00002c6a
ffffeeb9ffffe86000003be500002ee2
000006d70000166400000671ffffeecd
ffffe183ffffe5b400000de3000009dd
00000c99fffff7bcffffee72ffffe72b
000009fdfffff96a00000d5500000108
0000262e0000178d000014fe000013d4
000020440000519800003684000032ce
ffffdee4fffff9a200004f0f00003c51
000009e6000014b8000014fc00001821
000031250000192b0000080500001455
0000109cfffffb5800000111fffff64f
00000b57ffffe92f000017b300001159
0000024d00001cbd00001ee500001948
0000431800003448000007c2000010ac
00003748000009ed00004a3f00003a5d
00001ec30000134e00002246000026f3
00000cb00000068bfffffd3c00001eae
00001713000008dd000016830000012e
00001a5c0000120d00001377000012b1
fffffb88fffff2e1000037e4000007ac
00002217000028ab000015b4fffff9c8
0000131300000fd20000239b00001782
0000260c000022390000133500000e04
00001a36ffffefef0000132a00002921
000013e30000068900000c41fffffd18
fffff917000016930000325f0000187d
0000194c000014b400000ff800000b75
00002792fffff581fffffea500001ceb
0000196500002e270000476000003fbc
0000195700001427ffffefc6000003c3
0000237e00000dc30000150a00002bca
00000dcc000004cf000011300000109f
00000d3300001cccffffffa100000270
fffffc7bfffff563fffff9db00000713
00001e50fffff15fffffecae00000fc3
0000344100003b3800004cf600005f0a
0000069f000006ae00001eff000024a9
000018320000253200001f8300001010
fffff570ffffe6e700000f2e0000034b
000003d500000f5b00000d8dffffec9d
ffffecadffffe0590000023cfffff57f
0000120dffffffc8000006a500000e48
0000323600001fc9000052f100005c9a
0000242c0000298b0000121700002c56
00002cf0000007bb0000232600001ec6
fffff992fffff675ffffedd8fffff20f
fffffc7f000012cd000005edfffff71d
000019c5000000d4fffff8d1ffffda5f
00000f95000005d60000261f00001ac1
000003a600001c480000343500006997
00001e6e000036890000215900001f0f
000012760000146200001ce7000008fc
fffffa55fffff957000008d90000042a
ffffdc84ffffe496ffffd11cfffff57a
fffff6f5fffff693ffffee84ffffd9c1
fffff43c00000a68fffff96a00000c49
ffffd895ffffcd3affffd428000049c8
000024a1000015bc00001332fffffe98
00002d4800001af70000081a000029d6
ffffebd1ffffefec000016e700001313
ffffbcc4ffffaf8bffffbc0effffe3be
fffff108fffff191ffffddd8ffffc498
fffffc95000007bdffffd8fcfffff323
ffffbe70ffffaddeffffbc7cfffffbb4
fffff132fffffaaf0000032bffffeae4
0000139a00001dcf0000092100000b1a
ffffe255fffff90200000489000028ad
ffffcd50ffffd1b0ffffbe9effffd201
fffff581fffffb3ffffff44ffffff5b5
00001eb00000073effffef0900000a52
ffff7ac2ffff8e79ffff9e9effffeeb0
ffffdb4cffffedcdfffff668ffffd395
ffffde9a00000737ffffda27ffffdd82
ffffe369ffffe499fffffdf900000d55
ffffc627ffffafe5ffffd2d4ffffd3b8
ffffdb13ffffef16ffffed13fffff261
ffffef40000001f8ffffeec4fffff082
ffff6cc0ffffd764ffffe319ffffec67
ffff6fe9ffffc418000008d7fffffacb
ffffa92dffffb7ccffff8dbaffff7e69
ffffbdd3ffffe4cbffffff51fffff0ad
ffffae01ffffba80ffffac9cffffbb9a
ffffe96affffe580ffffe771ffffbd78
0000119efffff57effffffd6ffffc9e0
0000051ffffffdd0fffff754ffffe22d
00005c9500002cf900001c0500000ac8
00004a1f00005b00000061cd000055f1
ffffff51fffff2b0ffffeb5200001a4c
ffffdcb2ffffd4a9ffffeebe000000a3
ffffef26ffffddaaffffcacffffff277
fffff83300001a8c0000240d00002b27
00000b93fffff38bfffff86efffffdca
fffffd94fffff4d7ffffebe9ffffe0b3
000002460000150f00002a5e00000dae
00001372000004910000170b000014c3
ffffe484fffff90b00000bcb00002624
0000039effffdbdcffffd2b7ffffdc59
fffff2fe00000aec00000b320000230a
ffffbedbffffc225ffffdc52ffffee06
0000142c0000205bffffe9b2ffffc419
0000202400001f730000063f00000aff
0000089b0000168dfffffaef00001d85
ffffdfbafffffd690000145d000006df
ffffbec1ffffd17effffd248fffff14a
0000057bffffe880ffffaaf8ffffb45e
ffffcb26ffffb731ffffd89ffffff69d
fffff0e200001530fffff95efffff516
00001caffffff97e00001a9cfffff3fb
000007550000024b0000047100000134
000003eb0000085200000d50000001f5
ffffef39fffffcec00000b5dfffffefa
000023b8ffffe8e7ffffe34efffff9cd
ffffe88cfffffd38ffffce93ffffebaa
0000207900000f51ffffe22effffe73b
0000076c00001649000006a300001654
000004fdfffff8b000001774ffffe729
0000116f00001dfc00001270000004d3
fffffb71fffffa5ffffff9db000005fb
00001b38ffffeb28ffffbd7dffffeb1f
00000861fffff838fffffab9ffffd591
00000a8100000a71000007f600000fc6
00001355fffff55affffe3ae00000dfb
000013e0000016e0000007be000007cd
00001304ffffed7f0000107a0000064a
ffffeb09ffffeec6ffffe4e400000cde
0000639000000641ffffdcbdffffe5ad
000013c1ffffefa0fffffdddffffebbd
000002c0ffffff0c000005e100001fd3
0000086d00001bf1000013a2fffff60f
0000258c000017ea00001f9800001968
ffffdd5900000dd70000023b000007e8
fffffed0ffffe19cffffbf92fffff5df
00002c73ffffdc87ffffc7b6ffffe240
fffff129ffffe9ccffffdb2affffdc1a
ffffebbafffffb4ffffff66dfffff572
00001e9f00000a6300001fbbffffe13b
0000168400002238ffffffba00000c31
00000ab6000004c5000008790000055f
ffffe6ccfffffa52ffffec6dffffe57a
00003350000027defffffceefffff164
ffffb9bffffff862ffffdd6fffffd2db
ffffeec700000a0d000003b9ffffc80c
000032e6000037dc0000245a0000142a
00002678000032de000025a700000c04
fffffb29fffff9aefffffa4b000029ca
ffffd8d4fffff870fffffc42ffffd5af
fffffa91fffffcce00000e57fffffb5d
ffffdbce000003aafffff7f5ffffbc4d
fffff79e00002caa0000209800002e16
fffff5e0ffffe7c3ffffffb000000658
00002fcb000030950000224bfffff90c
00000405fffff94f00001059000005dd
00000f14ffffd7faffffdf68fffffd46
000012a500000d57000015dcfffff9de
00001384ffffd792ffffb54dffffc1b6
000015fe000027bf00002531000033db
0000240b00000564fffffb37fffff1ea
000001c2000027ab00001f9900003d43
ffffee4a000006dd0000075900001e88
ffffeea8ffffd2c2ffffed50fffff7a2
00000dba000000870000199dffffebe2
ffffe14bffff980bffffeed0ffffe6a7
00002e3500001e1100002e5700002194
00002367fffff7fffffff6ef000005ba
0000037300000242000010c7000019e8
ffffda71fffff407fffff54effffe7ed
00001435ffffe4c400000c4efffff262
00001f130000330f00001a6e0000149a
ffffe469ffffe9aeffffbcdaffffdda6
000044bf0000335a00000bac0000025f
00001e0e00002f910000475d000026b6
fffff694000016b3000028a30000334c
ffffd8bfffffe104ffffe1da000003cd
000017e7ffffee39fffff641ffffd756
00002b340000346300002ff500001654
00003f59fffffb350000087effffc4e0
000022f100001d470000439400003516
00000839000019470000134a00001849
000037340000179e000002bb0000144e
ffffd0c8ffffe4d1000006750000138e
00000ec50000004afffffddcffffea28
00002673000034830000354a0000045e
00000b0b00003e4f000035e9ffffe251
000005edfffff6200000191d00000c0b
fffff99e000002b30000068ffffff259
0000113f0000197cfffff2d1fffff3b9
ffffd84afffff904ffffeef3fffffb25
0000362100001d0a00000480fffff968
000043c1000038780000212d00001fea
000005cc00001299000029bd00001021
fffffbb0fffff89e00000374ffffde66
fffff3fcffffe308fffff91affffe534
0000192000002691fffffd15000012a6
ffffef06fffff09d000001eb00000ee3
0000097b000009f2000005be0000261e
00005f2d00001c0a00003ad200002ab2
ffffd972000005c800001161000023d3
fffffe99ffffe4ecffffc6edfffff1bc
fffff991ffffe70fffffde68ffffeaf1
ffffe21cfffff0d8ffffff96ffffe938
ffffea9affffe60afffffece000016f2
000031cf0000430e00001fa1fffffe8e
000041b100000624000022eb0000227a
000016d40000030f00000989ffffce19
fffff5060000132200000f6d00002204
ffffd45effffda59ffffc3bfffffcea0
ffffecd2ffffead700000b4bffffdf47
ffffffe300000a160000116400000373
000016e700001ec800000ed1000011cf
00003b39fffffd85fffff10200000d1b
fffff5d700001dfd0000147fffffdee4
ffffe908ffffd299fffffbd2fffff230
fffffbe5ffffce85ffffdb2bffffea58
00000af4ffffee2cfffffbfbfffffa1c
000019a100000889ffffedc9fffff473
00004156000045720000227400001d85
00000706000019be0000177c00001981
000027e300003c97000046e300001e8a
ffffdd2fffffc24ffffff81efffff8e9
fffff7c1ffffd662ffffd920ffffe3ab
00000fc50000047700000270ffffe021
0000413100002579000047d400004aa5
00002d5600002324000006170000160e
00001225ffffe609fffff69a00001c40
00002db1000039930000424dfffff73a
ffffed90ffffbed8ffffcea30000281d
ffffec67ffffdf41ffffbde5ffffc2c9
00000c5900000f92fffff917ffffede5
00004cd100003a4400002348ffffff3c
0000331b00003f970000353700002d07
00000248000026fa0000131affffff80
ffffc27c000047890000393a000035e2
ffffc250ffffac9dffffb974ffffbf39
ffffe65dffffd30cffffc24affffc0cd
0000036300000402fffff325fffffd0d
000035ba0000479d000028f60000113b
00002ca000002a7000002c2700003487
fffffec7000018ec00000f270000217d
ffffb843ffff9ea3ffffbaff0000004e
ffffd56effffafb7ffff9492ffff6eac
fffff9bffffff5afffffe0afffffec27
0000033300000204fffff69effffdd6a
00002bd70000316a000026c500001d59
00001808000027f20000305f000034c9
fffff60600001c2d0000287300002f0f
ffff9d97ffffb7d2ffffd861fffff536
ffffba35ffffa1a0ffff7143ffffb420
ffffe25fffffc8c4ffffbc64ffffb70d
0000197500000ae5ffffdf40ffffe792
0000669c0000582700003446000030e2
000003d500003907000016f300004208
0000014700000e45000034a6ffffd9dd
ffffcb32ffffdf42ffffedd1fffff0d7
00000c930000279000002800ffffb92b
000005e7ffffeb95ffffed210000189c
00003b70000021e9fffff430fffff322
000063be0000751b00006a7500004c6a
000028da00004cdc000013d00000486c
00000ed300000adaffffce40ffffc62d
ffffd810000011eb0000059efffff72e
ffff91d2ffffc336ffffe6fd000000f4
0000193b00001b57000020f5fffffed2
00003174fffffce90000172700001350
0000520400000e4100003704000048fc
fffff28600000367000009d800002b9f
00001b7a000005b5ffffe496ffffe0f4
ffffffde000000cb00000ff3000011c1
ffffd05afffffac900000cb800000d7a
ffff98c9ffffd2e4ffffcc23ffffcc70
ffffee3cffffc0e1ffffb928ffff977a
ffffa72dffffa482fffff0fa00000b84
ffffe21effffc646fffff7acffffc312
00001392fffff180ffffe3a0ffffe5ca
ffffeb75ffffeeb4000002b600001a7a
ffffe660fffffcd20000061900000437
ffffbc63ffffb423fffff7a7ffffc8f7
ffffdc7bffffecf6ffffda7bffffd0a9
ffffd953ffffe33cffffca34ffffd70f
ffffdb0dffffe0f0ffffc4beffffe389
fffff748000002b9fffff02efffff70f
fffffd8500000b4d000003c9fffff9e5
ffffcc6cffffd02bfffff168fffffa35
ffffd23cffffd935ffffc4bfffffac9c
00000076ffffed64fffffcbeffffda5d
ffffc462ffffe0e3ffffee4effffee6f
ffff9717ffffb914ffffd2e1ffffb80e
fffffe17ffffbb22ffffceaaffffb4ca
ffffd7ffffffe7d2000007070000103b
0000531000000453ffffe112ffffdf52
fffff0e5000006ed0000574100001fef
ffffe67affffdb1ffffff74f00000bd1
ffffe637ffffe582ffffee0d00000474
ffffcc8e00000df7000013deffffe5a7
fffffa9cffffd95cffffbce2ffffa12d
00002cf0ffffff30ffffed8b00000857
00001d1d00002298000002a400000b69
ffffffb500003c6e0000263400002bd7
ffffe7e2ffffc5fe000006c300000aae
ffffe264ffffec18000008caffffe88a
ffffe915000012d300000166fffff081
ffffb812ffffafdaffff93b0ffffb238
00000e6f00000daa00000105ffffd7c5
00000a78fffff496fffff45c00002bff
00000420fffffd94ffffea6a000025bf
ffffe3bcffffe571fffff36f00000b69
ffffd9ffffffeacd00000003fffff8d1
fffffb8afffff041ffffe037fffff4f2
ffffad3efffff61ffffffe8cfffffc62
000008ff00001bcbfffffe53fffffe22
00001f8d000000e0ffffcf3600002c33
fffff0fbffffe4cdfffffe3700000027
0000179cffffffad00000b320000184d
fffff9b9fffff303000005f10000127f
ffffdcdaffffeeadffffec6700000920
ffffa0d3000025c200001c6efffffd2e
00001690000032970000005900001085
00001acaffffdb84ffffcb17ffffedfb
fffff913ffffea11ffffe8a600001cb8
00000a4300000823000004830000108e
0000028000000b5d000000b400002774
fffff985fffff7e3fffffd0afffffd51
ffff72e700004bd500001161ffffe917
0000290bfffff2a1000015900000111f
fffff0c3fffff131ffffb691ffffedc3
fffff8a800000093ffffd8e4ffffe83d
0000195400001734ffffdbc700001417
fffffdcf000008120000142c0000139a
fffff732ffffe46000000293fffff1f8
ffff53f200004d2f00000ba600000579
ffffe4b3fffffec900003bf0fffff37d
ffffd490ffffeb30ffffd235fffff6bb
ffffce18ffffd8f5ffffcb97ffffe122
0000164100000990ffffe93fffffde64
0000156800002166fffffe8100002c31
fffffe1c0000155e0000283f000013b3
ffff4f3a0000398f000003f600002762
ffffde100000001200001923000006e5
ffffe19000001af900001c09ffffcb6c
ffffad31ffffe2beffffe4bcffffe1ef
fffff9fcfffff1dbfffff396ffffd437
00000f1b0000043bfffffb2f000005cb
00002fca00000dc10000019800000961
ffff9b8a000004b000002494000001d2
0000307dfffff54500000c02fffffb2e
ffffef85fffff76effffe430ffffc0ea
ffffc6f6ffffd83fffffd9e4ffffeb89
ffffd5e8fffffa00fffffe6affffe507
00001580000004effffff0fbffffe391
00000a7c00001c2500001598ffffffc0
ffffc932ffffb0f3000020380000148a
00003ec9fffff87300000489ffffca6b
ffffcb64ffffca20ffffc346fffff547
ffffbd3affffd176ffffba17ffffe050
ffffe559ffffe833ffffe199ffffd8eb
00000fdc00000beb00000751fffffbec
000033af00003e330000129f00001dea
fffff8bcffff831c00002f1f00001cb4
0000465bffffe44e00000ef600000b91
ffffc747ffffb2e3ffffb6b400000588
ffffcc4effffefdeffffd1e2ffffdfbb
ffffd57bffffe1f5ffffcc86ffffca91
000000e1fffff173fffffbb8ffffed8a
000008a100000151000007c7fffff2b8
ffffdeddffff7df300001c6800002d29
000008fbfffff1b1fffff58a0000171e
fffff075ffffe05dffffbf13ffffc76f
ffffe4f5fffff835ffffca0dffffef3f
ffffe1c8ffffd073ffffa0c9ffffcff5
000016d3fffffa6cfffffde9ffffefb3
ffffef33ffffd88dfffff279fffffe50
ffffd50effffe2a600001984ffffe7d4
ffffefd2000002f0fffff6f8fffff89b
fffff666ffffea41ffffd48affffc9a5
fffff81c0000070a00000bc50000002c
ffffe373fffff59affffcabcffffc3bd
ffffee05fffff25c000007b1fffff2f5
ffffc992ffffe37effffe1a9000005c4
ffffa2d7ffffdd7ffffffac8ffffd146
ffffe00cfffffd0900001dd6fffff5a7
00002005ffffe0bfffffadc7fffff196
ffffd5bd000014a8fffff47fffffe8d3
fffffef6000013a8ffffec68ffffd755
ffffddb20000021200000d99fffff393
ffffcceeffffddf6fffff0f1fffff246
ffff7c04000010b500000385fffffaed
ffffd23a00003a91000016f5fffffeeb
0000138600000546fffff253ffffff71
ffffde41fffffbecfffff802fffff4ad
00000f8ffffff360fffff83fffffefc3
000008ccfffff9b3fffff866fffff44e
ffffcd0affffe7d1fffff868fffff23b
ffff7f1e00003f4200001b55000000cb
ffffe6630000383700001266fffffb67
00001200fffff71500000d67ffffcf46
fffff068fffff0c20000012affffdca5
00000017000015ca000007e5fffff385
0000060dfffffb9bffffe94b00000fb9
fffffd4bfffffd96fffff46900000135
ffffbefd00002c0100000b3100002204
ffffe63100001d3a000011b10000084f
ffffe203ffffcf1c00000450fffff620
ffffea88fffff0c6ffffe3a0ffffeef9
fffff476000022910000072dffffd1d6
00001944fffff423fffffa4c000008e3
00001524fffff77800001bbdfffff591
ffffb8900000090f000016fb0000272d
00001d62ffffe1f600001309fffff53e
ffffdd3dffffe63a000006dc000002f3
ffffeb6c00000355ffffd50cffffd482
ffffd8b9fffffbff000006c1ffffef50
0000076c00001f14ffffef0000000388
000024f70000143f00000db4000005f7
ffff8df2fffff2d1000000970000280a
fffffdefffffe3830000052300000dc3
ffffe50dfffff828ffffd4ef00000b82
ffffdcadffffe6bdfffff01cffffff4a
ffffd6dbfffff527ffffd25fffffc2bb
ffffefb9000016ac000022fbfffffe87
00002a3200000fc900000690fffffd3b
ffff907f000023ff00000b0000001729
ffffec4700001984000019f200002036
fffff19bfffff18f000000adfffff8f8
ffffca31ffffe79dffffe459ffffdb1e
fffff2a4ffffeac3ffffabb6ffffb445
000008f5000000f70000027500000c4a
0000133d00000eaffffff3bf00001613
ffff8b0d00002718000029b40000180e
ffffcd9b0000215300003577000014b4
ffffeba4ffffcfeefffff010fffff023
ffffe087ffffe1fdffffe53cffffed83
ffffecb9fffff0ffffffd109ffffcad9
000011aafffff9d6fffffb6bffffecf4
fffffc1b00001100000012fc00000150
ffff9db1000016580000129800003b1b
fffff180000041aa0000124dffffe384
ffffd033ffffc58effffcd47fffffd44
ffffe084ffffd457ffffe38affffc853
00000f99ffffe096ffffd198ffffd43c
00000981fffffed6fffff528fffff1b7
000008ba00000cb500000875000004d5
ffffc813fffff3a9000024e7000017ee
fffff732000049a90000078afffffedc
ffffe099ffffe697ffffe5e600001c9c
ffffcc9dffffc779ffffbaa5ffffcdb1
ffffe64cfffff3a1ffffc4c4ffffe50a
00001b86fffff562fffff1dffffffa2b
00000d23fffffb2d000004c100000389
ffffe6910000028900001917000009c0
ffffe2370000404affffec85ffffec9a
fffff4b800000fed00002ef100002cca
ffffeeddffffe6e5ffffe640ffffdcc2
ffffef6b00001c2bffffee250000025b
0000187600000753fffff949ffffe4c4
00001065fffff8230000259fffffe60a
ffffd67affffe04700001a6c000017ed
fffff03c00004364fffffdc0000003b3
ffffd9f4ffffb901ffffdf730000088c
00000471ffffff0bfffff91c000006bf
fffff1d200002eaf000010a800000bef
000021bf00001a18fffffde8fffffacf
ffffe37b00000be30000155100001341
00001196ffffda8100001684000000c8
fffffbc500001eea0000018a00000ed3
ffffef96ffffe400ffffe99400000bdb
000004f7fffff4e7fffffee9ffffe3d9
00000e6900003d7700002f6b00002653
000015c70000226800001207ffffcf8e
00000dfafffff534fffffdc2ffffefc4
ffffe896ffffb2a6fffff38c00000451
00000bdc00000c230000153f00000535
ffffd91cffffbc65ffffc8e800000c8e
fffff172fffff6f1fffffacfffffcd47
00000fa2000058d1000016f3fffffbe0
0000072b00001295fffff0eeffffd5bc
ffffe97dffffda62fffff1e0ffffebd9
00000867ffffde30ffffbaf8ffffdb60
fffff5e8fffffb2800000bfffffffadf
ffffc351ffffbdacfffff4dcfffffe86
ffffe111ffffc8abfffff0f8ffffdfbc
fffff8efffffb358ffffdeacffffea23
ffffb994ffffc6adfffff7670000123d
ffffca98ffffee96ffffa74affffbff5
fffff29ffffffdef000014b5ffffdd25
ffffee6d000007f700000854fffff861
00003e6c00001e6700000911ffffb930
00001873ffffe6b1ffffe4530000614f
fffffbd6fffff78effffd52bffffe6e4
00001aecffffebe1ffffeb92ffffeb11
ffffd1afffffb48dffffeaee0000329b
00000468fffffe86fffff579ffffe3a5
ffffecf9ffffeeb500001cd700000d93
fffff15f0000136e00001ec200002682
0000169b00001237fffffb2fffffd526
00001651ffffddd000002d8b00002cb2
ffffeee5ffffef8d00001ab200003039
ffffb52afffff529ffffea42000016db
fffff85effffdc1fffffb9f9ffff7e04
00001970ffffed0d00001b4bffffe88e
0000310c000025360000107e000010fa
00000681fffffc0d000000690000053a
00001e91000044410000452800001a83
00000ee200000f3d00002e4600002ebd
ffffff98ffffc92fffffd0ccffffde73
ffffe31effffd6a3ffffabe5ffffc9dc
000026d0000035c200002f4e00000187
ffffff230000296700002ac000001ad2
ffffffcd000002d2000016ecfffff426
00002e520000380f000018f100001dfc
ffffedb1fffff747000020c200003687
ffff7b02ffffc5dcffffe3e5ffffdfb1
ffffe2aeffffc38dffff6e27ffffab73
00000a290000484c00002e9cffffff20
ffffe589fffff17900000203fffff6ea
ffffff75fffffbe60000172effffe8b1
00000e2a00002495000004a8fffffcf0
000008fefffff9d4000016e800001c12
ffffd23800000296ffffe9d00000000a
ffffbdc5ffff82d4ffff7747ffffac23
0000073a00005cd00000387b00000a99
ffffe7e7000007e5ffffee4700001167
00000454fffffcb4000013f8000000a5
00000c6800001959fffff18d00001c04
ffffe27a0000117f00000c2e00001150
00000889000004b5fffffdb500000b26
ffffa060ffff8b31ffffc4c9ffffe553
fffff3ff00001b7a00001e9b0000183e
0000027c00000f2700001fa8ffffe4ce
fffff4a0000008a9fffffa540000036e
00001641000014570000038bfffff8e9
ffffff8ffffff5b300000f9600000426
ffffe881ffffc9b1ffffe83dfffff715
ffff62ed0000259fffffded7ffffc55d
000005d7000010dd00001b15fffff7ad
00000920fffff48200000646ffffe18a
ffffff73fffff0b7ffffe53cfffffaaf
fffffef1fffffba9000000eefffff894
ffffdb6cfffffdba000011e1fffffca0
0000077effffd0e5ffffcc9ffffff197
ffff6ac00000320fffffdd3c00000e5e
000011a9fffff3f6000006c5fffffc8d
00000fc7000009100000161600000ac1
fffff7310000066c0000074efffff9ed
fffff6fbfffff451ffffe9c8ffffe878
fffff40efffffd6e00000c07ffffd85b
ffffe34cfffffd5afffff0defffffd7c
ffffa90cffffac8cffff861effffb3fc
fffffc5f0000183d000012abffffe069
fffff4db000007d0fffffa42ffffeafe
0000087100000bccfffff27d00000653
fffffed9fffff26400000941fffff941
000011fd00000db5000006f5fffff92d
ffffe1feffffff0bfffffdcc000000f3
ffffca8affffd2b90000232dfffff929
00000be4000018ad0000135affffc9db
fffff50c000012fefffffbe2000006b1
00000028fffff0fbfffffe09fffff531
000011a50000071a00000e1600000070
0000153e00001e3200001afc000005e5
ffffd7d5fffffbd6fffff38d00000640
fffff0aefffff3e300000fe5ffffd88c
fffffa7fffffeb7affffe50effffc668
00000cecfffffd0bfffff346fffffab4
fffffdaafffffdbfffffed0e000004d8
0000073700000bbc00000fba000024b9
00002d130000311b000015aa000004b1
ffffa02dffffd0000000129f000018b5
fffff14effffb12cffffcb4affffa22d
ffffd26effffea3bffffc4ceffffc4cc
fffffde2fffff18ffffff86ffffff78b
000028cf0000118bffffff0a00000b19
000011be000029cd00001de60000288a
0000245100001d770000277000000c56
00000b5f000004eb0000082900002a5c
ffffe144ffffb25fffffabe3ffffcce5
ffffe264ffffe86fffffc1b2ffffe553
ffffffacffffc864ffffcb94ffffc1fb
00000e6c0000124f00000687fffffc8d
00001f6400001f1900002a7300001bde
00000005000006c5000015ea000003d3
ffffcb72ffffd53effffd750fffff6b2
ffffd6caffff73adffffbddcffffbb68
ffffcda7ffffe484ffffbbbdfffff4e0
ffffed24ffffda7fffffd08bffffcc95
00002c0c000003d5fffff108fffff30c
000013c000002b9200003eb900002522
ffffd9c9ffffe98bfffff19c000003e8
ffffdf9dffffe5e3ffffecc8fffffab1
ffffe45cffffa7c3ffff9d3bffffa6d3
ffffd796ffffba94ffffc21dfffff4fa
ffffd5e5ffffd71cffffdcd1ffffe631
0000283900001c65fffff22ffffff436
000008000000196600002d6000002f46
00000559fffff57fffffe4e2fffff5d8
000017df00000d80ffffe9b6fffff8ff
ffffc95a00000f68ffffc9c2ffffe7f9
0000067effffe71cffffd2bfffffd4dc
ffffceb0ffffc0e5ffffd233fffff101
00000eaf00000203ffffe978ffffd628
fffff179fffffa3f0000173e00002a82
00000b70ffffeaa5fffff6f7ffffe4be
fffff82600001556fffff0f1000011dd
ffffbe5c0000247500000332ffffe007
ffffe319ffffe9ee000005a9ffffead3
ffffe566ffffe3a0ffffe572ffffe0e9
0000172600000a3cfffff71bffffdc22
ffffd004fffff8fc00000e5900000c8c
00001528fffff0e1fffff096ffffdc50
fffffce70000071cfffffa39ffffecb6
ffffc4adffff8f7affffc2c5fffff340
00000661fffff190ffffffdbffffda68
ffffcdedffffe60fffffec91ffffddc4
fffffe16fffff840ffffe195ffffdae7
ffffcce3ffffe48affffedad0000094f
00000668ffffe3eefffff44d00000cd4
fffff493ffffdb7f00000353fffff4e0
ffffc064ffffd44afffff543ffffe84c
000002b7ffffd8940000044bffffb110
fffff88c0000133a00000135ffffdb1d
ffffeaa0fffffb0b0000022000000b77
00000156ffffdcc5ffffde1cffffd775
fffffca3ffffed4cfffff111ffffd2fd
ffffeedeffffe940fffffcdbfffffaef
ffffca2900002195ffffd92dffffcbf8
ffffe30fffffee7cfffff50dffffadf7
000004effffff237ffffee0dffffd514
fffff3c4ffffff3700000be400000b8a
fffff8befffff9effffffd81ffffe595
ffffe68c00000501000002f8ffffdc5e
fffffcc4ffffdecdffffd88afffff9fa
ffffb13e00000798ffffedebfffffbd3
ffffcdabffffc307ffffdc5fffffa960
fffff997ffffe1cafffffb1affffe2ff
ffffe4d60000041c0000078500000c94
fffff320ffffec66ffffe93e0000097c
000019cd000003b8fffffa0cfffff660
ffffebd5fffff91c000001e2ffffe619
ffffce4cffffcf6affffb241ffffc2a5
ffffd884fffff5fafffffa7bffffeb8a
fffffabafffffdc0ffffe9f2ffffe604
00001e00000014b9000001d6fffff1c5
ffffed42fffff88ffffffcdb00001c7e
fffff31f00001d2e00000da2fffffae1
fffff850fffff72afffff6960000072f
ffffe3c300000800ffffd98dffffcbc7
000014f70000092e00003f620000112a
fffff333fffffc7000000b1b00001618
fffffef70000238e0000276b00001132
0000053bfffffb82fffffa7f000005a9
fffffb160000181b00001df80000062e
000036c2000029150000147e00000e3a
fffff17200000ea800003e9300003450
000016e600002774000045ab00002021
00000b6c000027d600002a35000020ac
000023da000024e90000142900001575
00002f5d00002abe00002b1a00002f32
00003d2200001fbb0000136700001385
ffffe40dfffff8270000215c00001d17
00000a51ffffdcf8ffffe75fffffd768
0000063200001eca000034b700000b0f
0000143b000022d30000423e000013d2
0000589b0000234b0000176c0000321b
0000449000001e0f000023a2000032dc
00001c9f0000269700003c8500001b72
ffffd953ffffd3d2ffffd597fffffc95
00000f77ffffcc19000014fbfffff007
ffffecf4ffffd39effffe0ad00000243
000030a3000038050000298f00002b3f
000065be00005af6fffffe7c000011e1
000028b80000219c000033f500002529
ffffe24bffffe6dd000029ca000012e7
ffffe452ffffc318ffffe8defffff3a8
0000095bffffdaf8ffffde27ffffd964
ffffecc6fffff2a80000216ffffffdfa
ffffc416ffffc646ffffbc70ffffe2db
ffffeb1cffffc978ffff9653ffffadb9
ffffe3bdffffff75fffffcc8ffffdb9e
ffffb205ffffbaa8ffffd33a00000257
ffff8f05ffff9776ffffbd13ffffb914
00000024ffffd1abffffd4b5ffffc4dc
ffffcc2dffffca89ffffdcf8fffff249
00004a66000028fcffffee84ffffd880
fffffc52000013e3000027af00002c2a
ffffebdfffffe4c0fffff31bffffefb9
fffff16a0000012bfffffdb1000003f9
ffffa7bb0000106000000bfa00000968
ffffe734ffffd4beffffd124ffffa31f
00001f360000012cffffda3e000007e8
0000171800000f4700000a1200002d0d
00000efd00002783fffff9d500001812
fffff2e7fffff6c20000061d000004f4
000001b300000b0d000021cefffff535
ffffe0f1000022c600000b1ffffffc23
ffffbfe5ffff6feaffff8b64ffffede4
00003ee600003f4000001b77000000a3
000025f9000018d60000007c0000142a
000008ccffffee49000006a3fffff5c5
0000247400002a7800000526fffff6b5
000002f400000c3500000d1700000c47
00000888fffff1c30000156afffff68a
ffff882cfffff8fcffffff9c0000083c
00004baf00002d4300001b1b00002852
ffffeaa600000f2ffffffc42000001a8
000014550000146ffffffac200001102
00000f6e000014f400001e7200001e2b
ffffea8300000d6500000947000009b2
fffff795ffffe45a0000033dfffff9de
ffff3849000045aa0000101ffffffedd
00001e4b0000286000002d61000022aa
fffff6beffffea96000006970000101a
00001073ffffffa700002aa700001917
00001104000003ee000032a300000581
fffffd77fffff3990000014e00001600
ffffdde90000055cffffe397fffff104
ffff20da00002e9b00001084ffffee0e
00001b3f0000234600002115000022aa
00001c20fffff73300000aad00000950
00001e5d000008d600001d3e00000c7d
000003b20000137f00002c8a00001888
ffffee26ffffefb600001022000011db
ffffeb4e0000036affffe9c500000493
ffff14d7000012bb000006daffffdb95
000019690000233b0000075a00000cfa
00000beffffff87a00000bb400002535
000033d5000022870000207d00000b08
00000b1a000002cc0000205d0000214e
fffffe4efffffda1fffff226fffffa6a
fffffab3ffffeef0fffff5b2ffffdd5b
ffff8129ffffde73000011fcffffedf3
00000e18000013eb000027fd0000149d
ffffe5fb000005530000137400000fe9
0000138900002b49ffffedae000003bd
00001297000025e500000ec100001141
ffffed12000005befffff249fffff8f3
fffff9440000005afffff113fffffa7d
ffffcc6fffff8a63ffffd2dbffffef70
fffffff700000d8dffffe76bffffbaea
000020ff0000289500000ddaffffe65f
000005be00001cc6000007c3fffffda7
000010ea000008050000186a000008b7
ffffeec7fffffb0bffffea07000004ea
fffffef9ffffe0f1ffffeb22ffffcd86
ffffee0effff7a7bffffd17c00000242
0000141d000004b6ffffd838ffffd960
00001cd0000018bb0000236400003192
ffffff63ffffeba2ffffcc87fffff8ed
fffffe7bfffff11bffffec13ffffec5d
00000146000007b2000002a4ffffeb04
ffffd15fffffca87ffffd8f7ffffdaea
fffff0ecffff8811ffffed4efffff49e
00000eb3ffffc9f2ffffeaabffffe1d8
fffffab50000064c000040ba0000290e
fffffbe7ffffe323ffffe5c30000089d
fffffd1affffefe7ffffef8600000037
fffffdd00000036affffeb95fffffebd
ffffc0d2ffffdaf4fffff970ffffe4f5
ffffa610ffffb1bcffffee4affffd356
000022ef0000026b00000985fffffc40
fffffb03000026e100001f4c0000352d
ffffe867ffffc42effffe4c6fffff15a
0000093c0000184cfffffe22ffffd8c8
0000123efffffada00001f1b000028e9
ffffd49bfffff89000001943000019d8
ffff7ac5ffffdad9fffffaeaffffdb4e
ffffee8effffe65d000008f500001489
000026ef0000324d00004433000037a0
ffffce96ffffd6d6000008a50000198a
00000cf70000082a00000a56ffffe184
000008340000131a0000090400000551
fffff4d7fffff813000009cf0000199a
ffff9338ffffe175ffffe8fcfffff896
000013e1ffffcd89000001fe00001084
00000bfa000004ba00001723000026a4
ffffc3a8ffffe637fffff65300001236
000015fa000008d9ffffe8caffffe85a
00000feb00001b41fffff9be000023ef
ffffdbd4fffffbaf00001138fffff489
ffffa03500000437000004bbffffe888
00001a470000062900001b0800000954
000003c1000004d8000017b700001ea4
fffff1d2ffffecc8000009d80000348f
000012f4fffffe9a000015f6fffff9b4
00000700000024df000029a200000fb3
fffff0d5fffffd78fffff95cfffffcb1
ffffb85cfffff52800001792000005ff
00002e0b000025ea00001279fffff868
00001e02000017f30000219100002de5
ffffffd7fffff4940000203a00002886
fffffb0c0000143ffffff92800000a22
00001c040000237000001e2100001bdf
ffffec8fffffefabfffff94000000f0f
ffff938600000401fffff31effffe515
fffff3bcfffffabfffffef250000274a
0000211c0000255a00001d0100002299
000027d900002dda000007f600003370
0000206200001c5afffff47700000f5d
000002c200000e900000059000002380
ffffe288fffff744ffffe4f6fffffc20
ffff9a13ffffe810ffffe75effffe600
ffffeeff0000084affffca9bffffce6e
0000287b0000138b0000341f0000126c
000016b1000018e40000177d000022e0
00001d4d0000454c000014df00002677
fffff9f20000166f000014ea0000117a
ffffdcfcfffff710ffffd4ed0000065b
ffff8816fffff553000000befffffb1c
ffffee86ffffea2dffffd5cf00001908
00001f3300002a2a00001cf000002280
0000169f00001d0e0000101b00001d2c
00001bac000032bf0000173d00000211
ffffe06a000005fc000026f500002003
fffff6cdffffeee50000042fffffedd6
ffff9211fffff22000000457fffff8b8
ffffed1f0000045effffcf6c00002f03
000026930000182a00002be300001666
ffffeb9f0000187afffffff100002c31
00001ba7fffffd9900001cfdffffefd2
ffffd9f7000009c2000001130000034f
ffffddfaffffe34500000af3ffffd683
ffffb315ffffe00e0000154fffffe335
0000247e00001802000040d800002601
00001d510000260300003d2500003fa2
ffffef63000013cb00000c8a000013ee
00000d190000276f000011ff00000719
ffffd0d1fffffecefffffffc000002b9
ffffc671ffffbceaffffe265fffff4a2
ffffb21effffc539ffffe7aafffff5cb
000015a8000028d200005d3000003a3a
00001cf50000199b0000508b00005052
000015bc00000fcb00000e7f00002085
000013e50000097800002aa700000313
ffffd870ffffe4eeffffe48b00000919
ffffa17fffff8954ffffa146ffffc277
ffffc604ffffe2b1ffffcdbeffffc230
fffff2d8000009b9000035c2ffffce42
0000325000003f5300000f7d00000dd1
ffffe8f90000270a000027f700001f6a
fffffcf500000c27000029befffffb00
ffffbd47ffffa5b1ffffb62afffffe1f
ffffe5eeffffdce3ffffcbd6ffffc986
000001c10000106000003bd30000093f
ffffbf0cffffcc2fffffe08800001133
00001518000017a700004916fffff8c9
00001540000028230000465300006176
ffffcab5ffffc9b8ffffde9c00000f0c
ffffcad2ffffa6b8ffffca9bffff9bec
ffffbaadffffd628ffffe2e2ffffdd43
ffffff88fffff0a4000023c700000370
ffffac6bffffa43c0000035efffffc44
00003ea5000030c500001dd2ffff962f
ffffe1210000010000002d0d00004b5d
ffff8618ffff906c0000000000002879
ffffb7b6000007a3fffffd19ffff6e25
ffffd73bffffae86ffffe366ffffd280
00000d33ffffd00cffffc5c9ffffc6fd
00000581ffffe56c000005ae000003c2
ffffce2bffffa9aaffffe66afffff650
ffffcbe3ffffa992ffffaa9affff9ad9
ffff4d8fffffa5dcffffc911ffffd5da
ffffe6fb0000179e000025d2ffff533e
ffffe437ffffd824ffffa391ffffcbad
00000357ffffee0200001455ffffeead
000007a2fffffe6100000664ffffed12
ffffe1b4000001dd0000166000000b6e
ffffe370fffff620ffffd5a8ffffc656
ffffeb07ffffe113ffffc78200000542
ffffdf74ffffd73dffffcaab0000023c
ffffef7dfffff481ffffbdf8ffffc3e1
fffff7eeffffe3e7000003c5ffffffed
ffffba21ffffc3db00000c45ffffee80
fffff388ffffe6faffffd531ffffcaef
ffffaa4cffffb5e6ffffd133ffffdd73
ffffdc00ffffe6daffffce7effffe34b
ffffb22bffffc735ffffae9fffffd411
fffff04affffa691ffff9a6affff7f4f
ffffe72affffd108ffffeeecffffd9cc
ffffbfafffffc855000011f1ffffec68
ffffcb63ffffc255ffffbd33ffffb2f9
ffffb27dffffad45ffffd739ffffb48e
ffffe597ffffd72affffc8b6ffffdf55
ffffe0c9ffffc573ffffd251fffff287
ffffc9deffffef8affffc256ffffa103
ffffdd14ffffb24fffffb5e1ffffa8c4
ffffbedbffffe35f00000ecefffff8f1
ffffe64bffffb783ffffbc10ffffb9b9
ffff9641ffffb8b7ffffdeb6ffffcf62
ffffe5d4ffffe5e0ffffcd6bffffd22d
fffff7edffffd13cffffd3f1ffffe035
0000234700000eb8ffffec0fffffd9b2
0000015e00002f1b00001600fffff25e
ffffc95a0000037500000201fffff6da
ffffe5ddffffc0e7ffffc4f6ffffd0c6
ffffcf55fffffdbbffffd9cdfffff797
ffffece2ffffe9170000033bffffdc76
00000fe5fffff63000000637fffff92b
00001f570000045bfffff453fffff174
00000b1200001b6e0000034b000008d8
ffffe5d3ffffeccffffffce7ffffdec7
00000d18ffffc501ffffdfe8ffffee11
ffffe4ffffffee48ffffce3600001027
fffff0fc000016ee00002c5effffead2
ffffecab00000cd400000ecefffff9c1
0000031800000606fffffc4afffff851
0000315e00001649ffffffd7000013b2
ffffe0f5fffff763ffffebfcfffff2d9
00000845ffffccb900000a75ffffe2ec
0000275d00002f25000023da0000109d
0000185d00001ae100001cb700004083
000016fa0000174600000f1900001303
00001d03000003df00001a4300000e48
00001c63000000e90000148e00000a60
fffff32600000b02fffff72fffffe641
00001b75ffffd97f0000354fffffccc1
000045fe00005686000040c600000834
0000396e00003ebe000038eb00005428
000026bc0000126600001a87000014ad
00000c1c0000103000000d65000014bc
00001508000008f1fffff6430000259f
fffff75efffffdcefffff0bd00001c7d
0000331100000779fffff9d1fffff33e
000024c60000569000004e0100002f2a
000028450000441500003674000059d3
0000272500001dcc00002a0f00003a0f
00001a780000082b000008dc00001865
0000268c00000bd9fffff73600000036
000012fcffffe31affffcc3cfffff455
0000087300000f18000012d3ffffe825
00000d03000039160000222e00001538
00002c1900005cbb0000197d0000417c
0000061a00000dc200002c280000218f
00000ac800001d2b00002309000016fe
00000fd100000dc9fffffa93fffffae3
000018fafffff3dfffffececfffff8eb
000018b7fffff72c00003633fffffadd
0000102b000040a5000010e3000027d1
000033a300002e3100001f2e000027aa
00000b88000024a800002ef600002b7c
000004af000002c400002ad60000184e
000014de00001f9100000c35ffffffd4
00001b9bffffb65effffed34fffff39b
0000119a000008be0000114fffffe371
0000145800001d0700001b40000025d1
00002089000016f400001d8900001e5b
00000ed0000029a300002aeb0000131a
000003bf00001c3400001bfe00000ad7
ffffc76efffffd35ffffe30fffffedc1
0000078dffffe23dfffffb87ffffead9
fffffb2200001526000004ddffffe7ad
00001385000014f900002fe70000066d
0000156b000009800000264700000752
000009860000189200002a70ffffffba
00000ee100001af100001fb800002d8c
ffffe5ceffffefa9ffffd9b8ffffd13a
ffffe083000002f2ffffffb9ffffdca5
0000108d00002467ffffe611ffffe832
00000d87fffffa8600001175fffffbcb
00000509fffff9c20000272a000020d5
0000162800000a25000035d00000053e
00000be800000c720000154900001ca6
fffff18effffc03fffffd285fffff912
fffff67300000f7f000014c0ffffff5d
00001608000020a7ffffe7a5ffffe660
00000cfd00000b0700000d29000006dc
fffff94cfffff8e400001462000014cc
0000166ffffff51e0000222c00000468
00000dd500000c420000100900002a15
0000182fffffbbc4ffffbefefffff2d0
ffffd4aa000010f500000719000000cc
fffff3f6fffff7390000096900000378
fffff883000006830000027e000012f9
00000f02ffffe71a000000aefffff0f9
00000b1f00001a62000021b300000bcd
ffffd562fffffb93000008cb00000540
00001852ffffdee7ffffd877fffff148
ffffcd03fffff8f2ffffff79fffff68c
fffffee8000006140000190600002b3f
fffff764fffffe0800001325000008c2
fffff844ffffe62bfffff6440000091e
00001b9700001b6b0000097400000832
ffffe51ffffff224fffffd2bffffee74
00000fa0ffffd665ffffdbe0ffffcca9
fffffbdf00000b3200000f89ffffef43
00001af6ffffe3a400000e2d0000013f
fffffe45ffffeacf0000131300000f4b
ffffd6a8ffffb373ffffeff4fffff7f0
fffffd5ffffff5f4fffffb0300000e74
fffffec900000df800000cdc00000004
00001e35ffffee67ffffd323ffffe688
ffffdb2affffd6c5ffffe32effffee0c
00000e0dffffe8a50000108d00001121
fffffce3fffff4a9fffff41f00000b8f
fffff4bdffffdeecffffd522fffffb84
ffffe552fffffb8bffffdbfdffffff6e
000000ccffffe433fffffa1e000001eb
0000004afffff00effffe581fffff296
ffffd3ecffffcc6effffa0dafffff267
ffffdf58fffffa09fffff8d1ffffb826
00000285ffffca83000003630000138b
ffffe954fffff1fd0000080cffffea3a
ffffef5dfffff8d1ffffeda7ffffebfa
fffff00e00001eabffffed92fffff6e9
ffff99c6ffffe912ffffd310ffffd95a
ffffceb5ffffdcbaffffa02900000339
ffffe758ffffe7e4ffffd38f00000382
ffffc7a0ffffedf7ffffe11dffffcff1
00001db500000c1ffffff923ffffffd6
fffff25affffdeadffffec95000001a7
ffffec9dffffe2c4fffff964fffff2f9
ffffbcefffffe49bffffee77fffffc3f
ffffedf3ffffc5a0ffffb13bfffffb21
ffffbed3ffffb9daffffc494ffffd3e5
fffffd2e00000ca9ffffdf66ffffc5f5
fffff7ca00000125000012d70000073c
ffffdf99000009240000104100000173
fffff52c0000043500000a5200000b65
ffffafc6ffffcd08ffffdd47ffffef09
ffffdd5cffffb033ffffdef4fffff13e
ffffc806ffffd487ffffb9b6ffffbca4
00000a0300001808000000e8fffff153
ffffffa80000088a000010a200000eff
ffffef6c00002797000026bb00000e6d
fffffeed0000154cfffff9b9fffff631
ffffc0e9ffffddf5fffff25a00000dda
ffffede5fffff494fffffbbafffffd79
fffff802ffffbd27ffffced0ffffb8df
00000f8c0000165b00001a2900000818
00001b4b00001234000005410000156a
000017b00000167900002048000027ab
000013f900000feffffff8ddfffffbb6
ffffd953ffffe4a5ffffecb700000799
fffffbd60000042efffffb07fffffd7c
00000dd3ffffd824ffffc63afffff3a2
00001e1a000029cf00000a65000016bf
00001548000021fa0000317100001b79
00000f910000111a000021f600002502
00001c8d00000e9500001454000017eb
ffffbfe6ffffeef1000001e8ffffe1f0
fffffa96fffffdb100000176000001d6
00001d2affffe4e2ffffc317ffffe980
00002a2f000022fbfffffca300001e40
000022940000032d0000056c00001faa
00000daa00001c1300000a4500000f75
00000a92000017f1000017140000162f
ffffe9f3ffffdde5ffffef770000023c
fffffc3cffffde49fffff0be00000c01
00003e6100002f33000017f4fffff199
0000284400002a0bfffff00a000032fc
000016600000035b000006a500003825
00001151fffff5cdffffe9eaffffeb4e
000008a9ffffe0edffffe19cfffff6e1
fffff2b1ffffdf98ffffd6aefffff999
000014880000049500000999fffff5d2
00002b580000320b00002802ffffe881
0000071d00001f82fffff8fb00002960
000011d3000001a4ffffe00000001388
00000204ffffeea6ffffd6a1ffffe762
fffffbc6ffffc2a8ffffc4a8ffffe0e1
00001c07ffffc632ffffe1f800000b9a
0000086c00000323fffff75400000d3e
000033b000003b77fffff7fb000005a0
000020efffffd9c7ffffe6aa00002cb1
fffffccfffffdea0fffff0c6ffffef79
00001e46ffffe921ffffed9c000009c7
fffff28effff8b53ffffa4b3ffffb587
fffff749ffffdd85ffffe89dffffe0d5
ffffc635000006fcffffd7b400000432
ffffdeb0ffffe3a3fffff0b0ffffa723
ffff9dabffffb1bcffffe7d6ffffceb7
ffffc807fffff4d600000f1d0000021e
ffffb542ffffd12effffee80ffffc06a
ffffde1effffdb4bffffcb8cffffc73b
000006d5fffffd16fffff55affffddac
ffffaa65fffff4a6ffffe437fffffd08
ffffe995ffffc04bffffefa2ffffacec
ffffee42ffffd85effffb06dfffffd07
00000a4effffc611ffff939bffffe11f
ffffcc67ffff9374ffffff8f0000079a
ffffccf5ffffb6e2ffffd39cfffff2b7
ffffdb80ffffbfeaffffead1ffffceeb
ffffb0ddffffc98fffffb3b7fffff8be
ffffdafcffffcf00fffff083ffffdbc4
ffffee810000003effffe8db00001232
ffffadf6ffffced300000829ffffe96e
ffffcbe5ffffea5dffffffe1ffffcf82
fffffdb3000030340000463900001a77
00000a3b0000169c00001cfa00003198
ffffd638ffffb653ffffc7a7fffff74c
ffffccfeffffdb9cffffbe32ffffc729
ffffd5df000008d7ffffd111ffffe768
ffffe95dffffdee6ffffd999ffffe42a
ffffd7420000005cfffffd9effffedf1
00001219ffffc733ffffe1cdffffda88
ffffed67ffffd87500003c6e00001217
ffffd7b8ffffec9effffb46a000001f7
ffffe83dffffed12fffff6ddffffd19d
000010c2fffffe92ffffbe2cffffd1f8
ffffe741ffffe97efffff06e00000634
ffffedcaffffc633fffff406ffffe648
00000d8d0000065a00000085fffff066
0000270effffbfd4ffffcbcafffff23b
ffffe352ffffe88bffffbe1cffffea38
000024df000026fc0000009fffffe537
0000332c0000098effffe28cffffe322
000006e400000def0000320700003e21
ffffed39ffffd817fffffba1ffffe8e1
0000178200001d2a0000031900000320
00003302000049ea000013f8000035cf
fffff900fffff447ffffdf1500000e60
fffffb6b0000126600000d57000016db
fffff7befffff4f3ffffdfe4fffffd7e
ffffdce7ffffcd68ffffecd7ffffe74c
ffffdb0bffffc5a4ffffcb65ffffcc35
00001cce000005a4ffffff86fffff006
00000ded000017350000280e00000e93
00001773ffffe56cfffffce10000066a
ffffe194ffffe64a00002c7d0000375a
ffffddeaffffd3b1ffffbfd7ffffd8d4
ffffdf2bffffcfadffffde05ffffc763
ffffe66effffc671ffffc524ffffd5f0
ffffef4600000b00ffffdac9ffffe4bf
fffff195ffffb370fffffd2b000020a1
00000c5400000d3d0000127500000900
ffffd473ffffe9850000061f00001aa4
fffffb57fffff72cffffc8c6ffffd381
00000db3ffffd164ffffdfd1fffff37d
000014f1ffffe5a7ffffeb4cfffff086
000007b7fffff198ffffea15ffffe1c1
00002bfb0000395d0000015d00002099
fffffd8bffffe2a10000193c00000bac
ffffe00effffd27fffffe6bdffffe746
ffffeb05ffffe051ffffded3ffffe5b0
fffffe98fffff25ffffff649ffffdcb3
fffffe71fffff4ce000010bb000010a2
000006daffffecaafffffc0afffff7aa
00000f7ffffff6f40000248b000011e4
ffffdec0ffffda0c00000581fffffa0e
ffffeb40ffffce0effffb2c1ffffcb1f
ffffef68ffffee4affffe578ffffd53d
ffffec7bffffdd4a000012460000009a
00001094ffffe1f8ffffe88d0000110d
0000145b00000aabffffef7900002a66
ffffe019ffffb4d5ffffc1b5ffffeef0
ffffe841fffffff0000031bbfffffa1c
ffffddcfffffd84affffdd74ffffe3a4
fffff118fffffe4bffffff7afffffb16
00001551fffff3b8ffffef81ffffef4a
0000233bfffff2630000023e000017bd
000033990000057f0000154ffffffebe
ffffd5d1000028c500002dc70000072e
fffff50c00000b2500001426fffffea3
fffff240fffff303fffffeabfffff8d3
00001a8f000007a80000012600000483
ffffe5bdfffffb0a000035e900002880
00001b29fffffb4affffe88700000287
00000e3900001eb2000018ea00001c35
ffffc0ffffffacd5fffffc20000008ba
00000128ffffe784fffffae6000001c5
0000234afffff29000000c64fffffab3
00000fc700001c0300000051000020b7
fffffdbb00000992000018e4000024ab
000012e8fffff736fffff738ffffdc19
00002fcb00002012000028580000433c
ffffff9b000009b000001cb8ffffecbe
ffffff03ffffeed2ffffe396fffffe2b
000036760000309d0000299d00000952
000031c400001f6e0000200b00001775
000008a800000e8e0000085b0000155f
000007c3fffffcf1000020a0ffffff2a
ffffececfffff345000019ae00000e1d
00001468fffffb1afffff1abfffffe2b
0000277e00004072fffff4cafffff907
00001dbf00000dab00001bb40000336c
00001f860000221600001425000024be
00001ab3000015c60000056c000004ad
ffffde8b00001c010000196efffff1f6
ffffed52ffffff53fffff84800000ac5
00000361ffffe28500000589fffff841
00002eb10000418200000ea8fffff16f
0000172d0000268400001a8b00001c01
ffffdfa0fffff73900000c08fffff929
00001a7200001f6700000459fffff6ce
fffff557fffff6fd0000113000001f50
fffff917ffffeeae00000e8cfffff3a8
000021fb0000040f0000031fffffef91
000014600000278100001d5f000025d2
00002d36000023da0000173f00001a19
ffffdc84ffffd9ae00000841000013a3
0000137000001fc3ffffe10800000066
00000d7100000bd40000057400000605
fffff008ffffed59000014090000165e
ffffe99effffe756fffffca00000092f
0000156a00000a870000078c00001ba4
0000122a00000de800000618ffffff6f
ffffe157ffffeea7fffff73fffffe1e6
000017d7fffff736fffffe4bfffffcd1
00002646fffffe7900000768fffff0b9
fffffc900000172400001e3700000670
ffffb1c2ffffe5140000039c000000ff
00000db40000099300002fa80000026e
00000e2d00000cd4fffffa33ffffdfc5
fffffbffffffd4f6ffffe83e000003f2
fffff34c00001201ffffffe3000005ba
000029610000052200000bde00001245
ffffeea300001207fffff0fb000028cf
ffffd7e6000004d7fffff05f00001bc4
000008eefffff9a900002632fffff711
fffff34e0000242100000fce00000c58
ffffe534fffffea2ffffe136fffff009
fffffd5dfffff73bffffeb71fffffb9e
000016ab00000c2600001966000007f6
ffffda4dffffe489fffff32300000aa9
ffffd24affffd8daffffc8f0ffffe885
fffff6e7fffff05a0000094200000c97
00000c5400000fb00000252e000017a9
fffff415ffffe44cffffe831000000bb
0000009600000053000009a5ffffe25a
000008da000022790000032200000455
0000052d00000c21fffff61000000cca
ffffc81effffd02fffffb963ffffe1a0
000007d8ffffd14400000b8300001d7d
fffff3b400001b3100000802000009a3
fffff9d1ffffe028fffff07affffff46
fffff5b8fffffe53ffffeb26ffffdba0
0000098e00000142fffff487ffffed59
000006ee000027e30000327d000012d0
ffffe862ffffdd23fffff8770000045d
ffffed14ffffd2e700000669ffffdfc3
fffffcc0fffff206ffffdea1ffffcae0
fffff023fffff652fffff5fd00001773
fffffcd8ffffe28cfffff687ffffe75a
ffffe6d8ffffe5d8fffff411fffffd1b
ffffd862fffff41600000fb6fffffc2f
fffff46600001194000000d6fffff722
ffffa007ffff899effffeb000000067d
000010e4ffffe9c2ffffe0eaffffe149
ffffd4b6fffff3c0ffffd6ee0000111c
ffffd21ffffff040ffffed51fffff86f
fffff631ffffee7dffffea6affffed5c
fffffa7b0000061b00000575000000e7
fffff282000004efffffe1f3ffffca39
00001f5800002940ffffeded000003b6
ffffce44fffff5f600000afb00001e7a
ffffd7cffffff20200000324fffff65a
ffffedf9fffff6d3ffffee6bffffd881
ffffd5dcfffffa1400000475fffffe7e
fffff7090000019a0000065cffffe933
00001929ffffea55fffff7470000161c
00003f7000003c0efffffb27fffff1b6
ffffcb85fffff7660000166f00002b5e
ffffc9c2ffffdd1cffffd883fffffb58
ffffec4cfffff3cbffffe807ffffcf9a
ffffb4bdffffde47000013b6fffffcf5
ffffd753ffffc9fdffffcf9fffffc2f6
000015f0ffffe393fffff1b4ffffc997
0000398200003676ffffff61000000ec
ffffaf29ffffd8240000277300003c71
ffffc6e6ffff9b4bffffe165fffff828
fffffa37ffffbf04ffffeea4ffffdf17
ffff9eb5ffff8a59ffffe06c000016b8
ffffcab2ffffd0c4ffffbd9bffffa075
0000021efffff2da00000f06ffffe8e0
ffffb5f2ffffcd4f00000243000003a1
ffffd8f6ffffebdeffffd617ffffc62e
ffffaffaffff943affffaed4ffffd6ca
ffffe1afffffef6cffffed20ffffd5c3
ffff9105ffff973cffff8ff4ffffc479
ffffbd19ffffc371ffff8937ffff6949
ffffe792ffffc027ffffc952ffffd181
ffffc561ffffbf13ffffbafcfffffdfc
ffffcf61ffffcc5dffff8f96ffffa047
ffffca4fffffb859ffffaaebffffc4d7
ffffe9ecffffe4f7ffffda9affffe2ca
ffffc36effffcc93ffffdfd5fffff3fc
ffffac55ffffb99dffffd6e0ffffb184
ffffbf7affffad47ffff9d2effffac6e
ffffa680ffffa2b8ffffb20ffffffde2
ffffec12ffffee63ffffbe43ffffcf24
ffff9916ffffc878ffffe88affffdc49
ffffe9a2ffffe938ffffe0bbffffc5ef
fffff85cffffee3affffe371ffffea67
000016e30000373c00000beefffff8d7
00001cec00003717fffffca40000029c
ffffd2990000039dfffff693ffffee83
ffffecd8fffff79effffd754ffffd2c6
ffffb6c9ffffe18500000b6cfffff908
fffff228ffffe6b9ffffbe74ffffc648
fffff34affffd97cffffdba800000163
fffffde300001b68ffffe7effffff432
000016b0000005600000301700002ad0
ffffd8e1ffffc553ffffea86fffff4d1
00000afc00000745ffffff3afffffde1
ffffb93bffffd26b000013af000002b9
ffffd0d7fffff33fffffebbaffffd85b
ffffd048ffffe2c4fffff20cffffcb01
000017ccfffffcdcfffff3b0fffff58c
ffffc9f50000079700001ae200001ff4
ffffdb06ffffe5c6ffffc8ccfffff173
fffff99d00000b3a000011acfffff672
fffff825ffffef4effffdd08fffffb9e
ffffd086ffffcc04ffffe2aeffffc82f
ffffe4c8ffffdb82ffffe2c1ffffdfb1
00000427fffffae3ffffeb8bffffd524
000014900000103100002aa400000dad
0000181e00001bef000041e5ffffdcbe
ffffe698000006ae00001303000015f6
00001cc3000000d0fffff705fffffbf9
ffffd41fffffbc39ffffe3c6ffffff1a
ffffdfe8ffffe66effffd04bffffd4df
000005520000097800000b6dffffe6ee
0000312c000018da00002368ffffface
ffffebfe00002c080000153600000dbd
0000031a000022ad00002c6900000e2f
00000e00000015f2fffff9d2ffffff6f
ffffefd5ffffd54dffffff24fffff45c
ffffcdb2ffffdd77ffffd48fffffcd33
0000082f00000388fffffc73ffffe9e4
000037000000193e0000163400000118
0000037d000005ad00000019ffffdc87
00000d74fffffc7500000d76000016f9
ffffdf63fffffc0dfffff13f00000841
ffffe0f7ffffd7b3ffffca11ffffd4ab
ffffd868ffffd0a1ffffe78cffffcd07
0000190700000374ffffea71ffffe6e5
000036e200003fd7000002cfffffeafa
00000224ffffff64ffffa5baffffb7c3
00002d7f000014c400000fa200001ce8
fffffa000000082f0000068d0000106f
ffffd2feffffcfceffffbeb1ffffc31d
ffffdb12ffffbc29ffffb610ffffb6ba
fffff6d3ffffef30fffffb40ffffda2f
ffffc1c1ffffecdeffffee4bffffc397
ffffe45cffffd142000010ecffffd93b
00002064000027720000419200003003
ffffecb6ffffe2aa00000ff800001866
ffffdd5dfffff750ffffd0a0ffffda43
ffffeca7ffffd705ffffc4c8ffffbfa2
0000094800000c9dffffefcbffffd264
ffffb8fbfffff673ffffec0cfffff19c
ffffdac5ffffde3dffffcc20ffffe66a
ffffd6d8000004ca0000107d000007df
fffffc03fffff8a6000014cdfffff5eb
ffffe650fffff838ffffecc0fffff621
ffffe7c0ffffdc79ffffcd89ffffcdbf
000002890000105a000004c8fffff5e0
ffffd888ffffde51fffffcf0000000d1
fffff8c9ffffd545ffffde92fffff799
ffffd5c8ffffd77bfffff5ca0000249a
fffff78100000782ffffe5b7ffffc725
ffffdd460000101b0000231f00000e75
000002dbffffe127ffffb5fdffffcb01
00002881000021d80000238a00000dba
ffffd69dffffe3a2fffffbc200001129
ffffc6b50000084300000b51000004b1
fffff8a4ffffcf2fffffc59cffffcf56
0000179cfffff44dffffe4ad00000641
fffff594000006ff000002ef00000533
fffff144fffff9f3ffffe1ecffffd266
00002b4e00001a86000009ea00000545
ffffec7afffffed0fffff21100002b64
ffffd670000018d3000015b8ffffffa4
00000443fffff19bffffeba3ffffcc94
00000f650000138d00000b78ffffe0a4
fffff508fffffa3700000c8800002180
00000ac400000b6b0000107dfffff36b
fffffd99000009df000009c3fffffad2
000011c8ffffe0b5ffffea8000000e13
ffffebf3ffffddb200000336fffffd47
ffffdaa7ffffdd2cffffdf7cffffcf76
00000c8300001e45fffff8e7ffffe166
fffff57600000fff00003408000018dc
ffffe986ffffeca1ffffd0fcffffdd58
000024edfffffcaa00001bb8fffffe3e
fffff1fbffffe749fffff207fffff086
000007b400000ac9ffffffdafffff8e6
ffffd96cffffed09000010a5fffffc07
00000cd60000249900000584fffffbcc
0000014c000016c100002da300001462
00000facffffff8e0000060effffddbd
000013f5000005a0000007e800001bab
ffffd91dffffecbe000009aa00000e56
0000139e000010600000138dffffb29c
00000314ffffed00fffff921ffffeb37
00002aaefffff27effffd918ffffe4ae
ffffdf660000038500002c2b00002d67
00000ba4ffffe520ffffd090ffffd9d3
0000194a000017f100001deffffff60c
ffffa9e9ffffdd86ffffffb300000dab
000043f3000036ccffffd4c8ffffa4c3
ffffc8f40000013000001893fffff9b8
00001d7c00000a64000003edffffe450
fffff32500000d85000019bb00003115
00001f0cffffffdefffffa1ffffff79b
00000cbf00000d9700000c3700000f6b
ffffa26bfffffd19000015da00001f4a
00000b93ffff94baffff8e2cffff9e76
ffffe674fffffde700000e4600001f41
000025c80000040c0000039affffd7f4
ffffec33ffffe2c90000247f00000679
000007ddffffff1300000342ffffedef
ffffe625ffffe68dfffff5de00000e62
ffffb7daffffce6bffffcdb1ffffe30a
000026f4ffffc12affffdc5afffff18c
fffffe9effffff36000019980000267f
ffffe53dffffec8dfffff2a6ffffe300
ffffe37effffa3e0ffffbc72ffffef24
000011e0ffffff2c00000f52fffff12f
00001c1e0000100d00001ecc0000115e
ffffc896ffffc891ffffe383fffff3ff
ffff74cdffffda79ffffdd17fffff10a
ffffcafeffffd48cffffceebffffd225
ffffcf40ffffbf9affffba73ffffe851
ffffbc49ffff89b6ffff8c3fffffc1dd
00000c56000004eeffffede4ffffd3be
00001d3b000022a5000030bc000022e5
ffffc611ffffe2e3ffffe535000010c9
ffff9f88ffffcdfafffff1ecfffff6ba
ffff9382ffffa7f7ffffaa61ffffff74
ffffcf01ffffb339ffffb781ffffb1b3
ffffb112ffff8602ffffd388fffff2ae
0000111100000405000012f4ffffee59
000001ce000024ee000005e900001841
ffffe43ffffffdddfffff218000028a8
00001774ffffb471ffffdedd00000b10
ffffd3baffffa55400001f9300003e6b
ffffa30effff8250ffff75feffff6ec4
0000329d00001054ffffea5dffffbde7
0000255b000009a60000374900001b39
00000224000019bf000018f300001126
ffffdc45fffff5fb0000007dffffed58
00003bfd00004c2dfffff4f600001449
ffff8861ffff8968000027f70000291f
ffffa12fffff8d36ffffc8bbffffa2f1
0000321700001d24fffff0b7fffff067
00000758000009e1000016eb0000249b
0000138d00000af1ffffdff0fffffb1a
00000e97ffffddb5ffffdd8900000e0d
00005541ffffde18ffffe75700000811
ffffc3d4000037f700003d9700005b5f
00001c76ffffc64800000262ffffbb95
00002a36fffff65c00001af000001d8d
0000228d00000cfb00000447000017e3
0000310cffffe33fffffaef1ffffe45a
ffffe808ffffcc34fffff71c0000179d
ffffe8a9000003afffffe484fffffa03
0000480c00006752ffffdc5cffffefe3
00001508ffffb601ffffe16effffede7
00002734fffff64cffffec1600002981
fffff8f30000273e00003134000057a9
ffffbc11ffffbc05ffff9583ffffee7f
00001276ffffe0ad0000038bffffcd13
00000c71000001b3ffffff4d0000037b
00000e6200000c47fffffbd200000191
00000d75ffffde6dffffde49fffff73a
ffffdf55ffffd384fffffe39ffffdfdf
ffffccc6ffffcfa9000006c7fffff54f
fffff4bcfffff0b4ffffd9f5fffff89c
fffffa2ffffff080000002ca00000a95
fffffe2e000009bffffffba8fffffed3
00000b48fffff599fffffa58fffffaa1
ffffccafffffde79ffffe457ffffe40d
ffffbbdfffff9eacffffdccdfffff6b1
00001c95000017bcffffe6deffffcc4c
ffffbd89ffffc103ffffedf800000e2f
000001f4ffffea9afffff17bffffc2d5
00004077fffff57a000004d800000195
ffffb4a70000448100004cf800004cdf
fffffd4fffffced6fffffd09ffffe93b
ffffe78affffe60affffe49fffffe4f4
00005d4900003f0e000007cd000021ce
000018af00003f560000261000004bbe
000012b600000e0affffafc9ffffb4bf
00000d5800000552fffffe02fffff7f5
ffffd18affffe3720000247500002c56
ffffd774fffff348ffffdb71ffffc699
000005f2000014f0fffff4d200000788
