ffe4ffe900560014ff6e0097003dff6e
0061ff98ffeb0058ffda004c001c006a
ffd8fff1fffdffadfffaff89ff8ffff7
0057ffc8ffb10006000cffaf00180075
004affccffabffc0001b003e0009ffa1
002b000100410051005600290043ffda
0056003efff400400023001e00520000
0047ffddff50ff64004c0000003f0081
fff50043004dffa90027003affacffd1
001a008bff6bffca006cff96fff50081
fffe0045004e007e006b00390098ffa3
ffd2ffe1003dffcbff7fffe5ff9bfff9
0024ffe3ffe2002cfff3ffdb0086001e
ffbbff86ffc5ffeeffd70001ffd8003e
fff90046002c002dffc5fffd0016ffcb
ffb3ff96002fffda0005001a003d0000
0045ff75ffc7002eff69ff8c0028ff56
00320019005a003b0055004c00510054
0002003fffdc0001000d001e0016001c
ff7fffc1ffd5ffd3ffdaffe2ffcc002b
ffb5ffc9ffbfff8cffb90013ffa2ffa5
0034004fffe6ffd6000f00c90085ffbb
ffc2006a004a00680018005600640007
0043001f0008ffc0ff98ff94ffe9ffce
ffb0ffcf002f0028ffec001bffffffff
0032002e003e003f0079008e004d002e
003000730048ffdc0035000bffd2ffba
00000037fff40032ffe1ff7dffb2ff7e
ffd7ff7bfff7ffe5ffd4fff1ff9dffcf
006e008500af00af007e00a7ff99ffc7
ffef002c000000370031008300e000f8
fffbffe8002d0026002f00100066004f
ffbeffbb001400270039003900570064
ff3bffbe0009002c002effd6ffee0016
0039002a00bb0099ff55fff8004eff59
0042001800380039004e001c00100061
ffed00080035003a0027002d0001fff5
ffa9ffcaffddffe4fff3ffe2ffd9ffee
ffe3ffe4ffd1ffbeffd5ffdeffe0ffd7
0013002e00000010ffebfff1fffbffeb
ffdffff6fff0ffe4ffeeffe0ffda0010
ffdcfff7ffe7fff0fffe000cffceffde
001b000200170013ffdcffc9ffbeffd1
ffdeffd0fff6ffea00360007002bfff2
ffeb0012ffdbfff30004000c0007001d
ffefffd2ffee0015fff5fffaffdeffe6
00350008000bfffcffedffecffe0001f
ffca0010fffb000affdfffe9fffcffcf
ffd7ffd8ffecfff60003fff60003ffe5
ffcdffe2ffe1000bffd8ffd0ffe9fffe
ffcdffdfffd7ffe4ffc9ffe9ffff0000
0011000f0000ffd7ffe40007ffebffcd
ffdcffdeffea0000ffe8fff2000affe9
ffbcffe2fff7fff4ff9dffb3ffc90015
fff4003effeeffd2fffffff6ffc5ffd5
fff2fff1ffd4ffef00000009fff6ffdd
ffaaffd6ffe400060007fff1ffdfffe6
00100011ffbdffc5ffb1002a0021ffe8
0004fff7ffdbffd7fff80000fffcfff2
fffc0023fffffff0ffe1000bffffffd9
ffee0019002a0030ffcdffebffec000b
0000fffcfff1000300030004ffecffea
000e001cfff4ffedffffffe5fff40003
00040005fff2001efff6fffffff8fff9
fff5fffeffcb00000012003b002a002a
fff3ffecfffa00140016fffb0000fff1
fffc00080002002400010001000e0009
ffe1003f00380038fff2fff7fff90006
000e00180000fff10012ffe6ffd9ffd7
0004000e0013000ffff0ffef0001fffd
ffdbffef001400000005fff8000b003d
0000ffe70009fff1fff2fffe0048000a
0009002a00030014001800180002fff0
0015001c001100220027001f00120021
fff300070046000fffb8fff4001a000c
ffe60010fff300140006fff5fffd0005
0032ffff00180027000000210024fffc
ffc2fffc0000001a0009002800150003
00140020ffe80006ffdb001500250007
ffeb001a000dfffe00070003fffc0013
002900260019001affffffea000d0018
00020025fffefffdffcd0018001c0012
0009000cfffe0018001f003000080019
001f002ffffe0011000a000c0014003a
fff7000e000b00150011001c0015000e
00130029001dfffa00140005ffe9ffea
0001fff6000f001b0012001f0005002d
000b001b000e001300130024fff30012
0029ffe90006fff4fffb000600260018
00060031001e001b001a002300050008
fffb0029fff30001ffceffff0025002e
ffe90017001000070000000800020012
0011000f0016001effe50001fff0000d
ffd6ffe900130020000f002900190029
0014000c0027ffff000b001cffeaffe2
000e000dffefffefffd10011fffdffff
0018000e000e0012000a000c0023ffe5
fffa0015001afff50003fff500200011
ffc4fff1000b001200180007fff80004
fffa000c001600370032ffe4fffdfff2
fff5ffda00080032002c0010001a0025
0009000b000b0003fff0000d00110029
002f000affecfff8ffc5fffc00050001
001a0011001b0000001b000200250044
fff1fffcffe000120006ffe9ffe50015
ffb7ffe3fff2fff2fffd000c0000fffb
001c00010057003600170004ffee0003
000600050000000effff000700430024
0002ffe5ffeeffedffdcffc4ffe9ffff
0017ffeb00070005ff9cffdefff3fffe
000c0000002c001d0012fff7003d000a
ffe5ffe9ffd3ffc9ffeafff2fff80006
ffe3ffb3ffe1ffe3fff6ffdcffce0002
000d0030ffec00110019fff90006000b
ffe0ffe5ffebffeb000f000000160016
0005ffe3ffe0ffefffe7ffddffdfffc7
fff6ffe6fffbffe4fff9ffb5ffdcfff6
ffe3ffd3fff500030026000d0008001b
ffd8ffd9ffecffd9ffceffc6ffeaffd4
0011ffbaffceffd6ffe4ffe3ff9dffd7
0001000a000c0000fff1fff4ffe2000e
ffabffcaffb1ffabffb0ffafffe5ffe8
ffdfffc2ffa5ffe5ffe2ffcbffd3ffc1
0003fffefff7fffb001cffbeffbeffeb
ffd6ffb9ffb0ffd00002fffd0000fff8
ffcaffafff94ffa6ff8fff96ffcdffcb
fff9ffb9ffc2ffd4ffbdffd0ffcfffd0
ffbbffda000200000007ffedfff7fff6
ffccffa9ffbeffa3ffabff9cffd8ffee
ffb9ffd4ffc4ffb4ffbeff99ffa8ffd3
fff9fff2fff7000dffeefffaffdeffca
ffb9ffc6ffd2fff4ffc6ffddffee0002
ffa6ff9affcfffb9ffc7ff9effbeffd1
fffffff9ffeeffd7ffe2ffe0ffceffb3
0004fffe001900320036001200260002
ffcaffacffccffcdfff2ffd0ffd80004
ffe9ffefffd3ffeafffaffabffc9ffda
00180007fff3ffff0002fffe0006ffdf
ffeaffecffde0009ffd80005ffb7ffaa
ffca00000011fff5ffea001f004affdf
0001ffe700110032fff8ffe5ffc6ffeb
ffe9000cffe0003c0022002c00380002
fff2fffd0017ffb90013001b0014ffe3
fffd00330004ffd400160043001dffca
ffe7000a00330017ffeeffe4ffc8ffee
0032000ffffeffe8ffddffe1ffdffff9
ffdcffd4fff20002000f000afff5002c
ffedffd5ffe4fff3ffddffcbffe7fff7
ffecffe6ffd6ffe00008ffde001cfff8
000dfffa0015fff7fffeffe3fff40002
ffd1ffd8ffe5ffe7fff9fffb0016fff0
ffdcffc4ffbfffd8ffbbffc1ffd9ffdf
ffecffe400000005ffe4ffe70003001b
00080029000300130000fffffff0ffd9
ff9bff77ffd5ffbbfff900000014001a
00020005000a00250001ffb4ffc60031
ffec0002ffedffddffe1ffe1ffee0001
fff9001c001e001e0010001300050002
0012ffd6ffca0001ffa9ffa1ffd8fff5
0014000f00080018000000110024002d
002c0017002e0007ffea000000130005
ffbbffda0008001c0026000d00170014
0017fffbfffb0004ffe2ffed0037001f
0014001a00170013000e0000000e001c
002c002500210013002a002c001a0005
0001fff700300039ffccffd0ffee0014
00090001000e001d00180032000a002f
00020000fff6ffe5fff1fffbfff5fffb
ffbefff10015000bfffa00160019000c
000000300010002e000a000300280046
fff9fffffff60018fffa000c0009001e
000d0006000a0009000ffffcfff60000
0004fffe00210050ffbfffd3000c0018
fff1fff8ffe500020005000e000b0000
0006fff9fff4001300160002fff60000
ffb6ffc2fff5000000050008fff90004
fff700260018fff5ffe6ffe1fff8004f
fff3ffd7fff9fffefff30007ffe7fff4
001a0019fffd00070000ffeefffbfff3
fff6ffeeffe8ffecff75fff1fff2001b
fffd0008ffd8ffedffe8ffec0003fff0
001bfffaffe5ffe0ffe6ffc0ffc2fffe
ffb8ffeafffb0004fffbfffcfff30001
000800000011001600210009ffcbffeb
ffcaffb0ffd6ffccfff9001efffafff7
001700070002fffb00180007ffe8ffdd
001fffd6fff9ffeeffe0ffe500000026
fff2fff700110016ffff001d000ffffb
0015fff9ffdbffddffd9ffcfffdbffdd
00400026fff9003200140004fff90005
001efffa001afff20028fffaffe8ffe2
ffc5ffceffddffc6ffdafff10009000c
0000fffe00010020fffc000f0000ffd8
00080008fff00005ffc7fff2fff40033
ffdf0007001e0012000f000a001bfffc
ffef0027001ffff2fffeffe3ffecffd3
fffdffecffbdffcc000c001e00260018
000d0001000ffff4000c00110011ffec
0003fff4ffcbffe8000a000600110009
00040005fffa0007fffdfffd00020006
0025001e001e0007fffb0000ffefffed
fffcfffd000e00020000ffef00160011
fffbfffbfff0000c0010ffe7fffcffe6
ffe10034ffeaffdcffe60016001f0000
ffeefffa000c00160027003e0015ffe2
fffafff8000c000700020015ffffffde
ffe3fff600120003fff6ffe3ffddffeb
0019001f0010ffddffc9003efff8ffe0
00170010ffefffe3ffe2000bffee0006
ffddffdcfff5ffeaffe7fffb00220021
fffc004affd5ffd6ffd1ffe6ffe5ffef
0003fff50015fff4000b001efff3ffc9
0009fffb00130008fffafff5ffecffed
ffef0001000ffff4ffe3ffd10013ffe0
ffe2ffe00009ffd8fff8001cfff2ffe0
0023000b0009000c0006fff1fff1ffe9
0002ffff00150011000a001200260017
ffdeffc2ffc2ffc4ffd60009001d0007
fff8ffeffff8fff6fff4ffdcfff3ffc1
001700120028000affffffe3ffdcffe3
ffa9ffc7fffdffe4000bfff80014000a
ffd6ffeaffdffff70006ffd6ffe7ffd0
000affd7ffddffd8ffc6ffc8ffd5ffd0
ffb6ffc8ffd0ffea0001fff80000ffe3
000bffd7fff8ffceffc6ffa4ffc9fff1
ffc9ffbbffadff9efffd000900050002
ffc9ffaaffdbfff3ffe2ffefffd1ffce
ffe5ffbeffcfffc0ffb3ffa4ffa9ffbc
ffbaffc0fffbfffa000ffff8fff1ffd3
ff85ff87ffafffc5ffceffceffa3ff74
ffc1ffc3ffb2ffc0ff96ff9fff92ff84
0002fff6fff90001ffe7ffeaffd2ffcc
fff50025002e0040004f0043000d0000
ffc8ffabffaaffc8ffd5ffe7ffd9ffe5
ffc7ff8bffb8ffa8ff98ffc2ffd2ffb6
fffd003a003affebfff2ffedffd8ffc5
000affebfff5fffeffe3ffb7ffdffff3
ffd5fff2ffe70004fffd00000005ffef
001400220025000effe0ffd1ffd5ffce
fff9fff3ffe1ffe8ffd40015002efff7
ffff00040002fffc00000001000b0011
0015ffecffe2fff1000cffe0fff7fff6
ffff0041000fffeeffc9ffc9ffda0001
000900230002000cfffd000dfff6ffed
fffd00270023000400260007fff60001
ffc4ffecffb8000b0003ffe500000007
fff400160024002c001cffd6ffa5fff0
000b000effeffffdfff2001a0006ffe8
ffeeffddfff1fffa000600060016000b
0001ffb9ffe6ffdeff6cffa5ffc3ffd0
00080001000bffcdffe60002001a001a
0005ffe00004ffdaffe8fff7ffe0ffd5
ffcaffdaffec00000010fff60018001a
ffd2fff7ffdbffd9ffe4002e0030003a
0002000e0000ffe6ffda0003000cffe9
00040013ffe6fffc000e00040001001b
ffea0023004b004effbaffe2ffe90008
ffc9ffeefff7fffcffedffeaffebffe5
001200290001001d000f0017ffebffba
ffd3000a0014fff7000dfff9fff3fff7
ffe3ffdaffea00000012003500460024
000300060014ffe1fff3ffef000afff1
fffdffdbffe2000f001c00060014001b
0013002800410024ffb1ffdcffe2fff5
000700020011fff700010004ffd5ffef
000f000f001b00280003ffeffffbfff8
ffbcfff8fff70002fff700060009fffd
ffbdffe7ffd3ffd9fffa002b00390042
fffbffb9ffd3ffdbfff7ffdaffddfff0
ffe9fff10008fff4ffee0003000f000d
0012001b002b0041ff9affce000ffff9
ffdbfff7ffec00030003ffc6ffe2ffea
ffff0001ffe8fffd000cffb3ffcfffe6
ffb2fff900000002fffbfffdffef0003
fffefff5fff8000d00270019001e0007
ffc5ffb7ffc2ffdfffecffd5ffd80006
ffe80000ffda0014ffecffe6fff3ffd6
fffefffcffedfff8ffd3ffebffe1ffef
0000fff4ffedffd1ffbeffbeffff0027
fff2001fffafffa8ffe10007ffe2fff1
ffcc00090001ffebfff1ffdaffddfffb
ffc9ff9fffd800290002000fffc2ffe9
fff4ffcdffea00000004ffe5ffe0ffc0
fff7ffecffea000c0017ffdaffc7ffeb
0019ffe9000f0011ffb7000400020000
ffdcffe0ffd4ffc3ffe2ffbdffd20002
fff90015ffcb00020014fffafff6ffeb
ffa4ffe10004fff3ffdbffe8fff1fff7
ffe5ffecfffb000600010024ffe9ffb2
fff8fff4fff5ffdeffd3fff80010ffd8
ffedffd5ffe7fffcffe1fffefffb0004
ffbefffd0024ffe1ff8bffdffffeffda
fff4fff1ffedfff0ffe9ffe2ffa6ffb5
ffe90014000e0003fffb00170021ffff
ffb8ffcbffe3fff60004ffd8ffd1fffc
fffbfff2ff97ffcc002bffd2ffff0000
0011001b000e001cfff2fff8fff0fff9
000bffc9ffd1fff4ffe2000d0015000c
ffdefffe000b001eff98fff20002000a
fff3fffcfffb0003ffe1ffd6ff97ffbd
ffe7fff4000afff6fffb00100004000d
fff50010ffeeffd6ffbfffc5ffc6fff9
ffc8ffaeffb5ff82ff5cff9dffd4ffeb
fff5000200080017fff8000d0010ffee
ffe3ffdafff9ffe800020000ffeeffe3
ffc3ffbbffec000afff3fffdffdaffe0
000affdc000200170004fff1ffa6ffa6
ffdeffc8000affe4001100210005000a
00220008ffff001e0015ffd6ffc0ffdb
fffcfffcffb2ffb2ffb1ffcbffe6000d
fffffff9ffe4000bfff90009ffeefff5
000dffc4ffca0008ffd5ffdd00050002
ffa7001cfff5fffa0013ffcfffe80014
0048002400220011000cffc4ffcaff95
ffdcfff50034001bffedfff10007003d
fff5ffc0ffb0ffbcff91ff7affa3ffc0
ffe9ffceffa0ffb5ffb1ffe000020000
ffb3ffed000c001e002b004b00360017
ffbaffa3ffc9ffb3ffccffa8ff89ff8a
fff8ffee0001ffe60005ffedffe6ffd2
0031002a00250033ffe6ffdbfff3ffee
ffadffc8ffa2ff9dff98ffc2ffb8001e
000affe6fffeffebffe7ffe1ffebffc4
ffe5fff5fff4000b00090016fff2000e
ffecffe8ffc6fffcffed0017ffe60016
fff8ffd0ffefffefffe8ffe1ffdcffc4
0011ffe00009000f00000000fff2ffe5
fff6fff4fff4fff9ffe3fff9000effec
ffe8ffedffe5ffd6ffecffe6ffeaffd5
000300060001fff80002ffe7ffecffe8
00000001000e00050006fff3fffbfff9
0042005c000a0052ffd9fff0ffebffe3
ffe300200022002500340054003f0018
0018003600180013fffa0006ffe9ffdd
ffe8ffd1ff98ffb0ffaeffacffcbffdb
0002000cfff5ffda001d0011001d0019
ffe9ffc1ffe8ffe5ffd4ffdf000cfff1
ffe9ffff000efff50017002f001c0008
000cffd80039ffc9fffcfffeffcc0003
ffc3ffec001b0005001affebffdfffc2
00190054fff9fffdffd5ffd7fff9ffeb
fff3ffecfff8002300180015002c000a
002dfff8fff00012fffcfffe0029ffe9
ffbbffe2001d0007ffec0021000b0009
001300230026ffdc0000002d0003000a
000f001c002e00170019003800260037
ffff002000040010000bffff0021000c
00020000ffec0005ffa0fff40024fff1
00330047002e004700360041ffeaffed
00040000000c0019001e001a0032003d
ff91ffe40007fffc0012000700230017
00350015ffd1000f0002ffed0004000e
00270036003d00370055002ffff30011
0027001b000b0022000300000007000b
fff0ffdbfff3fff7ff87ffd0001e001c
004c0008ffc8ffe4002d0009ffe6002b
fffdffff0006000e001800130018001c
ff9affdb000700210021000ffff70003
0019000e002f0025fff0ffc7fffe0007
001b0003fff1fff7001d0003ffc8fff3
001a0003ffe9fffc0009000a000efffc
ffe5fff200150002ff95ffe9000b003b
0001fff3ffc6ffdfffeefffe001d0011
fffd001100150000fff1000fffeaffc7
ffd7fffdffff0017001d0002ffe4000a
ffe6fff1001f0035ffe2ffe10021000a
00080000fff8ffcfffd1ffd2ffb1ffce
fff7ffeaffef000b0024001a00120010
ffc4ffe0001a0008ffffffedfffc0021
ffc4ff9effc3ffb8ffb00004003b0030
fffb00150012000e0006fff7ffefffe3
001cffd000140007fff3ffee00060015
ffc8000700150035ffe3fffafffdffff
000f0000ffe6fff9ffd2ffd9ffc3ffb9
0000000ffff2001b001b000f003b0012
ffe6000affe3001900230008001effff
ffd60001ffdaffe6fff6001900160020
001b001900170021001400280002ffee
000c0020ffe3fff4ffe0001100100009
000900160014004500170019fffa000c
0026003b0039fff4fff00001fffcfff3
00000010001200060014001c000c002b
0035fffc0001fffd00140035ffe9ffe8
ffeb0004fffeffb8ffbbffca0008002d
001300240017001f002a0037002a0019
00100029ffe2ffdfffcf001700190006
ffbdffa7ffe4001e00230009000dfffe
002d001d002f001bfff2ffd9ffedffba
ffc2ffecffff00120000ffef001e000b
000000160007fff3fffb000affe5ffdf
ffefffd2ffcfffdbffb2ffa5ffabffef
000300030002ffff001b0038002d001e
000c0002fff6ffebffdaffe2fffcfffe
ffbcff8dffa2ffd9ffedffebfff3fff9
fff3001200200008fff6fffeffddffd0
ffe3ffdbfff9000b000afffdfffdfffa
00070007fff4fff800210004fffffff1
ffec0004ffdfffc7ffbfffabff87ffd8
000e0000ffe5ffe700020011fffbfff4
003d0021000affdaffec0000fffa0014
ff9dffb2ffd20004002b001efff9fff4
fff4ffee000f000bfff8ffefffeafffd
00010001fff500170022000d0003fff5
0005fffafffc001100440019000c0003
000dffffffdefff4fff9ffe0ffd2ffe9
00020029fffd0012ffed0000ffe4000f
001c0024000500020007ffedffe90014
0018fffdffd7ffed00080025ffe7fff3
000c0006000c001a00290029ffed0000
fff0fff8fffc0006000d0007000f0011
00010001fff20013001f0047000cffc9
000e004a005afffd000b00260016fffa
001efff900240022003c002000260014
0049003dffd6ffd2fff3002c0022001e
0018000afffcffedffda000c000d0005
002e000afffe0006000e00370033000b
ffed00110028000f0037ffee001b0008
0002000dffe5000a0053000dffbdffcc
ffda001800120001002c0040fffbfff0
002affebffd700000019001b0001fff0
00370015ffa9ffe600100009000d0000
001a002cfff9ffe8ffed000300030003
00130003ffc8ffc0ffcf00140032ffd0
000e0000ffe70005fff3ffe7ffe30012
0001000afff5fff2001d000effc0ffc5
ffc3000a0028ffeffff6ffdefffbfff3
ff9affe3fff8000a000bffddfff5ff91
fffeffd8fff1ffccffd5ffa2ff97ff9d
ffdeffe10007fffe000cfffbffedfffe
fffd00220052ffdefff6fff0ffd6ffe6
ffeaffdffff00016001f000400390049
fff3000f00030000fffc0017fff5ffe8
fff9ffc70002ffdfffb9ffc2ffc4ffbe
ffd8ffccffe9ffe6ff77ffc5ffe50031
fff70001ffdeffd7ffd3ffbdffd7001c
00030016ffffffbe00110031fffb0012
fff0001700120011ffff00060027000f
0008ffffffe3001f0015ff9afff8002e
ffe0ffe9002b001f0001ffdcffcefff1
00120021ffe5fff10021002b0028ffde
ffeaffccffdd00000004ffeaffea000b
ffecffe6ffe30017001f00140018fff5
0031fff9fff400120023ffff00270028
0011ffe9fff5ffe8fff4000200060021
fffaffefffecffefffd8ffdcffdbffff
0039002000260032ffe4ffd8ffd3ffe0
fffe0018000e001ffffefffb00020033
ffc5ffdffff50004000b0008ffe6fff4
ffd00007ffdcffdaffe6ffe1ffe3ffec
ffd7ffef00040017001a00040006ffe5
ffe0ffd90004000c0003fff9000affd9
ffd8fffcffd8ffceffd2ffc8ffe4ffdf
ffe8000affd6ffecffc1ffd4ffe0fff4
0014001cfff6ffe4ffb5ffdcfff6ffea
ffecffe9fff1ffe3fff7ffe700120019
ff9bffaeff92ffd0ffe4ffeafff9ffe8
ffdbffd0ffd9ffe9fff300100000ffd9
0007001b0005fff7fff8ffffffffffd7
ffdc000a00030025ffffffeb00040015
fff3000cffdefff5ffa5ff9fffd8ffcb
0002fff40000fff90000ffe2fffaffdc
0006001c003b003a002600130002ffed
ffb4001e00030009fff6fffa0006fff1
00170019fffcffccffdb0010ffdcffee
0026fff1ffe5ffe0ffff00160005000b
00040009000afff6fffa0019002c004d
ffe80019ffc90000ffe1ffcfffd0ffd7
fffefffe0007ffecffe3ffe3ffcaffc9
000f0005001a001c0016fff6ffdfffdc
00170000000ffff9ffe6fff500360017
ffdbffd4ffee0002fff00006ffb9ffc7
00170004ffeeffee000a001a000dffe8
001b0024003800310023fffb00000019
0015001bffa2ffc400000027003b0026
000000110015000b0000000400020014
fffdfff4ffe100090032001dfff8ffef
ffd6ffdbffbeffadffcbfff5000c0011
0009fff0fffe0025002d003afff2ffec
001a0022fff30008ffeb000500120002
000f000f0011002a0024fffc00010008
00200033000b0006ffed0016000f004a
fff9fffafffc000b0005ffddffb3ffea
0014000b00000008001e003400190021
0047003500400000fff60015000cfffe
fff4ffdaffd2ffe5001b001a000e0004
00000047003500180022fff7fffafffc
000a0023001dffd10009ffcdffbaffcc
001bffc9ffe200130004ffe8ffe7ffea
001afff900020000ffeeffedfff8000e
000b0009fffbffdf000f0033002a0038
fffb00160037002b0025003700130011
ffdcffd5ffd5fff00016ffacffcf000a
00090021001bfffe0007fff3fff20000
fffcfff4ffe9000e0018000f0002ffe5
ffe1ff92ffed0014ffdcfff7ffe2fff5
ffe8ffedfff7ffff003900180007ffe5
000dfffefffe000c000a002efff80003
00270016001e0004fffcffe8fff40013
00280017000e000dffdbfff0ffd6ffd2
000800180016ffea0000ffeb000e0005
0036000f001b00150020001f002d0017
fffafffffff1ffeb0023fffe001c002a
ffe2ffdafffd0005fffafffd00100019
001c0014000d00270012000cffff0001
001c000b001500050018000700070014
00090013001b00250017ffeeffb6ffba
000d0015fff4fff8ffeafffdfffdfffd
0011ffeeffef0007000affe8fffd0007
0019ffd9ffc2ffbb00130028001d0005
0004fff600060032fffb0005001e0037
0000fff3ffeafff5fff0000200120010
0034003c000cffecfff7ffdcfff90008
0003ffe2ffe30001000affdaffb6ffa6
ffdfffc4ffc60002fff7fffcfff0fff9
fff9ffe4fffd00220025000afff8ffd2
ffeaffd3fff6ffe3003e004000160000
0001fff1fff700010014ffecffb6ffe2
00170010fff2ff94ffd1ffd4fffb0006
00210014ffe30000ffcefff1fffa0008
0010fffdffa6ffcaffc5ffc2ffe0fff4
ffe5ffde0010ffe5ffcaff98ffc60004
ffedffd7ffcbffc9ffebffb4ffe7ffc0
fff7ffd6000800160007ffdafff8ffe7
ffe0ffe7ff74ff7500040026ffc6ffe3
ff9eff91ff78ff8afff6ffd6ffd8ffdf
0000ffeefff4fff9ffdeffcaffa2ffc3
fff8ffe0fff000140003ffeb00020006
003f003700630019ffdcffedfffeffd3
ffd7002e002b001f004e005f00570043
ffd0002b001effea0009fff8ffd0ffd1
ffe2ffe9ffaeff98ff9bff7effb4ffbb
fffefff4fffdffdafff1fff4fff70019
ffd7ffc4ff9dffcaffc2ffd9fff1fff3
ffeeffe900050026fff100130021001e
ffd4ffe7ffdeffe6ffe9fff2ffeafffa
ffd4fff3fffdfff1fff70003ffdfffca
0019002c004e0023ffb8ffdbffe8ffee
ffe5fff3fffaffe80008003800150020
ffeeffe1fff8000fffe3ffe9ffe8ffef
ffa8fff100060011fff6fffcfffaffe5
fff9000e0020001e001e002c000dffff
ffefffffffebfff0ffdcfff30003fff0
fffffff60000fff4ffc4ffcafff0fff3
0008fff9fff6ffd0ff96ffeb00020007
ffe3000900030006fff7001300260007
ffdaffd3ffe2ffdfffddffc2ffe4fff2
ff83ffe1ffff0004fff8ffeefffdffec
0036000ffff9ffe3000a0006ffebffea
ffdfffb9ffe4ffdcfffe0000ffff0017
ffe3ffe5ffecfff3ffe6ffcaffd0ffdb
001affc4ffe8fff0ff73ffc1ffe0ffe8
0000fff40012003e001afff9ffce000d
fff6ffceffdfffd2ffbaffcbffddffe0
ffa0ffb3ffddffe4ffc6ffe3fff90005
00140012fff10018ffc5fff1fff4000a
ffe8ffebffc2ffd7ffd2ffe200130021
ffddfff6fff1ffcbffd9ffd0ffcafffa
ffd9ffca00170031ffe5fff60006fffc
ffc50010002a002600180002ffc3ff9f
fff1ffd8ffcd0004ffe7fff8ffd6ffd7
0010fff60001001fffd8ffd7ffecffde
fffaffd5fffbfffd000d0001fff1000b
ffe80018ffcbffdbffcdfff3fff8ffd5
fffa000fffe0ffd3fffaffe8ffef0012
fffcffd0fffc0002001bffeeffe00008
ffe3fffd0013ffe4fffe001100420019
ffbfffafffda0015001400090014fffb
ffe2ffcfffea001f002800040003ffd7
ffe3fff10000001e0035fffefff7fff1
000dffddffdbffeeffc4ffe5000f0001
002300150007ffd4ffcdffd0ffda0002
00340034ffff000e000dfff5000c001c
ffe20004fff4000dffdcff9fff86ffe8
ffb8ffb5ffd7fffefffaffd8ff93ff9e
0006fffcfff0ffde00070000001bffd8
ffe4fff700210018002c0039003f0003
0010002cffaeff67ffc6ffbcfffb0008
0007ffff0002fffdffd4ffbdffe20019
0031002200220020001c003e0031ffee
ffa4ffd30007001d001ffff20030001e
fff4ffb7ffcfffd2ffebfffcff92ff7d
000e000c0007000a00060008fff7fff8
fff4fff20013001e000b001b000efffc
ffe90006ffc3ff9bffacffeefffcfffd
0021002f001b00010001ffc6ffcbffc7
ffb1ffa1fff20000fff6fff7000cfffa
ffdbfff7001600110002ffe9ffa8ff98
0000ffe1ffc7ffd8ffe7000cffe3ffc3
000900130008000c0019001f00160000
0015fff40002ffd7ffacffa0ffddfff9
ffcbffcbffd9ffe6000a0014fff7fffe
000b001b0014000300080003fffaffd9
00250028fff7fff5fff600070013fff4
00300018001a0000000a001b00250004
0008001400160009ffe5ffdeffe9001d
00260018000fffda00070017002b0024
ffea00060001000e0018fff3ffeafffb
fffbffdfffee000b002a002d000c0007
0003001c0020001c003b000a001a0000
0007ffe2ffa1ffaf00130000fff3fff1
00030000001d0010fff9001500320022
0043001cffff0009000bffe1ffd2ffc7
001d0016fff3ffccffebfffb001b0028
ffe8ffd7ffcdffb20004fff8ffd50001
003a00160004ffc7ffc6ffbbffecfff8
fffc00140049002b001b001100140042
ffe8fff9ffed000200340028ffcdffc8
ffe2ffdaffb9ffe0ff8effc2ffbaff9b
fffd0002002e002afffbfffffff1ffe4
00410025ffc5ffd7fff7000600100017
ff98ff9affafffcc0003fff6fffbfffc
00070019000bfff400620000fff3ffab
00010001000a002000130036ffd3ffc8
fff5fffdffed0010001f000effd1ffe7
ffdaffacffd50013fffbffdaffe8ffd6
ffa1ffa1ffc8001d000800340048ff9e
fffdffd6ffb9ffd00005ffb7ffaaffbc
ffedffdcfff5fff4ffebffeb0013fff3
ff8fff8bffd2ffc8ffc7ffef000cfff9
ffefffe6ffcd0007fff00004001f0027
fffc000dfffb00090005fff5ffe90013
0008ffeeffffffebfff8fff6000a0002
ffe5ffeaffd7fff5ffaeffc0ffd6fff1
fffcfff00001ffecfff5fff1fff8ffe5
fff10005000afff10003fffcfff2fffa
0005ffc90002fffe005a0045003a003e
ffffffdeffbfffd0fffbffd9fff70012
fff00000ffebfffafffeffff001b0001
00320020ffea0008ffd3fff3ffe5ffdb
ffd9fffc002d001affe8fff1ffff0024
0005fffe001b0023001effc9ffcf0000
001300120000ffd4ffdbfff2ffd40000
0002001afff7004a0025000100370000
ffe0ffb2ffeeffdbffec002d000cfff7
0020fff80002fff0fffffff8ffd0ffe6
00330013001cffd70021000cffd0ffed
ffeb0000ffecfffdfff1fffcfffc0028
0001000afff8ffedfffcffdffff4ffe0
ffff000dffba0022001dffe200000001
fff2fffbffee000b0011000affdcfff3
ffecfff9fff2fffffff1fff1fffbfffa
fff0ffd3fff20001002afffaffd5fff7
fff3ffe0ffebfff2ffecffdf00080027
ffea0000000500040006fff8fffa000e
0047fff5ffe8fff50009ffe2ffe00001
ffc0ffd100240029ffd0ffe8fff3fffb
fff80013fff3ffeeffc4ffe0ffcdffc8
000fffecfffd0002fff5000b00110002
ffe40018ffdfffdd0046ffe9ffd3ffdd
fffafff3ffe4ffd3ffafffd6ffef0019
0015001e000d0019001d00080000fffb
002dffebffe2fffbfffc0011000cffe7
ffddffd3ffbe000e0001000effea0003
00000012fff9001700120001ffdaffe3
0017001d00050001001700100005000c
001f000effd7fffa003c000800080009
fffeffdefffbfff0ffe3ffd8ffb10046
0029fff30002001d00070002000effdd
fff50023000a0004002f00140007fff3
ffe6ffe4ff9300150000fff1ffd4000a
fffa0002ffec0005000ffff60003ffd5
0028002f001400070019000600220019
ffc2ffc1fffdfff80007003f00200013
ffeaffd5ffc1ffc7ffe2ffedffb4ffc5
00150016000ffffafff4ffedffd9fff0
00340032002a00260023002600170028
ffa5ffd1ffc1ffd7ffd4ffecffffffec
ffdeffefffddffcdffdfffdbffc7ffd9
000200110024002a001e000e00060010
00010002fff0ffd70025005100230032
ffc6ffc3ffb2ffb3ffb4ffd8fff3fff8
00130000fff9ffecfff8fff4ffd3ffc0
000f002e000a0001001bfff50018002d
ff99ffcaffd1ffe70007fff0fff9fff4
fffe0000ffdbffebffeeffa9ffbaffb6
00000009001c001a000f0012fff3fffb
0014ffdaffddfffd0037003700160002
0002ffc8ffd2ffd5ffceffcbffcdffce
00100016fff5000c00110004fff9ffd1
00140012fff5ffe5002c00060009fff6
ffebfffaffdc00000034ffd1ffed0009
fffe0006000afff90001ffedffd6ffd7
fffcffea0013000dfffc00130012001a
0043fffeffe8fff00018ffdcffe7ffe5
0002fffcffe1ffe40000000b0012ffee
ffda0001fff60007000f0013fffd0010
001effd6ffd4ffedfff2fff500050010
001500200018fff20015fff4fff9ffe9
00010024fffb000300010001fffa0004
fffafff2fff7000000050002fff2fff3
0015fffaffecffff0026ffd9fff7ffe1
000800170021fff90005002200280000
fff50012ffff0016ffdd00020011fff7
0016ffd8ffe3ffeaffeefffafff1fff5
0034002b0012003f001600070002fff2
ffe4fff8fff1000b0011002000240024
ffdcffedffefffe8ffed0002fff1fff5
001bfffa00090013fff7ffbeffc5ffe5
00120017002200240021002f002c001b
fff2ffedfff80005ffff00020007ffed
fff6fff7fff4ffcaffdaffe1000d0006
001700280017000600110010001dfff9
0003ffeafff6ffe1ffdf000500150012
fff3ffd100000019ffe8ffedfff6ffff
000dfff2fff0fff8ffe7ffe6ffffffe8
ffecffed000c000d0008ffe1fff0002b
fff10010000effc9fff4ffd0ffd7ffe3
ffd90013fff70007ffd7fff5ffeffff2
0005ff9effe2fff9001600000008001e
ffc9ffb2ffcaffd7ffb9ffcdfff1fff6
fffbffd5ffe3ffceffe6fff1ffc5ffae
ffeffff2fff20017ffed0018fff7ffe9
ff8bff8bff98ffcdffb9ffc6fff60006
ffceffcfffceffbdffb4ffaaffd1ffcf
0000001fffeafff10002ffe3ffbbffc3
ff94ff85ffbbffebffed0000ffe1fff7
ffbdff97ffc6ffc4ffa5ff7aff83ffba
00050010ffbaffaeffc0ffb7ffaaffc8
fff6001bffed001b000d001effd9ffed
ff94ff70ff7affa3ffb1ffa5ffb9ffdb
ffc6ffb1ffc5ffddffedffc7ffbdffaa
fffdffe9ffdaffe3ffb7ffcaffc4ffad
00180020fff6fffb0003fffb0000fffd
0008000dffb30010fffb006100370000
0024ffcc0016ffd3ffee0011ffccffc2
00030013000c00090000001000000033
ffd3000a003dffd4ffdfffecffec0008
0000ffe1fffe005800360010000c0005
0007ffde000d0000000d0026ffeeff7b
004d002cffe9ffe3001afffcffdefff5
001e001d002bfff5ffee0013000d0035
ffb9ffcbffcfffe4ffd700130004001d
ffd7ffd8ffe10000fff00002ffffffd5
000e000b00270020000affd3fff60018
000cffeffff30004002700350033002b
ffe6fff40020fff20021001100260028
001b002c001bffe6ffd1ffabffe1fff8
001f0016fffdfff6fffe000d0009001c
ffc2ffed0028001b0014001c0012000a
ffb8ffd2ffcbffd9ffe30009001fffa8
fffb0012fff900060014001f0001ffe3
001400350004001c0008fffdffeb0011
0018ffc70024ffdafffb001500270020
fffbfff5fff9fff0ffe8002a0036ffcd
000700110002fffcfff900000012ffe9
ffe4ffef001e001f000f0001001c000c
0000001d000dffddffeeffaeffbdffe3
00080009fffe000700080006000a000b
001500250012001c0014001a000bfff7
0052000cffc3ffedffbaffd8ffee000a
fff0000efff6001a000b00140027ffcc
0007fff6fff4fff30009ffebfffdfff1
ffc7ffd800070002ffffffe60005fff6
001a001c0029ffc40054000bfffa0010
fff2ffeb000efff5ffe4fff3ffec0000
0000fff7fffbffd7ffdbfff8fff0fff1
0006ff840014001a0003ffee0011fff7
ffee0002fff8fff40004ffda0017ffb0
ffe9ffd6ffd2ffe8ffe0fff3fff5ffee
fff60002fff8fff60008fffa0001ffda
fff8ffc90006ffac00160032002e000e
ffdaffd5000a0004fff90009001affff
ffe6ffdbffdaffcfffcdffd7ffe3fff3
0010001a000f0022000600000002000e
fffaffe4ffed0014ffffffc30002ff97
ffc0ffa2ffaaffb7ffd1fff000180002
0005fffdfff200170005ffc3ffd5ffe4
ffe7ffe4ffdeffd6004700490028000f
ffbdffc8ffe0ffecffddffdbffd9ffe0
0009ffe9ffe9ffe7ffbcffbcffb6ff9e
002f002a001cfff8fff0ffd9fffafff7
fff5fffafff1ffe0ffd6ffecffeaffdd
ffd8ffc7ffc1ffceffb9ffd1ffcaffd9
0011003200230009fffffffeffeeffd8
0001fff1000dffe70068007500420031
ffc0ffe8ffeefff9ffe500060005000b
fffcffeafff9fff7fff3ffe6ffcfffbe
003a005a0029002c0018001700180018
000600160006ffefffefffe9003b002e
000cfff8ffefffe8ffe2ffe6000d0009
00260017001400130009fffa000d0001
ffdffffa004f003c0020005100360032
00310019000800140009001400140018
000bffea001700110010fffc0001fff7
00430034000700100002001c001e0019
001e00130022002600370009004a003a
0017000800160001000c0006fffe001e
fffcfff300370007001a001200130012
0013000f00230017002200280015fffa
001afff000130029002600220013000e
fffa00160032001800130006000cfffe
0027fff6ffff001c00190014000f000b
00190014fff000030019002e0047003f
000d0004001100100023000d0015002b
fffdfff6fffa0007000d001c00000002
0034003b004c005f001efff2ffed000f
00180025001f001000060006001e0024
0003000f000dffedfff6ffe7000f0003
001200000006000effedffe10002fff6
002400290012002c0032001f0052005c
fffafff7ffeefff3002c00070023001e
00190000fff9ffdbfffd00120005fff8
0003001c00340069000f00050026001a
00120014001c0008001e00360021001f
ffddffe5ffd2fff6fffbfffa00080004
fff5000afffa000cfff7fff7ffefffda
002400150013ffffffd9ffceffd50049
ffecfff000160013002d001a00080029
fff2fff2ffdeffc5ffbdffb0ffbdffe4
ffbfffaeffbdfffcfffd0007ffd9fff4
0013001d0009000bfff2fffb0003ffeb
ffceffd2ffbfffd3ffe3fffa00040028
001e0007fff0000afff6fffcfff5fff6
ffdcffeefff7ffd4ff7bff8fff9fffef
ffe4ffe5fffe000dffdf0007ffdbffde
ffdcfff0ffeefff3ffc7ffb0ffd3ffd4
ff6dffd8ffe4ffedfff00001ffeffff1
ffaaffb8ff8eff7fff70ffc50008fffb
ffafffbbffadffbcffbeffe50000fff1
0011fff60000ffcaffeaffe6ffe8ffbe
005c002c001c000a0005fffefff8ffe3
0000fff3ffec001a004a005b00610055
fff0ffdeffcbfff3ffddffd5ffef0000
000bfff4fff9fffefff9001a0024002b
00020015002a000dfffefff5ffecffe1
ffe5fffa000b00260013000400170014
fff3000a000b00230003ffdcffd3ffdd
00140020ffeaffc5ffbfffc3ffddffef
00080016fffb001d0020001f0006000a
ffbfffd2ffd3fff2ffe0fffe00140006
ffccffb8ffd9fff70005ffe9ffabffb5
001cfffa001afff4fff10015fffafff6
00030008000d00010007000200040001
0023ffe9ffe4fffafff0fffd000bffff
0020000fffe3ffe8ffe9fffeffcfffec
0004fff90017ffe80007001600060016
fffcfffbfffa00050011001d00120004
0008fff9fffbffd6001bffecffbeffec
0013fff6ffe4000d000a000a0007000f
0013ffee001000060013001600070007
00630006ffddffe6ffecffefffe5000c
000200000005001f0013fff0fffeffec
00250017001f00190008001b0013fff7
ffffffe2ffc0fff6ffde000d00020007
fff2ffeaffdcffdd002cffddffc8ffe3
001e000a001fffe2ffecfffcfff7fff6
000a000400080005001600220000000c
00330027fffdfff2ffe7fffbffedffe6
ffef000a0003ffc9ffbafff9ffdeffd3
002600320025000c0032003700240014
ffd9fff9fffdffd6fffcfffafffb0029
ffdc0003fff8ffbdfffbfffd000efffc
fff6ffe800000006fff8002c0020002e
0004fffa00100005002f00300022fffa
0012000d0015fffa000fffd8ffe0fffe
00150027002500330013ffd8ffb6ffc2
00010027001f003d00240005fffcfff2
ffefffd3ffeefff8ffef00060007001e
ffe2ff99ffefffe7000d00000019ffec
0023fff8fff70005002e001e002e0021
ffdbfff5fff6ffe80003000200100019
001f0033001a00140014ffe5000cfff3
00440033000b0002ffe5ffeaffbdffde
fff7001600280033001e002f00470026
0017ffeffff7ffd8ffd9ffe2ffe20003
003ffffc0008ffc5002b0034002f0016
00080019001300180022001d00430035
ffd1ffe5000600130037001700020014
0026003400350004000e0000fffeffeb
0005fff70019000c000b003e0035ffe3
00110019fff3fff4fffa00020006fff3
0036001d0004fffaffd9fffaffeffffc
0005001200290010004300380021001f
fff4ffe4fffaffe6fffcfff90003ffdf
fff0fff10001000e00190026fffe0012
005f001c003a002a0009000900050026
ffffffe5ffc7fff2ffda000500110023
ffe3fff10000ffeafffaffe8ffdfffeb
00310043001fffffffebffe7ffff0016
001600030009ffcf0041000600220022
ffd5ffdbffc4ffcffff60013000f0022
0000000a00110003ffedffeb000bffe0
003bfffefff2000d0016001e000e0011
ffeaffd3fffcfff3fff6001d0014ffdf
000affeffffcfffbfffcffcfffdcffeb
004100450022001d00190008ffeefff5
0027003c0046001e0007001900170019
fff8ffd7ffdaffe4ffdeffc3fff9fff9
004100250047004a000f00040002ffe1
0012ffe7fff7001c002d002300060016
ffeeffbfffcf0028002d00390042fff8
000c000ffffaffeeffedffe0ffbeffc3
0033003f0035002d004c003a00230000
ffc30047003900350002002600130000
ffe7ffd4ffc3ffc1ffc3ffadffbaffc0
003500470028001100030004fff4fffe
ffff0018000f0021002c002a002c0034
ffd6ffb0ff95ff6fffb9ff9fffbb0000
00030002fff7ffdefffafff6ffe1ffed
0018002700300034002b00310026001d
ff9effb8ffd9fff6fff7001c0028002f
ffe3ffc9ffbdffb8ffbbffa2ff72ffb5
00660058003400300019000affe0ffe8
0001000e0034ffda0003003900160042
000c00270027ffbaffccffe0ffeefff1
003b0021fff5fff40005ffecffee0018
0028004c0013004800630075006a004c
ffd900110005fff8000e000affcfffc7
0019001b0020ffffff92ffc4ffe70000
0052000e003700480031fffd00170013
001b0005ffe5ffe1fff300030009002b
ffd1fffb000c000d00000000000f0011
ffefffc1ffbaff98ff99ffd3ffcdffcd
ffe3ffc7fff8ffc4ffa8ffa5fff1000b
ffecffef0002001a0013fff2ffe4ffe6
ffbdffb5fff8ffc9ffe7fffd00060004
ffdaffe4ffcbffd8ffddffedffdbffd1
fff80002fff1fff8ffdcffe1ffc5ffe4
ffcdffd1fff2fffbfffe000b0003fffa
0000ffeefffdffdbffd3ffdaffc5ffad
ff98ffbaffd3ffb9ffc5ffe1ffefffef
ffd8ffe800070010ffffffbcffcfffb5
fff100060057001f00530004ffe2ffe0
ffe7ffe6ffef0004ffe7ffdcfff8000b
fffbffdaffbdffa2ffcd000d0013ffe6
001d00220002000b002c0000ffee0008
ffe8ffc60006000a0000003c0026002b
ffea00120001fff1ffe3ffed0008ffe9
000e000d0001ffd8ffb9ffb0ff94ffb3
0004fffeffeb0025000afff5fff5002b
ffdaffeb0000fff9ffe4ffe6fff4000b
ffaefff7fffffffdfffcfff1ffe1fff5
001f0000ffd0002c0008001bffffffff
00170000000b0018fff1ffe5ffff0000
ffddffefffed0009fffafff400050012
0016003200000010ffa10025001cfffe
fffaffebffe9001c001affdcffccffee
0002000b00000027000a000800040010
ff73004b0011ffeafffafff8fffefffe
fff1fff2ffb7ffee0029fff300150011
00190017ffdc0014fff90000ffd9ffe9
fff8ffe50002fff2fffe000800140013
ffe5ffff003bfff4ff54004d000b0005
ffcfffd9ffccffe2ffd5ffecffd3fff7
00150021ffff002c00160009ffeaffdf
ff50003900030027ffff001500280013
ffe2001a001cffccffdf000000190006
fffafff2fff4ffd5ffaeffe3ffe5ffe2
002f000d00010009000f0004fffc0005
0030fff6000cfffcff9c000400240001
ffc7ffd9ffdaffecfff0fff8ffe5ffc1
00150004fff1ffe4ffd6fffaffffffe6
ffcaffb100200014000a001c00150000
ffccffcbffc4fff6003efff90004ffcb
ffe6ffe9ffe2ffd9ffbeffd2ffbbffe1
0033003e0012001d000f000b0007fffc
0046ffe5000e000bfff9ff84002f001c
ffcdfff0ffd2ffe0ffc8ffb3ffb70005
0000fff2fffcffeeffd6ffe2ffcdffcb
ffdfff7e001c002d000800010007fff3
fff1ffe1ffc0ffc80008fff2fff60017
ffe2ffd1ffa1ffd0ffe5fff9ffcbfff0
fff0ffd9fff3ffff0016fffbfffefff0
fff00002fff7fff9ffd6ffe30019ffe8
fff90007000b0000fff7ffebffd5ffca
ffeffff30007fff3ffe4fff6ffcbffc4
ffa3ffdefffbffd2ffcaffe4ffe20005
0020ffe1ffaefff2ffe1fffe001dfff6
ffff0013ffedffd8ffd60014fff5ffe9
ffcdffdefff1fff3ffde0002000dfff4
ffd3003a0016ffffff7d00100003fffb
ffdffffcfff9fff500130005fff30000
0008fffafff9fff5000ffff4fff9fff0
ff80003f001b0000ffceffe8fff9fff3
0011fff8000dffd0ffe700380012fffc
000000150007fff4fff1fff10001ffdd
fffefffefff500010006fffcffea000f
ffe7001d00110008ffbf002c000b0022
ffebfff1ffe4ffefffe3ffd00004fff7
0019fff5fffb0008fff500220007ffd2
ffb90009001600270015fff8001bfff6
ffdeffe700060002001dffe20013fff6
ffd9fffc0006fff0ffec0003ffd6ffd5
00240014000d00050007001fffef0003
fffeffe40005000dff8efff300000028
ffddffe7fff10000ffe6fff9ffd5000b
fff000160022ffffffd7fff6ffd3ffc3
ff910023000a0017002a000f0006fffe
fff2fff20000fff9ffed001900190020
fff3ffebffacffb5ffcbffe8ffe5ffdc
0013000efff40016000800000002000c
ffce002100350014ff8c002700290018
ffe1ffe2ffe6ffeeffecffd0fff1fff1
0011fffafffcffedffedfff1ffd2ffcb
ff9e00160012003bfffd001000120001
ffd1ffc6ffcefffefff200410012ffe4
000fffe1ffd2ffd5ffe1ffd5ffe4ffc9
0008000c000800040009fffffff6fff2
fff800490007ffffffc9fff400240017
ffcdffc8ffbbffceffe1ffe7ffe6001c
001bfff6fff2fffbffe7fff4ffc5ffe6
ffe7000200190009000dfffc00040003
fff5000f002e002cffe30040ffedffed
fff0001cffef0002ffefffe7ffe7ffdd
0010fff90025ffe700180007fffaffe5
fff10043fffe0003ffd7ffe1001a0017
00040000fffa0006ffdaffb9ffe00008
0021001afffefffbfff2002e0010000b
0011ffdb00160000ffe4000b00150013
fff0ffe4ffea000bfffc001e0001000e
000e003d002f00260004fff5ffffffe4
000dfff6fffefff0001500220012ffd0
000b000c00150005ffe9ffb3fff40004
fff2fff7fffbffceffdaffbdffc9000c
00070012fff1ffd6000f00580016fffc
0008ffdfffbbffdcffeaffdbfff2ffec
ffc4ffbefff5fffffff6fffc000bfffb
fff9ffb4ffdfffebffe2ffc9fff1ffe0
ffcbffefffa8ffc0ffbaffc7fff80012
ffef00070008fff9fff3fffe0014ffde
0018ffe7ffe50061003e001e0009ffba
001affecffecffecfffcfff8ffd6ffe7
0004fffffff6ffe4ffd2ffb5ffeb0032
fff20013001e0026ffedffef001c000d
0016ffde002d002c00160012fffcffd6
ffb6fff6ffeb0016ffeffff0001a0030
0019ffee001bffe9fff9ffddffbaff7f
0006fffd000000050031002500100010
000e000f002e002e001e00440045001a
ffe4ffd7ffacffca0000ffcaffd1ffdf
00000029002a001a00260035002f0001
002e00380018001d000000020016fff5
ff7cffc6ffe4ffe0ffeefff800200036
000a0048002e0000ffe3ffc4ff6fffac
0000fffc0017ffe9ffe6fff20002fff7
0008fffa0016001c000e00240004fffd
ffbeff83ff78ffadffd30002ffea0000
ffe80007ffef00110007005c0038000a
000c0019fff2001c0004fffd00130000
00080004fffe000bffe30011000c0011
fff4001b001e0018ffa1ff8cffc5ffe6
fff50008fffb00030002000f001fffe5
0000fff6000f0004001600140003fff9
ff630025ffdfffc6ffe9ffcaffe9fff8
0009fff50006ffe200050010001bfff8
fffffffc0000fff90000fff1ffe6fffb
0007ffd1ffcdfff2ffdcfffe0011fffd
0011fff40006fffdff6b0032ffde000e
fff800060007fffa000f00090016000a
fff5fffe000cffd9fff7fff5ffeaffe9
ffaaffadff87ffb4ffe4fffefff1fffe
fff50007fffbffebfffd00180012ffe1
fffffff30009fffa0008000bfff30006
ffe20000fffe00000011000d0006fffa
000b00180013ffcaffcbffd30023fffa
0000fff1fffffff6fff60012fffc0006
0015001e001a000500110007000e0000
fff1fff4000fffd9ffd8fffcfff40006
000cfffefff4fffbfffbffecffe6ffc7
0007000b000f0024fffefffeffee0004
ffa1ffd000120018002d003100150004
ffd3ffebffc5ffc5fff2ffb2ffccffa3
002800110000000bfffefff2fff9fff8
0024001d0027000c00110029001d0028
ffe2ffb3ffacffcd000b00040008002a
0000ffc9ffccffc2ffe3ffe9ffc2ffe6
001f001f002a001b000e00120006fffd
ffccffd6ffd8fff70000000600150003
ffceffe5ffbcfff5ffd7ff74ffbeffbc
002c0003fff2fff4ffeeffdbffd1ffcd
ffdaffeafff200030013002b003e0025
ffe5ffa8ff9effa7ffe0ffe6ffedfffb
ffd6ffd8ffddffe7ffd8ffbbffc3fff5
00080019002d002f0028001cfff3fff5
0017000dffeafff90005fff6ffe5fff6
0006ffe8ffd3ffd5ffca000fffcaffe8
000e0002ffeaffd7ffcfffc1ffd3fff2
000bffebfff7ffe5fff2fffb0017002a
ffbf00240003ffe1fff90015fff10011
ffe6ffe4ffe6ffe1ffe4ffea0005ffeb
ffd1fff9000e000c0017000afff8ffdd
fffd0007fffbffed0015fff1fff1ffdd
0006fff20000ffdbffc5ff90ffc3fff4
fffffff9ffe2ffdbffceffe7ffedffde
0006ffe4fff5000cffcdffe5ffee0009
ffc1ffd5fff6ffe9fff5ffdc0003fff5
fff900130001ffdc0002ffd90004ffb2
0001ffddffdfffd8ffebfffc0002000b
ffefffeafffdfffbfffdffeefff2ffd3
ffe4ffeffff6ffaeffcb0021ffdaffcc
fff40000000b000b0004fff3ffefffd6
ffe700050002ffddfff9fffafffeffe6
ffb20007ffeefffcfffdffdfffd9fffa
fffaffe2fffcffe3ffceffc4ffddffaa
fff4ffedffea0009ffe500040007000c
ffecfffa0001ffe700190003fffbfff7
ffd9fff6fffbffecffcfffd0ffb3ffc3
001e00140001fff2fffbfffeffeaffe7
fff4001d000dfffbffeefff9fffd001c
ffe40007ffdaffccfff9fff8fff70007
fff4fffd000b001600140009003f0011
0005fffcfffb0005ffff002300270011
003600290014000efffc0018001d0006
0016002700450020fff2000e003e0034
0023002400140015000b0027002a0020
003d001f00130013002f002a002b002f
000affddffe8ffd8ffe5fff90021001d
00140022004200130006001e0034000b
0044001e002300320058002300170032
ffdaffd4ffd6fffd001c0026003c001b
ffedffd4ffe10002000fffcd0014fff1
0065005affff0011003000380029002b
ffe3ffe7002900120028002100330025
0009ffdbffdfffdaffe5ffc4ffe9fff4
ffc5ffc7ffbdffe3ffedfff30021fffe
ffe40000fffdffdcffecffcaff97ffae
ff90ff98ffbeffbaffb3ffbbffd40002
ffcdffcbffddfff30000ffd2ffd5ffc5
fffd00130027002c004a0028ffefffd9
fff20001fffe0003ffecffe5fff4fff0
ffe8ffd5ffd2ffa4ffa80010000b0009
0017000f000a002d001f0001ffdb0007
fff3fff700060004000e0027fffa0018
ffe10022000bfffd0001000b0021fff6
003e003f001b0000ffc0ff70ff8cffee
0008ffef0006fff60025001800000014
0002000c000d000c0024002a0005fff7
ff89fff9000000080008fff20015fff7
ffeb000ffffd0001004b002d001b0028
000f0014001e001e00140014fffb0011
fff8ffe50003fffaffeb000d00090009
001e0028002d0022ff3900450010ffff
00100000002a0019fff7ffeb00060010
fffefff4000100150011000300320005
ff21002e0010ffefffde0005ffe4fff2
001cfff8000a0009001b002300210022
00030013002c0018001e0008001d000c
ffec0003ffea0004ffeffff000100011
001900230007000cff1500120006ffdc
003300220020000b000bfff9000b0025
fffffffefff3fffb000b000200200021
ff82ffdf0011ffeefffbffeffff6ffde
ffe600050013000f000e001300270014
00120025000e00110013002bffee0003
fffa0000fff2fffbffee0005fff3fff9
0000000dffe8ffbbffcdff8bffd3fff0
0005001c0007fffe00200028000dffe7
ffeffffcffeb00040010000800180008
ffefff7bffd20002ffffffe1ffecffce
001c00180023003100140004ffd9ffda
fffffff2ffedffed0000ffecffcdfff9
ffd2ffcbffd9ffdb000100070002ffec
000effcaffebffe2fff1ff89ffeefff5
fffcffe4ffe60008fffb000600400029
fffe0003ffecfffffffefff0fff00000
ffa7ffb2ffefffd4ffc1ffdbfffaffe5
fffc0026001f0035002200020009fffd
00090018ffffffd9ffe9ffc5ffe5fff2
ffd5fff9001900190012fffb001f0028
ffefffe700080014ff7bffdbfffbffdc
ffcfffd7000800190026003200440037
0008001300090005000c0008000affe2
ff94ffe2ffe9fff9fff5fff900090019
000b0004001700260013ffce00010010
00150008ffe9ffe9ffc4ffe7fff70012
ffdcfffc0011fff5000f001bfffa0023
001a0006001b0009ffa100040004ffe9
fff2ffed00090034000300040017001e
000700240029000f0012ffff0015fffa
ffb9fff600170005fff1fffefffafffd
001e00170021002d002e00250012fff9
fffc0014fffa000a0000fff500200028
ffedfff0fffa000f001c0023001e001b
fff4fffbfff00027ff940004fff4ffe6
0027002d0007003300210025001d0022
0002000e000500230020001cfff5000f
ff9bffe9ffe8ffe6ffe3fff8ffe5fffd
0028001300340012ffef0008ffcbffcf
001d0045001400260016001800170022
ffddfff8ffd50006fffa001600140011
ffefffebffd60019ff89fff60000fffc
0016001d0010001d001f002a001c0022
ffe1000500260020001b003200170002
ff93fff30004fff9fff7ffef0004ffee
00260018002b0016ffee0004ffd0002f
001bfffe001cfff0ffec00180000002c
ffdeffe4000affd7ffda000900010003
0024001800400026ffb4ffe10015ffe4
fff00013000c0013001d0026003d003f
ffd1ffff00000002000d002700110007
ffb3ffc6ffe8fff6ffc7ffbdffe3fff5
001c00190050005000150028005d003a
00130009002a00030015000f000e0020
ffa2ff8affa2ffc3ffd9ffe5ffe50009
fff300090035ffcfffc7ffe3ffceffc3
ffe900270027001f0032003f000f000d
ffbeffa6ffb7fffffffd000c0029fffb
00010010003b0009ffe6ffddffccffca
001500170049fff9ffc0ffcdffe10011
ffcbffcaffdf000f0015002800460061
ffbbffd7ffe3ffdeffcbffa7ffcbff9c
ffadffa50003fffd0000fff100230003
ffe20000002d004b003e0030001dff97
ffb80007fffeff6fff87ff9100000028
000dffd1ffc6ffc7ffd8ffafffe4ffd3
ffcfffaaffe7fff70005ffe600050003
ff4effa6ffcaffd6ffccffaaffabff9b
ffe5ffd9ffa4ffccffe700170025ff54
0007ffff0006ffee0003ffef0014ffef
ffe4fff7ffd6ffc7ffe200010016000b
ffe0ffd8ffcb0002ffecffe2ffc80005
fff8ffe400030000fff0fff5ffbeffc4
fff4ffe7ffd6ffcbffbbffc4000cffef
ffdcffe7ffcfffe4ffabffb6ffd2ffde
fff1ffa7ff9bff80ffb3ffc8ffafffd5
ffc0ffc90011ffedffe8ffd2ffefffda
ffb3ffaeffd8ffb5ffccffc3ffbeffb3
ffe1ffc6ffd3fff3ffe6ffd8ffc9ffe0
ffdeffb3ffb6ffa9ffcafff0ffc3ffa2
ffe7ffb8ffbdffbaffbfffe4000efff9
ffe6ffe6ffceffd3ff97ffb9ffdfffd0
0023000effedffdafff8ffd2ffd4ffe1
ffca00030002fff70001002f0015fff3
ffd0fffeffdafff8ffe6ffc1ffc5ffd1
000ffff70006fffaffedffea0003ffdd
000b001b00030008001f0004fff5fff2
000dffc6ffe0ffefffe6ffedfffdffdf
fff10016002cffebffe5ffefffcf0010
00030006fffdfff9ffed000c000efffa
ffe1fff8ffecfff30031001600000013
0027002f002300100008ffcd000affe3
00160017000f00130018001a001c0040
001c00000014000a001d0003001a000e
001bffda0035ffcdfff4000bfff8ffe7
0039003e003800540045005600400008
000c0010000d001400260012001a0014
fff8fffefff1001c00150008fff70025
00240056004e002f00330007fffafff4
0027001d002a003a0028004400360059
0026000bfff80000001a000800080018
0008000f0012ffe90012ffe4ffcdfff5
002c005c00190041000d003900220015
000a001d002300160006000d002c0021
0018fff4ffedfff9000f000dfffbfffb
00100040001000270018fff80036fffb
000b0024002e002b0033002e001f0027
0014001f000c000000040002002a0018
001100080011ffe4001bffb7ffeefff4
00200016001d001e0014001d001b0025
0003001c001b000a000e0029002a0013
0007ffe3fffcffebffc8fffeffe4ffee
00130014002f0006fffc00150004ffe8
00090018002a00000015000900260007
ffe6fff0ffdaffd2000e001a001f002d
00100024ffe7ffe9ffe100020000ffdd
0005fffa00270020000dfffb0011fffc
000b000c0015001c0016000a00350005
fff7000f00140000fff2ffc1ffd3fffa
000c000b000d000600160020ffe8ffe7
0016fff600220004fffafff900140014
0018ffbcffbffff3000d000c0010002a
fff4fff800090003ffd5001000070000
000fffe80000fff1fff9000600020012
ffd6fffc00080005000b001a0021000b
ffcefff90000fff70018ffdfffd9fff2
fff8ffff00130008ffff00060019002b
001b001b00090008fff9ffe7fff70009
000fffd7ffdcffcdffe6fff3fffeffef
001affe4000e0001fffc000b000ffff0
ffd7ffb4fff0fff8ffffffeb0013000f
ffff000d000c0000fffefff6fffc000e
ffdcffd7ffe4ffef001effefffd4ffe7
fffdfff5fff5000b000effe900100011
ffe6fffcffdc0000fff5ffdfffd6fffc
0000fff1ffe6fff30000ffe5fffb0001
ffe0fffbfff9ffb9ffd4ffcdffa1fff3
ffeafff20008ffeb0002ffcb00030013
fff1001effeefff7fff0fff9ffeeffec
ffcfffddffa10003ff9affeaffd4ffda
ffc8ffeeffe2ffd0ffe8ffe8ffd40003
fff3ffdfffed0001001d000cfffa0000
ffbdffe5ffeffffdffedffe3fffafff3
ffbfffbaffc5ffd4ffeeffc6ffb2fffc
fff8000100120007fffe000cffe0ffc6
fff60004000a000bffe0000900100001
ffdeffb1ffdffff2ffb0ffceffdefff0
000a00180000fff2ffc9ffd5ffbaffbd
fff000270026000e000000080010000e
ffc1ffdefff3000dffff0015fffafff7
fff9ffbeffcfffb9ffeefff5fffcfffe
001b001200050015000f0016001a0008
0013000ffff9fffc0017001600200027
fffc0004fffcfffeffdaffe5ffed0007
001e0029000a0016000dffd9ffc7fff4
000f001100210025001500210031001b
ffc0ffef0001ffe2001c000e00140017
001dffe5ffc4ffeafffbfffe00010001
002200030005001f002a0022fffd001e
000a001700170016000d001c000a000f
fffdffdffff1000cffeaffdefff00002
0028002afff10032003e002f0017fff2
0011fff6ffeaffec0016000300060038
fff3ffe0ffd7fffa0008ffe1ffe2fff7
002b00320028ffe9001400040009fff6
00110001ffe000130007001ffff90029
fffcffc3ffc5ffe10002ffefffd7ffe8
00080003fff8000d001cffc7ffe2000b
0020ffdaffe7002c0033003bfff80005
001effeaffee0009fffdffdffff1fff0
fff8ffdeffe9ffe1fff3ff8cffa5ffb6
ffdfffe4fff1ffa8ffc70006ffd80004
ffc9fff5000f0002ff9effb2ffe8ffcf
ffdfffdcffccffc8ffb6ffd2ffefffc1
ffabfff5ffe5fffe0006fffefff6ffde
ffefffd9ffb1fffeffeaffc1fff0ffad
ffcdff9400000007000affc7ff94ffe2
ffdcffc0ffebffcfffcdffb7ffd4fff3
ffdbffcffff1ffdcffb1ffcaffb4fff9
ffaeffcf0008ffeaffef0000ffe90012
fffe00300046001affccffeb0000ffd0
ffd7ffb7ffc8fff8000a0016001c0031
ffd60008ffd2ffe8ffcdffdcffbfffc8
ffd80000fffeffeeffeaffdfffdaffe5
ffeeffd9003c00120012ffc8ffe2ffdb
ffe9ffeefff7ffd2ffd8ffedffb50001
ffe8ffeafff100060010ffffffbfffd2
000d00060000fff1ffeeffc7fff5ffe7
ffe4ffe9ffbfffeb0027ffc0ffccfff3
00330009ffe3ffe4002400260000ffe6
ffeeffd9fffcffe90006000d0032003e
00330049001300350017001d00030003
fffc0012000d0016fff9fff5ffe0000e
ffddffceffedffe8fff8fff5ffe0fffe
001c00050000fff1ffdcffc6ffccffcd
0017ffe6fffd0006000d00170028000e
ffdeffd4ffc0ffd9ffe2ffe7002c0037
ffe7ffc7ffc6ffd6ffe0ffd0ffdfffc8
fff2ffb4fffe0020fff0000bffdbffe5
ffd5ffea0006001a000c000d00120008
000dffd2ffe0fff4fffcfff8ffc9ffd4
0007fff2ffebffe20014ffe6ffecfff1
fffeffe30019000b002b003900010020
ffecffe1ffdfffe6ffe1ffd3ffe7ffe8
fffffff500100010fffffff3fff7ffdd
000ffff7002400110006ffedfffdfff8
ffecffcfffb3ffccffdfffdb0005fffb
ffedffde00120000fff0ffefffe6ffd6
0014000afff0002a0010ffe2ffe90011
ffe900000031fffbffe1ffb5ffc2ffef
fff2ffff0000fffcffdeffd9ffdeffe4
0023fff3000200170015fff4fff0fff0
ffd60028002d0007003300050015ffff
fff3fff4fffffff9fff6000b0014ffff
ffe6fffc00350028001a000700010004
000e001e0018001c001bfffcffe90002
0001ffe8fffb0001ffc1ffadfffd0008
000f001c000000200023fff3000cfffb
0012fff8fff8ffddfffe000900180024
00000009001cffed002f002000280043
00360030002900090000ffefffe4ffff
0008000e000800150031001f00200017
ffedfff40019000e0007fffd00200000
00270040fff5fffa0014fffcfff2ffff
001f002200140024001d000d001b0033
ffdf001c0019fff2001a001500050004
0003ffe30005fff9ffee0000fff9000a
00170026001a001c002e0041000efff2
001a001f0004fff7ffe0fff8000cfffa
fffaffef000efff4fff6fff70011001f
00140027001d0025002100040003fff0
ffddffda00080013002d00230017001a
000d000b000500060013001fffe20000
ffeaffe8fffd0009fff1ffee00140016
0012000d000600000015000a0007001b
0017fff8fffffffdffe2ffeffff8ffe2
fffd0017001e00060026ffff0007fff1
000d0009002f0002ffb2ffe600030000
fffcffd5ffe90003000e000cfffbffe0
00290005000b0012fff4001200000005
ffd80004fff1001bffef0012fff10028
fff40024000f000c0008fffa0026fff8
fffefff8ffecfffcffe6ffffffe2fff1
ffdbffe5fff4000a0016000c00190007
fff7fff10009000cffd3ffd9ffc9ffe9
fff5ffe5ffe90000000c000f00250017
0008002200030004000000000009ffe3
ffc9ffd1ffbaffe20005000cfff7000c
fff4001b000800090007ffd2000b001d
fff6ffffffecffdcfffaffe1fff10000
000600270032001200090001fff5ffee
ffeeffd30006ffe0ffe9ffdefff90004
fff1fff7fff60017fffdfff3ffdfffcb
ffe7ffe6fff5fffefffdffe3fff7ffe8
fff500110000fff8ffd9fff5000ffffd
0010ffeaffe1ffe2ffa1ff8affeb0006
ffd3fff1ffeefff9ffd5fff4ffd70011
fffb000600050000fff7ffefffebffee
001f0029ffee0003fff30004ffe2ffcb
ffd8fff30003fff7ffcffff6000a001e
ffd6fffb0004ffffffeefff7ffefffd9
0019ffebfff80016fff800010006ffea
ffccfff80016002b003f003cfffcfff2
ffedfff4ffe9ffd0ffcaffdeffd9fffc
ffd8ffcaffd0ffc3ffb5ffdf0013fffd
00390036000000000015ffe4fff2ffca
ffc7ff9cffe2fff9ffb0ffd90027003c
ff9fff8bffe10016fffbffc0ffefffe0
0002fff3000fffe9ffcbffd1ffbeffa1
ffd9ffecffd7ffc7ffb6ffce00020003
ffe2fff0ffeeffd6ffb0ff95ffafffd7
ffbeffc4ff8aff6aff92ff98ff90ffc5
ffc6ffc0ffbbfffeffe8ffc1ffcaffd2
ffcbffb9ffabffc5ffd0ffcdff90ffa1
ffc4ffcdffe0fff4ffeaffe5ffdbffe3
ffc0ffaeff9effadffadffbaffd7ffb2
ffedffefffbfffd0ffa7ffa3ffb3fffe
ffeaffeaffe1ffc6ff9affc9ffe9ffdd
00160037000bfff9fff9ffefffe4ffeb
ffd30003fff7ffef001c0037fffd0002
ffb7ffe2000bfffaffedfff8ffd8ffd3
fff4ffdaffdc0001fff3ffe7ffbfffc7
001600050030002afffe001bffe8fff5
000a00070000fffeffd9ffc6ffebfff5
ffd1fff4ffecffd9ffbaffd300130002
0017fffdfff4fff6ffd1ffe3fff3ffcb
ffdcffe6ffc9fff2ffca0007001a001f
fff9fff0ffdefffcfffa000b0011fff7
ffe5ffdcffe3ffe0ffd1ffcdffe3ffc9
00140010002a000d0004fffbffecffd6
ffe70006001300150018001b0041ffdd
ffd5ffbdffe40000001c0000fff8fffc
00050009000bffe7ffe0ffe7ffd1ffd5
ffec002c0015000d003100180023fffb
000e0015fffa000000030022002c000e
ffceffdeffd5ffcefff0ffd60000fff5
003700190016000100080003fffdffea
000dfffd000d0016000300050000ffdd
ffe1ffd8ffcbffd5ffe0fffdfff20008
00190003ffebffe7ffd9ffd1ffe8ffce
00020000ffa6ffb80036003f0002ffeb
fffa000800060010002d0014000f001c
ffdcffbdffb7ffb7ffd3ffd0ffbfffc4
ffc2ffedffefffc4fff7fff0fffcffdb
0020002700410030ffe5ffd20010ffda
ffdefff8ffd1ffdbffedffe3000f0018
0009000cfff0ffd3ffedffd8ffc5ffc0
ffdbffdfffcdffe7ffb9fff7ffedfff2
fffdfff90014fff6ffd7000400100007
ffe8ffddffceffceffe7fff9ffedfff7
ffd9ffdffffd0000000200100004fff6
ffd6ffd8fff60024fff9ffd6ffdffff8
ffde00100023000efff80007ffe6ffc8
002800210023000d0002ffe2ffb6ffcc
ffc70008000b0004ffd7ffe4fffc0011
0017fff5ffe50006fff9ffd0ffc6ffd0
fff2fffaffe2ffd3fff6000600020005
ffedfffffff3002b002b001a00090005
0004fff2ffecffcdffd7001800150000
fff6fffb000c0021000f0013000bffe1
fffe00090009fffb000a000b0010fff4
ffecffde0003fffe0011ffe1ffeb000e
000c001efff9ffe2ffdbffdeffe0ffd0
ffeaffedffd1ffdefff6000f00340018
fff2ffe8fff3fff10024fffd001bffff
ffdaffee0010fffd0007000a0000fff9
00010016002d0014000c00240005fffc
001300050007001b000f00000006ffde
001300100013ffb3ffdaffed0009000e
002afff3ffdaffe50003ffedfffaffec
000bffe6ffd1ffdaffe00003002c002d
ffaaffde0000000d00190017001dfff7
ffc900010018fffa00430036ffd5ffa5
fff4000d00190031001d000a0003ffe5
000c000d000c000f001f0000fffbfff8
000bff95ff8fff9fffa3fffe0015001f
002500040003ffd8ffe7fffe000e001f
000700000003ffeeffedffe300240006
ffb8ffcfffceffe4ffe7ffe7fff6000e
ffff0000001900260026ffc2ffddfff2
ffe4ffa4ffbdfff0ffe6ffedfff3ffe3
001c0010001e001100110000000ffff2
ff75ffdbffdefff2ffc9ffc9ffe4fff4
ffd0ffc0ffbbffe9ffcbffd5ffcfffd3
000c0004ffeeffd4ffbdff8aff8dffc2
ffc7ffe3ffe60010001d002200300022
ff94ffa8ffab0000ffa0ffcefff2fff7
ffb2ff87ffd4fff3ffcfffb4ffb8ffb2
0001002400050018001100040012ffef
0017ffb5ffdf000bffe5fffefff30028
ffa4ff83ff76ff6fffd4ffa6001f003e
002500090037001b00320010ffebffbe
ffddfff60000ffee0002001900180011
ff89ff8a00270029003b004cfff50014
0032001dfff1fff1ffa2ff8effc9ffa3
0013000affe0fffc0007000900160024
0055ffdfffe80008000effdeffde000e
001cffc70002ffbcffc40037003d005b
0022000c00040017002afff7001a001d
ffe9ffcdfff800170031ffe4ffafffe5
00480067ffddfff0ffe90003ffe5fffb
0027fff7ffed00290015ffb6ffe2ffee
ffbdffbdff96ffeffff9002700310057
000c0001000000030012ffe10003ffce
000dffdfffdffff8000e000cfffc0001
ffcdffd00006fff6ffe0ffd4ffffffe0
fffbfff10002000afff5fff1ffdafff9
000bfff6fffbfffbffff0009fffcffff
ffbcff9fffddfff7ffcdffdfffe5ffe5
ffbeffc2ffee000e001c0017ffe7ffcd
0040fff6000400010001ffebfff2ffc3
fffeffcffffeffeaffb50044004c004c
005d003f00070021ffe8ffe7ffe5ffe5
0012000effb0ffb50018003f0026004b
ffd2ffe40024002c000d0005fffffff8
00050014fff50007ffd8fff4ffdcffc7
0014002a001d00220043000d0037001a
ffbeffd9fffafffa003c0013fffb0007
ffde001affedffe3ffd6000600070035
0027001d0014ffd9000afff5ffd1ffeb
000afff30012000b0010002b003a003b
00020009003a000800220003002efff7
0031fff6ffc7fffb00090009ffedfff8
ffff0010001c0007000e0017001dffe9
0037000effeafffe001500160007fff7
0016002300040001000c002e0051000e
000300100016fffffff4ffe6ffdefffe
0010000bfff70000fff3003900190021
0030003d0022fffc0026fff2ffd80000
ffc6ffceffeeffe8000600310029000f
ffbeffe800040007fff0fffffffbffe9
fff90006ffcb00060023ffd8fff0ffeb
00020004001e002a0039002000080024
ffe8ffd1ffddffddffd700060005000d
0010ffe8ffe5ffcfffdaffefffe2ffd8
003a0017fff0000ffff1ffe4ffee0008
ffc8ffeb0008000a001d001b000e002e
ffd3ffc6ffb6ffc5ffcaffd3ffcaffe8
fff1ffe0ffe3000e00020005ffecffdb
00310033002b001dfffefffd000b0028
ffafffc3ffc6ffe2ffeafff900160015
001d001afffeffd6ffb1ffa8ffa6ffa3
002a0010004a0046fff1ffe2fff8fffe
ffe4000600140026001c000800280022
ff9effb3ffb5ffdbffdfffdeffd5ffdb
ffd9ffdd0000fff100120017fff2ffbf
0017000e0013001800030004000d0034
ffd6fff3fff3fff3fff8ffe500140021
0013fff1ffe0ffc4ff99ffb3ffc2ffd9
000effe5ffe7fff6ffe6ffe800060007
fffe00010014001ffff8001200110012
ffc7ffc0ffcdffe6ffec0000ffebffe9
000d000300060037ffedffd4ffc6ffa2
0015001b0011ffff0004ffe5ffc7ffea
0005ffffffef000effef0010001c001d
ffccffd7ffceffcfffdbffc6ffdeffd7
ffffffebffdd0012ffdcffed00010004
0003fffd0021001c001d000000170018
ffe0ffd2ffccffee0000ffe4fff00011
ffc8ffd9000c0008ffc00003ffefffe9
002b001effeaffecffeeffd4ffc90002
ffe000040002ffea000a000d00040012
ffc000080012fff6ffec00030007fffd
ffe2fff0ffc7ffd7ffddffc50011ffec
0018fffc00060001fff10000ffdcffd4
ffedfff6fffdfffc0000000d0005fffa
fff4fff80010ffefffc700030019000e
fff4ffdfffc8ffe7ffe7ffeeffb1fff5
00130011fffffff70004fff5fff50004
ff9ffff9fffc0007000400160002fff3
fff00008ffbf0008fff6002400000002
000effefffeffff2ffe9ffd3ffe1ffde
0023fff5000500160013fff4ffeefffa
00170026ffddffebffcc000cfff0001b
ffe7ffe7fff7ffe9fffbfff8fff4ffeb
ffec0002fff90001fffcfff5fff5fff7
0016fff90000000c001b0018fffb001a
ffcd0004ffdefff1000cfff4ffd8fff2
fff5fffbffeeffedffe9ffe1ffdffff4
00170020000c0010000d000a0008fff3
00220000ffeeffef002a000efffa000c
ffe4ffeeffe9ffecffdffffaffc9fff0
0017fff9fff80019ffd3fffdffe5ffd8
00340022000b002900100022000c0001
ffe900080011ffe7002fffeb0008ffe7
fffafff4fff8ffd3ffebffd3ffedffe8
001c001c002000050002fff1fff70007
0011fff7fffe0004002c00160013001d
ffceffcffff3ffe6ffe70007fff1ffd5
0017fff4fff0ffffffd4ffe4ffd7ffdc
00310023001b0019001bfff700040005
ffc7fff5fff1ffe4000c0003000a001d
00010005ffe2ffec00160018ffdaffb4
000a0011000e00180009fff6fffefff5
00080010fffe00070021002afff0001f
fff8ffdaffc8ffabffb8000a000f001a
0000fffafff7ffe9ffe5ffd1fff10002
0008003c00290022000efff8fff4000e
fff2ffdb0008fffc0003ffe700080000
ffd7ffdd0005ffdfffeffff1ffbfffad
fff6fff1ffd5fff70004ffeffff6fff5
00030001fff7ffedffd400420025002b
ffdf001dffbeffc1ffe4ffe7fff20012
ffe10009000affe6ffb9001effebffd8
fff20029000ffff7ffe5ffb3ffc2ffdf
fff700070001000b0006fff5fffe0001
ffbcffdbffd4ffcfffeaffbeffc3ffe9
0000ffdaffc5ffd0000c0027001effd8
003c00100016000ffff80000fffdfffd
fff70022fffcffbcffeaffec0044004a
004e0046000dffe00021fffdfffcffe1
fff600190020ffecffb9fff1003f005c
ffcaffd6ffbfffd4001a000600130000
0008ffddffe2ffff0011ffe1ffb4ffc6
0062001affe0ffe70029002500160007
00420042003afff900020032001e004d
fffcfff6fff00003002200180016000f
00080015000cfff2ffaeffb8ffd8ffd6
001800150023000ffff200040000fff5
ffeaffbeffc1ffbeffd10037003bfffc
ffd6ffe1ffecfff9fff3ffef0017fff6
0020002cfffe000500120007fff1fffb
0014000b004200090020001600710044
000c000d0004fff0ffe4ffceffcfffe4
ffcaffd7ffe5fffbfff2ffe4ffef000f
000f000e003400460015001b000affe2
000b0015fffbfffafff6ffd7002e0032
fff3fff8000bfffe0006fff7000a000d
ffeafffbfff5fffcfffb0007000dfff5
ffffffd5ffef0013ffdffff00015fffe
00170000001c000c00070007ffddfffc
00000014001400140018002200130004
00210049001d0014ffe4ffeefff60009
fffc000bfffdfffafffbffbfffb8000c
002b000c002600110027000affe2000b
ffdbffe5fff200000012fffd00280019
ffe8ffe0ff6effe700260013fff9fff3
00160009fff60000001600010005ffed
ffef001f00190035001e00260020002a
fffe001a0018000a0002000000020018
000effff00040004000a0010ff86ffa5
002d002a0017001f001b00060000001a
00190005000000000011000f001d000e
ffebffebffc5ffc80018001c00180011
ffee0009ffefffea000efffb0007ffed
000bfff3000600160012000700200016
003e001e0000ffe6fff80004fff70000
fff500030006fff4ffe3ffe70020ffe3
000b00000014fffeffffffefffe80006
ffd6ffebffe5ffd9ffe7ffe4fffdfffd
ffcfffe4001d00030001ffd9ffb3ffe5
0001001bffe60005002e00150020fff1
ffdbffd7fff2fffafffcffe80011001b
0013ffe6ffddffc6ffcaffd2ffc1ffd4
00140012fff5ffe5ffc8fffc002fffe6
ffde0002fff5fffd00140013fff10012
ffedffd2ffecffd3ffdbffe6ffe5ffe3
ffda00090000ffd6ffd6ff96ffc5ffd8
0000000a0019000ffffeffedffe80010
fffaffdcffd1ffd6ffdeffeaffe8ffd7
ffacfff7ffeefff9ffee000fffe2ffe8
ffc9ffceffcbffe5ffdd000cffe6ffaf
ffd9ffc4ffe5fff7ffe3fffc0000ffff
ffe6ffdb0006ffee00060002ffe2ffeb
ffdcfff5ffe3ffb400140033001c0012
fff100030000ffef0003ffe3ffe0ffe2
fff5ffe6ffeefff3ffecffc8ffb2ffeb
ffb3fffa00060012fff600000025fff3
fff3ffeafffe00250002000bffcbff8c
ffe8ffd0ffbaffc4ffd9ffebffedffdc
fffe000d001b0015fff00004ffedffd8
fffc0006ffea0021ffbc001effe0ffee
ffd0ffe3ffd8ffeaffec0007ffe70005
fffefff8ffecffd8ffd5fff9ffe7ffe4
ffce00190009fffffff60016001a000d
fffaffeffffa00000002ffe7ffe7002d
fffafffeffd4ffd5ffd2000700000006
000bfffffffafff700020012001afffd
fff1ffadffca001fffdbffdf0004fffd
00000010ffff000ffffeffe9ffdcffe8
ffffffec00030004fff50004fff6fffe
000e000c000d0016000c0018001d0017
0005ffe7ffe6ffff0005fff0ffb20001
000b0004000bfffe00120004000a0011
000dfff90003000e000d000000010015
000e000fffe5ff73001d0019003b002e
001d0024001e001a000dfff0ffec000f
fffe00150023000c0019000a000d0001
0012000f000c002500190020000d000e
001dfff6fffeffea0021002c0011ff75
001b0012003200270003001700350021
ffe9fffe00000007000b001d0001002a
000a00280008ffa00007fffefff3fff5
0024000ffffc00120007ffe6ffd2ffee
000c0015002800580026003d00540033
000f00380039002c0038001d0009fffd
00040005fff8ffddffd5fff00007ffe7
004e0005002500470034002f0006ffec
00390032000d0005fff300120018002b
ffcdffdf00080005ffe80010fffa0020
004200430024ffe4ffcfffc5ffd0ffd7
ffeaffcf0014000300310028fff4fff1
fffb000dfffbfff5ffc4ffd8ffc60001
ffdcfff1fffd0006fffbfffd0008ffe4
ffa8ff8affa7ffecffe4ffddffc6ffc5
ffb9ffa8ffcbfff8002900170005ffd6
006200250001000dfff5fffcffffffc3
ffe9fffb0000ffc3ffc8003c004c0059
0046000dfffeffffffe7fffdffd4ffdb
0007fffcffc0ffd1ffef003200380044
ffc8ffc1fffb0027005900400038fff7
fff7fff1ffeefff8fff6ffdcffd2ffb0
001cfff600290022003a001900090000
fff0ffb4fffcffee0024002e0025002f
fffaffe9ffeeffe1ffe2ffe1fff6ffe6
000c000bfff3fffdfffbfffe000c0000
000d0001000f001c0002000efffd0017
ffebffdafffbfff4fff0002700430001
0012fffb0001fff2fff3fff40004ffdf
000f000b000700010007fff7000cfff2
ffce000b000dfffe002a00110008001a
fff0fff3ffdcffea000afff800120004
000800100005fffefff6ffdefff4ffe2
0024fffb000000210013fffe000b0011
0005fff0fff2ffefffe6ffdf0009ffae
0000ffeefff6fffbffe7fff0fffffff5
fff50010002d002000180007000e0012
ffb5ff71ffb2ffc6002200060016fffa
0000ffe0fff0ffebffe0fff1ffe4ffa9
001600010018001c0006000dffd9fff5
ffff0011000affe60002001d00190023
ffe1ffceffdb0001fffeffbdffa4ffa3
fffdfff1fff0ffd7ffd8ffe1ffe4ffee
0010000a00140019001c0004000e0010
0006ffa8ffb8ffc10015000c000c0011
000bfff8fff2000bffccffbf0010001e
003e00380034001e0014fffa000b0008
0003fffa000f000a0003001e000c0013
fff3ffe50000fff2ffb50006ffef000b
0012000bfffaffebffee0007fff10016
000e001d00270028001e002cffff0014
ffb300020017ffec002c0029001a0017
0008001a0006fffc000dffecffadff98
0002001b0008002c00290007000cfff5
fff00003fff0000f001b0017001f0020
0002001dffe5ff89ffa9ffd6fffa0011
002d001c0008fff800090012fffbfff3
0020002500020034001d0033002a001a
ffc7000a00090020ffd1fffdffe70014
0010ffdcffe900210048002effe4ffd1
fff500080013001a0027002b000e0013
ffe4fffe000b0016fffd0005001f0005
003f003c0041002a002d0006ffe7001c
0029000c00140004ffeffff0fff20029
fffd000a0013fffcfff60022001f0028
0007fff2ffc2ffb0ffcb000100000003
001a001a0017001c0022004700530030
0016fff900250029000a002400080000
ffde00090012fff6ffefffdcffeaffec
003a00490038002a0003ffe3ffc3ffd5
001600180020001500040023001d0026
ffdcffe50004fff9fff2fffffffd0034
002b0014fff8ffb1ffcd001f0003ffde
003e0027003000370037001c00190018
00010015000e0027000d000100160010
ffe0001c0010ffe2fff8ffe8fff2ffef
fff3000d001f001a001300170036003b
fffb00050002001e0018003c00290017
ffe4fff9ffe8ffdcffffffed00010000
000e001b001affc3001f000dffee0007
001b0013001900150034000b0024001d
fff9fff2fffefffa000300130006002a
001c00190007fff20007ffeeffd9ffe9
002d0027001500050015ffd0ff89ff92
ffeefff2ffe90028000f0016ffec000e
fffcffd8ffcaffe900060009fff0fff9
ffedffebfffbffb8001f0002ffefffff
000a0019000a0001000e0021001a000c
fff5ffd9fff5fff4fffe00190021000c
0035001a0018ffe9ffe9ffe5ffc8ffc5
fff4001c001b000a001b0048ffd2ffe9
fff8ffe6ffff00060011000bfffe0000
ffbcffafffd0ffbaffc4ffde0003ffdd
000100220002fffa00160012ffeaffd1
00180019002b002b001a003900360030
ffa8ffd4ffdcffeb0007ffdd00040009
0007000affe4ffdfffc9ffb8ffc2ffb7
0031001bffd4ffe0ffec002d00090010
ffc0ffe8fffffffc002600300016000c
ffd2ffd2ffebffc1ffaeffb5ffb1ffda
0020ffe6fff0000afffe0015000affff
0022001cffdb001b0030001d00210020
ffadffccffe5ffcdffda0002ffe90027
ffe4003100320018fff6ffdaffd6ffc6
ffcf0003fff2fff300000006fff20000
ffbaff9b0004000cffddffcdffb7ffd7
ffc8ff8aff84ffa0ffaeff6fff7dff9c
fff30000fff70010fff10011fffbffa7
ffd5ffbfffd60004fffaffec000cfffd
ffce000affddffe5fffdffd3ffffffdb
00010022ffffffafffb6ff9bffdfffdd
0004001bfff500040003fffbfffaffff
ffe40009000d00010003ffe1ffec000e
0043004b004a004600260003001d0003
ffef0009fff2fff5000d00110010003e
0007000f0004001d0026002c001bfff3
0008ffdbfffb0021000d00180027fff5
0008001e002c002e00040010000d0011
0012003f00130024ffeffff0fffb0014
000500150019000b002ffff500040019
00070015000b0021fff60008fff1fff6
ffd6ffd0ffff0005fff4ffe0001c0039
0033fff40026002d0017003900110000
fffd0017000f00090002002fffe20013
fff9fffc000e001500060000000d000d
00100069001c0003ffcffff0000e0008
001900140013000f002b0023003f0028
fff4000b00130012000ffffcfff10009
ffccfff8000300000011fff6002cfff1
0020001d00390023fff7002600080017
00180002ffeaffe6fffe00190033ffff
ffda00010011fff7fff70010001f0016
00030044000b0011ffe80012ffdf0005
ffefffe5000a0017002800230008003a
ffeafff30013fff8fff7fff0ffee000e
0009fff3fff4000effc9000000150012
00260005000700270002002800230014
fff3fff6ffec0006fff4fff0fff30008
ffb70011fffd000800100004ffffffec
0001001700290035ffe4fff3fffbfff8
ffdeffdaffeb0002000d0015000c001b
ffe50002ffffffdaffe4ffe4ffe5ffe5
ffdffff40002ffebff60ffd9ffe6ffd6
000d0003fffe002e0005001200210029
ffd3ffd8ffe3fff4ffdf0014fffbfffa
ff82ffddffd6ffb0ffe40000ffdaffdf
0007000400180030ffdaffdc0000fffe
ffdefffbffffffe50002000a00280014
ffd6ffcffff5ffddffa5ffd2ffcfffd7
fff3fff3fff5ffecffc2ffd6ffd7ffc0
ffedfffc001b000900100006001c0023
ffbeffc9ffe5ffd6ffe4fff4ffffffff
ffbd000f0006ffceffd3ffdaffc7ffcb
000e002500310015ffe7ffdc0006fff0
ffd5fff70000fffefff7ffee001dfffe
ffe9ffd6ffefffe7ffdeffceffdbffbd
ffeefff60000000cffe80024000dfffc
000a001d0009001e00200032003cffea
fff1ffe5fff6fff7ffd9fff40020fff3
ffe90026002c0029ffff0004fff70006
001c001c0067ffb7ffe4ffe0ffeefff3
ffeb0000000effeb0011002d00090018
0021001400110009fff9ffefffe6fff1
ffe2ffef001afff70010000800060028
0028000b000b001c001d00280040ffc7
000100040003000400040023003e0026
002500010005000b00030012000dfffd
000300280017ffb6ffeaffe5ffeb000e
0007000d0025003f0021001d00240019
00030035ffff001cfffcffff00020002
ffe4ffe7fff30014002700050008fff3
0028001b003900340002003000070009
00070014000d00130010fffa00190031
0020001e0000fff9ffe2fffdffe30007
002700230025001bfff7fff3fffdfffa
0019ffd60000002a001100360018002e
fffaffe4fff3001fffff000b00090026
ffecffe5fffe0003001300010001000f
0016001b0024002d00140008002c0013
000ffff8000f00220004000f00130016
0024ffe9fff1fff1ffe0ffed000bffe1
0001ffecfff8ffffffd9ffecfffcfffe
001700180000000b001d00280028001b
ffff0002ffedfff70000ffee00000001
ffe1ffebfff9000a0003ffecfff4fff4
0018002000170004fff9ffacffd7fff0
fff1fff8ffda0012003f000600160017
0039fff7ffd60002ffeafffcfffffff1
ffd3fff0fff9ffe9ffe7fffdffde000b
fff000040011fffa00040019000e0027
ffeefffcfff5fffeffe0ffe8ffebffd9
fff0ffeaffe5000d0017ffc6ffd8ffe8
0004fff4ffeaffedffe9ffe2fff2ffef
ffefffcaffe0ffe4ffecffc4ffee0003
fff0ffc2ffc0ffeeffe400210024000a
fff4ffe70007fffbfff80003fff20008
ffebfff0ffd0ffdaffdeffedffd1ffd2
ffe5000000130020fff0fffe0002fff2
0000fffbfff3ffeaffd2ffc0ffa5ffd7
ffceffe5ffd2ffd5ffe9fffcffe6fff6
fff8fff0fffbffedffa2ffc5fffaffce
ffdaffebffa9ffc0ffeeffef00220015
fffefff2fff4fffdfff000020007ffee
ffcfffe7ffd6ffd6ffe5ffd8ffd5ffec
ff9cffdefff8fff0001e0008001affdc
0001000d0007fff4fff80009ffb8ff97
ffee0000fff3ffeafff8fff4fffc0010
ffeefffcfffaffedffe8ffee0011fffe
00150002fffefffdfffaffdd00040000
000bfffc00110012fff9000bfffb0005
00020001ffef001a0054ffe3ffe6002a
00090033003c002b0007ffeafff50015
ffdd00040003ffee00050006ffeefffb
001c000e005200040029003a00280035
000d0021fffe0000001e004affe90037
00270015ffed0020002dfff8fff8ffe0
ffe400190020000dffe4ffeaffe0001b
ffdcffe3ffe2ffd8ffc9000600290000
ffff0009000d00170017ffe7ffe8fff4
fff70002ffd7ffff002effe1ffdbffe8
ffe90003fffcfff7000f001c00300034
fff400110010fff4ffe20007fffcfff1
0005000d0008000effff000afff1ffed
fffdffe8000700220023000affccffe2
ffedffe7fff2ffdaffe2ffd6ffddfff1
ffd10005ffecffd9fffcffeaffcfffb2
000d001fffbeffde0003002bfff5ffd7
ffe30005fff80006000e000e000bfffe
fff10000ffedffe2ffd8ffe2ffe1ffe3
ffe4ffffffe000040002fffa00150017
000800170015ffde0012001effe0fff7
fffcfff6fffefffbffcbffe4fffc0006
0005fff1000efffdfffe00030002ffec
00020010ffccfffd0020003b0038000f
ffe2ffdfffdd000c00260017000effde
000000090009ffeafff200110015fffb
fff1ffe80000000c000900110006000f
0031000bfffbffce00010028ffeefffe
ffd30009fff1ffe5ffc0ffdc0000000c
ffd9fffefffdfff5ffe1ffe6ffd7fff8
fff900440006fffeff990000fff30010
ffd5ffeefff90009001300080019ffd1
0010000fffedfff7fff0ffe7ffd7ffe1
ffa6ffb4ffb1ffdcfffdffe1ffdefff9
0018fffbffeeffe6ffe40028fffd0003
ffc3ffe4ffcaffc8ffdaffecfff50002
ffeaffe3ffce0002000200040000ffce
fff20002ffecfff2ffc8ffa6ffd4fff2
fff7fff5fff0001a0042fff70002ffcd
00020027fffafff3ffd9fffbffedffe5
ffa0ffa6ffcaffd0fff9ffe2ffcfffce
000e0002fff2fffbffecffd7ffdbfff1
ffe6ffe7ffe8ffe7ffeb00040021001b
00040011ffe6ffe0ffeaffeb001a0005
fffcfff5ffd1ffe3ffe9ffb4ffd7ffe9
0000fffb00050018001a0010001a0012
000afff0fff1000afffafff9ffc5ffe9
ffc30013fff2fff8ffecfffbffe8ffc8
001d0007000900170000ffd5fff6fff9
fffbffeafff1ffe5000d0003001c0008
fff3000700030003000dfff500140004
0000ffa1ffe20008ffcaffe4ffe6fff0
00000010000900180030002100280010
fffc001c00120002fffcfff5fff3000e
ffc2ffcefffa00070009fff0001bfff5
001c0024001400310009ffb1ffdffff1
0000ffdcffdffff9fffc001c00010011
0009fffdffe90011001b001600100014
0026ffd9ffe9fffeffb4ffcbffebfff1
001a0016002e002d001c002b0006ffed
ffebfff9001200190001fff4ffef0007
0006ffdf001cfffb0010fff6fffbffee
0007fffd0000000500170022fff9fff5
000500090018002f00190031002b0013
fff3fff60009001300060007fff9000b
001e0042fff1fff3ffecffd1000a0003
003b003200290019ffe80005fff8001e
0003000a00000019002900330043003f
000dffdc0003fff5ffeaffe50007fff1
fff300060004001700300037ffecffef
001d0025002e00290037003300120003
fff0fffeffe0ffebffe6fff80004001d
00030027ffebffe30012000a0015ffee
00260021001b0002001bfffefffffff3
ffecfffb0019000000330025003c0038
00030005fff80027ffff0000fffffff9
0018fff2fff6ffcfffec000bfff1fff7
ffef000700270018001b001e00070019
ffc6ffd20005fffdfffefff7fffc000d
ffbeffe4fff0ffea0014ffabffceffe3
0012001afff8fffdfff8ffdcffbcff8f
002a000efff80012ffeefff5fff20001
ffc9ffdfffd3ffe6ffd1fff300140029
ffccffcbffb6ff72ffbbfff4fffbffea
ffff0007fffefff4ffe2ffd9fff3fff7
ff9effc7ffdb0010000b002300160000
0007ffe80000000cfffeffdaffccffd6
ffe9ffedffb3ffb5ffc3ffa9ffa7ffa4
ffe5000e0000002b002000010015fffc
ffebffe8ffb1ffbeffa2ffaaffaaffdc
ffa1ff95ffa3ffe8ffe300150002fff7
00140026002c000b000bfffbffbdff72
ffd3ffd5ffc1ffdeffb6ffddffebfffd
fffc000e000b00110000fff1ffc4ffed
ffd0ffe6ffddffe1ffe3ffebffe0fff7
ffebffd5ffe9ffe3ffddffd6ffc9ffa5
0013fffaffef000600000000fff50006
001a001700170012fffc00040005fffc
0002fffffff00004fff5fffffff4ffff
005e0069005d00440020fffb001b000a
ffefffe0ffdb0016fff4fff800160048
fff9fffe0004000e000d003b00590028
fffdfff000000001000b000f001ffffc
0022002e0034002e0019ffff0000000b
0013000a0013001cfffaffdafff0fff1
fff60004000900060000000d00000015
000d00040003fff8000affe70001ffe7
001bfff4ffc90000fff7ffdcfffb0019
ffe100000013fffc000000050007001f
ffda0000000a00090001ffddffe9ffca
fffeffdbffe80004000d000cfffcfff8
fff90010000c0000001bfffcffcc0001
ffe5ffe5ffe5ffcfffc2ffecfffc0007
0006fff80005ffeefff0fff0fffffff9
000f0011fffafff0fff5000900140008
ffdbfff2fff5fff80002ffed0003000b
fff9fff2fffcfff5ffdfffebffd1ffae
ffddfffb00020001fff4fffffffb000a
ffddffceffcfffdb0000ffebfff6fff3
ffcbffb0ffbdffcbffc5ffacffc4ffd9
00000015000efffcfffbfffaffe3ffec
ffc6ffd40005fffaffe3fff8ffee0007
ffb2ff98ff82ffc6ffd9ffb9ffb2ffb2
fff00001fff4ffe2ffb8ff8dffa3ffc0
ffb1ff9dffdefff0000d002a0016000d
ffc3ffd2ffdbffc5ffd20015fff8fff9
ffe7ffbbffabffbeffa3ffb5ffc0ffb8
0004001a0021001e00040001ffff0000
000cffd00006fff4ff70ffbdffdcffe9
ffb7ffdeffc8ffbeffb6ffb9ffd9ffeb
001d000e00100001ffe8ffdbffd9ffc8
ff8dffc6ffc6ffd40007001e00250003
ffa3ffc4ffb7ffb0ffb5ffd1ffe50000
fffaffe4ffe9ffd8ffbdffcdffdaffc6
fffd0012000a002900240023000a0019
ffacffbeffecffebffa8fff800020013
ffbeffaaffebffd0ff9bffc3ffb2ffc4
001c0035002e00170012ffebfff6ffc3
ffb3ffee00110019000bffff00200019
ffa7ffa9ffc4ffc9ff96ffb5fff7fff1
00260015ffebffc5ffceffcbffb6ffa0
0002001c000500080018002700210018
ffdbffc4fff30003ffc4fffa00000000
ffbdffb3ff94ff9dffb7ffbdffccffe3
fffe001c002900270025ffe9ffddffee
ffe7fff1fffd0000000cfffe0019002a
ffbbffccfff90000ffc6ffd0ffe6000f
0013001a00000015ffd7ffc4ffadffda
00080006fffb001b0020001e00420025
000a0008ffe100050011001fffffffee
ffd3ffdaffb0ffd3ffca0004ffc5ffc1
000a002c000f00150018000c001bfffe
000f0003ffe3ffeffffc000dfff8000f
fff6fffdffccffe000120018ffe90000
00090010000ffffaffd4ffabffc9ffe0
fff50002fff40014fffa0029003c0010
fff70020fffbfff0fff20010ffe90021
ffd3ffbcffe1ffe7ffdaffabff6affcb
00320020001f0000ffff0001ffe9ffda
0004fff40022000200000005ffec000c
fff0ff99ffc2fff600030002fff50006
0016fffb0004ffecffbfffeffff0ffbc
ffffffd9ffe8ffee00010002000d0005
fff6ffdaffe7fff50006fff5ffd8fff5
ffd7fff0ffdffff6fff1ffc6fffcfff4
fff6fff6fffffff7ffed001c000affea
003000110019002ffff50003ffe6fff4
ffc9ffecffc7ffdaffc6ffe3fffa0003
001e000a0009ffffffecfff300100003
000f0003ffcdffe60002ffefffe7ffea
ffeefff30010fff900280000fff6fffa
fffcfff1ffe3ffb8ffb0ffa6ffb9ff9b
fff20003001900080017000e0015fffe
0035ffebffd40000000cffeaffdbffc1
ffaaff7cff8fffcdffe9000000180016
0011002b0030ffe00000fff2ffedffe2
00080003ffe90011ffdafff2ffee0002
000a0000ffe50011ffcfff9fff90ffc9
ffe400120035ff7dff8cffa2ffc6ffff
ff91ffc0fffa0014003b0009001c0008
ffcbffc0ffaafffe0000000cfff4ffb5
ffc7fff0fff9fffefffdffe700060018
ffa1ff85ff9affc9ffdbffccffc3ffbd
ff8dffa7ffa8ff7fffb8fff60036ffdd
fff3000b0002fff90008ffdaffcaffa9
fff3ffdfffe4ffdfffedfff8fffc0002
ffe4ffef001effa1ffb1fff70002fff3
fff5ffe7ffc8ffe9fffa0018ffeaffcd
fffbfff4ffff0005ffe1fff900000011
fff20007ffd6ffe1ffdbfffdffd5fffc
ffe3fff5ffe1000effeeffec0001ffd7
ffff000afff30016fffafff5ffde0000
fff1000f00000016fff4000dfffd000b
00070003ffef0004fff4fff1fff3fff8
fff0fffafff9fffcfff9fffdfffffff7
fffefffffffeffe9fffdfff3fff60002
ffd5ffdeffefffef0008ffeefffbffe3
000efffafff50004ffe3fff3fff8fff3
ffc5ffed0000ffe7ffe90005fff70001
ffd2ffc1ffb1ffbeffc9ffeeffd4ffee
ffecffd8ffe1ffd9ffddffd1ffe9ffdc
0007fff4ffdcffe9ffe6ffe6ffeffff1
ffa1ffbcffaeffb0ffe1fff7fffd0000
fff0ffddffdbffc6ffc8ff74ff93ff88
003400320014ffecff97ff8fffedffe5
ffb6fffefff8fffdffe5fff1ffae001e
fff6ffe2ffe20006ffeaffea000fffb7
ffebffec00110009fffa000effbeffee
fffcffb1ffa2ffe90023ffdeffdfffd5
ffdaffe0004ffff7ffeaffe000010000
0000ffe7ffd5fff6ffe3ffd9ffed0003
001fffd8000dffeefff8fffcfff30000
0012002800000032ffb3ff88ff86fffd
ffd3ffedfff0ffc3ffccfffd0013fff0
0006fffbffe6ffeeffecfff4ffeaffd9
ff97ffb0ffd3fff10008fffbfffcffd5
00060014001100290033004000220018
ffd5fffdfffa000c000b000c003e0014
0008000cfff8fffafffffff0ffe8fff0
00470052004f0020ff9dffda00000007
00260017003b002b00060024ffff0018
000cffffffe3ffdefff90005fff9ffed
ffdffff30002fff70019000c0010fffc
001b0009002fffdf0024006700430007
0017fffa0000ffe8001afffc000cffe5
000c000d0019000b001c002400150007
ffd70056002f0015fff3fffe002c0008
00020003fff6ffe6fff90030000effc6
000000210008fff8fff1fff10000fff2
fff4ffddfff5000a002f00210017001f
0000fffe0014ffa3ffb9003900280005
ffeeffc6000cffeefff5ffeaffe0fffc
00130018002d0017001a0012000b0004
fffd0005ffff00130000ffc7fffb0015
000dffecffcfffe900090000ffedffd3
00010011001500040018002affecffff
0005ffd4ffee001600190014000e0008
ffdcffc3fff2ffcefff100040004fff9
0015002effe70003000cfffaffeffff6
000e002f001b000400020028001d0012
fffe003dfffdfff00016ffdbffc2fffb
ffeeffcfffeeffdfffcdffebffff0006
0021ffff002a0012000e0036ffd7ffed
000fffe7ffcbffeb001f000ffffd000b
ffcffff6ffeffff1ffe6001600030009
fff2fff4ffd500010004fff5ffedfff3
000600110005002a001d0007fffeffe1
ffe10003fffd000effbdffeb0003ffe4
00030001fffaffe2ffddffe2ffbeffea
0007fffb0015fff900030011fff5fff6
ff9ffff20012fffe001d00170011002a
fffb0008ffcafff0fff7fff400070003
fffcffefffe1fffbfff900180015fffc
001d0014fffd00060018fff8fffc001a
0009002e00560031ffc90003000e0004
ffeffffb0019000cfff90000ffebffda
ffeeffed000000060013ffefffe9ffe9
ffed00060008fff3000c0010ffffffdd
ffd8fff80000ffdfffd2002f004e000f
0023fff4000dfffeffecfff200210004
fffbfff80011ffe0ffe3fff4fff80001
fff10027003b000f00030024fff8ffd3
0012ffd7000cfff4000ffffa0019ffe8
ffe2ffe70000fff2001d00000015fffb
00130035ffe2ffc6ffdcfffbfffbffce
001b00200005ffc600170041002b0004
00000022002300130007000cffe60034
ffeafff1fff2fff1fffd00010007000b
fffc002e00260005fff2003cffecffe5
0028000efff9fffc0000001bffe4ffb1
fffafff5fffb000a0018fff600290013
ffd00014ffffffd4fff9fffffff1ffe0
0007ffd4ffe5ffd2ffea0008fff0ffe7
00050027001300090032001200050018
ffe6fffd0000fffd0014000a001c0010
ffdf000000120003ffd90013ffbbfff6
001300010004003d001efffcffe4ffd4
00150010000b001d0020002d001d003b
ffe4ffecffbefff700020000000afff2
003a0019fff0000cfffbfff8000bfff9
002bfffe000a0011000f002a000c0013
fffdffec000700090014001400290020
fff7fffc000b000c0005ffedffbdfff9
00020038000f001f0031002c001d001c
0023001d001f002d0010002a001b003a
ffdeffe2ffc300160008fff00000001a
000effe0ffdc0017000dfff70001000b
0016fff400120006004400360011001f
0021000500360026fff60005000d0014
0010000300000005fff8ffedffcd001d
003d002c00090001ffe7ffdd00200020
fffe00130023000dfff4fffe001c0011
fffeffd4ffea00440028004000220018
0007fff4fff6fff4ffe1fff4fff4000f
ffeaffecffdefff2fff6ffe8ffecfff1
ffe1fff1000a0005fff2ffe4ffe7ffff
ffec0000ffedfffbffed00070003ffeb
ffddffefffabffacffe6fff0ffe6ffda
fff3ffedffe0fff0ffd9ffcdffddffd5
fffd0000fffb0010ffdbffd5ffe5ffe1
ffb7ffabffb1ffdefff4ffd6fff0000e
0011001efff0ffceff84ff8affafffa1
ffb900370041ff8cffc5ff9aff7bffaa
0046ffd2ffc5fff700010002000bfff5
ffd8fff8002800090000001dffdcff96
ffdf0007fffcfff7ffe700270032ffde
ffdbffdcffdaff95ff94ffccff9fff49
ffe1fffffff300190006ffdf0004fff1
000800110000000dffedffd4ffdfffd5
ffee004e004100200016fffc0002ffeb
002fffd9fff00000fffdffccff99ffb1
00000007ffea001800530027003a0038
ffeefff500110015002d001e001d0026
fff4ffe0fff90015002100060000ffdb
003a0012001e0010001fffe3fffd0000
0014001b0035001b003000130019001d
00590017fffeffdcfffeffedfff6ffec
fffe00020009003effc6ffe1ffea0028
0010fff80001ffff0014000b00010000
fff2ffff0011fff4fff3fff100070016
002c0014fff500000004ffdcfff8ffe1
ffeaffedffe8fff2fffbfff3ffde004a
00170005001e00110005001200110019
ffd5ffdaffecffd8000b000000090024
ffe4fffdffd90012fff5ffebfff4fff2
fffcfffefffbfffa0000ffe0fffafff2
fffd000900180012001c001a0010000e
001900000006ffd5ffe50006fffefff8
fff9ffe6ffe5000efff10014ffd80018
0007ffeaffe7ffe3ffdefffaffeefffa
ffe2001a002b000a0009002400100019
000f0017ffdb001a0025000d0013ffe3
ffe5ffd70001ffecffefffe7fff0fffb
001d0002ffe4fff9ffefffecffefffdd
ffaa00070024fff7ffdb0015001d002e
0003ffe2ffeeffee00060021fffb0014
ffe8ffe0ffdfffd4ffed0023001a0016
000400170001003600310023003dffff
002500160024001b0025002f0012fff9
ffd30000ffe8000a002effe20017000d
000f001600100012fffcffc8ffb1ffcf
00680032002b0025000f000000000007
fff3fffdfff4000b0032000e00550035
fff8ffd2ffc3ffd6ffcd00090000fff4
fffeffe5fffd000800120000ffff0001
000d000a002b003e0006fffaffe3fff3
ffd5fff3ffe7fff0ffddfff5ffe10006
0017000c0014000bfffcffebfff1ffc5
ffdaffba0004ffedfff000090017fffe
fff5fff3fff3fff5000c000300350037
000dffe9fff7ffceffe6ffec0006fff0
ffd5000afffb000d0015fff50013000c
0012000d0036ffd8ffaeffafffb9ffd4
ffebffd1fffc0000fff6000e00000016
001dffec00020000000afffa0018fff5
ffc5000d000d0006fff80003fffd0002
fffaffe2ffe50007002b0035ffe00011
00140011ffecffe1ffefffe9fff2fff4
00030001ffebfff2fff0ffd40007001f
00110017fff400350033003c000a0016
ffdbfff2ffe0fffdffe4fff0ffdefffd
002600070014fffb000bfff3001fffff
ffd5fff8ffe50000ffe0ffe300060019
fff60000ffe1ffebffe60001ffe10045
000efff80001fff2ffeeffe7ffddfff5
ffd4fff0fff8000d001c000e001a0009
0011ffe7ffc4001effb4003c000dfffc
fffaffd7ffceffebffe2000700170014
fff1fffe000f00140016ffe5ffdcfffd
ffd7fff9ffa6ffe9fff9fffdffbfffde
fff700010017fffdfff6fff7ff96ffd3
001f0002ffed0000ffedfffbffd3ffe9
fffcfffb000f000a000e000000260004
ffe4fffbffa1ffdfffed000bffd6ffe5
ffeeffe5ffe9fff6ffeeffff000b0005
ffe7ffeb000600000013000d000f0002
fff7ffd9ffbfffb5ffb3fff0ffe9ffd4
00110029002d002efff0000bffd20041
fff5fff3ffe4fff6ffed0004fffaffdf
ffe9fffdfff3ffe6fff0fff0fffafff7
0021001a00100037ffffffe0fffeffe2
ffefffe8ffeffff300160018002f003d
000a000000120017ffe7fff2fff3ffe6
ffeefffbffc2ffd5ffb40005fffcfff0
002dfff1ffe2fff2fff7000500490029
00170005fffbfff5000000000003ffff
fff700180019002d000d000a00000005
ffd20000005cfff3ffe8fff2ffe6000f
ffe9ffe2001100220024000dffdaffd6
002c001d002400040004001700170020
0008fff2002300290023002500260024
0000fff6fff2ffe0ffd0fff500000007
ffdcffdeffe7fff3fff5ffe9fff20000
ffebffe5ffeeffecfffeffdafff0ffec
ffdbffe3ffed0020ffff000a00060015
ffa1ff95ff97ffb5ff93ffb5ffe4ffca
ffc7ffeaffddffdcffc0ffb5ffbbffe0
000bfff6fffcffd8ffbcffc0ffc3ffcb
ff8aff7fffaaff93ffcfffe1fffe0009
fff1ffe3ffd7ffbcff9fff70ff4eff66
00350041001effe4ff10ff5fffb9ffd9
ffb3ff97fffd0006ffe9ffd6ff8b0005
ffeffffa000f00110009fff2000cffd9
ffe8fff7001a00040015000effff0000
ffc4ff9aff68ffa3ffd1ffcbffa9ffc5
00010000001200110004ffd6ffdbffef
0017fffe0014000afffbffec000a001d
fffc0016fff90000fff7000200180007
00090007000e0030ff75ff71ff8dffe4
002a001d0025000600140021002c0000
0011fffa0006ffe9002100430017002b
ffaeffcfffd8fffdfff40002ffecfffb
00060001000effedfffa000c0034003a
00000016002e00280031002c000e001a
00030007fff6fffc000400100023ffe7
000600140030004fff81ffbd0014000d
0013002000170010002800280016000f
fff3fffc0002ffe9fff2000900180020
ffe3ffed000d0002ffff0000fff3fff9
0022002b0015001d001d00170031fff9
fffcfff8000000300031001b002b002b
0000fffcffe10015ffe5fff8ffff0001
001c000c00550056ffeb000a001b0027
0026001a004600250020000500290018
fff900220013000a000600220024002a
0000ffeaffde000e00060010000a0002
002e0008fff1ffe4000a003f0029fffe
ffff000b0028001600430061003a002c
0003fff5fffffffb000d0006ffeefffd
fffe003c0035002c003cfff4ffe1000a
0008000f001a0033002c002100130009
fff3fff00001fffc001f000bffffffd9
00210013ffcfffefffd1ffe6fff3ffe8
0000002e000d0013001e00430058001b
fff2ffdfffe0fff70008fff5fff6fff8
fffe0001ffedfff90001ffefffcdffe0
fffe0029fff00000004000250014fffe
000300190005fff0fff2fff5fffc000d
000dfff80001ffe1ffc9ffaeffe00012
fffb0000001afffdfffdfffe00030003
ffddffdfffe5ffebfff8fff7001affe8
ffbfff9fffa5ffe900110019000cfff9
ffee000d001f002400200007ffeeffd0
003f005bffd80010ff65ffbeffdcfff8
ffe3fffc001d000ffff2ffdfffcc000c
00160018fff5000a000affc0ffbbffcf
ffc0fff70006fffcfffa0005fffc0022
ffc6ffceffd9ffecffc1001c00370012
ffeefffcffe5ffe5fff20008fffefff3
ffeaffe0ffe9ffff001e00080001fff3
00180034002b00430004fffcfffdffe7
ffe2ffe9fffb0004ffd8ffd8ffe0ffd3
0023fffafffcfff4000afff2ffe1fff3
0038003b0028001bfff700060004001b
00120013001800180031006100600048
ffbeffbeffe80006fff8ffe800120009
ffccfffeffec001d00140023fff6ffd7
001a00530046003f0044001cffeeffcf
ffe3ffe5ffe6ffe3ffe8ffe3ffc2ffd0
00000006ffafffc8ffaeffd2ffd0fff3
ffab0024fff5ffe8fff0001100320010
ffc6ffa5ffc2ffbe00030005ffd7fffc
ffbdffd2ffe3ffd5ffd100020007000a
ffccffd5ffe0ffe9ffccffe1ffdbfffc
fff4ffbdffca000dffcb002fffe10001
ffc6ffe2ffe5ffc7ffdeffd8fff2000b
00090017fff60001fff6fffdffd7ffdb
ffd9ffffffb8ffc6ffe80005ffee000c
ffdf00010007fff3ffdcffd0fff5ffdb
ffbdffe3ffceffcfffb3ff9bffbfffb7
ffd4ffe3ffedffeeffe0ffd7ffdffff7
00480028002f0026ffffffe4ffbbff88
ff94ff7eff8effcdffc4ffc0fffeffff
ffdcffdaffdafffdffcbffdbffcfffd7
ffeeffdbfff0ffc7ffd7fffc0005ffee
ffc3ffd3ffc1ffe90010004400430002
000dffe0fffbffe6ffe1ff6dff7bff9b
ffe90000001a0019fffbfff3ffd3fff1
ffbcfff2ffedfffc0009ffe5ffccffe8
ffc9ffa6ffa1ff9dffb6ffbbff91ffae
0018fff6ffe4fffdfffd00140004ffc1
fff8ffe9ffc4001600160000001a0026
ffb5ffc600430034001bfffbffe2000e
0000002affd6ffebffe0ffc0001c003d
0041003000170012ffeeffffffedfff2
fff9fff4fffdfffbfff3ffec00000041
0012003a0037000c0005000400000000
0039004f00360036ffeb0015ffde0035
ffecffea001a00460034000b001cffda
fff5ffffffecfff30018fff900000015
ff89ff90ffa9ff97ffb1ffcffff3fffd
ffc8ffe4ffe1ffceffdaffa7ffd2ff9f
fff90004ffe90010ffedfff4ffd0ffc2
00020014ffcafff3ffaaffecfff6ffdb
00060007fff20006000d001d00030017
ffbcffde0026003f00180011ffc0ffe4
ffd4fff5ffd2fff6ffeafff0fff40015
0014000b001dfff5ffef0010fff4ffde
fffafff1ffcdffe70006000efffb000e
ffd3ffcc001affe8ffe700000019ffeb
ffafffd9fff5ffd7ffea001effee000a
fff30004000e0000fffe00080017fff1
ffff000c0000ffd3fffdffeeffe7ffdb
fff2001dffe7fff1fff5ffecffe1ffeb
ffd6fff1fff40007fff9ffdaffeaffcf
001d000bfffbffd1ffea0003ffe40000
ffdbffbeffb7ffb50020000dfff9000e
ffedffdcffe9fffb000bfffdffd1ffa3
ffff00050016fffcffe8ffddffdcffe8
00010001fff1fff2fff8ffe30008fffc
0033fffdffd7ffd5ffd4ffecffb2ffc6
ffdcffe40011ffd5ffe7ffd80008000c
fffbfffbffed000b0009fff10002fff9
ffeaffdaffb4ffc9000d00150014fffa
ffecffea0017001f0004ffdf0006ffe8
0012fff3ffe8ffefffed0002fff90011
000c000c002e001d0011fff3fff4001a
fff8ffef00170004ffeaffbdff93ffe2
fff7ffe80005ffffffe40007fff8fff1
0017ffff00100007001b0002fffa0002
ffbeff9dffa1ffd40014fffc0005fffc
ffef000b000900040023fffe003cffb4
ffff00040004fff4fffb00160008fff8
002c000a00090000000900190007fffa
00220018001dffa3ff9bff73ffac0000
000c0019fffe001a000a0012001cfffe
00180013000f000afffdffe2fff1fff6
ff77ff7affc6ffebffe100060005fff5
00330021001f000e000b0001002d000b
ffefffe80000fff6000a0012001f0017
fffe000affff0007ffff0001fffdffd6
0008fff600270036ff99ff80fffcfffe
fff5002700250035000d000a002c001d
ffe1fff40008000500070003ffe6ffea
ffb0ff870000fff50000001e00080010
000d0013001700060002fff3000dffe9
ffe7ffeeffdd0000ffecfff9001a0006
001a0012ffefffe6fffbffe3ffffffe1
0002000effe6ff98ff98ffb80000ffeb
ffde0018ffe800090013fff700240015
ffe6ffdbffd4ffe9ffedfff7ffe90003
ffc2ffd6ffcefff70015ffe2ffdffff6
ffdfffe8000b000bffff0036ffaaffbb
ffe6ffeafff6fff6fff3fffeffe9ffec
fff3fff4fff5ffd5ffd0ffe3ffd2ffee
ffec0005ffef002bfff6ffe3ffcc0003
0000fff5fff0ffe500050004ffd1ffea
ffdfffdcffdaffeb0001000b00080001
fff6ffe7ffe8ffe80002fffcfff1ffd9
0031000d0009ffecffd6fff9ffef0029
fff2fff20000000affe9ffef0011000a
ffd1002600040021ffdbfff400080001
ffeeffe80006ffefffddffc3000afffb
fffbffff000c00060011fffa000afffb
000800040000fffe000c00030012001c
ffb4ffc8ffc9fff9ffdb00210026000e
fff900100023001b0016000e001b0018
00140007000f00180025fff300170019
ffcc0017001f0010000a000500030023
0017001c0035ffe8ff9cffdcfffbfffd
0008ffff0024000a0029002e0029000a
0001001c0001000d001600020011000b
ffc3ffc4000c000bffbbffe1000b001b
001d0026001d00370023000e001afffe
0006fff600070006001e001e0022001d
ffb2ffc6fff6ffe90014fffd00090005
001b0014004f0014ffc1ffd80001000c
fffe000bfffd00290018002f000e0025
0008000cfffdfffefff1fffeffe4fff9
ffefffcfffe90000ffddffa8ffe8fffd
ffd80009000700020020001b0033fff5
fff1fff20009fffbfff9fffaffe8fff4
ffccffb7fffc0012ffff001a0019000e
ffe50000fff0ffeefff8ffe1fffafff1
ffcbffdeffe8ffecffd20000ffecffd2
ffecfffb0001000efff000010006fff8
ffe900080003fff6ffc0ffc8000bfff3
ffbfffe6ffceffc1ffd3ffa6ffaf0001
0005fff20004000effd80000ffcfffd2
ffd1ffb8fff1fff7ffc3ffe10011ffed
ffafffb5ffc8ffeefffcfffffffb000d
ffd6000dfff7ffceffc1ffb6ffdcffae
ffc4ffd1fff30005ffea0012ffefffdc
0000fffd0000fff5fffcffceffebffba
ffd1ff96ffc8ffc8ffd5ffcaffc6ffe5
0000fffbffb7ffdc00160005fff5ffd1
0009ffdeffd6ffb1ffb6ffe10001fff7
ffff0005fffdfffafff5000100070016
ffbaff98ff88ffbeffa7ffc7ffec0000
ffb5ffeaffebffe4ffd9ffebffb3ffac
fff3ffe7000effecfff1fffafff6ffd2
001bffefffe5ff87ffbffff8ffcc0004
ffa60002fffc00070006001a00070005
ffc3ffa7ffba0003004b0043003aff7a
ffef000afff2ffeeffeafff1fff2000e
0019fffbffd3fffcfff6ffeeffe9ffeb
ffcbffd00025fffeffc80000ffe2ffdf
ffacffbfffe5ffe90006fffc002bffee
000cfffefff6ffe2fff2ffcbffaefff9
000cffdbffdcffa1ffd4fff6fff2ffff
fff70019ffbbfff0ffcc0024002f0024
ffebffeefff9ffd4ffa9ffcdffa5ffcd
ffe0fff500060000000b0005000a0000
00290004000400210031fff1fff7fff7
ff9effceffa7ffb2ffc3ffe3fff20019
fff6fff5ffe4fff9fff00008fff5ffd3
000d0021000cffea001b0002fff30009
fff2fff6ffcffff1fff7fffa000c0001
00110014fff7ffe4fff6ffd7ffb2ffc0
0001fff6000a0010fff600010005001d
0020fffcffff001500110004ffee0010
ffed0022ffb8ffbe000f00190000001f
00320017001c000d00030004000a0005
001bffe9fffb0003fffefff4000e000e
ffceffccfffdffe2000bffff0017000d
0013002900210014fff10006ffe1ff8f
ffea002b00180022001400330029000f
00000006001e0006fff8ffe5ffe9fffd
00050006ffe4ff88ffc6ffdbfffffffd
000d000d00030004fff60000fffcfffc
fffbfffcfff9ffeb0005000a00330020
00410046001f002cfffcfffb0002000e
000f00150003fff5ffe6fff1ffc7ff7d
00050009001a00140006001d0009fff6
fffb0011fff9ffe9ffe7ffddfff8fff7
00040020ffdfff7dffe5ffe10005000d
0004001c000800040021000c0000000a
ffe0ffe8ffddffeffff0000e00070029
ffe9ffd3ffd6ffebffe3001cffe0ffe9
000afffcfff80006001300320015ff77
ffe90008fffa0000ffe7ffe1ffe4000f
0010fff0ffecfffefff200000000ffe8
fffa000d001fff6ffffe001100020000
fff9fff3ffd5ffdfffeeffe6ffe4ffed
0004001efffd00010000000900090007
ffdfffeafff5000c0009000400070015
ffdfffe6ffecfffbffebffc3001eff91
0000fff8000d000fffffffedffedfff1
0021000ffffd0012001700100004fff9
fffdffa50012ff7cffc0ffbcffecffdf
0000ffe0ffebffedffd5ffeeffeaffe9
003400160014001800070000000afff8
ffaaffafffb8fffeffff000e0000001d
fffc0001fff3fff90007ffccffdaffc5
0005fff7fffb00010003ffd5fff3ffed
fff60006ffecfff9001b00190016fffb
fffa0006ffb0ffc2000aff55ffa6ffd5
ffffffefffd6ffe7ffebffe6ffeffff2
fff3fff4002300140005000afffc0013
ffeaffa2ffadffde0000ffe7ffdcfffe
000a0005fffc0004ffdbffdaff5effba
fffc000900080039001efffb0000fff0
0007ffffffe8ffe6ffd7ffdefff7ffec
000bfffeffb5ff93ffb9ffc9000afffe
000c0000000a0009fff3ffe000020000
ffe1ffc3fff1ffe6fff70008fff40025
000effddffbffff00017000cffe2ffd8
fff60003000c0002000e000effc7ffb1
fffeffff0017000900100018fff6000a
0002000d000900040001fff70002ffe2
ffef0003ffd1ffa4ff9dffde0005fffc
001100200000fffc0019001c00110004
fffa000e0000fff3fffeffff001b000e
ffbbffd00005ffdffff6fff000060009
fff8001b00060005fff10022fff4ffae
0000000300080006001a0002fff2000b
ffe5000b0001fffd000300020005fff3
0008003b0004ffb3ffbdffbbffb9ffcc
fff5ffeffffcfff200000006fff90022
000f0029001d000e0001fff600060009
ffcaffaf000afff70009000100240013
ffeeffdcffe9fff400040011001bffc9
0004fff8fff9ffe9fff4fffbfff4ffef
ffee000afff50016002b00010002000c
ffc9ffd2ffdbffd6ffdbffab0006ffea
000bfffdfff6ffebffcbffd8ffc1ffbe
00000037fffb000d0005002000000000
ffddffbbffc4ffbdffe8ffdcffe6fff5
ffe0fff1ffe2ffc1ff91ff82ffadffe5
0000001600000016000d0016001effd2
ffc7ffbfffd0ffe20010ffe7001d000d
ff90ff8cffdf0016fff5ffdeffe5ffa9
000f0007fffe0028ffefffc5ffd5ffe7
ffb8ffff000cfff9ffe5ffdafff00017
000affe1fff0ffc40001ffd7ffcdffa7
ffea0002fff6000700160002fff4fffe
ff67ff72ff4cff5dff77ff77ffbffff9
ff9cff99ff9bffe2ffbfffc3ff9eff61
ffd0ffe9ffe7fffb0000ffd0ffbdffb3
fff30003ffe2ffe3ffc2ffb6ffd4ffd4
ffec0011000e000e00150018001f0014
ffbeffd10012001a00340018ffe8ffc1
ffebffd2ffd7ffbeffb5ffd6fffaffea
0009001800180003fff90008000a000d
0013ffeeffeaffddfff6000500050015
ffa4ffaaffdfffddffd20005000dffe8
000300060016000afff7fff4ffd5ff97
fffaffffffed0003001ffff7000d0011
ffff0008fff9ffdd000900070012fffa
00000013fffbffcfffbfffd7ffcffff9
fffafff8000000070000fffdffe90010
ffefffe8000500040008000500000001
ffe9ffc5ff9aff9a0012000a000bfffa
000dfff80001ffe8fffefff9ffd7ffee
0007fffa0000fff6000b000f00020007
fffdfffdfff4fffd0003001400100019
fff9000bffe7fff1fff5ffe5ff95ffa4
fffc0001fff6ffeeffceffe6fff8ffff
fffe001500120011fff8001500000010
0006fff0ffc2ffa4fff4ffeeffff0007
0004ffedfff5fffafff7fffdfff80000
00080003000d0001fffe0002ffecfff4
000400260006ffff002100080009000b
ffeafff5ffe6fff4fffeffb0ff74ffc7
ffd5ffd5fff900250014ffeeffec0004
fff8001400120025001e00050018000c
0009ffe5ff64ffae00080009ffecfffd
0000fff40027fff5ffe4ffe9ffeeffe8
0010ffed0006fff20001001a001fffeb
0028001b001d0016001500240025002d
fffe001cffdf00010012ffdcffb9ffcf
0019002200310028000efff4fffd0007
ffeefff4000b00060008ffe1fffcfff6
000dffe9ffadffbb00060001ffffffea
00150005ffeb000a0008fff5ffd9fff5
0015fff1fff4fffeffef00240028001b
fffcfff9fff1ffe2fff4000000180001
001ffff8ffc3ffc9ffb9ff58ff75ffd9
ffdcfffa0009001f002a001d000f001f
ffbaffff0008fffb0000ffffffe3ffd5
ffb3ff92ffd2ffdcffe1ffe2ffe5ffce
001e00280025000e000c0007000cffbe
0024000affeeffc6ffceffe100110007
ffe2ffd7ffc7ffeefff5fffdfffe0006
0003001affe8ffd8fff8000cffb7ffe3
ffceffee0006001dfff0fff8001b0002
00090002fffcfff900180008fff8ffda
0006fff4ffddfff1ffe8ffe5fffd0002
000e000600100010000ffff6ffccffe7
0000001afffffff9ffdffff400000003
ffb2ffdbfff1000b000c0025ffee0006
0007fffa0013fffb000bffb4ff73ffcb
ffeeffc9ffe5fff6ffffffdfffd6fff9
000c0016ffff0019001e002500070008
0014ffafff62ffccffbbffd6fff9fff6
ffeaffd3ffcaffe3ffdaffe9fff4fffa
000f0035001a0029fff4ffd9fff8ffe7
ffbcffdcfff8ffecfff8fffffffc0019
ffdeffd0ffdbffb4ffeefff9fff9ffba
002a000effebffceffb8ffafffd2ffe2
fff8fff4fff2fffc000d0004000f001d
ffe6fff3ffd4ffbeffd8ffdb0003fff6
ffddffd0ffe0ffe0fff2ffc4ffaeffce
0000000ffffd00210013fffffff2ffe8
ffe2ffc1ffc7ffe1ffeffff4ffcbfff7
0002fff7fff2ffb2ffd500070007ffe6
0004fffeffe7000cfffeffe6fff6ffdb
ffedffe9001bffe9ffe8ffe900030008
000dffb3ffe7ffbbffa7ffacffea0006
fffe0017fff10009fffffff9ffdaffbb
ffe6ffdc0003fff2fff5001b000b0007
ffb5ffb2fff4fffcffe7ffee0003000b
0001ffe8ffe7ffdaffddfff70007ffe0
fff4fff2fffa0010000efffc00080009
00110001ffec0000000b0001fff1fffb
ff6bff85ffc3fff4ffd6ffd7fffb0002
000d002bffef0001000affecffcbffc6
fff3fffbffdeffdcffe800080014001d
ffadffbe0005003c000affdaffd8ffe2
001f000dff60ff74ffb6ffacffecfff9
00130003fff6000400210026001d0039
ffb9ffbdffafff86ffceffde000efffb
ffabfff1ffe00005ffd3ffcdfffbffe3
ffc80023002000320002ffc0ff75ffac
fffe0022fff2ff8fff70ff9bffc7ffba
ffdaffb8fff0ffc3ffa6ffcfffd8ffeb
ffc4ffedfff1fff00001fff2000afffe
0027000f0002ffeaffa0ffe600050023
ffcdffe0ffe800010022ff87ff7effc2
fff80007fff80004ffe3fffbfff0fff1
ffc7ffb1ffc8ffedfff9fff9000ffff8
fff2ffc5ffd0ffefffd7ffebffaaffec
fffbfff3ffebfff0ffe80000fffdffe6
000e0031fff1ffea0000000600120014
ffe8ffe4ffd5fff6ffecffe4ffe9fff7
0001fffc0002fff8ffc4ffdfffe0ffd2
ffe6fff70000000500040001fff9000b
ffd0fff0ffeefff5fff1ffedffebffef
ff9bff97ffb9ffbeffa0ffb0ffc1ffc3
fffafff1ffe6fffeff9dffb7ffc3ffb0
ffe7ffd8ffd0ffe2ffd100080004fff7
002c00080004ffe4ffecffbdffc3fffb
ff98ffe50009ffd4fff20007001a001f
ffeafff200100018ffc3ffe0ffc0ffbe
0012ffd0ffe6ffd3ffc3ffccffddffdc
fff1fffbffedffe7fff9fffe00020020
ffd4ffa9ff56ff77ffa7fffdfff4fff1
fff4ffd4ffcafffbffd3fff4ffcc0003
ffdbffeb00040002000bffd40004fffb
ffe10006fff1ffe5fff6fffcffeeffcc
ffc5ffb8ffd6ffd1ffb5ffb4ffc6ffd3
ffabffa7ffcbffbfffa5ffd0ffc1ffaf
ffeffff9fffaffeaffe4fffaffe1ffe8
ffc3ffcdffd6ffe7ffddfff20002fff5
ff93ffacffbaffc5ffbeffb2ff98ffeb
ffdfffecffdaffccffabff76ff93ffb1
ffe9001300000012fff50006fff4ffe0
ffb9ff9effb1ffc7ffedffdffff5ffda
ffdfffb0ff98ffc5ffc1ffa1ffb0ffc0
fff9000200030007ffffffd8ffe1ffc2
ffd4fff4fff0ffe0ffdbfffbfff4fffc
ffd3ffe6ffb9ffc1ffb4ff9dff9fffb9
0003ffd6fffeffbcfff8ffe3fffeffe8
fff2fff600000000fff30006fff9ffef
fff1ffb7ffcdffcdffeffff3ffffffd8
0015fffbfff30010fffffff3ffb9fffd
0000fff1ffe3fff8001a000300080006
ffeeffeeffcdfff7ffe2ffefffe9fffa
fffd0004fffb00400031ffe8ffd5ffef
0006000b00150012000e001a00110012
ffe7fff1ffea0000000b000bfff7ffeb
00030015ffc1ffef0036fff5fffbfffb
001200180022001e001a000d0016003c
fff9fff2ffe6fffc000a000c00150018
001b0002000000070004ffebffde0001
001700160024002b001d002bffd3fff8
0000ffd3fffd0013001d00160009000c
00060001fffffff3ffe3fff8000dfffa
0024ffdfffe0fffbffe6ffcb00070004
0013001900120020001c00210035002a
ffe9fffc0014000a000bffea00020014
ffcdffb2fffb000d00160005001f0007
000afffb002d00550033ffb5ffefffeb
0012ffeb0009fff00011001300060007
fff7000d0013fff90000ffef0019000f
0013fff5fffbfffbffb7ffd200010019
000b00040001001a0009fff7002b0027
ffeefffb001e000e0001ffe7ffddffeb
ffdeffbffff10013fff800030004ffe6
00080004001b001bffff000000040003
fff1ffe3ffdeffe1fff60003fff80007
ffe8fffa00130012fff8fff00013fff8
ffecffd0ffc0ffcefffbffd0ffe4001b
ffd5fffe001700090015ffe90005000b
fffc0010fff4fffcfffdffe7ffc7ffba
ffaaffe0fff70013ffeffffefff1fff8
fff60002ffe1fff90006ffdfffbcfffa
0004fff7ffdbff9bffa3ffe8fffbffc6
fff5ffec00320009ffff0005000a000d
fff7ff94ffc8ffe1ffaffff2000fffef
ffc0ffcaffbeffe8fff7ffff001affe9
0010ffff00000007fff3fff4ffedffe1
ffdefffe0009000a0009ffef00230003
0001000cfffcffedffb5ffcdffbe0000
fff5fff6000b0000ffddffe5ffb1ffd4
fff9fff5000dfffc000ffff80009fff4
ffa9ffb3ffb8000cffe3001a00080029
ffe2ffe8ffc4ffd0ffd30014fff30000
0002000cfffc0004fff80004fffcfff1
ffcf0029000f00100006000400290012
ffb6ffcffffeffd2ffc1ffafffe7ffdf
00130008fffdffe6ffd7fff40001ffdf
fffc000d00020008fff600180009fff7
fff6ffaffffffffbfff5001100130019
000a00110003fffaffe5ffbe0007ffec
ffee001a001f000d0003000efffefffb
fff9002400040012ffdefffc0005fff5
001effebffcfffe1fff5ffd00003fffd
00120024003b000e0029001e002f0017
0000002000240008fff800090019000c
fff6ffc6fffb0000fff8000e0030fff8
0046fffe003200120019fff6ffdcfff7
000a00100016001a001e000e00200023
ffe5fff50016ffefffee001f0036001e
0007000ffffb0009ffcd00000003ffea
0005000e00170003002d000d00360020
fff90014001b00230013001e0027002b
0013fffd0000ffff0000000c0017ffe2
001700260048003100280033001b0013
001800420016001b0010ffe400170042
fffe002bfff4ffddfffa00450040003b
fff9001afff9ffdffff800110004fffe
ffe0fff6ffe7ffe20007ffe7fff80000
0006fff7fff8fff1ffeefff2fff7ffd1
ffee0003fff7fff7fffafff70006fff4
ffc5ffccffd9ffeffffd000a0003ffda
ffe1ffd3ffa1ffc5ffb8ffafff99ffb7
fff9fff1fff8fffffff4ffe6ffaeff9c
ffe6ffe4ffc3ffeeffe6fff0fff1001a
002d0012ffec0005ffe0ff99ffc3ffda
ffd0ffa2ff8500110000000dfffe001b
ffd4ffd4ffeafffdfff9fff0ffe6ffef
0007ffefffe3ffa6ffa3ffc9ffd8ffe7
0017ffe5fff6ffcbffaeffadfff50020
ffdaffe6ffbbff91ff4effb5ffe8fff5
ffbfffb5ffb5ffe6ffc6ffe0fff4fffc
ffde000ffff1fff10007ffddfff3ffdd
ffe00000ffdffff1ffcb001300320024
ffd1ffd9ffe7fff2ffd5ffbdff8affb8
ffff0002000cffd6ff92ffa6ffa9ffc7
ffef0006fff7000efff8ffdbffefffda
ffb1ff7aff63ffbc0000ffecffdffff1
0001ffe4ffbbffa7ffa2ffc3ffa9ffa4
0002ffefffeeffe40008ffeb000cfff1
ffd4ffe5fff800050033001c00170002
ffacffa9ffaeffb8ffdcff9aff86ffab
fff2ffe7000b000e00090004fff2ffe4
00290014000d00140011fff90005fffe
ff61ff8affce00040031002a00230019
001f0031001e000cfff9ffcaffdbff9b
fff4000dffe80000fffbfff7000d0017
001100290009000d000300050006ffe9
fffbfffc0008ff9fffd1ffc9000dfff9
0020001f0020002dfff50027000c000b
000efffafffefff4fffc0003001b001e
ffadff90ffb3ffd5ffe5fff4fff8000e
000000360016001ffff8ffe8fff5ffb3
ffe3000300170015003800190010000c
0001ffd9000f000000070018fff3ffde
0000ffe4000a0009ffafff89ffc40001
0034001c00280016fffe0010001afff7
000f0014000b0015001b000800310048
004e000d001300220004ffd3ffde0000
000b002900180021000cfff0ffd80005
00300039002a0029002d002a0031fffc
ffe3fff3fffcffd80013000b00000022
fffdfffdffbbffecfff0ff86ffdc0020
000c000fffff0013000e001900110026
ffe7ffe70013001c0017003100180024
ffb5ff76ffb3ffda0010000f0007ffef
fff50009ffeefff800060029ffeaffd9
001f002f002d002700260000ffe9ffef
ffe9fffdfffdfffbffd20003fffe0029
fffc0033ffd2ffb7ffcaffdaffbfffba
002b001f000effe5ffebfffeffefffff
fff900220015000d001c00030015002d
ffe0ffbdffddffa3ffd8fff80019fff7
ffe1fff400080012fffa0029ffc4ffac
00060011001e000f002c0023000dffe7
0014000bfffdffedfff60009fff9000b
ffd6fff6ffb2ffecffe4ff8fffdcfff1
fff80004001dfffffff4fffb000fffdd
fff6000a0000000900050009fff9fff6
ffd1ffb50007fff3fffefff0fffefff2
ffe8fff1ffe4ffdeffddffdbffd5ffd5
00020010fff3ffefffd3000300100015
ffe2ffefffd5ffff000b0009000bfff5
ffe0ffcdffdcff98ffe8ffcdffa9ffe8
0009000400290009ffebffe4ffe8ffec
001b00010012fff600090006ffedfffd
ffb9ffac0005001afffbffee00050019
fff9ffe4fffafff7fff1ffcaffacffa1
fff8fff8ffd2ffc7ffdcffeefff4ffff
0010001c001e002e00060000ffea0000
fffdffddffb5ff9e000900150017001d
ffe2ffedfff7fff4fff5ffe3ffee0003
0000000e0008fff5fff2fff3ffdfffca
ffd4ffd5fffc000c000b00140022fff5
fff0ffe1ffdffff0000a00010007ffa6
fff3fff8fff4ffd1ffcaffd0fff5fff3
000f0003ffe500050001000c0000000f
000a0012000bff93ffd600040001003a
ffe9ffd3ffd8ffe9ffe6fff6ffe9fff4
00210004fffa0011002200170010ffe2
ffe9000dfffb00110011000bfff4fff9
000d000f0016000b001200130004ffba
000effe2fff70012fffb000300070008
000b000ffff9000d000a001400080024
0011001afff9ffc4ffd0fffa00190047
0002fffe0000000a0005001b0014ffe8
0005ffdeffebfff7ffe5fff3ffe3fff5
ffe20000fffffff70002000800140000
fff9001f002b00090033fffbffaaffba
fff60016fffeffd4ffd2000600120024
000cfff00003000700200005fff1fff5
003affd9ffab000700030007001dfff7
0000fff50012fffb00200021001c0035
002d00420025000c0000001b000c000d
fffdfffdffcdffdd0005000d00190029
ffecfffa0004ffe7ffeeffebfff5ffe3
ffcfffd3ffb8ffdfffeafff1fffc000a
ffe90011fff4ffe9ffecffd9ffceffc6
ffe1fff1fffafff4fff30000fffdfff1
ffb2ffb5ffbcffefffe8ffffffd8fff1
ff99ff95ff8cff5aff6eff3aff82ff77
fff60003ffeafff5ffbaffaaffa2ffb7
ffa0ff93ffc7ffd1ffdbfff7ffeaffe8
002200290018000bffecffdfff99ff9f
ff5dffc9ffeeffd200100007001c0036
ffbaffd700050019fff3ffc9ffc7ff78
0027fff8ffd4ffe7ffc9ffbfffcaffb5
0006001dfff3fff9fffd002100260026
ffd5ff73ff46ff4bffb6ffd200140002
0010fff6ffadffa0ffc2ffd3ffc8ffec
fff70006000d0008001a001d0021001d
ffd20014fffa0003000900120016ffee
ff92ffb9ffd3ffc5ffb0ff94ffb8ffe0
0005000500130025001cfffcffe0ffa7
00130016003b001200190009000d000d
ffc9ffe90001fffdfffafff00011fffb
0002fffbffffffddffdfff8cff99ffc0
0004fff600070008ffdaffe8ffdefff9
0000001a001fffff001d002300000022
0004ffcaffa7ff95ffdaffdbffd8ffeb
ffcbffe0ffd9ffebffddffeb0005fff8
0005000efffe001b00240015001e0007
ffbeffd7fff2ffe5000000050008fff8
ffcdffe40007ffd3fff1fffaffc7ffa7
0008000c00220009ffeaffe8ffdbffc9
ffeeffecfff8fff70009000200280009
ffdefff8ffe1ffb3ffebffe7ffdaffdc
0007ffc8ffa1ffddffeaffdfffd0ffcc
00210017fff1fffcfffbffe0fff40013
fff0ffd6ffb6fff8fff4fffbfffdffff
ffc1ffeaffd1ffe0ffd5ffe1ffe8ffd8
ffe3ffc6fff50005fffbfff0fff3ffe9
ffefffecfff2fff30005fff400080004
fffe0014000bffc30009ffd5ffff000e
001e0018ffe1ffe3fff0ffddffdcffff
fff3fff7000bffdfffd3ffdfffe70035
fffbffcbffed00000003fff4ffd6ffe8
0004ffe2ffd2ffcc00020003ffdcffc7
fff7ffe8ffebffdd001500300018000e
ffe2ffedffcdffeeffe9ffeffff00023
ffd6ffa4ffe8ffd4ffa7ff75ffb30007
002800190004fffcfff5ffdeffb6ffb1
ffcbffdbffec00000000fff5fff80000
ffb9ff8bffc6ffe5fff1ffcaffcbffe5
fff4ffb1ffc3ffefffb0ffa7ffb3ffe3
0009000ffff30017001300200019001d
ffdcffd5ffe4fff6ffd7ffdeffe0ffc2
ff53ff7bffe3ffc5ffe2ffa1ffb0ffd4
0029002800110005fff0ffe1fffaffd1
ffe8ffd2ffe7ffe0ffd5ffdfffcb0012
ffddff8affbfffe4ffdeffecfff3ffd2
ffeafffbffc9ff9fff78ffa9ffb9ffe6
ffebffef000100370042003100290008
fffeffe3ffe8ffbeffbbffb4ffb2ffdb
ff62ff83ffb9ffc1ffa4ff93fff2ffeb
0038003d0028000dfff7ffedffbbff94
ffb7ff93ff9effc8ffdbfffbfff5fff4
ffb1ffb8ffdeffe6fff6ffe2ffefffb6
fffdffffffd5ff92ff5aff6fff9effbc
ffef00000000fffc002e002b0025002a
ffea000400110003ffc7ffbcffa6ffb3
ffa8ff74ffa2ffbeffcbfffc000e0005
00000012001e00260006ffe7ffffffe2
ffceffaeffbeffadffdcffd2fffb0000
ffe6001c0007002e001f000b0011fff2
003ffff3ffd0ffefffc7ffafffd20002
ffee0005000000090001fffd00040024
fff1fffb0007ffe5ffe6ffeaffdcffd4
00110004ffd9ffd9ffe60023002a0008
003800180015001a0021001d002a0010
ffe7ffd7ffe6ffccffc800090024001a
ffdffffd0002fffafffcfffffff5ffe1
00040003001c001efffbff7fff99ffbd
0000001c0004fff90003000800060020
000100130012ffdefffefff00001ffd0
0016ffdfffa50000fff6fffa00280013
fffdfff1fff6ffe4ffe1fffa001d0004
00090008fffffffdfff2ffe5fff5ffff
fffc000c00280024002200150015ffec
ffd1ffe500040008ffceff80ffccfff6
00000003ffcefffcffdfffbdffb8ffae
fffb000d001dfff3fff6ffff00290000
003d00360006ffe9fffb0017004b0017
ffc3ffd4ffe1ffcfffeefffa003e0044
00190009000d002300460062fff80002
fffefff80015fff70002002a002cfff9
0044004dffe0ffedfff60001fff8fff1
0015fff8002b002100570068000b0004
000600390029003a00430014001a0009
fffd0009fffd00000004000e0007ffdb
0031000a002f0000fff800000008000a
0027ffdf0003fff5006800300054000d
ffebfff9ffe50007001a0019fffc0044
00000000000000000000000000000000
