1f
f8
0c
db
28
ab
fc
24
40
e7
1c
e4
08
ef
43
24
00
1c
df
ff
70
14
f8
5c
03
f3
03
fb
e3
ff
f3
04
03
f4
fb
f8
e7
ef
13
f3
f8
fc
fc
e8
04
1c
00
08
03
08
00
0c
10
04
0c
00
08
0c
fc
03
10
08
0c
10
13
0f
03
04
00
0c
00
28
f8
00
fc
f7
08
f3
04
fb
f4
df
e3
db
eb
00
d7
fc
e3
fb
ec
ef
df
0b
1c
0b
e7
03
f7
ef
0b
e3
fb
ef
f8
0c
10
14
18
08
f8
04
0c
08
fc
10
fc
fc
f7
00
03
f7
eb
ef
00
08
00
0f
03
f8
fb
e3
08
00
08
f8
0b
04
ff
fb
f7
0b
0b
07
10
e7
f3
03
ef
eb
00
f3
ff
db
ef
14
ef
1f
03
10
04
f7
ff
10
d7
f8
e7
07
0c
f3
00
24
fb
0b
07
f4
ef
0c
1c
ef
04
f8
f8
fc
ff
fb
f7
03
f3
f8
ec
e8
fb
ff
03
fb
ec
cf
08
04
00
fb
0b
03
d7
07
f4
f4
f4
10
d7
d3
cb
03
dc
03
f4
fb
07
f7
00
04
fb
cf
07
07
f3
00
17
0c
10
00
fb
04
00
1c
0c
e7
fc
14
04
08
fb
00
df
f8
1c
08
00
f4
0c
f3
08
08
04
00
14
f7
fb
00
db
00
fc
10
03
f3
00
ec
03
00
f4
00
f8
00
08
10
04
00
e3
08
04
03
f4
ff
ff
ff
ef
f8
e7
fb
00
08
eb
f7
0f
fc
f0
10
f7
f3
07
ef
ff
ff
03
03
ef
00
03
03
14
e8
f3
04
07
1c
00
f4
ff
fc
04
00
04
ef
e3
f4
14
18
fc
f8
03
00
ef
0b
0c
00
00
0c
00
e7
08
07
f8
00
df
ff
f3
0b
ff
bf
d7
f8
28
0f
fc
d3
f8
03
08
fc
04
fb
00
00
03
03
eb
f7
f3
f3
08
ff
e7
e8
fc
eb
f0
0b
03
00
f0
00
cf
fb
00
00
18
eb
04
e7
04
08
08
03
03
ff
f8
07
04
10
18
00
ec
03
eb
e3
08
db
ef
f8
27
e3
04
e8
04
ef
fc
00
0c
f8
e8
03
07
03
00
ff
f3
fc
04
00
fc
ff
ef
f7
07
e0
00
ec
07
04
03
08
df
04
03
f3
10
df
0c
ef
fc
f0
03
ff
ef
08
0b
fc
03
00
ff
10
ff
08
ff
04
03
ff
08
00
f8
07
04
eb
ff
cf
e3
e3
db
f8
e3
f3
18
0b
f8
00
f3
17
03
10
10
0f
08
eb
f8
13
0b
0c
04
08
13
ff
00
07
0b
ff
03
03
f7
04
0c
fc
f3
fb
fb
e7
20
f8
0c
03
04
24
03
00
00
18
08
18
20
08
f8
0c
03
08
03
18
04
00
04
f3
03
e3
d3
00
fb
cb
f7
0c
f8
00
08
04
00
ef
03
04
eb
0b
e3
f4
f4
00
00
f3
00
03
10
03
10
08
df
0c
0f
fc
07
04
f4
07
00
18
03
00
03
00
08
03
10
e7
04
03
fb
20
03
fc
e3
18
e3
14
e0
ff
14
e3
08
13
34
03
08
f7
eb
ff
00
eb
00
03
eb
28
0b
00
07
03
fc
00
00
f8
eb
00
08
f0
04
eb
14
0f
00
04
03
10
e3
08
dc
03
fc
d7
0f
04
f4
db
07
08
03
0c
03
fc
03
00
0b
03
00
fc
00
00
00
18
ef
08
f7
04
f4
fc
fb
f8
0c
00
08
f8
0b
08
08
e3
ff
d7
07
fb
0c
14
e3
00
ef
14
10
14
00
bf
08
00
0f
04
0f
00
f0
00
fc
03
00
0b
04
07
f8
08
03
10
e7
14
e3
ff
f8
f3
f7
ef
08
03
ff
03
fb
fc
03
f3
f3
04
f0
03
03
03
00
f3
10
08
14
08
18
10
0b
00
fb
e3
ec
f3
ff
ef
00
04
00
04
0c
0c
08
14
f7
04
08
00
10
0b
f8
fc
07
f8
f3
fb
fb
f4
03
0c
0c
04
07
f8
fc
0b
08
14
08
00
ff
00
f4
18
08
ec
08
00
00
07
1c
00
2c
14
eb
10
eb
24
eb
00
00
e7
db
d7
08
e8
07
eb
fb
ef
e7
e3
ef
03
03
00
e8
00
07
04
ff
1c
fc
24
04
0b
14
f8
0c
04
0c
0c
03
14
03
10
ec
04
08
04
10
03
fc
f3
08
04
08
f0
d7
07
ef
f7
03
e7
08
f3
08
fc
0c
00
e7
10
00
00
f8
fc
f7
17
ef
fc
ff
fb
f7
eb
fb
00
dc
07
0c
ef
f7
ff
ff
e3
18
08
f0
03
14
e7
08
f3
00
f3
03
df
f8
18
fb
14
00
0c
04
ff
f4
04
fc
08
00
0c
08
0c
f4
00
ff
0c
03
04
13
f8
eb
f8
fc
04
ff
03
ff
03
ec
00
04
00
03
fb
ff
f4
e3
ef
cb
e0
f3
d3
fb
04
ef
f0
fb
fb
0c
f0
fb
08
ef
08
03
08
fc
fb
04
df
0b
ef
fb
0b
03
fc
df
04
00
fc
07
04
f3
ef
00
14
04
f3
0f
0c
03
cb
10
eb
ff
0c
eb
fb
ff
ef
fc
bf
0c
10
08
f4
0c
fc
f7
cf
00
03
00
f3
ff
03
10
10
18
00
ef
08
fb
0c
28
08
ec
fb
fb
0c
f7
f8
eb
f4
08
03
14
df
04
ff
00
08
e7
08
f3
f0
f8
04
00
0b
f3
00
df
03
00
fb
f8
ff
00
f3
07
fb
f7
04
fb
10
ff
f8
04
f7
f8
e7
fc
04
ff
ff
fb
07
e7
e7
20
07
08
f4
0c
f8
03
e7
fc
20
f8
18
04
fc
f0
08
dc
10
03
fc
00
00
0c
e7
10
03
f4
f7
13
fc
17
fc
e7
0c
f7
eb
f7
f7
df
00
fb
0c
f4
fb
f4
ef
00
00
0c
f4
00
f7
04
04
18
00
ef
14
03
10
00
13
e4
00
03
00
ef
e3
ef
14
ff
fc
20
03
04
f3
04
ff
04
df
f3
07
f7
08
08
18
f8
03
0c
00
0c
f7
14
04
04
04
fc
08
28
10
e7
10
03
18
ff
0c
00
0f
00
03
f8
eb
0c
ff
ef
00
fb
14
e7
ef
df
f8
f8
18
df
c7
04
f3
00
04
08
00
04
08
ff
00
f4
04
1c
08
04
fb
f0
04
08
00
03
14
f7
03
00
ef
14
ff
0c
f7
03
00
04
04
fc
33
f7
0f
1c
00
10
00
00
04
00
00
00
10
07
fc
00
00
08
ec
04
fc
ff
f3
fc
eb
d7
ef
10
fc
0f
03
08
00
f4
1c
14
00
f0
f7
f3
03
ff
00
eb
e3
f7
f0
00
04
07
07
f8
ff
fc
00
f0
fb
03
fb
fb
eb
10
f7
0c
fc
fc
ff
f7
04
0f
08
08
f8
f8
0c
14
04
fc
00
fb
14
0b
0c
00
ff
00
fb
fc
ef
ff
f0
d7
00
03
14
e7
f3
fc
08
0c
f0
0c
18
00
03
00
04
e8
f7
08
ff
00
eb
f7
00
d7
f3
e3
10
f3
08
f4
fb
00
fb
10
e7
10
fc
f3
00
db
00
e7
04
f8
04
f8
f7
f8
e7
04
f7
07
0c
08
eb
e3
0c
0c
1b
cb
1b
ff
00
1b
00
03
e7
ec
f4
00
f8
fc
fb
fc
df
fb
db
fb
fc
e3
d7
f8
07
0b
f7
10
00
00
1c
08
17
08
14
03
fc
f0
14
fb
08
00
f4
e4
fb
00
fb
03
00
ff
08
08
00
fb
00
24
04
ff
07
03
03
00
10
14
03
00
00
f7
04
04
04
e0
04
00
f0
04
00
0c
f8
fb
04
f7
f3
f8
fb
07
14
d3
fc
03
f8
0c
00
0c
03
00
0b
f0
0c
ff
00
03
f4
08
f0
fb
13
0c
00
08
08
28
e7
f7
f7
08
ff
08
1b
0f
04
ff
fb
f0
08
f4
03
04
eb
e3
08
10
d7
04
e3
03
ff
14
08
24
03
f4
08
10
ff
fb
f8
e3
03
ab
0f
07
0c
f3
08
cb
10
f8
07
13
18
0c
04
14
f4
14
08
14
14
f4
0c
ff
04
eb
f8
f0
0c
04
0c
e8
fc
18
f7
03
00
00
0c
ff
20
eb
ff
00
f3
fc
fc
ff
eb
e3
cb
03
e7
ef
f8
03
e4
0c
08
00
18
00
db
eb
eb
e3
ef
00
0f
0b
03
fb
03
ef
08
df
0b
08
08
fc
08
00
d7
07
04
0c
04
14
03
00
10
04
08
03
f7
f8
eb
fb
ff
ef
f3
f8
00
04
04
10
10
00
1b
08
04
10
ff
04
00
1b
04
03
f7
07
eb
0b
e7
fb
03
ff
ef
f8
fb
e8
00
fc
ec
17
ff
14
03
ff
d7
fc
eb
00
00
04
00
f7
0c
00
00
00
03
ff
f3
00
ef
f4
f8
f7
00
0f
04
fb
fb
00
fc
08
db
00
db
03
f7
00
ff
e7
08
00
00
00
00
03
03
00
07
ff
fc
e7
00
db
00
f7
00
eb
fc
d3
f4
0c
08
04
fb
ef
f8
e8
00
04
03
08
f7
00
e7
fb
00
f8
08
fb
03
e3
18
03
f8
0c
e7
f7
ef
08
e7
0c
00
eb
00
bf
f7
03
eb
00
f3
04
ef
ff
e7
ff
0f
f3
03
03
00
00
f8
ef
b3
04
f0
e7
fb
00
f4
07
eb
08
ef
00
fb
e7
eb
0c
08
00
af
00
ff
e7
03
cf
f3
ff
cf
fc
e3
03
eb
04
eb
08
f8
08
f4
ef
00
00
08
0c
14
0c
00
f3
fc
fc
08
00
fc
e0
f3
07
e3
10
03
07
dc
03
04
03
00
03
0c
00
1c
1b
18
18
00
10
00
08
ff
fc
ff
03
d7
fc
f8
f7
f7
f7
df
18
f7
fb
b7
07
fc
ff
04
f3
f4
04
10
fc
08
ff
04
18
08
18
03
08
08
fb
14
e3
07
0f
04
00
df
03
03
08
ec
f7
0b
db
ef
08
ff
13
f3
00
07
0b
00
00
00
0b
fb
db
03
0f
08
0c
03
eb
03
c7
fb
d3
fb
eb
fc
e7
04
df
08
08
03
00
d7
0c
ff
f3
ff
eb
fc
f7
fc
00
f7
ef
ef
f8
f7
fc
e7
0c
f7
03
f7
e3
00
ff
14
fb
ef
d7
d7
00
00
00
03
14
f7
d3
00
14
ff
0b
00
14
03
fc
0b
04
14
04
03
00
