03
f9
00
05
fb
09
08
01
02
01
fb
06
00
fe
fa
0e
05
04
00
fe
fe
fc
00
fe
00
00
00
fd
fe
00
ff
00
02
00
fe
00
00
01
02
02
00
00
01
00
02
02
ff
ff
02
00
01
00
ff
ff
ff
03
fd
01
fe
ff
ff
fe
00
fd
fe
fe
fc
02
fd
fc
fd
01
fd
00
01
01
00
01
ff
fe
01
03
01
00
01
00
00
00
00
00
00
00
00
00
fe
ff
00
01
02
01
ff
00
01
fe
ff
ff
ff
00
02
00
01
fe
fd
fe
00
fa
00
fe
fe
fe
00
fe
00
fb
01
01
01
00
ff
ff
04
01
fe
00
fe
00
fd
01
00
00
fe
fe
00
00
ff
00
fb
fe
ff
00
00
fe
ff
fb
fc
ff
ff
00
00
f9
00
ff
ff
00
ff
00
03
fd
00
fd
00
02
00
02
ff
02
00
01
01
00
00
01
ff
fc
00
ff
00
03
01
01
00
ff
02
00
01
fb
00
fe
00
00
00
00
fe
ff
ff
00
02
00
01
00
00
03
fc
00
ff
03
fd
fe
02
fd
ff
02
fe
00
ff
00
fe
01
00
00
00
00
00
fd
fe
fc
00
00
00
01
00
01
00
fc
00
01
00
ff
00
fe
02
01
00
00
01
01
fc
00
fc
00
fd
00
fe
00
05
fc
00
ff
ff
ff
00
ff
02
00
00
fe
fe
00
fd
fd
ff
00
fe
01
00
fe
f9
01
00
03
fa
00
fd
fb
01
00
01
ff
ff
01
03
01
ff
fd
00
00
fe
ff
fb
00
ff
fe
00
00
ff
fd
03
fd
00
00
00
00
fe
fd
fe
00
ff
00
fc
00
00
02
fe
00
00
00
01
fc
01
00
ff
01
01
00
00
00
01
00
00
02
00
01
00
fe
00
fd
00
fc
f9
fe
fc
00
fd
ff
ff
00
00
03
ff
01
00
02
01
fc
00
02
00
ff
01
00
02
ff
00
fe
fe
00
fd
04
fd
03
00
01
01
00
01
00
04
00
01
00
02
02
00
fe
fc
00
00
fe
ff
00
00
ff
ff
fe
00
fb
00
fd
01
00
ff
01
fd
00
fe
00
02
fe
00
01
01
fc
ff
04
00
00
02
00
01
00
00
00
fe
01
00
04
02
fc
02
ff
02
fe
ff
06
ff
00
fd
ff
fe
00
ff
ff
01
02
fa
00
00
00
fd
00
fe
00
ff
01
00
ff
01
fc
02
fd
00
00
fe
ff
00
00
00
01
ff
00
01
fe
00
fe
01
00
00
01
ff
02
fd
ff
00
fe
01
00
00
01
00
00
00
ff
00
fc
04
02
02
00
ff
01
fd
00
01
01
01
00
00
02
00
ff
01
00
00
00
fc
03
fd
ff
fe
00
00
fd
ff
00
00
ff
fe
00
fc
00
03
01
02
02
01
01
03
02
fe
ff
00
00
f9
00
01
00
00
ff
01
00
02
02
00
00
ff
fd
ff
ff
00
01
04
00
00
00
01
01
01
01
ff
01
00
01
fd
00
03
ff
00
fd
02
ff
fd
01
ff
fb
01
fd
00
fb
fc
fd
fe
01
00
00
00
00
01
04
00
03
fd
02
03
02
01
ff
02
00
03
ff
01
00
fe
00
00
00
01
00
00
fe
00
fc
01
fc
00
01
ff
03
00
00
01
ff
00
ff
00
fe
ff
ff
fe
ff
01
fe
fc
00
00
00
fe
02
fe
01
ff
ff
00
ff
fd
ff
01
ff
00
02
02
00
00
00
01
01
01
00
00
00
02
01
02
00
00
00
00
ff
ff
00
00
fe
00
ff
00
f9
f9
fe
ff
00
fc
ff
00
01
ff
00
02
00
00
ff
00
00
00
ff
ff
fe
fc
fd
00
00
ff
03
00
00
00
01
00
01
02
fe
00
fd
03
fc
00
ff
00
01
03
fb
ff
00
00
00
ff
04
02
fe
00
fe
02
01
05
01
02
ff
00
ff
fd
00
fb
02
00
01
00
ff
fd
fe
01
ff
00
01
00
fc
00
ff
ff
00
fe
00
fd
00
ff
01
fe
00
00
00
00
fc
02
ff
00
01
04
03
fc
01
fe
03
00
fd
00
00
01
01
fc
02
00
00
00
01
02
02
00
02
fd
00
fd
ff
ff
ff
fe
02
ff
fe
ff
ff
01
fe
01
00
03
00
01
00
fe
00
00
00
00
00
00
04
03
fe
02
00
04
00
01
00
00
01
fe
fb
00
01
00
00
01
00
00
02
ff
01
00
00
00
fd
00
01
00
02
ff
00
f9
ff
01
fd
00
ff
00
00
fc
02
fe
fc
00
00
00
01
01
00
00
01
ff
00
00
00
01
00
01
00
00
ff
02
fe
02
fe
00
00
fe
03
00
00
00
03
ff
00
00
ff
01
00
01
00
00
fe
00
00
fe
ff
00
00
ff
02
fe
fc
01
00
00
02
00
02
fe
00
fd
fd
00
01
00
03
01
ff
fe
01
fe
00
fe
ff
fe
01
01
ff
01
ff
00
fe
01
00
00
02
00
04
ff
00
00
00
00
fd
00
00
01
fb
fb
fc
fd
fd
00
01
05
00
00
00
ff
fd
00
00
00
fd
ff
fb
00
00
fe
02
fe
00
00
00
02
fd
01
fb
00
01
ff
03
f7
ff
ff
fe
00
00
ff
fc
fe
ff
f9
01
00
03
00
ff
fe
fe
00
00
00
fe
ff
fa
fb
fc
00
00
01
00
03
00
00
04
01
00
01
fe
00
ff
00
01
00
00
ff
00
00
00
00
ff
00
02
00
01
02
00
ff
00
00
fc
01
00
02
01
00
01
fd
01
00
ff
ff
ff
fb
00
03
00
00
03
00
01
ff
00
fe
00
00
00
ff
01
ff
00
03
01
00
00
ff
00
03
01
00
00
00
00
01
ff
01
01
fc
fe
fe
00
fe
00
02
00
00
ff
01
00
ff
ff
fd
f5
f9
00
fe
01
02
ff
00
01
01
03
00
02
00
03
ff
00
05
fd
00
00
00
fe
fc
03
00
fe
00
01
ff
fd
fe
fe
00
ff
fc
fc
fd
04
fe
fa
01
01
00
fe
00
fe
00
fc
00
01
01
ff
ff
fe
00
00
01
00
fa
00
03
00
01
00
01
00
ff
00
00
02
fe
ff
fd
00
ff
00
00
02
01
00
01
01
00
00
ff
ff
00
00
fb
01
fe
ff
00
00
fc
fd
03
ff
02
00
fb
00
00
00
00
00
00
ff
ff
00
00
00
00
00
01
00
ff
00
ff
ff
00
fe
01
ff
fe
00
00
00
fd
00
01
00
00
fc
00
01
00
fd
ff
01
ff
ff
00
fa
fe
ff
00
00
00
fd
00
fe
01
00
00
ff
f8
01
ff
02
00
00
02
f8
ff
00
00
01
00
00
f8
00
00
00
fe
00
00
00
00
fe
00
00
00
01
ff
00
f8
fe
00
ff
fb
01
fe
ff
fd
fd
fc
00
fd
ff
fd
00
fa
00
ff
fa
00
fc
ff
01
00
01
fe
00
03
01
00
00
fe
00
01
00
00
00
00
ff
fc
00
00
02
00
01
00
00
01
fe
03
03
01
01
00
00
00
fb
fd
ff
00
00
03
fb
fe
00
f9
00
fe
00
00
00
01
fd
03
fe
00
01
00
ff
fc
01
fd
00
00
00
01
fb
ff
fb
ff
ff
02
00
00
01
00
00
01
01
01
01
00
00
fd
fe
fb
fa
fd
02
fd
01
fe
01
fe
fe
01
fd
02
fd
00
00
00
ff
fe
ff
fc
fd
01
fb
fd
fc
fc
fc
ff
02
00
00
fe
fe
02
00
00
02
00
fd
02
03
02
00
00
05
00
