3d
56
1c
ea
8e
fc
18
b0
09
aa
43
41
52
f3
3f
4f
ab
4d
f4
6a
98
4e
9a
3d
86
e1
d7
c4
16
2c
3d
2f
28
c6
51
5a
16
db
cb
d4
a1
be
85
e5
64
4a
e8
08
fe
2f
4d
3e
d1
48
b1
f3
9c
f6
98
af
e0
ff
66
2d
57
14
ed
09
4e
bb
10
38
01
35
d8
dc
df
d0
fa
00
d9
ef
cd
e6
bd
17
2b
f5
07
da
dd
ed
df
0b
fb
fa
03
eb
e8
e0
fe
d6
ea
ff
0a
e9
c8
f6
c4
ed
f5
d3
de
e3
21
bc
fb
da
fe
fe
ec
2a
eb
f0
f3
f3
f7
f1
2a
ca
00
f9
0e
02
f8
38
d8
ff
01
13
0b
14
48
09
02
03
12
11
1a
46
fc
f2
24
18
15
ff
25
e7
fb
0d
0d
19
1c
fd
08
fd
14
fd
15
0b
e8
1d
05
0f
f2
0e
26
06
05
1e
25
f2
02
10
ef
16
19
13
e9
27
fc
ee
23
0e
20
1a
f7
0b
fc
16
1a
08
11
0b
05
eb
25
1b
e4
df
ff
f1
ed
57
43
ff
e8
ed
f2
07
3d
2c
f7
d2
cd
e0
06
eb
16
ea
de
df
db
fa
08
f4
e9
eb
9c
cd
e1
0c
e4
b0
d2
a4
bd
f6
00
af
cc
93
ce
c1
f6
02
d7
bd
a7
c3
dd
f6
ed
d1
bd
ce
cd
ed
26
19
d7
cb
c8
d2
06
f2
b6
dd
4a
11
c5
11
38
df
14
17
1d
04
c7
33
de
fd
f4
f1
e6
e3
1c
d5
f3
15
16
e4
d8
be
03
ff
ef
03
14
d4
c5
0a
ed
ec
05
1e
d7
c9
24
08
13
2e
17
08
37
fa
0e
17
1a
21
ed
30
0a
0e
f4
f5
19
15
28
10
09
f5
f5
0a
0c
21
0b
e4
f5
f3
f8
f4
f7
18
e6
f8
fa
fc
f1
e7
03
d7
c1
e4
f2
fa
ca
11
f9
d5
e7
02
00
f8
0f
11
da
da
f8
f8
e7
1a
09
dc
00
01
f3
ef
1b
1e
eb
1f
26
bc
11
0f
11
ca
02
f9
ee
1e
16
0e
fb
ef
1f
e9
15
0c
fe
0c
dc
12
f7
10
ed
ee
22
f4
e4
d4
f2
15
eb
13
13
0f
f1
09
f0
09
26
15
1d
c1
f2
f7
db
28
14
fc
e6
de
d4
dc
00
d0
c8
f7
05
ac
d0
da
a8
ce
f0
fa
a3
ae
91
b1
d1
f8
0d
2e
d8
a9
d1
b7
d7
3a
de
f4
05
e6
d4
25
2e
e0
0b
02
f6
e1
d9
0f
f5
02
f5
23
ff
b7
a4
24
06
ee
16
f0
c2
e5
1a
0b
df
04
18
eb
30
da
0c
ff
01
e5
e8
4b
ea
f6
ea
01
f2
14
46
e9
0a
14
14
e1
e1
41
d4
11
fa
1b
09
f6
39
d2
dc
d2
0f
08
0f
2b
e1
eb
ce
e7
ee
00
1e
f7
d7
c1
f2
d9
e0
ec
fe
ec
e1
ae
dc
01
c1
d7
df
e9
c6
e9
02
0f
d1
d3
f5
ca
f0
04
e8
fa
10
f4
fa
e6
fd
24
a5
ec
21
0e
d0
e2
fe
96
ef
0e
15
d0
02
0b
96
fa
04
0a
c5
ed
d3
b4
10
08
ed
f8
d9
eb
a5
02
05
0a
bf
fe
e5
b1
ed
e3
05
c9
e7
f4
c9
22
07
34
a2
af
02
9f
36
0c
88
c8
e5
01
f2
25
b7
a1
ea
fd
f1
f3
e5
c5
db
ee
f1
09
0e
f3
e9
e4
eb
01
fa
0e
ea
0a
3f
22
e8
18
ca
97
1d
f4
0c
e7
1c
0e
cb
39
de
1b
f8
f8
2c
f7
29
ef
0b
1d
03
26
26
2e
21
04
24
eb
e9
2e
32
0c
23
07
04
d0
f2
3d
07
0b
1e
f2
e5
c7
18
06
f6
07
fd
2f
c7
f0
0e
e8
0b
15
1d
c5
e9
15
e3
fe
21
1f
b0
f7
12
ee
fb
1a
3b
c2
ee
12
06
14
fc
15
c2
e5
3b
f1
1e
e2
16
d9
02
17
10
e2
f9
14
fb
39
0c
12
e8
01
08
fd
2a
17
19
e1
0d
e3
ec
2f
1e
fe
e4
07
aa
ce
2d
02
fb
f5
f2
a1
dc
20
fc
f8
fe
f3
86
de
fa
e4
f9
0a
f8
d1
e9
0f
03
f4
0c
fb
d1
dd
e3
fc
e8
05
e6
d6
ec
0c
0f
fb
0c
f1
16
5a
26
24
22
d5
0d
fb
33
fd
1b
28
bc
e4
fa
12
01
d6
0d
a8
03
f8
32
c7
e2
e6
bf
f4
fa
28
f4
f7
96
f0
ec
07
d5
52
39
ef
f4
03
c3
02
e4
e8
d6
dd
fa
fe
27
12
f7
e2
cd
2b
28
e4
e9
dc
18
e2
27
f3
06
f4
da
eb
d2
26
02
0e
e5
f4
e2
db
06
04
0a
04
e3
d7
df
d5
f5
f5
12
f0
f8
91
ff
d8
fe
05
04
03
d7
dd
f9
ff
02
3b
06
03
db
fb
05
e4
2c
0a
cf
c8
c9
07
de
1a
36
0f
b8
ed
0d
ed
00
38
3b
a1
02
15
f7
e0
0c
bd
f1
fd
12
f2
01
11
0f
0b
b2
fb
19
00
0c
40
0e
d1
f9
35
b9
1d
e6
e1
f7
02
2a
fa
13
37
ce
d4
f1
1b
02
e8
e1
ec
07
f6
f7
fd
f3
1e
d5
0e
0e
16
2d
1b
1c
f0
10
fc
fe
0d
07
15
b5
1b
fc
f3
fc
ee
1d
c1
1e
06
12
e9
f8
0c
b5
e2
ef
c5
f7
fc
16
f5
b5
f6
fa
f1
f9
e2
df
a5
c5
10
e6
ca
f7
08
c5
73
d7
77
a1
f3
02
ef
fd
63
57
2b
cf
1e
b3
ad
f6
fc
f0
9c
21
05
e9
dd
de
fc
e7
4e
15
f9
e7
f7
f9
06
0d
20
03
ea
ef
00
02
f5
26
03
e3
e1
fc
fe
ea
f8
fe
e3
cf
eb
df
e7
cd
12
dc
de
f8
dc
f3
f0
13
c1
c9
f0
06
17
c2
2a
d5
cc
eb
01
f0
fa
f7
ca
ee
df
df
fb
42
13
14
d9
03
e9
f6
00
0f
da
d9
07
0c
fe
85
f3
92
d6
1b
ef
3f
21
fa
ad
e1
02
31
22
30
07
91
ce
f6
07
0e
13
fb
c2
ca
1b
0c
f1
a7
16
e2
c6
16
08
dc
02
f6
d8
f9
14
13
f6
25
1a
e8
16
2b
0f
e9
01
0c
ed
1a
20
f2
a0
32
1d
d1
fe
1b
f2
d4
cc
eb
04
14
49
cc
ec
b9
b8
f0
2e
10
c4
fa
ae
f2
0b
d2
0a
d0
ec
e7
d4
48
c7
a9
b8
13
f4
0c
d1
1f
cc
e8
fa
0a
fe
d5
d6
f7
01
f1
0a
3a
02
f6
be
1b
ea
e4
e9
fe
2d
ce
1b
d3
ff
37
f6
0c
ed
cf
02
cf
1c
fc
eb
f3
f7
ff
b9
db
ed
fa
f1
d4
f1
08
ea
f9
05
df
e7
f2
24
cc
f2
11
fc
d2
de
ee
e3
ff
0d
0c
e1
e9
bd
d9
f8
05
05
08
d6
b0
fa
0e
02
07
0a
d3
92
03
eb
22
14
20
fc
b3
c0
d8
0f
17
2a
fe
c0
c6
dc
06
24
23
ef
f2
b1
d2
f8
18
0a
f8
d0
b9
da
f2
1c
16
dc
cc
d1
f8
f4
09
f4
ec
db
d5
0a
12
13
e6
e7
12
e0
fc
f5
05
d3
f8
18
f9
fa
f1
f6
f6
eb
28
21
11
fe
f0
e2
02
12
24
f0
f0
ee
c4
09
2c
22
07
f7
0d
f3
1d
17
15
f5
f5
00
fe
ef
ef
0c
d6
0e
ee
f6
08
e1
f0
c9
c4
e2
f6
f1
f5
97
d0
cd
ba
e9
e0
ba
82
c5
a9
b9
d8
ec
b8
79
bc
c4
c3
d9
ff
f5
37
b2
cb
16
00
0c
eb
3d
0c
fd
ed
0d
dd
e8
0d
2b
04
ce
fe
e0
f5
27
33
f2
26
20
e0
1b
09
fc
12
28
1f
ca
01
f8
ea
04
27
24
36
f8
12
02
1c
1e
bc
0d
0a
fd
0b
12
ed
c2
27
f5
fc
f3
05
07
f9
29
eb
0e
ef
fa
11
14
17
f7
f4
d1
01
f7
2e
06
1a
0a
e2
d9
02
0f
02
ec
18
a9
d4
f1
28
dd
d8
df
b5
e8
f9
1c
e9
f0
c9
c0
ed
23
42
0d
05
ed
ce
f8
18
29
3b
06
0d
ee
0d
14
36
4f
14
08
01
17
1e
07
4a
22
fd
16
13
37
15
23
13
13
0c
32
0f
fe
47
ef
15
11
ff
f9
ec
4c
1e
1f
0f
0d
02
06
52
12
23
ed
05
f8
26
34
21
1c
08
d1
ee
f9
d4
13
08
16
bc
dd
d8
bc
03
09
04
be
f4
ef
9e
f6
da
fd
d2
ed
ee
e3
08
8d
ff
ac
e7
ff
f7
1c
61
eb
ee
ca
24
f8
eb
2a
17
0b
d2
0b
dc
e9
06
fa
14
d2
aa
d8
f9
1a
04
0d
0b
e3
ce
e2
06
17
12
f9
bd
fa
07
e3
07
10
e4
dc
fd
05
13
1f
02
bf
c7
db
f6
1f
ff
08
ec
fc
dd
03
24
25
fa
fc
0e
f7
20
ff
22
10
df
15
b5
25
fb
1f
07
ed
19
ee
2e
f6
10
f5
0c
1a
bc
0b
47
28
e1
f6
2f
08
43
13
02
06
fd
35
35
19
06
f2
ee
04
21
29
03
f9
fd
01
05
3a
11
c6
de
ff
fe
1f
22
09
0f
c3
0b
11
0e
f1
14
fb
db
fb
ed
22
17
46
f8
d9
02
47
06
f6
42
ce
bd
f9
23
35
13
39
b9
c2
f3
28
2c
0f
ba
94
e0
f6
26
30
28
d8
71
bc
df
34
16
34
ed
28
ed
f4
6a
13
ce
05
e6
20
17
37
09
e4
0f
0c
cc
b9
f0
f7
e3
02
06
f7
da
ca
c4
f0
03
f1
c4
fc
ee
d2
ce
07
e1
57
f7
ee
13
bc
ed
02
26
06
08
01
93
01
f4
ea
f3
00
e0
fe
fe
cf
fe
0b
05
ec
1c
00
cb
e8
04
00
fd
11
15
b6
d8
db
14
02
0b
3b
d2
cb
e9
fe
28
03
19
1c
e4
f3
fb
01
24
0c
e4
d9
fe
f0
15
20
04
c3
ba
e1
07
12
2f
0e
b6
d1
cc
fb
07
1c
f5
bf
ca
a0
fd
f2
19
f6
d4
0b
ca
07
e1
fa
1d
ad
f4
ec
0d
f0
03
16
f2
f8
f8
f8
f8
1b
12
0d
01
07
e9
f4
0b
11
04
e3
07
fa
1b
16
13
06
d5
06
ef
0d
00
05
d4
f0
d2
22
06
0b
19
00
e4
ab
02
f3
29
35
f0
e5
d1
fb
12
12
12
cd
e3
d1
f5
08
24
07
e5
ba
c4
f1
04
19
ec
2e
e6
ee
f9
25
1a
fd
df
f9
10
fd
15
16
01
e9
fe
2f
12
fd
f3
15
c8
fa
16
f0
f1
ba
0b
f4
f0
de
f7
a7
14
08
09
e4
d5
eb
ea
f5
1c
1e
fb
2d
1a
ea
b9
1b
10
00
45
2e
d0
ab
2f
2a
16
18
20
e3
6e
2e
02
17
04
16
e9
77
38
ee
13
f1
0c
fd
c4
1e
1f
fa
03
0f
e8
de
1b
06
e5
00
11
cc
dd
06
16
07
e9
0c
f0
86
12
fa
f2
09
06
fd
23
13
fb
fe
0e
1a
f3
0f
e5
f3
ed
0f
15
12
cb
c4
f8
ff
1d
27
08
ab
c1
cb
06
2a
15
d7
bd
bb
d0
f1
3e
f1
ec
9d
c2
dc
f2
2d
e4
e9
c9
d2
d2
e9
17
f6
f0
03
05
e5
f7
0e
f0
fa
c2
ff
ec
e1
ed
f4
03
f5
04
01
02
de
f1
fc
d9
f5
ee
0b
fd
02
d8
ed
dc
fb
07
e9
fa
01
b2
fa
e9
01
fc
0d
f6
d9
3f
0b
27
fa
1d
14
3e
45
2a
14
2b
13
21
e7
34
42
17
23
3c
d5
14
e0
29
fe
33
29
e8
de
21
bc
96
fc
d3
bd
d4
dc
ee
27
f3
fd
0b
d1
da
0a
f9
06
21
0b
8b
1b
00
06
05
0d
15
ff
1b
fc
fa
1e
09
03
10
2d
06
2a
32
01
e3
10
21
0a
1d
2c
10
e9
06
07
0b
20
20
f2
f5
11
27
13
ed
0e
f2
f1
d2
e7
0d
07
18
ea
eb
d1
d8
23
cc
ec
02
d8
ed
ea
40
e5
ef
eb
f9
ee
09
1f
e4
fe
1f
19
fa
08
44
08
0a
09
09
e8
01
17
f6
e8
f9
11
04
1b
17
09
15
29
f9
17
12
21
20
f9
1e
f9
f3
ef
1d
07
f4
05
e4
e7
ca
34
17
14
14
d4
00
d5
1c
10
17
26
04
04
cf
2b
ff
1c
01
0a
15
40
3d
0c
11
ff
e2
e7
5d
50
0e
2a
e4
a1
cd
35
0f
27
29
b6
cb
3b
e0
49
46
de
ca
e2
23
03
1d
2d
00
fd
e3
c5
05
e6
aa
c9
25
a3
14
06
16
d5
c7
ca
bd
03
0c
d5
d1
ce
ae
9a
ee
11
bd
d7
c8
d2
c2
b5
0e
bc
de
cd
d3
ec
16
02
c4
d9
03
06
f4
03
fc
df
ce
2c
0e
fc
ff
eb
0a
23
1c
0f
1a
14
f7
35
40
38
1a
0d
f6
f0
f9
4e
36
2a
08
f7
cc
12
22
19
2c
23
fa
ec
36
10
1f
2e
2a
0c
ed
11
1b
1d
2a
1b
e3
fb
04
2f
26
2a
1f
d9
ff
e6
11
27
35
15
d2
14
e7
0d
14
22
10
be
07
09
02
00
21
08
d8
ff
19
13
f6
09
fd
db
0f
0e
13
ef
fb
0c
d3
e3
10
f4
d5
db
fa
e5
a0
f8
03
08
ed
ed
d3
a0
d3
e1
f9
ec
f9
ee
b1
c4
df
12
10
0a
dd
de
b9
00
10
26
f9
f2
fb
ce
1a
05
20
f8
ec
fb
c6
0a
31
21
14
01
01
c3
fc
05
0a
17
ef
f0
17
f0
06
e9
e1
d6
09
28
f8
e0
d6
c4
e1
f7
f7
e6
f0
ed
a4
e8
d7
f0
e7
0f
ee
cb
f5
e4
ef
b0
93
ff
d3
ea
b3
f0
e8
08
ff
46
1c
c7
be
d1
d9
fd
e1
3c
b4
f6
be
f0
f4
00
cb
be
00
e2
32
fb
03
13
df
0d
df
ec
cb
ff
28
fc
2c
bf
de
c5
da
fd
12
06
c8
df
eb
ea
01
19
e6
de
f6
10
fc
24
05
b2
e5
12
e8
ef
c1
31
dd
ff
ef
02
15
2d
14
fe
01
35
e8
18
fc
fa
0c
00
18
f7
28
1c
e3
29
20
08
20
19
f1
f4
1b
14
05
19
f8
05
0e
1a
0c
04
11
0e
03
1d
17
08
e1
05
14
fc
07
06
f7
fe
07
1e
03
2f
fa
e8
ff
0b
f0
f0
26
0f
e1
eb
19
f3
c8
09
25
e8
09
03
f6
b9
0b
08
f0
eb
f4
32
f8
06
de
f5
f6
f4
0f
00
eb
e0
d6
ed
ea
05
e1
ed
0a
03
ee
04
06
f7
fb
16
d8
e8
13
cf
f1
ff
27
e1
ee
e0
bd
0f
02
d6
ae
ed
8f
89
c9
ba
8f
aa
da
df
d6
9d
b2
be
e8
e0
e3
0b
fc
f6
d7
0b
be
db
e7
30
ea
ff
13
eb
f2
f3
1a
c8
11
dd
e2
e2
eb
2a
41
13
f7
e3
d0
0b
23
15
2c
f9
ff
d4
fc
16
00
0d
f1
ca
e7
ea
02
a5
0f
06
be
b6
fb
ee
10
41
0f
d0
c4
ef
ec
cc
10
14
ec
cd
04
fc
de
f5
e5
23
b5
23
fb
0b
c5
e4
02
e1
09
f2
15
eb
0b
0c
10
09
ea
03
df
f8
34
d0
1b
f2
ff
10
05
2d
06
07
09
13
f9
d9
2c
d0
1d
ff
d4
18
03
19
fa
0c
15
8e
0e
03
24
03
f5
cd
dc
19
f2
bc
0f
1e
e3
dd
ce
ba
8c
ed
30
e5
f1
aa
b7
d3
12
05
f2
de
1f
75
ea
37
18
00
f4
27
c8
f0
16
df
dd
e7
3d
02
1a
04
ae
f7
e4
dc
e1
ec
31
95
03
ff
fb
de
fe
06
d9
02
fb
fa
e4
dc
e6
ed
f1
04
4c
fd
e4
07
26
af
fe
24
db
f4
37
1d
fa
f9
07
ec
d0
14
3a
12
2e
3a
ec
c6
1d
1c
07
e9
51
04
dd
16
19
f6
d7
22
29
ed
fa
04
ef
ca
08
1e
05
dc
e1
e4
ed
ef
0e
08
c9
b5
eb
e2
0b
2b
16
c5
a5
fd
f7
4a
28
14
d4
b4
f1
ff
0d
13
14
f2
c1
df
06
e6
11
14
ea
cc
c5
06
c6
11
1c
ee
dd
cd
01
dc
17
21
ef
cb
ee
0c
c8
e9
04
02
07
12
11
c6
db
06
05
fc
19
10
b0
c7
f4
fe
02
fb
00
be
e0
ee
ed
05
ef
dc
f3
f6
f4
f8
fa
00
d7
dd
de
ed
08
0c
f9
ed
c8
e8
e4
f7
0c
0b
08
11
ec
f7
f6
20
13
fd
f0
f2
d6
ef
04
1b
0a
f0
d9
e1
fd
0e
ef
fd
0f
c7
f0
f6
f3
29
08
08
be
05
f5
d4
25
f6
f1
bd
ea
0a
c1
0f
fd
01
c2
d3
1e
c4
fc
16
44
fb
fb
0d
3f
20
13
be
b3
e1
16
df
1e
3a
16
ef
d7
0c
ff
23
3b
c0
17
eb
f0
fd
71
42
ce
04
ee
e4
0a
34
2e
fa
0a
0b
0d
f4
15
ee
dc
1c
13
14
f5
1d
b7
fc
e1
26
28
f1
f8
6d
05
f5
20
19
02
18
85
04
ff
17
1d
00
18
c4
07
ee
20
06
f6
00
20
06
e7
14
fc
e4
b2
1d
20
e5
11
f1
c0
dc
2f
f4
f0
f4
e4
eb
c4
00
e7
19
e7
d0
e1
ed
e5
ca
00
e4
e1
06
1c
e2
df
ff
b1
ed
25
06
ca
fd
ec
b9
ec
1b
df
e9
e6
d7
e6
eb
1a
09
e6
f9
00
d3
1a
f9
04
c9
db
fe
f5
03
1d
0d
b1
e5
0a
0b
01
03
3b
e4
eb
1e
0d
23
0d
0c
11
fd
35
32
01
00
f2
08
d1
fb
54
28
09
39
07
f7
06
25
18
0d
f9
08
cf
24
f3
14
c5
fa
08
fc
c5
a6
05
ca
fe
01
4c
00
d3
fd
38
c0
38
fa
d1
ed
09
29
25
fb
f5
ed
0c
f2
fc
0f
43
fa
04
01
0c
07
08
0d
12
db
f3
05
0b
ff
09
f1
fe
f5
0e
2d
16
b1
e3
ef
d8
18
19
0a
a3
da
e3
ef
0e
14
0c
b7
10
f1
0b
34
0c
0f
ee
00
f0
f9
fe
27
1a
17
ac
06
0c
08
1f
ef
f9
e4
fa
08
2a
02
e6
09
e3
e8
0e
13
1f
0b
e6
41
f1
14
1f
13
ff
c1
53
17
08
25
e9
12
c2
38
1d
20
fc
04
03
f7
19
30
16
0e
f1
10
36
1f
29
02
01
e7
ed
1a
24
19
06
fd
d8
07
88
15
eb
e8
ef
c9
ee
fa
1a
0a
21
f4
c7
18
d1
1b
fd
fe
03
cf
e9
02
36
2b
04
db
c1
e3
09
d3
16
fe
b0
ea
0a
ef
21
da
e8
e4
d5
32
f1
f1
b6
04
7c
83
fa
f6
0c
d5
fe
dc
de
fe
f9
f4
eb
0d
1d
4a
10
f1
1b
04
27
fa
0d
2c
fa
13
04
19
f0
0b
1c
fe
11
26
e1
0f
0d
0e
0e
1c
3f
13
f0
13
2c
03
08
39
33
e9
1f
11
de
0b
08
0a
ed
13
15
f3
23
07
f2
eb
fe
fc
fa
29
0c
ea
e4
fe
e5
02
21
fd
fa
e2
d9
d5
00
18
28
fe
ce
f4
d6
f4
1c
1b
fe
e4
c6
06
06
31
1d
00
da
ee
0d
ff
3c
09
20
f5
f6
2c
ed
67
09
0e
e5
11
06
1a
40
0b
3e
03
0d
05
ea
17
24
25
02
fe
08
f2
07
39
19
0d
e2
00
fc
25
18
ff
09
f2
01
fd
2c
24
13
0f
0b
f0
fb
f7
28
ff
00
ec
f3
f8
d6
17
16
d9
fe
d5
dd
f8
0e
11
ea
f4
d7
e4
f1
e9
ed
df
24
bf
f1
07
d0
cf
02
13
a4
f2
e5
d1
f9
fa
22
a8
07
f3
d4
d5
1a
f7
b7
07
fb
f2
11
f9
04
fd
fa
11
e5
ee
f4
3c
ed
03
28
52
e8
fd
f7
ec
df
20
29
e1
e7
0d
da
d6
30
fb
fb
10
f0
08
cb
07
dc
f1
ce
eb
f4
bd
0b
f7
e0
ec
15
df
df
15
fb
fd
02
0e
38
cb
0e
dc
15
09
06
ff
ed
fa
00
f0
d6
fc
f2
06
19
f8
d6
ec
dd
b0
fc
ed
f4
c9
ff
cd
d3
eb
02
ef
ec
f9
ce
c9
da
f1
21
e7
1a
e5
d6
d0
1a
05
c4
f0
e7
f1
f5
09
1c
f0
14
03
e5
e1
28
09
f2
12
1b
f9
de
14
01
de
10
e8
ea
e8
06
2e
ee
12
fa
1c
f8
00
2b
18
f8
09
0a
f0
f7
29
43
ff
07
03
eb
04
12
2e
04
df
15
ea
fe
1b
3c
19
fe
f7
f0
f5
07
27
fb
05
cd
ef
bb
f7
f1
f7
14
d2
fa
b5
f2
fd
16
da
cb
00
a6
b2
15
ff
a9
b0
02
a2
bc
2c
ea
c0
c3
0b
df
dc
c8
e8
f4
ee
05
17
f3
ef
1b
5d
16
da
59
04
1f
ff
ff
34
ef
13
ff
09
01
03
fa
c8
07
13
e8
0a
fb
e7
cb
0c
fb
e4
fe
05
15
f9
03
f4
d0
fb
fa
02
f5
ce
c3
bc
e2
0e
ed
05
b1
81
a2
f3
16
dd
f7
da
bf
aa
fe
21
db
06
d8
c7
d8
10
25
c5
e4
b6
d9
e8
0a
0a
02
eb
b1
ea
f5
2e
20
11
f6
c3
b5
ea
21
05
ff
f2
cb
93
dc
29
19
fc
e5
f8
ac
00
42
fa
fe
e0
c4
af
1b
0f
f7
e2
e8
cb
c8
0f
3c
f3
e8
fa
69
e0
e8
1f
eb
22
f4
c1
ef
04
0d
e7
d7
e6
fb
de
0a
fe
e5
19
f9
c6
10
09
e6
cc
f5
10
b8
e2
15
19
da
d3
18
8e
ec
30
ed
e8
8f
e4
c5
35
1c
f9
f3
a9
06
f8
c2
99
36
a7
c9
02
fb
e3
02
1e
e9
c7
00
fe
d4
d5
01
e0
dd
f2
fc
ff
f2
ee
fe
f8
f5
fd
fa
ee
f7
f4
f6
ff
d3
b0
e8
e0
ee
db
fc
ad
92
da
ec
14
ad
f7
0f
e1
bd
11
de
a1
01
4f
ec
d4
f2
0d
85
ff
13
ef
e9
e5
fb
d2
22
11
3e
f9
e7
f7
ff
4f
fe
3b
f8
e2
10
02
43
2f
0c
00
15
19
2c
2f
0e
f5
00
08
17
f4
28
14
df
0c
0b
2d
fa
fe
ec
ce
eb
15
0e
ed
04
f1
ee
e6
1d
1b
c1
fc
fe
ed
d6
2a
fc
ca
03
ee
ec
d4
fd
05
03
fc
bd
f9
f4
15
11
12
07
c9
15
e0
fb
fc
0e
56
ea
19
e8
ff
fe
08
4e
00
21
0d
f7
11
f7
3b
19
0c
15
00
fa
e1
2b
05
e5
23
07
f1
eb
26
e3
f8
29
fa
f0
fe
ef
e4
05
13
1c
00
ba
12
e3
04
1d
0b
0a
bd
0b
ef
0c
0a
29
07
bc
0b
1d
0f
1b
1f
00
c2
01
db
11
12
0d
36
cc
ff
20
09
1c
23
22
e9
f3
f5
eb
dd
e6
0a
03
ec
e5
aa
dc
df
e4
fa
ef
b0
ae
ef
7a
41
0b
c4
db
28
32
fb
9e
d9
04
f2
de
ff
03
41
98
ef
3a
e9
1d
11
ff
f8
fc
1e
19
35
f5
fd
e9
09
01
01
07
11
f7
f4
dd
e7
11
1e
09
eb
f3
d8
f9
fa
10
18
fd
06
d7
e4
ed
e6
10
2b
13
da
ef
01
ee
e3
1d
24
fa
ed
1a
de
3d
01
12
24
17
e7
b0
10
00
2b
55
f3
ff
c2
fe
fc
e2
2b
e0
e6
f0
14
17
04
35
f2
06
f6
13
fa
b8
36
ff
fb
18
02
fc
0d
df
e4
f1
eb
07
ea
0a
f3
dd
df
1f
14
06
e4
e0
e0
dc
01
1a
f7
0d
c3
17
cd
db
0f
be
a5
95
17
d2
ec
26
0f
d5
a0
0b
e8
0f
06
e8
be
d1
2d
f9
e3
f9
f2
fd
10
2f
ee
f2
12
fb
c1
49
e1
03
fa
ff
19
e5
5c
d9
11
17
24
26
23
00
f1
f1
e6
ef
ed
06
ec
e3
96
ba
dc
c2
fb
fd
a9
4d
d6
b8
1e
8a
fc
0c
0f
fe
1a
a8
67
da
12
0a
14
18
f8
8c
0e
2c
25
17
06
eb
d7
34
0e
0e
2e
23
f5
14
30
16
17
18
02
f2
0d
31
15
2b
00
fe
e0
1b
55
29
46
24
13
0a
dd
29
f0
3a
28
ed
fe
e0
35
13
1a
fe
01
f2
ce
58
0d
f5
df
cc
ec
14
ef
fb
05
df
01
03
1a
1a
e4
0c
a4
ed
1f
db
d7
cb
1d
ba
f4
fb
06
37
d8
fd
e4
01
e8
fc
2b
df
fa
e0
fb
04
28
60
18
12
e7
f5
eb
ed
46
c1
e5
cf
ae
32
f4
d6
c1
07
e2
da
df
e0
c9
f1
e4
d6
f5
ed
b7
f5
07
be
cd
de
ec
ba
2f
fd
8d
ce
d9
05
ef
43
c0
7a
fa
d2
1a
cb
ec
90
a0
04
e3
1a
c3
e1
43
1c
d5
ec
17
ff
fc
ff
37
dd
36
1c
1a
ff
eb
f2
a8
d1
e0
cf
e8
f5
c9
03
f1
bf
26
f3
d1
f3
1d
fa
cc
19
1a
ed
f4
17
0e
e6
ff
e0
e6
e9
f3
e3
fa
f8
b6
d0
e8
db
16
08
f0
b1
d6
08
11
02
ec
14
b3
06
17
f8
e7
f3
2e
92
17
f7
05
f9
10
05
a0
3c
09
08
04
07
09
ab
1d
1c
fd
f0
0f
05
c5
2d
1f
1f
00
fc
fe
fb
27
2c
25
e5
08
08
00
0d
17
1a
dc
fe
ee
00
e5
24
e7
e8
d3
de
cd
a9
0b
e8
f5
d1
f4
cb
ee
d0
ef
08
d9
f0
e7
ee
09
11
ff
08
04
0a
06
0a
0c
12
ff
26
c8
1b
23
17
0f
03
1f
fa
35
29
24
11
01
0b
0c
1a
1d
22
07
09
f5
01
4f
0e
fc
e3
fc
e7
e8
33
07
e7
09
19
fb
f9
ef
eb
e7
06
01
0b
03
af
cd
ce
04
11
f0
fa
c7
db
f6
ee
f2
ea
00
c5
c7
f4
b6
01
d5
07
fc
eb
87
b2
ea
f5
0e
cb
e4
07
fb
3a
b9
f1
f1
e8
d2
e1
25
2b
e4
ad
f5
f1
db
2f
ba
a4
f8
0a
06
f6
04
f1
a6
f4
e3
f2
0c
0c
ce
b1
f6
05
0a
ed
fe
ff
b7
0a
1c
0e
fa
17
fc
e0
21
29
18
e8
1e
fe
e3
fb
03
33
f8
02
1f
c6
03
09
1a
f7
f8
05
de
00
08
07
dc
df
d5
15
f7
e3
f9
ff
eb
02
1f
e3
d4
09
fc
07
f4
1e
eb
ec
0d
04
fc
eb
12
e9
ea
0a
14
ff
b7
d9
f2
f2
fa
16
eb
a5
af
ee
d5
fb
23
db
ac
5d
fb
ff
08
f6
e7
0a
b4
02
0a
f3
f0
e1
be
c6
0c
f5
17
02
09
05
d0
11
ff
1b
00
06
05
f3
06
f1
08
05
01
b8
04
f8
fb
06
1d
24
0a
1b
e8
f3
f8
02
f4
06
da
c0
f5
ff
fa
e5
c3
ac
e1
1e
ff
1d
cf
e4
de
d4
fd
ef
0c
cc
ef
f3
f5
be
4b
9d
9a
bc
e6
d3
e1
1f
0e
e7
12
f9
d6
0a
18
05
e9
0d
de
d4
16
0d
ec
12
f8
ce
fa
e8
00
00
05
0b
99
d6
01
02
ff
10
f3
94
e6
f7
f5
00
12
fe
c1
f7
f4
eb
0d
09
06
73
e5
eb
f8
18
12
eb
63
ed
27
1f
06
25
1d
b8
de
fc
31
fb
0b
fe
ac
d8
ea
28
f3
18
f0
74
c2
0f
09
e2
08
e4
d1
0c
25
11
ed
fd
c6
b6
e7
1b
06
f7
fb
fc
dc
cb
10
00
fe
ed
f0
72
13
d5
e4
07
fe
f8
61
f3
c9
f7
1a
fb
f7
f8
da
d1
ea
0f
f1
03
d3
ad
df
f1
fc
ca
c6
07
f1
f5
e6
03
1b
e9
e6
d9
f0
0b
03
03
f3
07
e6
08
f9
f0
eb
fa
c2
ca
ee
14
dd
d7
05
eb
5f
1d
f5
0e
ae
fa
df
74
20
c6
f1
d7
ef
0a
f0
05
02
7d
e7
ef
f7
0f
c7
a9
cf
fc
ea
12
f0
e8
d4
df
02
f8
ff
ea
ed
c0
b8
c2
e5
04
cf
c2
04
1a
09
bf
10
dc
e5
02
ec
f3
55
cb
c9
04
04
ed
f0
c5
d5
c0
ca
e0
f9
02
d5
97
b9
92
d9
f3
00
f4
b0
af
97
e0
03
f3
ef
9e
b8
fd
fd
f8
ff
fe
cc
b8
f2
08
e2
e8
cc
d4
fa
11
15
f6
e9
fa
c0
16
22
15
e5
dd
ff
d2
24
09
fc
0d
fe
07
df
35
12
02
14
1f
fa
ee
2d
06
09
19
13
01
fa
2b
01
dc
1e
04
f0
04
1b
f7
dd
13
13
e3
bf
05
17
c6
f3
f0
f6
bb
e0
fa
da
0a
32
0f
c7
1a
bd
ec
ff
23
09
bd
fb
b0
0b
09
0d
08
b7
f2
c3
fb
fb
29
0f
e6
fd
01
fc
09
02
13
fe
07
03
fd
1f
05
04
03
ce
2f
3b
19
24
30
fa
db
32
20
16
36
16
03
fa
36
17
27
1b
17
ff
1b
48
17
16
40
f3
04
f8
f7
e6
f6
f7
06
f6
03
d8
98
a0
ad
f7
f0
c2
c2
eb
fd
84
e5
e9
d7
e2
f4
f5
e7
ba
f3
b4
f2
f0
32
de
89
e6
a8
0c
ee
f6
de
62
a8
ba
0c
ed
17
f7
85
ad
f1
0b
05
0d
23
cd
da
1e
0d
e7
06
09
0d
08
0c
20
1b
fd
f7
b2
f4
16
10
17
f2
0f
c3
0a
1a
28
31
0b
dd
13
d7
18
31
2a
ff
fb
db
ba
11
fe
18
13
07
b2
e9
ed
e8
2d
fd
fc
be
d1
ee
0e
15
15
19
dc
c3
08
0d
1e
f8
fc
db
b1
0f
1d
f8
00
fd
07
d4
e3
10
f2
0b
d4
a8
db
e7
29
ec
12
05
05
ab
f9
f3
d1
e9
1e
17
b4
ed
f6
de
08
22
fb
07
de
f4
f3
ff
e4
01
0b
e8
d7
10
f9
f3
fa
04
16
07
f6
08
f8
19
f8
14
00
e2
ea
14
fe
a9
2b
12
fd
f0
03
1d
aa
1c
12
0c
25
19
cc
f4
04
fb
b7
cd
f3
fc
f9
d7
bb
81
8b
a1
e9
e9
c6
98
18
1c
ed
c6
05
c9
d3
26
f2
14
45
c7
ac
21
0d
16
f9
b7
d2
df
13
0d
3b
11
01
99
fe
dd
07
ff
1f
d7
a6
05
d8
1e
fd
08
f1
c6
07
da
22
28
f7
d9
e0
cf
a0
f3
f0
fc
b5
e7
d0
f2
f4
08
f1
fe
0b
db
e0
e6
0b
d5
ec
db
d1
18
ea
ef
cc
b2
e7
b5
04
f7
eb
ca
c5
b2
c2
19
f2
df
e3
af
e2
f9
11
ca
e6
f2
be
b8
c8
29
01
b1
e7
f1
b8
ba
28
f4
9d
ee
dd
9d
d4
25
ff
a5
11
0e
a1
fe
1e
fa
bd
11
07
d1
cf
04
ff
db
07
2a
d8
2a
15
24
e5
f4
02
98
1c
06
04
01
12
28
a4
1d
f5
f4
fe
15
28
cb
04
b7
cd
29
1d
4b
06
3e
e0
f7
0d
2c
15
f7
df
0b
2b
1a
29
08
fc
08
2f
54
03
fb
e4
00
