6d
14
6a
58
f6
ac
75
06
a0
bf
d9
51
ff
40
81
63
d0
a8
81
c9
a2
7e
f8
ca
1e
2c
3e
ed
ca
2d
00
d9
55
2e
54
3b
1c
01
2b
d2
a4
8b
ba
d5
07
68
cd
bf
fe
28
2e
3f
b9
db
7d
32
ce
e4
c6
af
f8
37
4f
26
64
27
16
2c
58
99
61
39
f4
3a
ed
e3
d6
bd
ea
10
10
e3
dd
ef
d0
13
f1
e9
1d
f2
e5
15
1f
fb
ce
0a
e4
f5
fd
0b
00
e3
cc
d6
e8
00
15
f3
d4
d1
dc
ee
e5
06
e7
c4
f1
d6
d8
ef
0b
30
e9
03
03
ec
f8
1e
2a
ff
f0
14
09
24
06
38
d6
f0
fc
0f
3d
00
0a
f0
ef
14
21
22
0c
0f
05
14
fb
27
03
1a
07
06
13
fd
18
1a
12
fc
19
18
3a
11
0e
15
e9
f9
2d
1b
12
13
19
f3
08
1b
2e
01
12
07
0d
1e
29
20
e1
fe
fe
ee
e4
12
11
f4
04
12
f1
37
25
32
29
03
01
f7
44
ff
15
12
fa
f1
03
36
24
0e
fe
ec
fd
05
0a
1d
06
c8
02
e2
0b
11
16
ea
c6
ee
f5
e3
1b
03
d3
d8
d6
d5
0e
ff
e7
aa
c0
e4
ea
fa
f7
cf
ca
a5
cf
d3
f5
ff
ed
a2
d2
b3
c9
0d
02
f3
d0
b8
b2
d6
02
32
04
cc
d9
e9
de
fe
a9
09
df
f4
ea
32
02
3c
e2
b8
c9
d3
ed
17
f8
e7
2c
02
f6
f2
f7
df
02
f6
ef
e6
de
d7
1b
05
d8
13
1a
ba
31
25
01
dc
02
1e
f4
01
2d
18
05
07
14
1c
1f
04
1c
13
05
13
14
39
2f
1d
fa
e4
0c
0b
46
2e
1e
18
00
09
18
50
ff
02
00
13
04
ff
4f
f4
f3
fd
f2
07
1b
eb
ef
ec
fd
df
01
04
ea
16
f6
cb
dc
fa
26
ed
fa
16
dc
dc
05
32
e1
f1
0c
c5
d7
20
33
05
fb
12
d2
f1
18
cb
eb
f3
09
e7
06
07
ec
07
11
02
e5
0c
00
db
e1
16
dd
07
ea
03
df
dc
06
e2
21
e9
ee
d5
c8
f3
ec
08
df
f3
df
d7
e8
0c
17
11
07
c3
c0
f5
e2
0a
0a
e3
cf
f6
cf
d7
e2
e9
f0
cd
02
9d
cd
f2
bb
bf
d2
f9
73
c4
83
bf
cb
01
ff
40
e4
c7
b5
a7
c4
ea
f2
fd
ee
04
cd
0e
f6
e7
11
fb
f5
f0
01
ed
ec
0c
01
04
07
0b
ef
2c
e7
fc
0b
f9
cf
dd
1a
cc
d4
d9
1a
00
3a
d8
e8
e5
1b
fb
08
4e
e4
fb
b9
1d
f6
f6
24
ff
f0
e0
1b
0f
f4
24
ee
f6
f7
28
fc
02
42
d8
ef
da
0d
f3
f8
41
e9
03
e5
fc
03
02
07
0d
06
de
d5
14
ee
f7
27
d0
f0
a7
fa
ea
e8
29
bf
00
eb
0c
00
11
02
c2
ea
02
f6
f2
b1
06
d8
dd
04
fb
d9
e0
b4
ef
fe
03
fb
f5
ff
cb
f8
1c
0c
f3
0a
1e
bc
03
0d
f5
f8
d5
ea
81
ed
17
e2
e7
df
0a
a5
17
0a
e3
da
1e
0d
b1
f4
0b
02
08
14
f9
94
11
3d
1b
bf
bb
00
b4
17
1e
89
b2
d1
e5
ed
33
1e
9c
c3
ea
0e
0b
16
fb
c3
ee
e4
0f
eb
f8
d4
d5
e7
f7
f8
05
e2
52
18
25
dc
13
da
af
19
d9
f0
e4
08
f4
03
c8
c1
05
ea
fc
0a
23
e8
12
09
07
0a
db
37
17
0c
10
f0
05
ec
47
3d
19
17
fb
0e
0f
11
37
0b
22
1c
f6
2b
e3
1c
0e
03
21
07
25
f2
f6
fb
fb
3b
02
11
de
c6
00
0a
17
0a
35
cd
ce
10
0b
21
08
30
b7
e2
0e
15
07
fe
35
b8
f8
12
1b
fe
19
20
e5
ed
21
09
f3
0c
45
f2
f3
2b
06
e7
fc
2d
b7
19
1f
06
de
fd
1e
b9
1b
0b
12
de
f2
ee
da
1e
fe
fd
ea
f8
d8
cf
08
f9
0b
f0
f7
d7
c6
f3
e6
14
d9
f3
04
fc
0b
f4
17
03
11
e8
f3
0f
12
14
02
f2
ec
00
1a
11
06
c8
13
f9
fc
14
22
1e
d1
05
ec
0b
06
08
0f
cb
0a
ef
01
ef
00
ff
e5
03
e7
cf
bf
12
05
c4
f1
f2
ee
90
0a
9c
cb
fd
fd
e5
dd
49
16
e7
ff
bd
de
31
e5
1c
d6
12
bd
0f
11
2e
1f
f0
1f
dd
f0
0b
ff
f4
17
28
12
21
e7
fe
ee
df
32
33
1f
f3
04
eb
d9
e4
17
d8
0c
de
cd
f3
eb
e9
e3
19
e2
e7
cf
d8
e8
d6
f6
15
25
ca
f4
db
f8
ec
3a
f0
09
ed
cb
0b
df
4d
f5
d6
ff
c8
eb
db
1c
17
f8
c6
02
e7
ed
19
31
26
c3
14
0b
ee
09
11
ac
eb
25
02
08
08
2a
4a
06
e9
0b
21
08
fd
00
04
e4
fb
18
cb
d0
e9
13
0e
00
38
de
11
2b
0a
ef
00
fd
e4
0e
f4
14
e4
fe
03
0c
13
04
d1
0d
05
e9
17
15
2a
ea
19
05
01
27
14
05
b9
25
fc
f7
07
07
05
ba
37
32
10
f4
08
eb
a5
01
f8
02
d1
22
ff
e2
e1
01
06
93
08
ff
f3
c9
04
e4
bf
c8
e6
16
e2
74
de
89
c2
f8
06
14
d2
19
43
1f
d0
e9
ba
97
19
d9
f2
c9
1e
26
f9
e5
c9
f0
ed
23
20
e7
ee
0f
e4
11
fe
1e
ef
ef
f2
f3
07
cf
07
06
f1
de
eb
04
e9
e2
17
db
da
f2
e7
ef
0d
3e
df
d1
05
e3
0a
18
21
d6
f9
ca
fb
31
9e
26
d6
04
dd
1f
0b
fc
d4
da
12
d2
08
02
19
e3
fa
15
d6
1f
f0
1e
01
ed
02
d3
1c
0e
e7
0d
9d
fd
d7
dd
03
18
08
66
19
fc
ed
20
1e
1d
7c
d2
f7
0a
fb
1e
fd
9a
c6
01
f9
ff
97
11
c2
d7
ff
0c
f8
d6
fd
e5
d8
03
f3
f4
04
00
1d
09
24
d9
fa
0e
07
0b
00
1c
f0
ae
22
10
c6
09
28
cb
01
b1
f7
c6
42
2b
c7
02
9a
df
e3
2a
17
d6
fb
cb
aa
f3
c7
20
e6
10
d5
13
9d
1d
bb
cf
f2
f3
f8
c7
27
07
13
09
02
ea
f0
f4
e4
eb
f9
f0
3e
fd
12
cf
01
f9
da
08
24
1a
00
23
00
d3
00
4a
f6
da
e5
ef
ec
d6
28
fc
df
ec
01
22
f2
0b
f9
fe
f6
01
27
f1
0e
04
01
f4
fa
29
c7
ed
02
02
dc
dc
19
d2
fa
19
e6
fa
03
0e
e2
17
0c
01
09
f9
46
ef
dc
1d
f2
04
0a
15
d4
05
19
07
13
f7
c4
c6
ef
f9
28
26
eb
d6
d8
cc
10
2a
32
d6
f8
b2
bf
eb
2d
01
f3
e6
b5
ea
fa
1a
02
fc
cd
d4
d0
0c
f5
e4
09
00
d6
f8
1a
0d
e4
ef
ed
e3
10
07
10
ec
e8
f1
04
03
f2
ff
e0
fe
ff
f8
f6
16
f4
e9
f1
3f
24
0b
f4
e7
e4
13
1b
24
ec
05
06
c9
f8
06
12
e0
fe
19
e7
f7
2b
0d
e2
c8
f1
07
1e
f8
f5
d6
ad
cd
e8
17
06
cc
ce
bc
c2
f0
f6
ea
b9
c3
c7
ad
ec
1b
da
a2
a9
dc
ac
e2
fc
fa
ff
10
c1
d2
33
09
08
d3
05
58
7a
ff
f4
e2
35
f4
1d
e3
d4
ff
18
20
2b
04
28
f1
f7
e5
1c
f5
0a
1b
a7
d8
e2
06
11
1c
20
d9
cc
ef
e8
fb
0c
1f
e2
dc
0b
07
f6
1c
0a
ec
cb
1a
f0
f2
f5
02
10
c3
ff
f4
f0
d6
f6
1a
af
f3
ed
e7
d9
f5
0e
ab
fe
04
f2
ce
0e
22
96
14
02
b6
e3
17
0f
d5
df
eb
9d
e6
f6
f7
dc
df
d8
cd
d7
09
31
e6
0b
f8
bd
f6
18
2c
2e
ee
09
e7
01
13
32
3c
18
14
f6
11
19
10
3a
26
1e
01
12
07
f9
17
0e
29
fd
18
0b
1c
3f
03
2b
10
02
07
0f
5f
24
10
03
ec
f5
0e
5c
2c
1e
f2
f7
da
1a
69
1f
08
04
f5
d9
0c
49
fe
29
13
e3
c4
f3
fb
ea
0b
28
d2
f5
0a
ee
d3
dd
0d
d3
f2
f0
ec
fa
7e
f0
bb
bd
c9
e2
0a
55
1a
00
f2
2b
fd
e0
0d
14
26
dc
23
ee
c4
0a
1d
06
f1
b4
f6
f5
f3
01
01
fe
f9
eb
e7
16
e7
04
05
eb
d5
0f
0d
07
06
0c
e5
eb
1f
f6
19
07
f5
e2
dc
f5
e1
0c
05
e5
f1
d2
c8
14
0c
29
d5
fb
bc
2e
06
f9
05
fd
f9
c1
33
f1
3d
1e
f7
eb
e6
21
05
19
e7
f2
14
dd
02
26
33
03
d7
16
c4
35
18
14
13
ea
04
e2
0c
f2
f3
fb
f9
1f
10
de
e5
12
0e
26
2a
23
f1
ea
e9
16
fe
22
ce
22
ce
df
03
11
0d
de
f2
ea
fa
f4
1d
19
1e
f8
e3
e0
4a
16
1c
f7
28
c2
ed
ff
2d
ff
35
bf
c0
fd
11
34
21
00
6e
ec
dd
1d
34
2f
f5
b4
b7
e7
30
42
d9
f0
b9
18
f3
4c
48
c6
f7
00
fe
13
48
2b
e0
11
0d
cc
97
0b
c3
e5
1a
04
c8
d0
d7
e3
f7
f9
fa
ac
da
ee
b8
b4
10
df
1f
0b
04
e5
a1
08
0b
2b
0a
e8
f0
b2
d7
2b
25
0b
f8
f4
fc
fe
2c
00
18
12
09
fd
10
ed
1c
10
27
fd
e9
11
ed
e8
14
13
f1
05
f3
f6
e1
de
2c
13
27
06
cb
e1
d4
05
09
01
fb
c0
eb
e5
e3
ff
14
ca
f5
e0
d8
fb
1d
1c
0b
05
df
ca
ed
f2
2d
17
c7
ef
cf
ef
fe
e7
f8
c9
00
c3
f2
05
d1
f5
f1
e8
d7
f3
f2
fa
fe
ff
f4
ef
f4
f2
00
fb
cf
dc
f3
0f
01
22
08
f6
ee
d1
08
f5
27
f5
02
d4
ef
03
05
28
0d
0b
ff
c2
fe
fd
17
20
f8
db
b4
0c
16
18
14
f0
ed
ca
ec
01
3b
e3
fd
c8
d4
f1
04
17
fe
1c
cd
e5
fa
03
09
ec
2c
dc
02
e4
e6
17
03
08
06
0b
fa
13
00
0e
0b
e3
26
cf
ef
04
05
0c
cd
fb
d5
eb
db
fa
fe
df
ea
12
bf
dd
f8
b9
61
e6
eb
32
e3
0d
26
d5
2c
30
16
7e
e8
10
05
1a
2e
de
c9
01
1a
f4
1d
36
df
ab
ff
f6
e8
fc
1c
00
ac
0a
11
00
1c
11
0b
e5
18
e4
03
f8
04
f7
c5
f7
e1
fa
f8
fc
f1
0e
fc
0a
f9
e8
d8
fd
b3
e0
ea
06
f9
f9
00
f9
c9
06
f5
00
05
06
d8
c6
fa
04
24
04
18
a2
c4
f7
0b
28
0c
2a
cc
e5
c1
fc
1b
03
f6
bb
f4
cc
f3
25
03
fa
a6
f4
e6
f4
2f
f5
f8
e7
d4
f1
d6
2a
e4
11
e0
ea
e0
dc
0c
dc
ec
f3
da
dd
da
09
0c
f4
e8
b1
db
0b
d7
d2
fa
cb
ad
d5
0b
e5
dc
f9
fb
a9
e2
0c
09
f6
e6
c2
eb
e6
f1
1c
fa
07
cb
11
16
11
05
06
0e
34
20
20
15
2f
13
1d
d7
0b
13
32
32
1b
fc
f0
02
2b
11
25
12
f3
d9
fd
e2
ad
db
02
b9
c4
f2
d8
2c
ef
03
09
a3
07
2d
18
04
f5
fc
ed
00
14
f5
f6
0c
f6
08
28
01
11
1e
09
f9
fe
22
10
19
05
16
f1
ee
22
09
0c
18
11
04
db
0c
25
0b
21
fa
dd
ed
14
0f
03
11
f8
fa
ef
ba
e6
fd
08
04
cd
02
d9
31
f8
ec
eb
da
f4
e1
29
08
00
fe
e4
d3
fc
35
f1
d8
28
19
db
14
37
19
e1
05
19
f8
10
26
12
e8
23
f4
e8
09
1e
34
f9
0f
fc
05
f8
2d
28
0a
1b
0f
e5
27
22
33
0f
23
fc
e6
ce
12
22
26
11
06
fb
19
22
1d
02
20
ed
f8
2f
16
2c
ef
03
d6
e3
26
3f
13
07
02
f4
f5
3a
50
20
03
09
c2
c2
ce
0d
1f
fb
fe
c9
09
11
f8
61
0f
9b
dd
03
fc
96
4b
28
6e
d2
c6
03
f6
9a
d5
53
cb
ee
ed
0b
c6
05
02
c3
ff
ee
ca
dd
e3
d4
7f
d9
ec
b2
b4
df
f2
a1
a8
f8
b9
cf
d2
e0
d9
f2
f6
d0
f7
dc
f9
f1
08
de
ee
10
ea
f9
f8
13
f2
e2
10
40
13
0e
0a
e6
cc
08
54
14
14
25
1c
f3
2f
59
3a
18
00
f4
e8
15
41
21
16
fa
f8
fa
27
27
2b
18
ff
f3
e3
25
1e
13
0a
ed
ea
e7
06
07
ff
2d
d1
dc
e8
fb
20
05
1c
f9
ff
e6
06
14
04
2a
f2
00
03
12
f0
0b
05
f1
f6
2b
08
09
08
ee
cc
ef
01
0f
f7
0e
00
e6
ee
11
0b
fb
ff
01
f2
f2
b8
13
ea
eb
f6
d9
03
03
cf
ff
01
f2
fc
fb
d3
c5
07
01
0b
ef
f1
bc
f1
0e
0e
f6
0d
fd
b8
08
15
27
fb
07
fd
f3
16
1b
25
17
e1
01
e9
1e
1f
0f
16
02
0c
f1
32
38
eb
f6
f9
f5
e8
29
13
e7
e0
0b
0d
05
2c
ef
09
b5
e0
04
a7
ce
02
c0
c7
dd
fd
ac
fd
e1
07
f2
ce
f8
db
12
e9
cf
1a
31
f7
c7
e7
e4
ed
da
12
01
d1
d1
06
e6
f0
f2
ea
e5
e3
3e
e8
03
35
0e
16
fd
e7
cc
f0
0e
06
37
d8
c7
d5
e4
20
09
1a
d3
f3
f0
e1
20
0b
e7
e5
dc
10
f7
11
fa
cb
d5
00
11
2a
ee
fa
e3
fb
ef
17
fe
07
fe
f8
04
28
02
1c
08
01
fa
20
24
dc
43
ec
fe
09
17
15
ff
0e
fe
f9
33
24
04
f1
0a
f8
f1
1c
f9
f6
1f
f3
ef
25
1a
13
00
06
16
09
1b
ff
e1
fc
f0
06
00
02
df
03
05
12
28
1b
f7
0c
f0
fb
07
0a
e8
0c
17
00
e2
04
0c
e1
1d
09
ff
db
ed
12
04
df
ca
17
e7
fd
fc
f7
06
e1
11
f8
ed
00
ca
03
1e
f6
d8
fe
e9
16
f1
2b
fb
cf
fc
c2
c9
00
3c
f8
df
16
a0
e8
03
c6
d6
d5
c4
69
d1
fd
a0
c4
e2
f3
b1
ac
fd
cf
dc
c5
ea
f8
02
ee
d2
f9
c6
01
f4
2a
f4
fd
02
d8
cb
f5
1f
f1
f6
fb
c8
df
d5
0d
dc
15
fb
ff
d4
e6
fa
0d
0e
ff
f4
cd
e9
01
dc
16
08
d4
cd
e6
ea
b7
1c
10
c3
b6
da
c3
d9
30
18
da
bf
d2
f1
e6
07
f5
f6
cd
f5
00
f7
24
c7
0e
cb
0d
11
04
cf
06
05
d2
05
2b
ff
cc
e0
21
f3
fa
0e
fd
cf
e1
18
dd
fe
f0
f8
fc
fb
14
dd
1b
0e
b2
eb
e4
2d
d9
f6
0d
a4
f9
e4
31
f7
0f
1f
9e
1f
d7
06
ed
0e
e3
f1
26
e3
ef
f1
11
f3
f1
d2
e8
c1
d3
22
10
f6
ff
b1
f2
ee
18
28
0b
3e
6e
bd
1b
11
ed
14
29
a2
f0
24
fb
0e
08
5b
bb
1d
17
e4
17
fa
ef
ed
29
57
ee
cd
03
01
f7
df
f5
f8
0a
fe
fa
e4
f6
cc
0e
c2
01
4c
e9
e4
21
4b
b4
f7
2c
c6
07
1a
22
07
f9
35
e2
ea
d8
3b
0b
f6
08
f7
fa
e8
07
f6
fd
0e
01
fd
fe
21
00
ff
fb
0f
e7
e8
07
ea
06
24
2a
0d
dc
d7
ce
08
0f
2e
0a
e7
c4
da
0e
28
1d
15
e1
a2
d5
fd
46
22
26
da
da
be
f0
34
18
21
f2
d8
c3
07
f5
12
1f
e8
e5
a1
37
e9
fe
1d
0e
d6
ce
04
12
18
1c
11
ed
e8
08
02
eb
12
e9
fc
f5
eb
d6
d3
01
f9
fb
0e
ee
f4
e6
04
f6
f2
07
02
08
dd
f1
f9
16
1b
ea
ea
e8
f6
01
1a
0c
f1
f0
f3
ec
f2
10
0c
ee
ef
eb
d7
19
01
29
e6
e6
e7
d2
07
05
1d
04
d4
e5
db
fe
05
19
1d
e3
b3
eb
f4
18
1f
07
1a
aa
02
e8
0e
22
ff
fb
ac
de
f4
f6
2b
ec
12
c0
d7
e5
de
f6
01
0b
e8
ce
d7
cf
fc
0f
4a
bb
e0
df
5c
eb
ff
d3
c5
fe
07
e6
4d
f8
0f
03
d5
f1
f4
0f
fb
bd
f5
f8
fa
05
44
09
e3
ef
0f
fa
e1
46
32
f9
0d
fd
f4
fb
fd
13
fb
0c
04
14
09
14
0c
f9
0b
11
19
ff
f2
e6
ec
00
2a
35
18
0a
a4
04
1a
1f
0e
ff
11
c7
ec
e9
16
16
00
e5
e2
f3
06
fd
fc
d8
e4
03
f0
05
1b
f9
d3
c5
e5
e4
12
fc
e2
d2
d7
d5
10
0f
d6
d5
e7
f8
ae
e4
fe
f6
ea
ed
12
b3
e1
ee
ea
f2
f2
12
8b
25
db
c3
d7
15
ed
21
05
e9
e3
d7
0d
fe
2d
ff
06
d4
fc
f6
fc
1f
e7
0f
fd
04
17
16
01
fe
11
fd
15
0e
2e
72
0f
1a
01
0c
0e
25
74
e9
21
27
2a
07
f4
9f
ed
12
33
58
fc
2c
e6
dc
eb
47
2b
05
20
05
d6
e3
f0
03
01
f4
e3
06
c4
eb
d5
f7
c2
0d
59
c2
da
fe
44
d0
f6
27
af
f7
ff
22
2f
ed
e5
e0
00
fc
17
1c
01
f3
de
f1
f1
01
1a
fd
04
e9
e1
fd
11
21
ad
ee
f4
fa
12
20
f9
c5
a8
ea
f4
1c
23
e5
a2
01
ed
d6
10
19
11
c0
1e
0b
08
1e
13
0a
0b
f1
16
ea
14
28
17
eb
97
fb
f4
2c
20
0f
11
88
f2
f7
1a
34
14
20
d0
21
13
1a
05
16
1c
2a
29
04
28
fb
03
af
30
1c
00
29
eb
f5
d4
2a
26
15
34
f8
dd
b0
18
37
10
27
ee
e1
3b
1a
17
1e
ff
db
07
c2
1d
15
2a
f9
e8
f1
91
05
0e
28
f8
e8
fe
b7
0c
01
0c
f3
c4
e8
e8
0a
ff
06
dc
b9
d0
f9
30
2b
09
ea
b6
de
10
df
0c
fb
d9
c0
fe
0a
20
1b
27
cc
c5
18
ff
f2
d6
0c
9b
9f
a6
10
fc
04
da
e4
dc
ae
fe
04
0e
01
03
46
3e
f4
f2
1d
f4
21
11
2e
14
24
19
0b
f5
21
39
05
00
2d
13
09
0d
15
08
03
28
0f
09
12
f0
ff
17
23
fe
e5
16
f6
05
11
3a
17
0e
f7
12
0e
14
27
08
06
eb
08
f7
35
1b
02
e4
d9
d5
ea
29
2e
f9
f3
de
af
fd
30
14
e4
d6
dc
bf
eb
23
09
fe
d5
ca
cd
ef
15
fd
fd
bc
e6
fb
0c
e9
1e
f2
f6
06
29
f2
b6
18
ea
f0
09
28
f6
c6
1c
26
04
fc
0b
0e
b5
19
3f
02
1c
f2
14
09
34
31
13
07
f8
f9
1b
2e
2a
26
1f
0f
03
13
2d
16
22
e0
f0
fd
fe
1b
0b
01
f6
f3
0a
ef
04
17
12
f0
02
0b
e8
27
f9
d8
fd
e7
0d
ee
ec
03
e3
0a
ed
08
fa
d1
d9
f1
20
d6
e9
f5
d4
cd
ec
15
bf
ed
fc
eb
d5
db
ef
96
f3
10
e9
fd
ec
ff
fc
05
12
2a
1a
15
2b
fa
ed
35
04
37
00
df
20
1b
0d
00
d7
f3
17
e7
fe
34
f6
f0
f3
ec
0e
e1
22
f0
d9
b1
d8
d6
dd
fd
06
e2
e1
17
04
f6
dd
06
fa
eb
fc
0f
fc
dd
0c
fa
e9
0f
0c
fd
cd
0c
e4
f7
f4
10
fd
d0
09
e0
f6
f8
db
03
e5
02
c7
cd
02
f1
f1
cc
1a
e4
f2
cd
cf
f0
fa
1b
e6
05
df
e8
e2
12
18
e8
0a
c7
f7
f8
17
08
e4
04
03
ef
08
10
18
0e
02
f4
07
f0
31
11
f8
14
11
f0
fd
ec
2d
07
19
ed
fa
f4
05
13
2f
0b
13
03
f2
1e
19
3f
19
f0
f4
ee
17
03
29
1d
ea
ed
e2
f2
02
38
00
f8
27
f6
ce
19
18
0d
fc
e2
e9
8e
fc
01
12
29
e5
e9
71
f6
f3
00
10
d5
0c
a3
b4
fb
2b
db
bd
f6
e7
71
0b
fc
dd
ec
11
f6
e0
a4
e2
06
06
fb
12
fe
04
0a
44
48
16
28
0e
fb
01
0b
2e
f0
1c
15
06
e6
f7
19
ff
1f
fb
c9
09
f7
04
01
00
07
ce
f8
ed
08
ef
0b
f7
ad
f4
0a
01
f2
da
d8
ca
eb
fb
07
f9
b1
c5
bf
e1
0d
ef
f8
c4
b7
bd
00
1e
e8
f3
ea
bd
c7
01
03
d3
ff
af
c5
d7
19
29
13
ea
c3
cf
c2
17
19
19
f0
c8
9f
c4
18
08
00
03
e2
9c
ed
27
2a
00
0f
00
d9
15
25
1b
ed
05
c0
d2
fd
15
0f
ee
ff
df
df
f9
10
14
21
ef
ca
e6
d9
ff
0c
02
06
f5
bb
eb
05
ed
f4
f4
f3
f5
e9
f6
f3
2f
03
d9
03
fe
e9
e5
f9
f8
9a
b7
fd
08
c0
00
16
cc
e1
df
02
11
c8
11
fe
7c
08
14
b4
fd
18
fd
bc
c8
dc
7e
a8
f8
02
de
f2
a0
cd
e8
11
05
fb
e0
d6
0e
00
16
0b
16
f7
04
f6
fb
02
e8
e2
ee
f2
04
01
e6
ed
bd
db
d8
f0
e8
ff
af
87
c5
e4
eb
1e
fc
b6
06
ed
09
d4
e8
ff
f6
03
f5
ff
ed
fc
32
ef
c2
d8
ed
d4
f0
18
29
14
0c
ef
f9
07
20
18
2b
ec
dd
fb
f6
07
de
e4
e7
07
0b
08
15
c5
e5
f1
f7
1f
0a
05
a2
fb
ed
04
17
15
13
d2
e8
fe
04
08
16
f8
cd
f5
03
12
04
fa
ef
06
de
ec
12
0b
ea
09
f0
f2
01
e0
2a
e3
0e
e9
e1
f5
f8
2a
fd
03
ef
fb
fa
1a
06
04
31
d9
0c
e8
06
dc
f2
0f
de
04
fd
01
df
d2
0f
e7
f3
fa
f1
cd
c5
04
c5
34
13
0b
f0
e4
05
b0
fb
13
0a
df
d3
e6
d1
18
09
10
fc
f5
03
d3
3d
3b
1d
f1
f6
f8
0c
13
11
20
09
f8
0c
1c
1f
3a
2d
1a
16
0b
17
1f
06
14
26
1d
05
20
01
11
0d
18
44
0f
f3
f0
f1
fe
05
ea
fa
d9
ab
d4
ef
e0
10
0e
dd
a0
cd
a9
8b
f4
f6
95
09
dd
f6
48
94
f0
19
d4
0d
ea
20
b0
ff
38
18
26
15
da
15
ff
10
1d
1b
eb
db
28
3e
ff
fe
16
f3
e0
00
4a
f1
19
11
24
d7
f1
12
f1
f9
0e
12
f7
d4
18
0e
f9
e2
19
0a
e2
1a
fa
eb
dc
f8
2e
f6
14
ed
16
d3
fe
36
f8
1b
0d
0a
ce
12
07
25
35
0b
f3
d5
01
08
f2
3e
06
ef
c4
0b
fd
ec
37
f4
ef
cd
0c
0d
d3
d7
16
00
f4
ff
02
06
11
07
f3
e0
1f
f1
16
35
fc
fc
fe
fa
19
00
45
ea
f4
f1
09
0d
fb
1e
14
ea
fc
14
dd
e8
d2
fc
e8
00
04
0a
e4
de
05
f5
02
ff
d3
b4
41
2e
de
f5
f6
e5
e1
37
3d
f2
e5
17
ef
d4
29
f1
fe
f4
05
2d
0f
f2
d5
22
20
04
24
29
07
df
00
f2
eb
eb
15
20
c9
b4
df
db
ca
d7
09
92
65
bb
d8
e3
05
06
d8
11
ff
04
c4
a2
ee
11
1d
0a
07
00
e3
30
ff
06
2b
e8
fa
fc
3a
ec
1a
28
e6
fb
0d
4f
0f
10
20
e8
f8
02
f8
1d
2b
30
01
15
27
56
18
25
2a
0a
02
0e
fd
e3
2c
16
fc
fa
0a
2c
09
33
d8
fb
e7
ee
1b
13
f7
f6
df
f8
fd
ff
0d
ef
12
e0
03
fc
e7
ea
f8
e8
cf
24
f7
10
0c
0f
ce
0a
22
fb
12
eb
f2
e4
f2
fe
e6
43
d2
04
f2
f3
1b
1b
48
18
09
06
d6
1d
ce
3f
cf
e2
f2
c7
10
e7
fb
bd
0a
d4
fb
e9
01
0d
0b
c6
da
01
0c
c5
da
f3
b6
ce
f6
ed
87
26
fe
cc
d6
fc
ed
c6
02
e8
9a
e5
f0
19
e7
fb
ad
9c
c0
fc
26
16
0e
34
3d
ea
f1
12
41
fa
ff
0c
35
36
d9
46
15
f2
fc
96
9e
cd
c1
10
da
f2
17
06
e3
3f
15
f5
dd
f4
0e
e6
ea
e7
0a
d6
f0
ff
da
d2
ea
f0
ce
07
00
d0
0e
b4
a2
fa
e7
fb
fb
f1
c5
d4
0c
d4
f8
0b
f9
c8
e7
1f
11
ee
1a
1d
e1
04
f0
fe
02
07
fb
d3
b3
04
f7
f3
f9
ff
00
a2
fd
1a
f5
0a
f4
ea
0b
0e
17
f5
d5
07
fd
36
1d
35
e9
05
10
f4
e8
06
06
ff
e0
e5
ea
97
15
09
03
e8
f5
f6
ba
0b
eb
f5
ed
d4
03
2b
e9
e4
01
ea
d8
e7
29
eb
0a
0a
01
21
fa
ee
fa
06
1c
fd
0e
f8
18
1b
19
18
23
10
fc
e7
0a
0a
0b
0d
1b
0b
fd
37
1d
06
05
e8
0c
14
25
29
f8
fd
fc
ff
f4
02
f3
fa
0e
12
f0
ed
d1
eb
f7
0e
f2
f5
01
c0
d1
0e
ec
f6
0d
ed
ad
cd
db
05
b9
f4
e4
c7
d0
db
f6
b0
16
f9
ff
bd
ab
e3
d1
eb
04
86
05
07
79
03
0e
ed
ea
fb
de
fd
ed
e8
f8
e1
fe
a0
24
ef
cc
d3
ff
00
f6
21
19
b1
d2
f8
09
e9
01
f0
bf
e3
1d
10
10
15
1f
bd
05
0d
0e
03
0d
e1
8e
14
0f
22
fc
06
fc
87
fb
04
20
ea
0e
2c
7c
f4
f5
14
f6
e8
0d
7c
0a
04
29
ee
e8
ea
76
06
0f
00
e7
fd
ff
6e
ec
de
07
01
15
0c
90
fa
f0
0f
f8
12
de
7b
e8
ec
f7
18
1d
fd
c4
f8
ec
01
fa
f8
d4
c1
f1
e6
13
14
fd
dd
b9
04
ef
39
eb
e5
fd
92
ff
09
25
e5
d7
ef
b0
02
0a
09
e1
04
fb
a3
04
fb
0e
f2
09
de
ad
05
0b
06
f2
fc
cb
b2
22
f1
09
0e
13
f6
c8
f3
ee
e8
0c
16
e9
d5
bd
ea
00
0d
f4
bc
e4
c0
d1
16
0d
e1
a8
16
e6
28
17
f8
a6
c3
fd
07
f8
5c
60
e1
b2
fa
d3
e2
14
0e
c0
1a
e9
bd
0d
03
15
dc
e7
dc
96
0a
11
03
f9
dc
f8
ce
10
07
01
04
f9
99
ed
e7
07
f5
19
fc
a3
f0
fe
ed
10
11
07
a3
00
f9
f3
01
0b
fe
c6
f3
04
25
0c
25
fc
ad
e7
f4
ea
f1
2d
16
ce
01
07
28
f5
06
e9
ba
f4
0a
1b
fd
01
e1
d8
c8
1f
1f
d4
fa
cd
db
bd
0e
07
c5
06
ed
e2
d7
02
1d
d9
f8
02
f0
e6
10
04
f8
06
0b
ca
fa
f8
f5
08
19
f5
cb
f9
e2
e6
29
19
eb
b9
b3
e1
cd
1d
fb
f5
bd
cd
df
e7
21
f6
e0
e5
b1
da
0c
08
e8
06
ba
ba
09
07
f1
0b
fb
df
d9
09
10
fa
ff
02
f3
c5
01
1d
db
e1
3c
f8
73
39
04
fa
85
e2
05
ab
32
b9
8e
ea
c2
fd
ef
23
e9
c1
01
f0
04
f7
ec
eb
ee
e5
ef
14
e9
f6
f5
d1
f7
0b
05
ee
f4
c2
bd
af
fd
f6
e1
fa
e3
1f
d3
bd
18
db
d2
20
e6
f0
76
03
fa
fa
02
cb
e4
d2
d0
ae
be
e7
e9
f4
e6
ea
c4
b0
cb
df
12
d9
c7
bf
c4
c1
07
fb
df
b8
c0
e7
bb
ee
ff
d7
cc
fc
10
06
f7
f9
f6
ee
40
12
12
ea
00
fa
ee
3c
1e
18
fb
01
07
f7
2b
0c
13
f9
f2
04
fa
2a
20
14
0a
07
0d
ea
55
07
ef
0f
f8
19
fa
27
1a
ea
0e
e5
13
03
1b
07
e0
f7
12
1b
cd
0b
09
b9
fb
f7
13
f9
f8
c5
9a
0d
09
ee
e0
e8
e7
e0
07
03
0a
ff
ec
d3
ff
f3
fb
29
0c
00
cf
f0
04
12
10
de
d1
de
e5
f6
08
19
fa
eb
f9
fa
0d
f4
12
fc
e0
17
0e
0c
08
f7
ff
f6
12
23
1a
1e
ee
e9
09
20
03
2b
23
e1
fe
13
31
42
1b
3b
dc
fd
de
ff
e1
d0
f0
f3
f6
d9
ee
b6
c4
9b
fe
1a
ed
d9
05
1b
11
ee
fc
e6
a5
20
ca
f4
90
fb
e5
dc
f0
24
f0
b7
f1
c6
d5
d9
0e
f0
bb
a3
a6
f0
e3
02
05
aa
b7
e3
0e
fd
14
19
04
9a
0c
17
ff
e8
0d
f8
9e
0b
2d
1e
f3
0e
d4
b2
1f
0c
15
dd
00
01
09
f6
16
48
15
ff
22
05
21
fb
29
22
d7
20
eb
26
13
24
1c
ee
d9
d8
f7
ee
27
29
fa
b9
b6
fe
e4
2d
0d
f6
a2
ab
12
e6
0f
0b
ec
f0
eb
dc
fe
f5
09
f1
f2
d5
dd
15
ee
f4
fe
e7
97
eb
09
fc
f5
19
1a
a0
f6
fe
c6
ff
2e
1d
9d
03
f3
c9
f4
f4
0c
a5
ef
f2
d0
0f
05
3a
92
f3
e8
e1
11
f8
11
b9
0b
08
12
24
0d
47
c3
e7
0a
f4
f6
ff
f6
b9
09
24
d3
f4
07
f6
07
35
fa
0d
0c
29
dc
e2
e6
0a
de
c5
e8
f0
f3
f0
ee
76
59
b6
f4
e7
d0
9e
0b
36
d1
77
19
b4
e6
26
f8
02
4a
eb
9f
1d
08
ed
03
df
c4
a6
25
0d
12
fa
fc
bf
dc
f8
08
22
fe
ea
94
f7
ea
07
1b
f7
e4
a6
d2
c8
09
09
f6
db
b2
cb
dc
13
fb
fe
f7
d7
df
e8
05
04
f2
0e
c2
fe
e2
35
de
e7
00
c6
cc
0e
dc
23
ed
07
d3
b0
fb
ff
ff
e4
e4
e2
ee
1d
17
c1
f5
d3
c4
d0
05
12
df
d1
e3
e5
9e
08
37
da
bd
ea
c0
93
0d
f3
c7
b5
e5
bb
91
2a
fb
b2
03
05
bd
e1
26
00
ac
f1
2e
02
ee
24
09
d3
e4
08
d8
10
1a
1a
cb
e0
f9
bc
1e
20
f8
cf
dd
13
00
04
e3
fe
fc
eb
24
f5
08
ad
fb
00
f2
17
e8
44
ce
02
23
f8
f6
f0
ec
04
21
09
3a
da
00
0a
00
0d
f4
44
07
00
