14
58
ad
06
c0
51
40
64
a9
ca
7e
cb
2c
ee
2d
da
2e
3b
01
d3
8c
d6
68
c0
28
3f
dc
32
e5
af
37
26
27
2c
99
39
3a
e4
be
10
e4
f0
13
ea
f3
15
fc
0a
f6
0b
e4
d7
00
f4
d2
ef
06
c5
d7
f0
30
03
ed
1e
00
14
24
38
f1
0f
00
f1
14
22
0f
14
27
1a
06
fe
1a
fd
18
11
15
fa
1b
13
f4
1b
01
07
1e
20
ff
ef
12
f5
12
37
32
03
f8
00
12
f2
36
0e
ed
05
1d
c9
e3
11
eb
ef
e4
03
d9
d6
00
ab
e5
fb
d0
a6
d4
00
a3
b4
0d
f4
b9
d7
32
cd
ea
ff
09
f5
32
3c
b9
d4
17
e8
02
f3
e0
f7
e7
d8
05
13
bb
25
dd
1e
01
18
07
1c
04
13
13
39
1d
e5
0b
2e
18
09
50
02
13
00
f5
fe
07
ec
ed
e0
04
16
cc
fb
ee
16
dd
32
f2
c6
20
05
12
f2
cc
f4
e8
07
07
02
0c
dc
16
07
03
dd
e3
ea
d6
f4
08
f4
d8
0c
11
c4
f6
0a
e4
f7
d8
ea
ce
9e
f3
c0
fa
c5
c0
01
40
c8
a8
eb
fe
04
0e
e8
fc
f1
ee
0c
04
0b
2c
fd
fa
de
cd
da
00
d9
e6
fc
4e
fc
1d
f7
00
e1
0f
24
f7
28
02
d9
db
f4
41
03
fd
02
0d
df
14
f8
d1
a8
eb
29
00
0c
11
c3
02
f3
06
de
fc
e1
f0
03
f6
cc
1c
f4
1e
03
f6
d6
82
17
e8
0a
17
e4
1e
b2
0b
08
fa
11
1b
bc
b5
1e
b3
e6
33
9d
eb
0b
fc
ef
0f
f9
d6
f8
05
52
25
13
b0
da
e5
f5
c9
05
fd
23
12
07
dc
17
10
05
47
19
fc
0f
37
22
f7
e4
0e
21
25
f7
fc
02
df
00
17
35
cf
0b
08
b8
0e
07
35
f9
1b
19
e6
21
f4
45
f4
06
fd
b8
1f
df
1e
1b
12
f3
db
ff
eb
d9
08
0b
f8
c7
e7
da
04
0b
17
11
f4
12
02
ed
1a
06
13
fd
22
d2
ed
06
0f
0a
01
00
e6
e8
c0
05
f2
ef
0a
cc
fe
de
16
00
df
e6
d7
be
11
1f
1f
f1
00
17
12
e8
ef
32
1f
04
da
17
0c
ce
ec
e4
e3
d0
e9
f7
25
f5
f9
3a
09
cc
e0
f6
00
ec
1c
f9
02
ee
31
c4
0b
09
ad
25
08
2a
06
0b
08
00
e5
18
d1
13
00
df
2b
f0
fe
0e
14
ff
0c
04
0d
ea
15
eb
05
27
05
25
f8
07
bb
32
f5
ec
01
02
22
e3
01
94
00
ca
e5
c9
16
75
8a
f9
14
19
1f
ea
98
da
ca
26
e6
f1
23
e8
0f
11
1e
f0
f4
d0
06
df
04
e3
dc
f3
f0
3e
d2
e4
18
d7
cb
31
26
04
1f
fd
db
d3
02
e4
15
1f
1e
ee
d4
0e
0d
fe
de
18
67
fd
20
1d
d2
0a
1e
9b
01
00
11
d8
0c
d7
e6
03
f5
00
09
da
0e
0b
1c
af
10
09
cc
b2
c7
2b
02
e0
2a
d7
cc
f4
20
10
13
1d
d0
f4
c8
07
09
eb
f5
ec
f1
fe
d0
fa
08
1a
23
d4
4a
db
f0
d7
fd
ed
22
0b
ff
01
f2
04
f5
29
ee
02
dd
d3
19
fb
0e
17
01
fa
f0
1d
04
15
05
07
f8
c7
fa
26
d7
cd
2a
d7
b3
ec
01
e7
eb
1a
fd
d5
0c
e5
00
f9
0d
f0
e4
07
ed
f2
03
00
ff
f9
16
ea
3f
0b
e8
13
24
05
ca
06
e1
19
f8
0d
c9
07
f9
d7
ce
17
cd
bd
f1
eb
c4
ae
1b
a3
dd
e3
fb
10
d3
09
d4
58
00
e3
f5
e4
00
20
04
f2
e6
f6
1b
d9
06
1c
da
f0
fc
1f
dd
07
1c
ed
1a
f3
02
c4
f5
d7
1a
f4
e8
f6
ac
04
cf
22
14
b7
17
d6
ec
e7
f8
e0
ce
09
e7
f9
f7
2c
ef
e8
13
3c
14
11
10
26
01
07
17
29
18
1c
03
10
07
5f
10
ed
0e
2c
f3
db
69
08
f6
0c
ff
13
c5
fc
0b
d3
0a
d4
0d
f3
ed
7f
bc
ca
0a
1a
f3
fe
0d
26
23
c5
1d
f2
f7
f4
01
fa
e8
e8
05
d6
0d
06
e6
1f
19
f6
dd
e2
05
f2
c9
0c
d6
bd
06
05
fa
33
3d
f8
e7
05
e8
14
02
33
d8
c5
18
13
04
0c
f4
fa
10
e6
0e
2a
f2
ea
ff
cf
cf
03
0d
f3
fb
1d
1e
e4
4a
1c
28
ee
2d
35
c1
11
21
6f
de
34
f6
b8
30
da
ba
f4
48
f8
ff
48
e1
0d
98
c4
1a
c9
d8
f8
fb
db
b9
10
1f
04
a2
0b
0a
f1
d8
25
f9
fd
2c
18
09
10
1c
27
ea
ee
14
f2
f4
e2
2c
27
cc
d5
09
fc
ec
e4
14
f6
d9
1d
0b
e0
ee
2d
c8
d0
ff
f9
00
f3
d2
f2
d8
f3
ff
f5
f5
00
d0
f4
01
08
ef
08
27
02
f0
05
0d
00
ff
17
f9
b5
16
14
ee
ed
3b
fe
d5
04
ff
ce
fb
09
2c
02
e7
03
06
fb
00
0b
26
f0
05
ce
d6
dc
ff
eb
c0
f9
61
ec
e4
26
2c
16
e9
05
2e
ca
1a
1d
e0
00
e9
1c
ad
11
1c
0b
18
03
04
c6
e2
f9
f2
fd
fa
d9
b4
eb
fa
00
ca
f6
05
d9
fb
24
18
c5
0b
0c
cd
c2
1b
f7
f5
f4
03
a7
e7
2f
f9
d5
d7
e5
e1
e1
0c
ed
db
db
0c
e9
dc
d8
fb
ae
0b
dd
fc
e3
09
e7
ec
f2
fb
cc
16
05
0e
20
15
13
d8
13
32
fd
02
11
12
da
e3
dc
ba
f3
2c
03
a4
2d
04
fd
00
f6
0c
08
01
1e
fa
22
19
15
ef
09
18
04
0c
0b
fb
ee
0f
11
fb
bb
fe
04
02
31
ed
db
e2
08
ff
d4
35
d9
19
14
19
05
f9
26
e9
f5
09
34
0f
05
2d
0a
0f
27
33
23
e6
12
26
06
19
1d
20
f9
16
f0
d7
26
13
02
f6
50
03
c3
cf
1f
ff
09
f9
0f
de
fd
4b
6f
c7
f7
d6
cc
ee
c7
02
00
cb
e4
80
ed
b5
f3
a9
ba
d3
da
f7
f8
fa
08
ef
eb
f9
f3
10
13
0a
cd
54
14
1c
2f
3a
00
e9
41
16
f9
27
2b
00
e4
1e
0a
eb
06
00
d2
e9
20
1c
00
06
04
f3
03
f1
05
f7
08
08
cd
01
f8
00
ef
0b
00
f3
b9
eb
f7
03
d0
01
fd
d4
07
0b
f2
f2
0e
0d
b9
15
fc
fe
16
25
e2
ea
1f
16
0c
32
ec
fa
e9
13
e1
0d
2c
09
e1
a8
02
c8
fe
fe
07
cf
dc
ea
1a
f8
e8
ee
12
d2
06
f1
eb
e4
e9
35
16
e8
f1
06
d9
d6
20
1a
f4
e2
0b
e6
10
11
cc
00
2a
fb
fc
17
07
f9
28
1c
01
20
dd
ed
09
15
0e
fa
24
f2
f9
1c
f7
f4
25
13
06
09
00
fd
06
02
03
12
1b
0c
fc
0a
0c
00
04
e2
09
dc
12
e0
17
fe
f8
e2
f9
00
03
f7
ff
16
2b
d0
c3
00
f9
16
e9
c7
d6
6a
fe
c5
f4
ad
d0
c6
f9
ef
fa
01
2a
fe
d9
f6
f2
fc
e0
0d
15
00
e7
0d
00
ce
01
16
d5
e7
b8
10
b7
c4
30
db
d3
e7
f6
ce
00
24
0e
0d
04
06
d3
2b
cd
21
fb
fe
e2
de
f1
fd
14
1b
b3
e5
da
0d
fa
31
0f
9f
d8
ee
e4
26
f0
11
f2
e9
d4
10
00
f3
18
0b
6f
1b
ee
29
f1
fc
08
bc
17
17
f0
29
ef
03
f8
f6
0a
fb
f7
0e
01
ea
21
b5
2c
07
22
fa
e3
d9
0b
08
fb
07
fe
01
ff
00
fc
e8
07
06
2a
dd
cf
0f
0a
c5
0e
1d
e2
d6
46
26
db
f1
18
f3
c4
f6
1f
e6
37
ff
0e
cf
12
1c
ee
08
ec
ea
f6
d7
01
fc
ef
e7
f7
07
08
f2
16
eb
e9
01
0c
f1
ed
10
ef
ec
19
29
e7
d3
05
04
e6
ff
19
e4
ec
18
07
ab
e9
22
fc
df
f7
ed
c1
e6
f7
0b
cf
d0
0f
bc
e0
ec
d4
ff
e7
f9
03
f2
0f
be
f9
05
09
f0
fb
46
fa
fe
fc
13
0c
14
14
fa
11
00
e7
00
35
0a
04
1f
00
c8
ea
16
e6
f4
fe
d9
03
05
fa
c6
e5
fd
d3
d6
0f
d6
f9
e5
f7
ee
b4
ef
f3
12
25
c4
15
21
ea
d8
ff
00
d5
f7
1f
0f
04
16
ff
fe
0e
73
1a
0c
25
ea
27
07
a0
12
58
2c
dd
47
05
05
e4
03
f5
06
ec
f8
0d
c3
ff
d1
27
f8
22
ee
e1
fd
1c
f4
f2
01
fe
ea
fe
21
ef
fb
20
c6
eb
1c
e6
01
d7
19
c1
0b
1e
0a
f2
eb
28
ec
fc
2c
0f
89
f8
34
20
21
1a
16
2a
04
fc
b0
1c
29
f6
2a
15
f9
b1
37
27
e2
1a
1e
dc
c3
15
fa
f2
05
28
e9
b8
01
f4
e9
0a
06
ba
fa
2b
eb
df
e0
fc
c1
0a
1b
cd
18
f3
0c
a0
10
04
e5
af
04
01
46
f5
1d
21
2e
24
0b
21
05
2d
09
15
03
0f
12
00
23
e6
f7
11
17
f8
0e
27
06
08
35
02
da
eb
2e
f4
b0
30
e5
dd
ec
09
d6
ce
15
fe
e7
0c
1e
f7
29
b7
eb
09
f7
1c
04
0b
b6
3f
1c
14
34
13
f9
1b
2a
1f
03
2d
22
f1
ff
0b
f7
0a
04
12
02
e9
fa
fe
0d
ed
e4
ee
fb
da
20
ea
d5
ed
c0
fd
d6
f0
f4
ea
ed
fd
12
1a
2b
ee
04
00
20
0d
d8
17
ff
f7
f4
0e
22
da
d9
de
06
e2
04
de
fb
fd
fd
0c
ea
0c
ce
e5
f5
fe
09
f7
dc
e6
c8
02
f2
1a
f3
d0
fb
e7
e0
e3
18
0a
f8
17
e5
03
08
18
02
07
31
f9
11
fe
2d
19
fb
05
2f
13
f3
19
19
f5
17
29
eb
e3
02
00
27
cf
18
fd
ea
fd
12
e6
72
f4
10
0c
b5
2b
be
e8
0b
de
11
e1
e3
06
12
04
44
16
0e
01
2e
1c
06
f8
00
fc
09
04
00
cf
ee
f0
f8
f5
01
db
cb
fc
fa
c6
e2
f0
c5
be
1e
f4
be
01
d4
b0
d8
29
eb
d0
17
19
c9
c5
08
03
9d
27
00
00
15
1b
05
d3
15
ef
e0
fa
14
f0
e7
00
02
f6
ec
ee
f5
f6
f7
2f
da
ff
e6
f9
b8
08
00
cd
e0
11
11
7d
14
fe
fe
c9
7f
f9
df
a1
e9
05
e1
0e
16
16
04
fc
e9
ef
04
e7
be
d9
e9
b0
c6
ec
fd
06
09
e9
f7
f6
ee
32
c3
ee
f1
29
0c
fa
20
2b
de
f7
df
e8
0b
15
e6
f8
0a
a3
ee
17
13
e9
04
16
ce
03
04
f0
df
12
eb
f1
01
2a
0e
e2
f9
fe
f0
fb
06
31
0c
06
f3
df
fe
e0
0f
f4
f2
c6
c6
13
f1
05
fc
0a
d4
d2
09
fd
03
3d
1d
f7
0c
11
09
0c
1f
2d
16
17
06
26
05
01
0d
44
f4
f2
05
fb
ac
f0
10
de
ce
8c
f7
09
f7
95
19
0d
20
00
18
15
15
10
1b
dc
3e
ff
f4
00
f2
11
d8
12
fa
12
d5
0e
e3
0a
1a
ec
f9
f7
ee
d4
36
1b
0a
12
25
0b
d6
08
3e
f0
0b
ed
f5
ce
0d
d8
00
00
06
07
e1
f2
35
fd
fb
00
eb
f2
0d
1e
eb
14
e9
fd
00
0a
df
f6
00
b5
2e
f6
e6
37
f3
17
d5
f2
f5
2d
f3
22
04
29
e0
f3
ec
20
b5
dc
d8
93
bc
e4
06
11
04
a3
11
0a
00
30
06
e9
fd
ed
28
fc
4f
10
e9
02
1d
30
15
56
25
0a
0e
e4
16
fb
2c
33
fc
ef
13
f7
f9
00
f0
e1
fd
eb
e9
24
10
0f
0a
fc
ec
e5
ff
43
04
f4
1b
18
06
1d
3f
e3
c8
e8
be
d5
e9
0d
c7
01
c6
f3
cf
ee
26
cd
fd
c7
e9
e6
19
fc
9d
fd
16
34
eb
12
fb
0c
36
46
f3
97
ce
10
f3
06
3f
f6
f5
e7
e8
d7
00
d3
f1
07
d1
b5
fb
fc
f2
d5
d5
0b
c9
1f
ef
1d
04
ff
07
d4
04
f4
00
a3
1a
0a
eb
0e
f6
07
36
35
05
f5
06
00
e6
98
09
e9
f7
0b
f6
d5
2b
e5
eb
e8
ec
0a
21
ef
06
fe
f9
1b
18
10
e8
0a
0d
0b
37
06
e9
14
29
fe
00
02
fb
12
ee
ec
0e
f6
c1
0e
f7
ee
ce
05
f5
c8
dc
b1
fa
be
e4
ec
87
07
03
ee
fc
fe
e9
e2
a1
f0
d4
00
21
b2
f9
ea
f1
e4
10
15
be
0d
03
e2
14
22
06
88
04
eb
2c
f5
14
e9
7d
04
ef
eb
06
00
fe
6f
df
01
0c
fb
0f
12
7c
ed
18
fe
f9
01
f9
c2
e7
14
de
04
39
e6
93
09
e6
f0
02
09
04
a4
fc
f3
df
05
06
fd
b3
f2
0e
f7
f4
e9
16
d6
eb
0d
bd
c1
16
e2
16
28
f9
c4
07
5d
e2
fb
e3
0e
1a
be
03
dd
dd
0a
03
dd
cf
07
04
9a
e8
f6
fd
f1
ee
11
a4
fa
01
ff
f4
25
25
ae
f5
f2
16
01
28
06
bb
0a
fe
e2
c9
1f
fb
dc
0e
c6
ee
d8
1d
f9
f1
10
f9
0b
fb
f6
19
cc
e3
29
ec
b4
ce
fc
be
e0
21
e1
b2
0c
e9
bb
09
f2
fc
da
10
00
f4
01
dc
3c
74
04
86
05
32
8f
c3
f0
ea
01
04
ed
ef
f0
ea
f6
f8
05
f5
be
fe
e2
e4
d4
18
d3
e7
77
fb
02
e5
d1
bf
ea
e7
c5
cc
12
c7
c5
07
e0
c1
bc
00
cd
10
f8
f7
40
12
00
ef
1e
fc
07
2b
13
f3
fb
20
0a
0d
55
f0
f9
fb
1a
0e
13
1b
e1
12
ce
09
fc
13
f9
9b
09
e1
e8
07
0a
ed
00
fc
0c
d0
04
10
d2
e6
08
fb
fa
0d
12
e1
0e
08
00
12
1a
ef
09
03
23
ff
31
1b
dd
df
e2
f1
f7
ef
c5
ff
ee
05
11
fd
a6
cb
91
e6
f1
f1
f2
d6
0e
bc
a7
e4
05
b8
0e
14
04
0c
00
0d
9f
2d
f4
d5
1f
15
00
09
16
15
22
21
29
d8
ec
13
1c
da
f8
27
fb
b7
e5
0d
a3
12
0f
ed
ec
ff
09
f3
de
ef
ff
98
09
f6
1a
f7
c7
2e
9e
f4
f5
0c
f0
d1
05
93
e9
11
11
0b
12
0d
c4
0a
f7
f7
09
d4
07
07
fb
0c
dd
e7
df
e9
f4
ef
5a
f5
d1
0b
d2
19
e7
f9
4b
a0
08
03
c5
25
12
fd
dd
08
ff
95
eb
1b
e5
d3
09
f7
b3
dd
fc
f8
e0
05
f3
c3
e3
df
00
cc
dd
ee
d4
fc
00
e5
ef
17
f6
c5
05
e0
e4
9f
37
be
c1
0d
c8
e6
92
fc
03
be
26
ad
2e
ef
09
e5
d9
1a
cc
fa
1e
f9
de
00
e4
fd
24
08
fc
f3
e9
cf
23
f7
ed
21
3a
00
00
f5
07
00
