d0
ef
11
cf
40
10
20
ff
30
10
ef
51
20
51
f0
00
ef
f0
0f
00
00
0f
10
00
00
f0
00
00
00
20
00
00
00
00
00
00
00
10
10
00
00
f0
20
00
f0
00
00
ff
ff
ef
00
ff
ef
00
0f
00
00
10
00
00
00
ff
00
00
10
10
00
00
00
00
00
00
00
ff
00
00
0f
00
00
00
00
00
0f
00
00
0f
00
10
ff
0f
ef
ef
00
ef
00
00
f0
10
00
0f
00
00
00
00
00
00
10
00
f0
00
00
ef
ff
00
00
0f
ef
00
00
00
f0
00
00
ef
00
10
10
00
0f
f0
00
00
10
df
00
00
10
1f
10
00
00
00
00
00
00
00
00
ff
00
00
00
00
00
00
0f
00
00
10
df
0f
00
f0
00
00
10
00
ef
f0
1f
00
df
2f
ff
ff
00
00
10
00
00
00
f0
00
0f
f0
00
0f
ff
00
00
00
00
00
00
f0
00
0f
00
00
00
00
00
00
00
00
ef
00
00
ef
00
cf
0f
00
00
f0
00
00
00
00
00
00
ff
00
00
f0
0f
00
0f
f0
d0
0f
00
00
00
00
0f
0f
00
00
00
ef
00
0f
ef
ff
ff
f0
00
f0
f0
00
00
10
10
00
0f
00
00
00
00
0f
00
00
0f
d0
10
00
ff
0f
00
f0
ff
00
00
00
00
00
00
00
f0
00
00
00
00
ff
00
00
ef
cf
00
0f
00
00
0f
00
00
ff
10
00
00
f0
00
00
0f
00
00
00
10
00
ff
00
00
00
00
00
00
00
20
00
00
00
10
f0
00
e0
00
00
00
0f
00
10
f0
f0
00
00
e0
00
00
ff
00
10
10
00
00
00
ef
0f
00
00
10
00
f0
0f
00
00
00
00
10
ff
e0
10
f0
1f
ff
10
ff
00
f0
0f
0f
ef
00
00
00
00
00
e0
00
00
00
00
00
0f
e0
00
00
00
00
00
00
0f
00
00
ff
00
00
ef
00
00
00
ef
00
10
00
00
00
0f
0f
00
00
10
00
ef
10
00
10
00
00
00
f0
0f
00
0f
00
00
00
ef
00
00
f0
00
00
00
f0
00
00
0f
f0
00
00
ff
00
00
10
f0
10
e0
ff
00
00
00
00
00
00
00
00
10
10
00
00
10
00
00
00
00
00
00
00
00
00
00
ff
f0
00
10
00
00
00
1f
ff
f0
0f
ff
1e
ff
00
df
ff
ef
00
00
f0
00
00
10
00
00
10
00
00
00
10
00
f0
10
00
00
00
00
00
00
00
0f
e0
00
00
ff
00
10
00
00
00
f0
00
00
0f
e0
e0
20
f0
0f
f0
00
f0
00
f0
f0
00
10
00
00
00
00
00
10
00
00
00
00
00
00
0f
00
00
00
00
10
00
00
0f
00
f0
00
ef
0f
df
df
00
00
00
00
0f
00
10
ff
00
ef
0f
ff
00
00
ef
00
00
00
10
00
00
ff
00
df
00
e0
ff
00
00
cf
00
f0
00
f0
0f
00
00
00
10
00
00
00
00
00
f0
00
00
00
0f
f0
10
00
ff
00
f0
ff
00
00
00
00
00
e0
00
00
f0
00
00
0f
0f
00
00
ff
00
f0
0f
00
00
0f
ef
10
00
00
f0
10
00
00
e0
00
10
00
00
00
00
00
ff
00
00
00
00
00
ff
00
00
00
00
00
00
0f
00
10
f0
10
00
10
00
f0
ff
00
10
00
0f
00
00
00
0f
00
00
00
00
10
00
0f
00
00
00
ff
00
10
00
00
00
00
df
f0
10
00
0f
f0
00
00
ff
00
00
0f
00
00
00
00
00
00
10
00
00
00
00
00
10
ff
ff
00
00
00
10
3f
00
00
10
00
00
00
10
00
00
00
f0
00
00
00
ef
00
f0
00
00
00
10
00
00
00
f0
0f
00
0f
10
00
00
00
f0
ff
0f
ff
00
00
00
00
00
00
00
00
10
00
00
10
00
00
00
00
00
f0
00
e0
f0
00
00
f0
00
00
00
00
00
00
00
00
ef
ff
f0
00
ff
00
10
0f
f0
00
20
ef
00
00
0f
f0
f0
00
00
00
ff
1f
f0
e0
1f
0f
00
00
00
00
00
0f
df
00
ff
f0
00
f0
00
10
20
00
00
0f
00
00
00
00
00
f0
e0
00
00
00
20
0f
00
0f
00
00
00
00
00
00
00
f0
00
00
00
00
ff
ef
00
00
ff
00
0f
10
00
00
00
00
f0
10
0f
00
00
00
00
10
00
0f
00
00
00
f0
00
00
f0
00
f0
00
0f
00
00
00
ff
10
00
df
00
00
00
00
d0
00
00
10
00
00
10
f0
00
00
20
00
f0
00
f0
00
00
10
00
00
ff
00
f0
0f
0f
00
ff
f0
f0
00
00
00
0f
ef
0f
10
00
0f
00
0f
f0
ff
00
00
00
ef
00
00
10
00
00
00
00
f0
00
00
0f
00
00
f0
00
10
00
00
00
00
00
00
ff
f0
0f
ef
00
00
1f
f0
e0
e0
00
00
ef
00
00
10
00
00
00
ff
f0
00
00
00
00
00
ff
00
00
00
00
00
00
ff
00
00
00
00
00
00
e0
f0
00
00
ef
00
00
ff
00
00
f0
00
00
00
cf
00
00
f0
00
00
00
ff
00
00
f0
00
00
f0
0f
00
00
0f
00
00
00
f0
f0
00
cf
0f
cf
f0
00
00
ff
f0
ef
00
00
ff
00
ff
ef
0f
00
00
f0
00
00
10
00
00
00
00
00
f0
00
00
00
e0
e0
00
00
0f
00
00
10
00
10
00
00
0f
0f
f0
00
d0
00
e0
df
00
00
ef
10
00
00
ef
0f
10
f0
0f
00
00
ef
00
00
e0
00
00
00
00
00
00
0f
00
00
00
00
00
00
e0
00
ef
f0
00
00
f0
f0
00
00
0f
f0
00
ff
0f
00
00
f0
00
00
00
e0
00
f0
ff
00
df
10
ef
00
00
10
00
0f
00
f0
00
00
f0
0f
00
00
