0b
fc
00
f0
20
ec
e8
00
17
eb
f0
28
00
d7
ec
eb
17
e0
1b
e7
18
30
14
30
1c
ef
0b
f3
0b
0f
0b
e8
fc
03
ef
0b
ec
f7
e7
f0
1b
00
0f
ff
10
ef
07
07
08
04
08
00
03
0f
03
1c
08
14
08
04
03
07
10
00
08
00
18
17
ff
08
fc
10
fb
04
eb
07
f8
fc
00
ef
03
e7
00
eb
ef
fb
df
00
e3
00
eb
f3
07
fb
1c
eb
0b
14
ff
03
f4
0f
08
1b
f3
fc
0c
08
03
00
1f
00
04
0c
04
00
08
27
03
0c
fb
00
08
f3
fb
f3
18
04
10
00
fc
f8
f4
f8
00
00
08
f8
f3
10
ef
f8
ff
fb
08
e7
04
eb
ef
ff
d0
e3
00
c7
03
f7
d7
fc
00
fc
00
00
04
00
14
04
f3
ec
00
fb
00
f7
0c
13
f7
fc
fc
00
f0
04
23
f7
00
00
0b
10
d7
fb
00
03
e7
fc
00
03
f7
03
fc
00
ff
e3
fc
fb
0b
f3
08
f3
df
00
00
1c
e3
0b
df
fb
d3
04
03
f7
03
f7
00
0c
08
0f
f7
03
00
04
08
07
08
fc
20
08
04
04
ff
0c
10
fc
00
0b
03
07
eb
13
df
08
1b
08
0c
fb
ff
fc
00
14
0c
00
0f
f3
f3
00
f3
03
fc
ff
f3
03
08
f8
0b
fc
0c
eb
00
0c
fb
04
04
fb
f4
e8
03
fc
04
00
f3
f7
f3
0f
e0
17
0c
04
08
10
fb
18
00
f7
04
ff
f7
f7
fb
08
ff
f8
07
04
fc
eb
0c
e4
f8
10
04
08
10
04
03
10
03
03
ec
04
f0
04
00
fc
00
08
07
08
f8
03
00
00
00
18
ff
d4
03
00
00
04
eb
e3
08
f3
03
ef
0c
e3
f3
0f
f7
fb
f4
f7
0c
ff
eb
ff
03
08
ff
04
ef
07
ef
03
10
f3
00
0b
00
03
0c
03
ef
f4
00
00
b7
f8
0c
ff
0c
e7
03
e7
04
00
00
00
07
00
04
fc
08
14
dc
20
00
f7
ef
db
10
ef
0c
fc
e7
0b
fb
f7
fc
08
00
10
10
00
f3
f8
03
00
04
ff
ff
03
17
03
f0
00
00
f7
00
20
0c
07
00
08
e7
14
ef
0b
ec
e3
00
df
0c
e8
04
04
00
f4
f4
0b
fc
fc
00
fc
fb
10
f7
0c
00
03
f7
f7
04
ff
00
db
0b
eb
fc
e3
db
f3
f3
00
08
18
ef
c0
f4
0c
03
14
fc
0c
0c
f7
0c
e8
00
f7
00
04
0c
fc
e4
ff
0c
fb
fc
03
eb
cc
df
04
fb
fc
f3
ef
f4
e3
14
04
08
0f
08
1c
00
00
14
04
00
00
2c
00
07
0c
f0
0c
fc
27
08
ff
07
ff
ef
ef
fb
ff
eb
28
ff
f4
10
fb
0c
df
ff
00
f7
00
ec
00
f7
fc
ff
ff
00
ec
04
03
03
00
18
0c
f4
0c
08
10
ef
18
08
f4
fc
0c
f4
13
ff
0b
e8
f3
04
fb
0c
00
24
fc
fb
00
e7
18
bb
0c
ff
f7
f0
0c
24
03
24
08
cf
f7
eb
f7
00
f8
08
07
d7
14
ff
14
03
03
0f
03
0c
00
f8
08
ff
f3
10
f7
04
e4
f7
eb
f3
0c
f3
fc
e4
fb
03
e4
ef
f8
ff
03
fc
03
ff
10
fb
fc
00
03
07
e7
08
f3
08
ff
fb
f7
ef
08
eb
00
17
f7
03
04
03
f7
f8
04
ec
00
fb
f3
30
18
13
18
f8
0c
e8
fc
f3
fc
0c
07
0c
f4
00
fc
f4
00
03
fb
df
03
00
00
00
e7
10
d7
04
14
e7
00
ff
10
d7
ff
00
fc
f7
fb
04
fc
f3
fc
f0
ec
db
f7
00
04
f4
f7
03
0b
00
18
08
0c
08
0c
00
10
f3
db
e3
f3
03
03
00
fb
fc
fc
00
04
13
00
fb
04
03
10
00
0b
08
f8
00
eb
18
f8
f7
00
ef
fc
0c
1b
00
0b
fb
fb
18
00
14
0c
13
04
f7
10
00
13
10
17
fb
f7
08
ff
28
04
eb
03
07
30
f3
cf
bb
00
ef
fb
e7
e7
eb
ef
fb
f3
db
eb
f3
ef
03
f0
fb
08
08
04
eb
08
0c
2c
00
08
08
00
14
fc
0c
f8
00
14
fb
00
03
08
fc
0b
00
17
04
f8
fc
f4
04
03
e3
fb
03
03
03
e7
07
e3
04
03
08
00
08
08
f8
04
07
1c
00
14
f4
00
04
03
03
f3
03
ff
f3
eb
fc
f7
08
ef
ff
f7
f8
04
f7
04
f3
f7
0c
fc
04
f3
08
ef
14
f7
08
03
14
04
10
20
04
00
00
00
03
00
ff
0c
00
0f
03
00
00
14
04
00
07
f7
f4
03
08
eb
00
03
03
e8
ff
fb
14
03
00
f3
fb
ef
bb
d7
ff
03
e7
00
03
ff
03
eb
ff
e8
04
03
f7
07
eb
f0
ef
f8
08
f3
1b
e3
f7
fc
00
e7
04
eb
ef
03
10
04
f7
03
00
f0
df
14
04
f7
04
0c
fb
ff
fb
fc
fb
10
03
fb
07
e3
f8
d7
00
2c
08
03
14
eb
fc
03
00
eb
00
f4
dc
e7
10
1b
f0
fc
00
fc
00
10
00
fb
00
04
eb
14
e7
17
f7
00
10
e3
0c
f3
ff
f8
1b
0c
eb
0c
f8
03
f8
fb
03
07
f7
fc
07
00
fb
ff
04
ff
08
f8
0f
f4
ef
0c
f7
00
f4
fc
00
03
10
db
fc
08
f7
03
eb
00
e3
2c
ec
00
00
ec
07
ff
00
f4
03
18
00
03
04
04
00
0c
f4
14
04
0c
00
fb
08
f4
00
f7
00
ef
f7
f7
ef
ec
03
03
f8
f7
ff
cb
e7
f8
fb
04
00
00
0f
00
08
08
04
04
04
bc
10
ff
08
00
f3
14
03
fc
ff
e7
fc
2c
03
fc
ff
14
f7
08
ff
fc
00
f7
10
fc
10
db
0c
d4
ef
08
07
08
ff
08
f8
fc
04
fc
18
ef
0c
0f
03
00
0c
f8
14
18
df
08
f7
0b
f0
0c
00
cc
14
00
00
e7
04
f3
00
04
f3
04
e7
10
eb
03
07
d7
00
f3
00
03
fc
fc
14
0c
13
03
04
04
04
ff
13
08
0b
07
07
04
04
0c
f3
17
ff
03
f4
e3
04
eb
0b
e3
07
fc
14
0c
04
e7
00
04
1c
fc
18
00
0f
10
00
08
ff
0c
fc
fb
08
04
00
f7
fb
07
03
ff
fb
eb
e3
f8
f8
08
fb
00
0c
00
00
f0
07
ff
00
ff
04
fc
f0
00
f7
ff
03
04
04
04
e8
ff
03
f7
f0
00
00
eb
ff
ff
f7
f8
0c
e4
08
00
07
04
00
08
08
f8
0c
fc
14
03
0f
fc
08
0c
f4
1c
10
0c
00
cb
0b
fb
ff
ef
df
f3
f7
00
08
d7
00
00
20
17
00
fc
00
0c
00
ff
00
03
fb
db
03
f3
00
df
f7
03
e3
f8
e3
00
db
0c
fb
e7
0c
d3
04
f7
10
07
0b
f8
ef
04
f0
08
fb
f3
00
e3
f8
ff
ff
00
03
00
df
e7
eb
00
0b
07
00
e3
c3
03
d7
0b
f7
03
0b
fc
f8
ff
f7
f3
fb
c7
fb
df
04
00
ff
00
e7
ec
14
fb
13
f8
fc
f4
04
e7
ff
03
fb
08
f8
04
eb
08
f8
fb
f8
ff
14
fb
00
03
00
00
04
f3
f3
00
04
00
e7
18
fc
dc
04
f7
04
ff
1c
fc
04
10
04
1c
08
0c
13
10
07
04
ff
fb
db
f7
f3
d8
fc
f3
cf
ef
10
1c
08
03
0c
14
00
f7
fc
10
0b
04
ef
00
04
00
03
0b
ef
00
04
00
04
03
1c
e7
fb
fb
04
08
00
0b
f7
08
03
0c
fb
04
0f
00
f8
fb
04
03
00
23
ff
f7
fc
f8
ff
00
ff
13
14
00
f8
eb
f3
04
e3
00
08
e7
08
00
1b
14
03
0c
00
04
fb
03
18
10
10
00
f4
00
14
f0
fb
fc
00
04
f7
f4
f8
ff
07
10
fb
ff
20
ff
0f
04
0c
e8
e7
03
ef
03
e7
04
ff
ff
10
ef
e7
d3
0c
db
00
07
fb
20
04
f0
fc
d3
0b
08
1c
f3
f4
07
00
f8
00
04
00
00
ef
03
e8
0b
0c
ff
00
df
fc
00
0c
fc
04
ef
1b
fb
fc
00
f4
08
fb
e3
ff
03
f4
f3
fb
03
fb
0c
03
0c
08
04
04
03
00
07
14
00
00
07
fb
ff
ff
ef
ff
db
03
f4
f0
08
e3
ef
c7
c3
fb
f0
f8
00
fb
03
10
ef
f8
e3
0b
0c
04
04
0b
03
c7
10
14
fc
fb
04
fb
bf
03
00
f3
08
03
00
c3
fc
00
f8
00
fc
08
e3
1c
00
07
ef
00
f4
d7
04
f3
07
00
10
04
eb
fb
fb
fb
fc
e7
04
0b
08
e4
03
f7
ef
04
fb
00
f4
07
00
eb
00
d0
00
00
00
0b
00
00
e4
10
03
ff
14
00
fc
e0
0c
f7
0c
00
e3
e7
f7
0f
00
08
00
00
07
eb
f7
fb
f7
00
eb
10
f7
04
03
04
07
f3
03
ff
0c
1c
1c
c7
db
cb
03
fb
ff
f8
f7
f8
ef
00
e7
03
03
ef
f3
f4
03
00
ef
e3
ff
e7
f3
e7
e7
f3
f7
03
03
fc
fb
08
03
0c
00
14
00
03
08
04
00
00
10
04
03
f7
0f
04
fc
00
04
f7
f7
04
ec
00
03
03
f3
f7
0c
03
ff
f7
04
03
10
fb
10
10
08
0c
00
f4
fc
f8
d3
fb
0c
00
10
cf
f3
ff
e7
07
d7
f4
db
04
0c
04
fb
d3
0c
ef
04
00
fc
08
00
14
13
08
fb
fc
14
df
14
d7
f7
fb
f3
04
ef
fb
f7
07
0c
ff
03
d0
eb
04
ff
00
fc
08
e3
08
20
04
00
04
ff
00
04
f0
07
fb
ff
b3
f7
07
bf
f7
00
d3
fb
e7
04
00
00
00
fc
0c
d7
07
f3
f3
00
f3
03
e4
18
00
04
fb
df
00
f7
08
ef
03
ef
d3
f3
e7
fc
f7
14
03
f7
db
03
04
07
0c
f7
0c
e8
03
00
10
db
ff
20
10
fc
10
f0
03
20
00
