01
01
04
03
00
fa
fe
03
05
fd
08
ff
04
fc
fa
06
ff
01
fe
00
fd
02
fe
00
ff
ff
fd
00
02
00
ff
00
00
00
00
04
01
00
01
00
01
01
ff
00
00
00
01
00
02
00
01
02
00
04
00
00
00
fe
00
fa
ff
fc
fd
00
fb
ff
fd
fe
00
04
03
01
fe
ff
00
fe
ff
fd
00
02
01
00
ff
00
02
00
00
00
ff
00
fd
fd
ff
00
00
00
00
ff
01
00
01
01
00
00
02
00
01
00
01
fe
ff
00
00
fb
fb
fe
fe
fe
00
02
00
00
00
00
fd
fe
03
00
ff
00
00
ff
00
03
00
ff
ff
fe
ff
ff
fd
fd
fe
00
01
00
02
00
01
fa
fd
01
fe
00
ff
00
fd
fb
03
ff
fc
00
fe
00
ff
ff
ff
01
01
fe
02
00
02
02
03
00
00
ff
00
fd
00
ff
02
01
03
00
fd
01
00
00
00
00
01
ff
ff
02
00
00
f9
00
ff
00
ff
ff
00
01
02
03
fc
00
00
ff
00
fa
fe
00
ff
00
00
02
01
00
fe
ff
00
ff
00
00
00
fe
00
fe
02
fd
03
00
03
00
00
00
fc
00
00
ff
02
fd
00
00
00
00
01
00
fc
00
01
00
ff
01
00
fe
ff
fd
fb
00
fd
00
02
fe
01
00
00
00
ff
ff
fd
fd
00
01
00
fe
00
ff
04
00
00
00
fa
03
ff
03
00
00
00
ff
fe
00
02
02
00
00
fe
fe
01
fc
01
00
fe
04
01
01
00
00
03
01
00
fe
00
fd
00
fe
fe
00
00
01
ff
00
fe
00
00
fe
02
fc
01
fd
02
fe
00
00
fd
00
fe
ff
00
00
00
02
00
02
fd
00
01
00
ff
ff
00
00
fe
ff
fb
fc
fd
03
00
00
fe
00
00
02
00
01
ff
03
01
00
ff
00
00
ff
01
00
01
00
01
02
fc
ff
ff
00
01
00
03
00
04
01
01
00
01
ff
00
05
00
02
ff
00
fe
00
fa
fe
00
ff
06
02
01
fe
01
00
00
00
fc
00
00
00
00
ff
02
00
02
fc
00
02
00
04
02
00
03
ff
00
00
fe
02
00
01
ff
00
00
fc
01
00
fc
02
f8
01
ff
fd
01
00
00
00
fd
fd
fd
00
ff
00
00
ff
00
01
00
01
01
fe
02
ff
02
00
00
00
fc
00
fd
01
fd
01
00
00
00
00
00
00
01
ff
fe
00
ff
02
fe
01
00
ff
00
ff
01
01
00
01
fd
00
00
01
fe
01
01
01
fe
01
f7
00
03
00
01
ff
ff
fe
ff
01
00
00
00
ff
fd
01
fd
01
fe
ff
00
fd
01
00
00
ff
00
00
fe
00
fe
00
ff
00
02
03
02
03
03
02
ff
fa
fe
00
fe
02
00
01
00
01
03
02
01
00
00
ff
fe
01
fe
00
04
00
ff
00
00
00
00
01
00
02
00
00
fd
01
01
00
00
01
01
05
ff
00
fd
04
02
00
00
02
01
fc
fe
ff
fd
00
fe
fd
00
fd
00
01
00
01
00
00
02
00
01
ff
02
00
01
01
fe
01
00
02
01
00
01
fe
fe
fb
ff
fe
00
fe
fe
01
00
02
fd
01
00
ff
00
00
fe
00
fb
ff
00
fa
fc
00
fc
ff
fc
fd
03
fe
fd
02
fe
fd
00
00
00
ff
fe
01
00
00
01
ff
02
01
00
00
00
ff
00
00
00
00
ff
fd
00
00
00
fe
00
fe
ff
ff
00
01
02
fc
fb
fd
fe
fc
ff
fe
ff
01
01
ff
04
fe
02
00
00
00
fc
01
fd
01
00
ff
00
00
01
01
fe
01
00
00
02
fe
00
00
00
00
ff
f9
00
01
01
01
fd
fe
01
ff
03
00
fe
ff
00
ff
00
03
00
03
ff
00
fe
fe
00
00
ff
00
ff
01
00
fe
00
fd
01
fd
01
00
ff
fd
00
fe
01
00
00
ff
00
00
fe
00
ff
00
00
00
00
fe
ff
00
00
00
00
fd
fd
00
00
01
01
01
00
01
07
ff
02
00
fe
00
ff
00
02
f9
01
00
00
ff
fc
01
02
ff
ff
ff
00
01
fc
fd
ff
ff
01
00
00
00
fc
00
ff
00
03
00
05
00
01
fd
fd
fd
00
fe
03
00
00
00
00
00
00
00
00
ff
01
ff
00
00
ff
00
fb
01
00
ff
00
ff
01
05
ff
01
00
01
03
00
02
fe
ff
ff
02
fe
00
03
fd
01
00
ff
00
f8
00
fe
ff
01
02
00
00
01
00
03
02
03
fe
ff
02
00
00
ff
00
00
fd
01
fd
01
00
02
ff
ff
04
00
02
00
01
00
00
02
00
02
00
01
fe
ff
00
02
fe
fb
00
00
01
00
00
ff
ff
ff
fe
ff
03
00
fe
00
ff
fe
00
00
00
00
00
fe
00
00
00
fd
02
fe
fd
00
01
02
01
00
ff
ff
00
00
00
00
01
01
03
00
00
fc
01
00
fd
01
00
ff
fe
00
00
01
01
ff
00
00
00
00
01
fe
00
ff
fc
01
fc
fe
fe
ff
00
fc
02
fc
00
fe
ff
04
fd
00
fd
ff
ff
00
00
00
ff
01
00
01
01
ff
fd
00
fd
fd
00
00
00
00
00
00
00
ff
00
ff
00
fe
ff
f9
ff
02
ff
00
01
00
02
00
02
00
ff
00
ff
fd
fe
00
00
fc
01
01
00
ff
04
00
01
00
ff
ff
02
ff
01
ff
00
00
fc
01
00
00
02
02
ff
00
fe
ff
f8
fe
fa
fe
fa
01
00
00
00
00
01
00
01
fe
01
ff
01
01
01
fc
05
00
ff
01
00
fc
01
fe
00
fe
00
fe
00
fe
fa
02
00
ff
00
00
00
04
00
fe
02
00
00
fc
00
fc
00
fb
00
f9
01
03
02
01
00
02
01
02
02
ff
01
00
00
01
fe
01
ff
fd
00
00
00
ff
06
00
fd
03
00
ff
fe
00
fe
00
00
f8
fd
00
ff
ff
00
01
00
fd
00
00
00
ff
ff
ff
00
fe
fc
00
00
00
00
00
00
fb
00
02
00
02
00
01
00
ff
fb
fe
fe
00
01
00
01
01
00
02
00
02
00
ff
03
01
ff
00
fd
00
ff
fd
00
ff
00
00
00
ff
fb
02
00
00
00
fc
ff
00
01
02
00
03
fd
00
00
fe
ff
00
00
01
00
ff
00
00
fb
00
f6
00
00
ff
00
00
01
00
00
00
02
00
00
00
fb
01
fe
fd
fc
fc
01
00
00
fe
01
ff
00
00
fa
00
00
00
ff
ff
01
fc
00
fe
01
00
ff
01
fc
00
fd
ff
fe
00
00
00
00
fb
fd
00
ff
00
00
00
fd
fe
01
00
fd
00
f8
00
00
ff
00
fd
00
01
fe
00
00
fd
ff
fa
00
fb
00
00
00
00
fe
00
01
fe
00
00
00
ff
01
02
00
00
ff
fd
fc
00
01
02
fc
00
00
ff
00
00
00
02
03
02
00
02
01
04
00
00
fa
00
00
fe
ff
00
f9
ff
fb
01
00
02
00
00
01
00
00
01
fe
03
fe
01
ff
00
ff
01
00
fe
00
fe
00
ff
00
00
01
fe
00
00
ff
00
00
01
ff
fb
00
01
01
00
00
f9
ff
01
fd
01
02
fc
00
fa
00
00
00
fe
fe
00
ff
00
fe
fe
01
fc
00
fc
fe
00
00
02
00
00
fa
fb
00
01
00
02
02
fa
00
01
01
fc
04
00
00
01
00
00
00
