24
fc
1c
00
00
20
1c
f4
03
20
c8
0c
f7
eb
28
0c
44
38
ff
40
08
e0
fc
0c
f7
f7
f3
ff
00
0b
fb
08
eb
f3
fc
f7
07
ef
00
10
03
0f
1c
f8
fc
0c
fc
f4
0c
00
10
00
00
10
18
14
03
fc
00
18
04
04
0f
07
fc
fc
08
04
00
03
03
00
f3
00
f3
1b
f3
f4
e7
e3
db
e7
00
db
fb
db
03
e7
f3
00
db
03
0c
f4
0c
18
f7
ef
f0
00
e7
f4
00
00
08
ef
00
f0
00
10
18
03
00
03
ec
ff
04
10
f8
fb
e3
f8
0c
00
0c
03
03
eb
ff
00
0c
00
00
0c
f4
1b
08
fc
07
f3
0f
00
0f
04
04
fb
fc
fb
fc
ef
fb
e3
eb
e7
20
db
fb
fb
ef
ff
f3
20
03
fb
0c
f3
00
f0
14
04
f7
fb
03
f3
00
14
f8
ff
f3
fc
e7
03
0c
df
fb
ff
f3
d3
f3
f8
03
f4
fc
ef
f7
08
ec
0c
fc
00
e7
db
03
e3
10
04
07
e7
e7
fc
f0
f8
fb
14
f7
ff
f7
f0
f7
00
fb
10
db
07
14
ec
ec
fb
10
10
00
03
0c
f4
17
0c
07
00
e4
03
f8
ff
03
fc
0c
f0
ff
e8
f3
07
0c
0c
0c
1c
1b
00
08
d7
f8
08
1c
03
03
f0
db
03
0c
f8
0c
03
fb
03
00
03
10
1f
18
08
20
fb
00
03
07
04
d7
f4
00
04
e7
03
00
03
14
eb
00
fb
ef
0c
f7
f8
e7
07
f4
db
00
04
f4
0c
0b
ff
eb
00
fc
ef
00
0f
0f
f3
00
04
f3
04
0c
20
f7
00
18
ef
04
cf
17
08
f8
04
00
08
fb
0b
14
fc
f0
f7
07
ef
ec
0b
cf
ef
13
cf
f8
18
ff
fb
f3
f8
03
14
fb
fc
fc
fc
08
ef
03
e3
e7
fc
f4
0b
eb
e8
ff
fc
ff
07
08
db
03
f3
fc
03
00
fc
e3
10
03
04
f8
14
fb
f7
d3
eb
00
0c
08
00
04
f7
f7
0b
e3
08
e7
00
fc
0c
07
db
df
f3
00
04
e3
f8
20
f3
ff
00
ff
0f
ff
08
f3
07
fc
ef
fc
ff
f3
f8
ef
0c
07
08
04
f0
08
f7
00
e4
fb
18
f3
08
ef
00
f8
03
18
e7
00
03
08
03
08
ef
00
ff
10
08
00
ff
e3
08
f4
14
fb
ff
eb
0b
eb
ef
e7
eb
03
cf
0f
bb
eb
13
0b
08
08
f0
08
eb
ef
fb
db
08
04
08
08
fc
00
0c
0c
07
f8
ec
ff
fc
f0
ef
18
ec
00
f7
e7
f7
e3
14
ef
18
00
f8
f8
ff
28
0c
0c
08
08
04
00
fc
04
fc
00
04
0c
ff
00
08
ff
08
db
db
00
03
03
fb
e4
e3
03
ff
0c
08
f3
13
00
df
00
fb
08
00
04
f8
f8
08
f3
04
03
04
00
03
18
04
00
ef
0c
ff
fb
08
18
0c
00
fc
03
08
10
0c
f7
20
08
04
0c
f8
0c
ef
10
e3
1c
20
03
0c
ff
10
d7
2c
f3
13
07
0c
00
00
d7
f8
fb
03
f3
e3
03
f7
03
e4
db
03
ff
03
fc
18
04
24
03
f4
fb
10
00
ff
00
f3
0c
eb
04
f4
f7
c0
03
f3
fb
fc
00
0b
08
00
f4
fc
03
0c
10
04
03
08
03
08
0c
fb
10
f7
08
e7
03
24
ff
00
f7
00
e3
0c
0c
1c
df
fc
f3
e3
e7
00
ff
03
08
ff
10
04
18
1c
e7
00
03
03
08
0c
08
13
ff
ef
04
00
0c
fc
ec
fc
03
03
18
fb
14
df
08
ef
f3
fb
e3
0c
07
03
0b
f7
ff
fc
f7
ef
00
f8
ff
00
e7
fb
eb
08
ff
00
0c
10
14
f3
10
ef
1c
f4
fc
00
ef
08
08
04
04
1c
14
00
08
f4
f8
fc
10
08
08
10
fb
00
03
07
04
c3
fb
eb
00
03
00
0c
f0
ec
00
00
0c
00
00
fc
fc
f8
10
04
07
20
fc
0c
f8
0c
04
0c
10
e7
04
cb
1c
d7
eb
eb
fc
00
db
db
08
00
f7
f4
df
d7
e7
e7
f4
f7
14
03
03
e7
04
ff
0c
00
28
08
00
0c
f7
2c
04
20
00
04
14
f4
04
fb
00
04
13
fc
08
f4
f3
00
fc
f4
fc
ef
f3
ff
e8
0f
f7
f3
e7
00
eb
0c
08
e3
08
00
10
f8
10
08
14
ff
00
03
e7
f3
cb
f7
ef
ff
e7
e3
03
18
f3
00
fb
fb
e3
07
0c
08
e7
f4
eb
dc
ff
ff
ef
fc
f0
f0
df
00
00
fc
03
f4
04
04
0c
fc
04
0c
20
0c
00
f0
f8
04
00
04
08
03
03
f7
04
10
ec
03
f0
ff
fc
fb
fb
17
ff
fb
f3
eb
f0
cb
e8
fb
e7
e3
e3
fb
fb
03
f7
00
ec
03
04
f3
0c
e3
0c
08
00
00
ef
03
eb
fb
f4
07
00
f3
ef
08
f4
ff
0c
ff
04
f0
04
f7
10
00
f8
f7
1b
04
00
00
f7
00
00
f3
cb
f7
df
10
d4
04
27
0f
f3
e4
f7
33
10
00
ec
fc
f3
e7
20
1c
00
0b
08
0f
14
04
08
07
f7
07
18
f4
10
ef
f7
f8
03
18
d7
08
f3
f0
f4
ff
08
e3
f7
03
f8
00
03
0f
00
fb
04
fc
ff
00
ef
fc
ff
00
ff
03
04
fb
10
04
ff
fc
f7
10
0f
08
04
03
f4
f0
20
0f
df
00
10
08
00
0c
f7
0f
0c
08
18
f7
08
04
0c
08
00
ef
10
24
07
f7
00
0c
0b
14
0c
07
03
00
f4
f4
f4
f7
0b
ef
fb
f3
07
e7
18
00
00
f8
03
03
03
0c
00
00
fb
f8
fb
00
0c
10
10
fc
0c
14
1c
1c
14
18
e7
e8
00
cb
00
00
18
e4
0c
dc
00
00
fc
04
fc
08
f0
fb
00
f3
0c
eb
00
d7
00
00
03
0c
fb
0c
ec
0c
03
f3
00
1c
10
ff
10
04
10
f4
0c
08
08
00
07
08
fb
10
07
f8
0c
0c
04
db
1c
ef
14
f4
08
0f
f3
03
bb
03
ec
10
f7
24
14
f0
f8
08
f0
fc
00
34
03
fc
0c
00
10
fc
14
ff
fc
f3
f3
00
03
00
ef
ff
fc
04
f8
ef
18
f7
f3
00
04
04
08
14
00
f7
00
0c
18
f7
04
fc
f8
0c
fb
10
00
f8
f7
fb
e7
e7
fb
00
03
f8
00
f7
07
03
f0
00
fb
00
27
0b
00
04
0c
08
07
f7
17
03
00
08
00
0b
08
f4
f0
00
04
07
14
f7
d7
ff
f7
03
f8
ff
03
0b
00
00
10
0c
df
f3
eb
08
fc
00
00
23
18
f0
18
03
00
00
07
00
db
0f
fc
eb
10
f4
00
f7
03
ef
fb
ef
00
03
fc
00
00
04
f4
ff
f3
f3
f8
fc
f8
fc
fb
db
ff
cf
14
ef
00
e8
f3
e7
eb
08
e7
18
df
0b
00
df
00
e8
0c
07
04
03
db
03
db
10
03
00
ff
fb
03
fb
fb
fc
04
fb
ff
03
d7
e0
f4
c7
f3
f3
0f
fc
f8
07
ff
00
f8
03
fb
ef
fc
f3
ff
f7
f3
f0
03
14
ff
db
04
07
10
03
30
00
00
03
10
00
08
00
17
ef
03
14
f8
00
08
ff
f8
00
08
07
fc
14
fb
00
fc
fc
00
f4
20
10
1f
04
03
ef
04
00
14
fb
14
f8
14
0c
fc
fc
fb
14
20
ff
f7
03
eb
00
cb
18
0f
00
f0
08
eb
03
00
08
fb
00
fc
0b
08
f3
f0
04
0b
fb
04
ec
08
f7
10
08
e7
18
04
f4
ff
04
00
fb
db
ec
00
f7
ec
0b
fc
ff
f7
fb
00
00
ff
03
07
f7
fb
14
f8
0c
ff
03
00
0c
07
0c
fc
f3
04
cf
e3
c3
b3
cc
04
d3
f8
08
10
00
04
08
e0
10
03
14
fc
04
10
fb
30
fc
10
f8
20
f3
10
0c
00
f3
03
2f
e3
fc
04
f3
ef
00
30
e3
0f
f7
08
d7
f7
e3
03
03
d3
f7
e0
f3
20
f0
f7
d7
00
e4
03
fc
0b
f8
eb
f7
fb
03
fb
04
00
f3
fb
0f
03
e3
f3
03
ec
03
f0
ff
e3
f4
00
04
0c
0c
f7
c3
08
04
04
fc
fc
fb
dc
0f
f7
f4
f7
03
04
f7
f8
10
00
00
04
00
f0
00
f4
10
00
08
03
eb
03
dc
03
00
d7
fc
00
07
eb
cf
f4
00
fb
f4
0c
d7
fb
e8
eb
f3
eb
fc
f7
ff
00
0b
03
13
fc
e8
18
00
00
00
ff
04
f4
0c
0f
03
00
04
04
fb
fb
04
fb
08
eb
fc
af
fb
f7
00
f3
03
07
f3
0f
04
0c
04
13
00
e3
f8
00
f3
00
ef
10
e3
08
e3
e7
00
03
bf
eb
03
0f
ef
00
db
fc
04
03
f4
03
00
f7
03
f8
fb
04
ff
00
f7
0c
0c
fc
fc
ff
ff
af
00
f7
14
00
0f
07
ff
fc
f3
f3
08
fb
18
00
07
f0
eb
ff
ff
f8
df
0c
df
00
03
fb
03
db
03
e8
10
eb
fb
c7
03
fb
ff
f7
00
fb
cf
04
04
f3
eb
03
ef
03
df
03
eb
bf
08
d7
00
d3
ec
fc
03
fb
00
07
0b
04
00
08
00
10
00
df
f8
ec
00
00
00
f8
eb
f7
f3
f4
f8
00
00
eb
fc
0c
f7
00
e8
0c
d8
04
10
0c
10
ff
08
00
04
04
10
20
0c
ff
03
db
ff
d3
d7
eb
f7
f3
07
e3
00
fb
f7
0c
db
00
cb
fc
14
10
00
f7
00
cb
0c
ef
14
04
03
18
bf
03
00
03
10
17
08
cb
00
f8
ff
04
eb
03
d8
fb
0c
f7
04
00
ff
00
ef
07
04
08
0c
ff
00
00
f8
10
20
fb
ef
00
df
db
cf
00
ec
10
bf
0c
08
03
08
cb
fc
f3
f3
00
f4
00
ff
f3
ef
fb
fb
f3
fc
03
f7
bf
0c
eb
df
f3
c3
f3
cb
18
f7
fb
cf
bb
00
00
08
04
ff
fb
03
04
00
04
08
00
04
c3
03
08
ef
14
27
08
04
18
03
00
