ffffeea5 
ffffda1c 
ffffd5f5 
000004ca 
000011ac 
00001251 
00000060 
00000122 
00001d68 
00000ac6 
ffffeb10 
fffffae1 
00000a07 
000014db 
fffffdbe 
0000177e 
000007d5 
0000185e 
00000282 
fffff6b0 
000000ef 
fffff88b 
000016b4 
fffffb32 
ffffe311 
ffff8c16 
ffff7050 
ffff7443 
00003067 
00000e55 
000007fb 
0000092b 
ffffffd8 
00002c51 
0000212a 
00001411 
000006e3 
000025f8 
00001d6c 
00002a72 
00002bc0 
000017ca 
0000430c 
000021f3 
ffffe8de 
00000670 
fffff9c2 
00001155 
fffffabc 
ffffebe5 
00000211 
fffff30d 
fffffc22 
ffffd7ae 
ffffce7b 
ffffadc5 
00003a03 
00003475 
00000cbd 
fffff9fc 
ffffec2c 
00000eca 
00000187 
00000645 
00001a13 
00000ebd 
00002c0e 
0000315b 
00002876 
00002eaf 
00001602 
ffffff37 
ffffe6e6 
0000232f 
0000107b 
00000403 
fffffb55 
fffff5c3 
00000771 
0000037b 
00000ded 
00001475 
ffffbcdc 
ffff80bc 
00004f90 
00003073 
000014e0 
000006ec 
00000feb 
00001671 
000028a5 
00002851 
00001016 
0000173c 
00002079 
000013b5 
0000206d 
00001830 
00000978 
fffff17f 
ffffe8c7 
0000026d 
fffffb95 
fffff25b 
fffff810 
fffff2d1 
00000020 
fffffeef 
000002b6 
00000dba 
ffffecf9 
ffffe2e4 
fffff8fe 
00003141 
000017ce 
00001d4a 
00001d70 
000015b4 
00002bc2 
000022df 
00002bda 
00002b34 
00001be5 
00003131 
000030c1 
000000ef 
fffff7bd 
fffffb0c 
00000141 
fffffea4 
fffff73f 
ffffe4a1 
000015a7 
ffffe0d2 
fffffbdc 
ffffffc7 
000027ee 
00001b87 
00000a11 
ffffeaff 
0000567a 
0000558c 
00000cad 
00001c6e 
000018bf 
00002908 
0000059a 
00002083 
000025d1 
00004629 
00001a80 
000026a9 
00002a9f 
0000245f 
000022f2 
00000655 
00000acb 
000013cf 
00002294 
fffff885 
000002a9 
00000ae2 
000010ae 
0000068a 
00000e31 
ffffdd8c 
ffffe9f1 
ffffff36 
fffffdcf 
000029f3 
00003f10 
00000a6e 
ffffe3ed 
fffff091 
00000897 
00002eee 
00002c39 
00003a54 
00006122 
000043ce 
00001664 
00002879 
00000b2f 
fffffe43 
fffffcd1 
ffffed5f 
0000066f 
00000d2f 
fffffab2 
fffffe7c 
fffff4cf 
00000369 
00000aa3 
ffffe040 
fffff36e 
00003c20 
00002c0d 
00003577 
00003cf1 
fffffd26 
000009f1 
000013c8 
00002116 
00002c68 
000033f4 
00001ac3 
00000f41 
0000081f 
ffffd8ee 
fffffe3b 
00000bb2 
00001f63 
fffffbc9 
000001eb 
ffffef52 
fffff227 
ffffe7e6 
fffff278 
ffffe50d 
ffffd0a7 
ffffeeaa 
ffffcead 
00001319 
00002198 
00001b81 
00005860 
00004318 
00001e83 
0000136b 
00000dc0 
00002e8d 
000000dc 
fffff7d6 
fffff5a7 
fffff439 
000008a0 
fffff625 
ffffdff5 
ffffde33 
fffff1be 
ffffdff4 
ffffccbd 
ffffee74 
000001a5 
fffff817 
ffffecd5 
000001d1 
fffffde7 
fffffd63 
00001408 
0000250f 
0000402b 
ffffffeb 
ffffef67 
000029a2 
fffffd2f 
00000dfd 
fffffb0e 
fffff4cb 
fffff12b 
ffffefd5 
00000518 
00001945 
00000395 
000012c1 
ffffdfd6 
ffffadab 
ffffc859 
ffffe0f7 
000001a9 
fffff7bf 
00000df5 
000003a2 
00000390 
fffffdb7 
fffffcb1 
fffffc6b 
00001a6a 
ffffffab 
fffffa89 
ffffe730 
00001a04 
fffff668 
fffff7ae 
ffffeaf0 
ffffe463 
ffffde68 
ffffdc20 
fffff8ee 
00000ccc 
00001945 
00001138 
ffffe8e1 
ffffa4af 
ffff9ef5 
ffffbed8 
ffffcfc7 
ffffed64 
0000076b 
00002019 
00002490 
00001fd5 
00000df7 
ffffedd7 
fffff75e 
ffffdba2 
ffffbdf7 
ffff646e 
00001095 
ffffd783 
00005b66 
00003fb1 
00000cad 
ffffcb56 
ffffdeba 
fffff118 
00000f71 
00001dc4 
fffffb3a 
ffffe20c 
ffffcef2 
ffffbac3 
ffffbf92 
00000ae6 
00000ac1 
fffff488 
0000181c 
000016f5 
00002216 
fffffbda 
00000599 
fffff9df 
fffffbb3 
0000063c 
fffff6ef 
ffffbf17 
00001252 
000037c9 
00001ceb 
ffffc023 
ffffebbf 
ffffd841 
ffffcdc2 
ffffc5e3 
fffff25c 
fffffd31 
0000084b 
fffff1eb 
ffffe492 
ffffe40a 
fffffba3 
ffffedda 
fffff2ec 
00000149 
0000081f 
00001ebc 
fffffe12 
ffffe862 
ffffdfa6 
ffffe9c8 
ffffe680 
fffffc5d 
fffffb7a 
0000040e 
0000436f 
00002b3b 
0000342c 
000018b3 
ffffd270 
ffffdf82 
ffffd712 
ffffd7f0 
0000041f 
fffffaff 
ffffe85a 
ffffe1f2 
fffff2fe 
ffffe018 
fffff1ce 
00000a88 
fffff386 
fffffbd7 
fffff96f 
0000235e 
00001b0a 
000004ed 
00000618 
fffff6ff 
00001b8c 
000028a0 
00003b41 
00003815 
000048f0 
0000603f 
000061d4 
0000318f 
00001819 
0000184b 
000013c4 
00001227 
000009e4 
0000123a 
ffffe72a 
fffff70a 
000006e8 
ffffe7ce 
ffffbdb3 
ffffbdaa 
ffffd6ac 
fffff5a2 
0000232b 
0000140d 
00001d77 
ffffeb64 
fffffdda 
ffffcb06 
ffffcee0 
ffffedde 
00001c10 
00004457 
00003ffd 
00004632 
00005381 
00001ab3 
ffffcf8f 
ffffc151 
ffffe2c8 
ffffe720 
ffffe23c 
ffffe591 
ffffe4f7 
ffffe2b8 
fffff2f7 
ffffcf44 
ffffd15e 
ffffadd1 
ffffc782 
ffffae26 
0000069d 
00000053 
000010f3 
000032d5 
000011fe 
ffffefc4 
ffffe7d4 
fffff4f0 
0000246f 
ffffaa8e 
fffffbda 
ffffd6b3 
00000562 
000003a4 
ffffbdcb 
ffffc1e7 
ffffa409 
ffffc5cb 
00000a02 
0000071e 
0000023f 
ffffd0fc 
ffffd4a4 
ffffe23a 
ffffd180 
ffffbc2d 
fffffb6c 
ffffda2e 
ffffe01d 
ffffcb50 
ffffe900 
ffffdfb9 
ffffd44a 
ffffcb53 
000001d0 
ffffe047 
00002f99 
ffffca94 
00000dba 
ffffc95e 
ffffbc6c 
fffff307 
00000b1c 
fffff157 
ffffd759 
ffffddbd 
ffffc621 
ffffe483 
ffffe1ca 
ffffc5b0 
ffffda75 
ffffd630 
fffffc4f 
fffff5ea 
000001f2 
fffff54c 
00001719 
00000951 
00000ca2 
ffffed4b 
000005b4 
ffffe742 
ffffc501 
ffffb776 
fffffe28 
ffffd83d 
ffffda59 
fffff501 
ffffcf43 
ffffdb58 
fffff300 
000007f9 
00000177 
ffffde1a 
ffffb652 
ffffbe9c 
ffff9a1a 
ffffb211 
ffffceb2 
ffffcd96 
ffffe2d1 
ffffbc29 
fffff683 
ffffde51 
ffffd69b 
ffffdf13 
ffffed81 
ffffecdb 
ffffe249 
ffffd32b 
ffff8720 
ffffba25 
ffffe35d 
fffffe36 
00002698 
00002f52 
00002805 
000048a6 
fffffe8c 
fffffd77 
ffffbfc4 
ffffc31a 
ffffccb1 
ffff8dc2 
ffff7d6e 
ffff9391 
ffffd6b9 
ffffce8e 
ffffda63 
ffffcaed 
fffffc55 
ffffd992 
ffffd9f1 
ffffdbe2 
ffffeda9 
00000555 
fffffbcb 
ffffd68b 
ffffc627 
ffffef98 
ffffda06 
ffffed34 
0000022d 
00004394 
00004490 
000010e6 
ffffe8c0 
ffffc0b7 
ffffd282 
ffffc2ec 
ffff9a1a 
ffff7a4c 
ffff6c1a 
ffffe0ad 
ffffe570 
fffffa5e 
ffffdff4 
00000dd1 
fffff009 
ffffd26a 
fffff2b8 
fffffa8e 
0000196d 
00001a59 
00000075 
ffffe8fa 
ffffe725 
ffffcbd2 
ffffe453 
00000989 
fffffb9e 
ffffec8a 
fffff1bf 
ffffbb03 
ffffadc2 
ffff90e5 
ffffba16 
ffffb560 
ffff9cb0 
ffffa013 
ffffa597 
ffffc8ea 
ffffc0d5 
0000045e 
000014b7 
fffffce5 
fffffc46 
ffffe3ba 
fffff58a 
000018fd 
00002659 
00001a70 
000000ce 
0000167f 
00001650 
ffffc370 
ffffe845 
fffff779 
00000e82 
ffffe1e0 
fffffaeb 
00001bf9 
0000341c 
000043e8 
ffffc55d 
ffffb4b7 
00003d9e 
00001cef 
ffffbf30 
ffffdfe6 
ffffea94 
ffffd5c1 
00002a4b 
00000079 
fffff14d 
ffffec10 
fffffe91 
ffffed9d 
0000129d 
0000172e 
00003043 
00004165 
000041cb 
ffffff07 
ffffeb4f 
fffff2e1 
fffffa5d 
fffffcf4 
fffff38e 
fffff844 
ffffff34 
ffffffde 
0000040d 
00000545 
00000c50 
00003747 
00003ac7 
00001203 
00003524 
ffffdd1c 
0000152b 
ffffea34 
0000369b 
00003679 
00004fdb 
0000395b 
ffffd9bc 
00001c3a 
00000bb5 
0000345a 
000046a7 
00001a06 
ffffe983 
ffffebea 
000015f1 
ffffffbe 
fffff8e8 
00001848 
fffff267 
ffffeb4c 
fffffe03 
fffff465 
fffffcf2 
fffff2c3 
ffffce7d 
ffffb0fe 
ffff96c2 
ffffa878 
ffff8f56 
ffff8864 
ffff9ecf 
ffffd1b2 
ffffa61a 
ffffd9b3 
ffffcd78 
ffffe0db 
ffffe3c3 
ffffc7b0 
ffffc11b 
ffffcf4f 
fffff3a9 
ffffec4d 
000010a5 
ffffe844 
000004c2 
fffff88c 
ffffdaa5 
fffff544 
ffffeb15 
ffffa9b3 
fffff284 
ffffc968 
00001421 
00000261 
000017cd 
000003bc 
00001d27 
00000da2 
000006ec 
fffff188 
000007fe 
0000066d 
ffffe3ce 
ffffbf5e 
000011f6 
000018ba 
00003f70 
0000265d 
ffffdd5e 
ffffbb6a 
00001580 
fffff33e 
ffffef28 
ffffe9bf 
fffff505 
ffffd1e8 
fffff49e 
ffffd3c0 
ffffdd15 
fffff3cd 
000010be 
ffffee27 
fffff4b4 
00001dad 
00000b6f 
00001457 
00000ed7 
fffffaab 
00000ef8 
0000068a 
ffffe634 
ffffcca0 
fffff0e8 
fffff973 
ffffea65 
00001935 
00000096 
ffffe6b1 
ffffe7bf 
00001a45 
ffffcb24 
ffffd2ee 
00000a53 
ffffed68 
00001eb2 
ffffe9e5 
ffffd687 
fffff48b 
ffffd86b 
ffffae53 
fffff070 
000017ad 
0000084f 
fffffd5d 
ffffff13 
00000ee6 
00000450 
fffff220 
ffffda38 
ffffe61b 
ffffedbe 
fffffce0 
ffffd2fe 
ffffff06 
00000c3f 
fffffec6 
ffffea09 
ffffe0a7 
ffffeb1d 
fffff430 
fffff0e4 
ffffe6e0 
00001de5 
fffff1bf 
ffffce58 
ffffe9ba 
ffffd90f 
fffff8a6 
00000736 
fffff346 
fffff040 
ffffd55a 
0000005d 
ffffe396 
00000385 
ffffe966 
ffffd0b5 
fffffa52 
00000b85 
00001daa 
00000e2e 
fffff8a1 
00000da4 
0000201c 
ffffb41c 
ffffb6a8 
ffffbdeb 
ffffdade 
ffffa2e4 
ffffd08e 
fffffc74 
00000ba5 
fffffa74 
ffffe813 
ffffdbb1 
ffffece9 
ffffe78f 
ffffdb9b 
ffffdccc 
ffffe789 
fffffbd6 
00001684 
0000054d 
fffffe34 
fffffb08 
000008cc 
ffffe2f6 
fffff70f 
fffff1fe 
fffff05f 
000001b5 
0000013e 
ffffc59f 
ffffb1dc 
ffffeb02 
ffffd332 
ffffd457 
ffffd6fb 
fffffc4a 
00003353 
00000c65 
00000865 
ffffd7ad 
ffffe6e5 
ffffd494 
00001131 
ffffe3f0 
ffffdb50 
fffff889 
00000261 
fffff06a 
00000987 
00000b28 
ffffecd7 
fffffaf9 
fffffafc 
fffff989 
000014a0 
00001547 
00000de4 
ffffc87e 
ffffb39d 
ffffd94c 
ffffe9e5 
ffffe735 
000006bc 
ffffdefb 
00000475 
00001f5c 
00001733 
ffffe9c4 
ffffeb7c 
00001102 
fffff8a3 
000002e1 
ffffecc7 
ffffee5b 
ffffe768 
fffff22d 
000012b2 
00001a84 
fffff3f1 
fffff27a 
00001178 
00001df0 
00002e18 
00000c5f 
00000c4c 
ffffe145 
ffff920a 
ffffbceb 
ffffe9df 
00000418 
0000178c 
ffffeedc 
fffff742 
fffff0f0 
fffff79f 
00000712 
ffffe3c4 
fffffe8e 
0000050d 
ffffe708 
fffff672 
000002bb 
fffff97d 
000002b1 
00001bda 
000007ab 
00001014 
fffffeff 
000017af 
fffffbc0 
000005ee 
fffffb15 
0000140a 
ffffd3eb 
ffffa0e2 
ffff9c61 
ffffbd2a 
ffffb3a5 
00003c85 
fffffdfe 
00002391 
0000049a 
000009f2 
00000b6e 
ffffee6a 
fffff73c 
00000813 
00001618 
fffffad4 
fffff3cf 
000004fa 
00000494 
fffffe38 
fffff9ef 
000007d6 
00001946 
0000098f 
ffffff67 
000009ce 
00000aea 
00002c50 
0000007d 
ffffabd7 
ffff721c 
ffff9abb 
ffffa2ca 
00001d2d 
0000180b 
000022ec 
fffffdfa 
00001c82 
00001264 
00000a21 
00001a3a 
fffffd09 
000019de 
00000c99 
fffff57b 
fffff008 
ffffe1dc 
fffffc2d 
00000ad7 
00000fc3 
000013b2 
00001859 
fffff44c 
000005d6 
00000600 
ffffe0bf 
ffffeaa9 
ffffc5b7 
ffff7915 
ffff7688 
00000b0c 
00002d38 
000001d6 
00000ba9 
00000e3f 
00001f51 
000021f7 
00003351 
00001714 
00001f3c 
0000122f 
00000ad9 
fffff522 
00000071 
ffffe78e 
ffffeeb7 
ffffd528 
fffffc32 
000001aa 
fffffe6a 
0000073a 
fffffe48 
00000abb 
fffffd28 
fffffd47 
fffffb61 
ffff7fb1 
ffff98a6 
0000363d 
0000275a 
fffff55a 
00000887 
00001d2f 
00002c61 
00000af4 
00000d44 
000035c2 
000025a4 
000027c6 
fffff435 
ffffe95b 
ffffe594 
000003ee 
000007ac 
00000564 
00000855 
fffff3dd 
ffffe071 
000010f0 
000008ff 
00001ef5 
ffffffc5 
fffff4d9 
00000049 
ffff8667 
ffffaf3b 
ffffe832 
00000d87 
fffff289 
000002f1 
000006a5 
00001748 
000013f8 
00000d26 
000006f1 
00001a08 
fffff8a4 
ffffeb47 
ffffffe5 
ffffdc0c 
ffffed03 
ffffe667 
ffffe05c 
fffffef7 
ffffe2e7 
fffffa5d 
ffffe539 
ffffeec3 
00001297 
00001a41 
ffffea77 
000000fa 
ffffb7e6 
ffff9756 
ffff971f 
ffffe5de 
00000e2a 
000002e5 
000015b9 
00002449 
fffff6ad 
000013f7 
0000096c 
ffffe7c7 
0000187d 
ffffdd5d 
000003d7 
ffffe8e0 
fffff652 
ffffec06 
ffffe843 
ffffd360 
ffffda0f 
ffffe5ef 
fffff534 
ffffde02 
ffffe14a 
00001569 
fffff628 
ffffcdac 
ffffd514 
ffffc1d6 
ffffba83 
ffffa95f 
00003692 
fffffeae 
00000b17 
00000b4d 
ffffe734 
ffffdef7 
ffffeb30 
ffffe88d 
fffffdd7 
fffff29e 
fffff567 
fffff56f 
ffffe9e2 
ffffe5b6 
ffffed44 
ffffd13b 
ffffe270 
ffffcfdd 
ffffd4e4 
fffff47b 
fffff3dc 
fffff226 
0000031f 
ffffcbc7 
ffffe279 
fffff5b7 
00002bb3 
ffffeea0 
0000059e 
ffffeb79 
ffffe9aa 
ffffd003 
0000040c 
00000594 
ffffe4d1 
ffffef15 
fffff430 
00000033 
00000106 
00000861 
00000b2c 
00000177 
ffffea36 
ffffd9d6 
ffffdb0f 
ffffdeda 
ffffd8c6 
fffff035 
fffffb1b 
00000287 
ffffe71b 
ffffe715 
ffffe655 
fffff5c6 
00002903 
ffffee4d 
fffff8a4 
ffffd588 
ffffeb05 
00000916 
00000d4d 
000031e4 
00000a68 
00001186 
ffffee38 
ffffe8be 
00000af0 
ffffffb9 
fffff139 
fffff135 
000001c8 
000008f4 
fffff370 
ffffda06 
000021c4 
000004fc 
000026de 
ffffd01f 
fffffa9b 
00000ae0 
ffffc203 
ffffdc64 
ffffee75 
000006ad 
ffffe7f1 
ffffed29 
fffffae5 
00000a2e 
fffff9ae 
000011ac 
0000065b 
00000cff 
fffffed3 
fffffa48 
00001cb4 
00001281 
00000317 
00000cc9 
fffffde5 
ffffff45 
000004d3 
000008ad 
00000e7b 
0000267a 
0000218c 
ffffdaa7 
fffff812 
ffffc811 
ffffc75e 
ffffb32f 
00001802 
00001b1b 
00000e2a 
0000164a 
00001b06 
00002310 
00001011 
fffff86b 
00001943 
0000172b 
fffff23b 
00002584 
00001823 
00000f60 
000007e8 
0000149a 
0000230c 
00000375 
00000564 
00000a2a 
00001086 
00001fd8 
00001773 
ffffcbaa 
fffffcb8 
fffffa46 
ffffdbfd 
ffff9b5e 
ffffe75f 
0000354c 
00001c50 
0000176d 
00000a2d 
00002960 
00002e15 
0000291c 
00000a98 
0000240d 
fffffe33 
000008c8 
00000b77 
00001107 
0000021b 
000016c2 
00000df0 
000001f6 
00001c75 
0000011f 
00001bf0 
00000ba9 
ffffe0a8 
ffffbac7 
00000baa 
00000c76 
ffffc375 
ffffc224 
fffffd0d 
00001aa3 
00000e05 
00002395 
00003708 
00001dfe 
000026ce 
00001db7 
00001d9b 
0000220b 
00001ee1 
00001ece 
000006b8 
00000744 
fffff5e9 
0000069e 
00000538 
00000952 
fffffc19 
0000148b 
ffffe8cd 
fffff54f 
ffffc5dc 
ffffb146 
00000c09 
00000165 
ffffd7a7 
ffffc082 
00001435 
00004f59 
00001403 
00001be1 
0000254a 
00000ef9 
00002f5e 
000018b2 
000029a0 
fffffc88 
00000b39 
fffffd07 
fffff805 
ffffe3bd 
fffffd4b 
fffff084 
fffffd99 
fffffc9b 
00000c9f 
000008e7 
fffffc64 
ffffe745 
ffffa79e 
ffffdcd8 
ffffff12 
ffffe883 
ffffce8e 
ffffee3a 
fffff473 
0000338b 
00001be8 
0000201b 
00000211 
000007dd 
000009ee 
ffffd715 
fffff353 
ffffe7f9 
fffff925 
fffff870 
fffffa61 
00000976 
fffff173 
fffff037 
00000edd 
000019bb 
00001a98 
fffffe61 
00001215 
fffffbba 
ffffb6f6 
ffffcb47 
fffff0f8 
fffff9ee 
ffffe09e 
fffff719 
ffffedd4 
ffffefff 
0000008b 
ffffe47a 
ffffd179 
ffffeb68 
00000025 
ffffd1cd 
ffffeb3b 
ffffe752 
ffffdd30 
ffffca20 
fffff7ac 
00000631 
000001c2 
ffffef78 
00000e72 
0000012a 
fffffac2 
ffffebfc 
fffff24b 
00000b29 
ffffc75f 
ffffbfb0 
fffff5fd 
0000032e 
0000086b 
ffffe81f 
00000169 
ffffaf01 
ffffa58e 
ffffd276 
ffffc0db 
ffffcd69 
ffffe50f 
ffffbe9a 
ffffd102 
ffffce5d 
ffffff8e 
ffffd743 
00000e25 
000004e9 
fffff10c 
00000587 
ffffec1a 
000011df 
ffffe0fc 
ffffc257 
fffff6af 
fffff0bd 
ffffb79a 
ffffd05b 
00000da8 
fffffa9c 
fffffe23 
fffffbc3 
ffffed13 
ffffc737 
ffffb46b 
ffffae4e 
ffffaddb 
ffffdb9e 
ffffb5c8 
ffffc0e6 
ffffcd91 
fffff6e3 
00000d61 
ffffd570 
ffffdbc1 
ffffee12 
0000123d 
ffffe925 
000005bb 
fffff2ff 
ffffd01d 
ffffc3e2 
ffffb977 
ffffea41 
ffffcde5 
fffffb5b 
fffff40a 
00000067 
fffffced 
000000c5 
ffffe4c1 
ffffc5f3 
ffffc912 
ffffd4ff 
ffffc77c 
ffffc7eb 
ffff955b 
ffffd0f5 
ffffd0ab 
fffff4b1 
0000050c 
00001655 
ffffdb37 
ffffb639 
fffffa59 
0000003d 
fffff6ef 
00000184 
ffffe0ef 
ffffb59b 
ffffb063 
ffffd537 
ffffdd17 
00000969 
00001648 
0000077f 
000001d8 
fffff4af 
fffff90e 
fffffc47 
00000570 
fffffe6d 
ffffffad 
ffffeb94 
ffffc6d0 
ffffa68a 
ffffbd25 
ffff872e 
ffff97f9 
ffffb9a7 
ffffab5b 
ffffb2fa 
ffffeaae 
ffffd8a1 
ffffe3b7 
ffffeabf 
ffffe9f8 
ffffb46b 
ffffd175 
fffff575 
fffff923 
fffff0e6 
ffffebeb 
00000e98 
ffffe672 
fffff239 
0000043f 
ffffcbc3 
fffff731 
ffffbe23 
ffff86c6 
ffffe4de 
ffffeeed 
00001b2b 
00000582 
000007c5 
00001aaa 
0000067a 
000007c9 
fffffb22 
000002a0 
ffffa515 
ffff79a4 
00003ad1 
0000430b 
00004b4d 
000003fa 
ffffb982 
ffffa628 
ffffc219 
00000e2c 
fffff1c0 
fffff0fd 
ffffe946 
ffffed2b 
fffff1c2 
00000a58 
ffffeec7 
ffffea36 
ffffe817 
ffffeda0 
fffff5c9 
fffffbfd 
ffffd2c4 
fffffa56 
00001948 
ffffdeef 
ffffe1e0 
ffffff5d 
ffffc70a 
fffffdaf 
00002584 
ffffcf3b 
ffffcaf3 
ffffede7 
00002b5b 
fffffbb1 
0000067c 
ffffe813 
ffffe447 
ffffbe27 
ffffab93 
fffff8c9 
ffffadf8 
ffffcafe 
fffff1f7 
ffffe15d 
fffff5df 
fffffddb 
00000c8c 
fffffefb 
fffff1dd 
fffff5f3 
ffffd316 
ffffa0ed 
ffffdbb7 
ffffdad4 
00000c22 
000024c5 
00002ff0 
00002466 
ffffcb30 
ffffefe6 
ffffba17 
000019b1 
fffff6e4 
ffffcc49 
ffffa449 
ffffcc1a 
ffffa8ab 
ffffd3a4 
fffff89f 
ffffed53 
ffffeafd 
ffffff77 
00000ab2 
000005e2 
00000bb7 
00000043 
00000661 
fffff471 
ffffdf24 
fffff655 
fffff6c0 
fffff037 
0000312b 
0000210b 
00000438 
0000041c 
000029b5 
0000190b 
fffff1ab 
ffffe25d 
ffffc242 
ffffb158 
ffffa6cf 
ffffcd5b 
ffff9dc6 
ffffd2ac 
fffff436 
000008d6 
ffffef71 
fffff838 
ffffe39f 
fffff43c 
fffff547 
00000928 
fffff233 
0000021f 
00001b98 
ffffe917 
00000c43 
000021c5 
00000dc9 
0000016e 
00000cfa 
fffff9c1 
fffff6e5 
fffff0b9 
ffffce74 
fffff600 
fffff108 
ffffbf78 
ffffb10a 
ffffd650 
fffff539 
ffffe319 
fffff6f8 
00001459 
00001185 
00001d6c 
000005da 
00000171 
fffff588 
00001091 
00000a26 
fffff5f7 
000001ec 
0000108d 
ffffed21 
000004b6 
000011ae 
00001533 
fffffea5 
fffffbe0 
00002053 
00001f80 
ffffffa8 
00001944 
00000f49 
ffffbd2c 
ffffb727 
00002296 
ffffec4a 
000005d3 
00000a55 
0000044d 
00000301 
00000d19 
00001ca7 
000017e0 
000032f1 
00000e9a 
00000e40 
fffff3e3 
fffffd5e 
000003a0 
fffffaf0 
ffffe8cc 
00001b28 
00000d45 
000017a3 
fffffe26 
00000b55 
ffffe15d 
fffffc67 
ffffcb22 
ffffcde2 
ffff8e9e 
ffffe0b4 
000006fb 
fffff0b4 
00001496 
0000213b 
000029bf 
000013d5 
00000f08 
000029a6 
00003305 
00001451 
000022c9 
0000181b 
00002b2a 
ffffe96c 
fffffc42 
ffffe8e6 
ffffe46c 
fffff761 
00000625 
00001e28 
000006d2 
00000049 
fffffc2c 
fffffe74 
ffffda58 
ffffc5a0 
ffff87d0 
ffffe369 
00000627 
0000056f 
fffffbe9 
fffffbe2 
0000002d 
fffff587 
0000043d 
000003e5 
00000ddd 
00000d61 
000020cd 
0000338c 
00000a79 
000005b6 
ffffeaf0 
fffff83e 
fffffb26 
fffffa4d 
00000ec6 
0000028b 
fffffa94 
fffffb7f 
00002c01 
00001f2f 
0000462b 
000041d6 
ffff7ce8 
ffffc6d0 
fffff023 
ffffe5a6 
fffff4d5 
00000315 
00001548 
00000f29 
fffff5d0 
000009f0 
00001d25 
000006d7 
00001424 
00001aa3 
000009b5 
00000519 
fffff6df 
fffff7e6 
ffffdc60 
ffffe685 
ffffe82f 
fffff8fe 
000011c3 
fffffae5 
00000da7 
000005fe 
ffffe0fe 
ffffe43c 
ffff7cf1 
ffffde05 
00002077 
000004f1 
00000aaf 
0000004e 
00000c8f 
0000210e 
000004ce 
00000894 
00001cb7 
0000047b 
00002905 
000007c9 
00000e76 
ffffefc4 
ffffeef9 
ffffdcfc 
ffffe71e 
ffffdf6f 
ffffe819 
ffffdf23 
00001cf4 
ffffe2a6 
ffffea7d 
ffffd5a3 
ffffd272 
ffffe900 
ffff76b7 
000015d2 
000032b9 
000013c9 
000006c0 
fffff737 
fffffbbe 
00000a7d 
00000f83 
ffffe39b 
ffffe0df 
ffffe6dc 
000000ca 
fffff96d 
000008e3 
ffffe81b 
ffffe7ac 
ffffff0d 
ffffff0a 
fffff1ae 
fffffdea 
ffffeb60 
ffffef2b 
000010ab 
ffffffa2 
00000220 
0000110d 
fffffd54 
ffff6eda 
00001f56 
00000d01 
fffff992 
ffffece9 
ffffe3cc 
ffffe59b 
ffffed75 
ffffdebf 
ffffd4b3 
fffff219 
fffff83c 
000007c5 
000009da 
000009e2 
ffffffb6 
0000011e 
fffffccc 
00001ed7 
00000419 
000015ca 
00000761 
000004e4 
0000095e 
00000c44 
fffff479 
ffffe919 
ffffde33 
ffff90e6 
00001ef7 
ffffc217 
ffffea11 
fffffa14 
ffffeb8a 
ffffe5dd 
ffffde7d 
fffff086 
ffffecc8 
ffffec52 
fffffe9a 
00000f08 
00000d39 
fffff710 
000000d3 
fffff8be 
000004fd 
000010e7 
0000171f 
00001235 
fffffc0e 
00000f64 
00002168 
ffffde56 
ffffeb6c 
ffffbb47 
ffffbf35 
ffff7b62 
0000124f 
ffffa4ab 
fffffc2e 
ffffe858 
ffffe94b 
ffffed9a 
ffffd4e7 
ffffece9 
ffffea33 
ffffdfd7 
ffffffb0 
fffff774 
00000a0d 
000000b0 
0000072d 
00001835 
000014cd 
000016a1 
000034b1 
00001da6 
ffffff23 
00000ee8 
fffffe1a 
fffffda0 
ffffb775 
ffffaef1 
ffffa99d 
ffffc4ae 
ffffd9bc 
ffffcb0b 
0000075c 
fffff8ce 
fffff222 
0000018c 
fffffbba 
ffffece1 
fffff26c 
ffffd4a1 
00000311 
00000151 
fffffab0 
fffff66b 
0000050c 
fffffae5 
00001677 
0000199a 
00001b03 
fffff8e6 
ffffeb69 
000006b0 
fffff507 
ffffd46a 
ffffa5d7 
ffff54f7 
00000afa 
ffffc1f4 
ffffafa8 
000006bd 
fffff9dc 
fffff158 
ffffeec6 
ffffe5fe 
ffffea40 
ffffe64b 
ffffd563 
ffffee8b 
fffffe75 
0000139d 
fffffbfe 
00000a4c 
000005f7 
00001426 
0000235b 
fffff36c 
fffff28a 
fffffd1c 
ffffdb0a 
ffffe6ef 
ffffffda 
ffffdd5a 
ffffac08 
ffffa140 
ffffe921 
ffffb92c 
ffff5d02 
ffffd980 
ffffdab1 
0000041b 
fffffb30 
000005ba 
00000a7e 
ffffef6b 
ffffffd9 
fffffa8e 
00001ead 
00003910 
00000854 
000009c9 
fffffb56 
ffffeb87 
fffff6ca 
ffffdd5d 
ffffd686 
ffffe53b 
ffffe7f1 
fffffea0 
000007a9 
fffffd91 
00000a53 
ffffc81d 
ffffb87c 
ffff92ba 
ffffb462 
fffffda2 
00000b8f 
ffffff74 
00000223 
ffffdf65 
fffff29d 
000009ca 
00000a4a 
00000097 
00000cbc 
000025ba 
fffff36e 
00000833 
fffff6db 
ffffe549 
fffff086 
ffffc240 
ffffe021 
ffffd720 
ffffe1af 
00000c95 
00001711 
ffffeff0 
ffffbe8d 
ffffdce9 
00000e0f 
ffffb0f3 
ffffc6d1 
00000e21 
00000ef6 
000002be 
00000ca8 
0000035c 
fffff5b8 
00000ae6 
fffff529 
00001853 
000010cc 
00000919 
00001782 
fffffe47 
fffffda8 
ffffe102 
000002fc 
fffff646 
00000115 
000004d9 
000009fc 
00000d53 
00000279 
fffffb6b 
00000541 
ffffdd74 
ffff9cd3 
ffffa3b4 
ffffd0da 
000003e4 
ffffef01 
