ffff6d7e 
00003d95 
00009791 
ffff6da7 
00001425 
00005636 
ffffe899 
ffffe3d3 
00006a74 
00001c6c 
00004cc4 
ffffd9cd 
0000589b 
ffffea5a 
ffff9769 
00006176 
fffff62e 
ffff8e7a 
ffff885d 
fffff921 
ffffacf1 
fffffc28 
fffff009 
ffffd779 
00007525 
00001810 
ffffae68 
00000cc2 
000006e4 
ffffb0aa 
ffffc784 
00005716 
ffffa0ce 
00000964 
00003ef2 
00001b96 
ffffbf0a 
ffffaaa3 
ffffcbfb 
00004ac0 
ffffd90e 
000043b8 
000029fd 
000056d3 
00005143 
0000413b 
00000181 
00002b3c 
ffffff7d 
00005208 
00001ec8 
0000238e 
0000408a 
fffff329 
00003e9b 
00005635 
00008110 
00003f33 
000000e4 
00004cb6 
ffff631d 
ffff4fbd 
ffffdcaf 
0000477c 
ffffd00b 
ffffab99 
00003aca 
000027d3 
ffffa8f1 
00004d66 
000043df 
fffff4f0 
0000813c 
fffff433 
ffff9581 
00006c1e 
ffffc961 
ffff6af5 
00008bbc 
00001a06 
ffffa238 
00009810 
000039b9 
00006b44 
00007e2e 
00004e0a 
0000455b 
fffffd46 
fffff8b3 
ffff9a0f 
ffffe406 
ffff7e7a 
ffffcaf3 
00003d72 
ffffe016 
ffffd1cd 
00001e54 
000086a7 
ffffda67 
fffff2b2 
00002c1d 
ffffe1f2 
ffffe2b2 
00002491 
00003ee4 
ffffd71d 
0000013d 
ffffd61d 
ffffed7e 
ffffc470 
ffff8575 
ffffba72 
ffffca5b 
000016d0 
fffffc39 
ffffc4c3 
00002dc3 
00002c39 
000046ab 
fffff802 
00000088 
00003d84 
00001a12 
000005d2 
ffffd964 
00002f6d 
ffff95d5 
ffffb263 
ffff55d2 
00002832 
ffff8b31 
ffff6872 
00002eb1 
ffffc64b 
ffff74ed 
0000457f 
000054b5 
00005176 
00004c7f 
000055e9 
00003b72 
00005a45 
00001998 
0000324b 
00001cdb 
0000160c 
00001e95 
00000d27 
0000012f 
ffffdbcc 
00003fff 
000002f9 
00002b58 
ffffcbd8 
ffffe173 
ffffd9b1 
ffffd219 
ffffd41c 
ffffc082 
ffff7eb8 
ffffa41e 
ffffa17f 
00001310 
ffffb887 
ffff8b24 
ffffbe27 
ffffc8fb 
ffffb456 
ffffba39 
000085b0 
0000c97d 
00000fb3 
ffffd524 
ffffe52a 
00004fbf 
00003497 
0000072b 
000064a7 
0000561c 
00001802 
00006882 
00004a83 
00006a79 
ffffc179 
ffffcd4d 
ffffe811 
ffff9353 
ffff97ec 
ffffbfde 
0000085d 
00001f9f 
00004372 
fffffe74 
fffffe54 
00001b20 
ffffebb4 
00002853 
00002f0a 
ffffce78 
ffffafc7 
00002e8b 
00004d7d 
00008e62 
000079a3 
00003fc8 
00003e55 
00002ea7 
00003263 
ffffb9e1 
ffffd16b 
00000b8b 
0000351e 
ffffdb5b 
0000482b 
00007307 
000030e6 
ffff7d46 
ffffb112 
ffff7cbf 
ffffe013 
00003221 
fffff344 
00003771 
000000f9 
ffffced7 
ffff9c0c 
fffff07a 
ffffd34a 
ffffe4b2 
fffff655 
ffff7af3 
ffffd684 
ffffc69d 
ffff98db 
0000a78f 
00007e4a 
0000af57 
0000af12 
000085f8 
00006eaf 
0000f80d 
0000e022 
00008392 
000031f3 
000037ca 
ffffff07 
00002c8b 
ffffee41 
00004f45 
00006650 
000010bf 
00002f0c 
00002671 
00002d78 
ffffe78e 
fffffa47 
00006462 
00005759 
000039f4 
00003942 
00002723 
00001496 
ffffbac9 
ffffbdcf 
0000160f 
ffffed22 
ffffd544 
00002e76 
00002c14 
0000095e 
ffffbd79 
ffff3a09 
ffff5802 
00004eb7 
fffff7e0 
ffff54d5 
0000991e 
0000bb33 
00002a89 
000039bf 
00006166 
0000108f 
00001cfc 
00004e5d 
000039c8 
0000380c 
0000186c 
00004258 
fffff48a 
000001f7 
00002df5 
0000278c 
00003aa1 
000035ea 
00000890 
ffffece6 
ffffedf7 
ffffd8b5 
ffffe10c 
fffff2dd 
ffffe383 
ffffdcac 
ffffc951 
ffffa82f 
ffffd6b2 
ffffdf8b 
ffffdd45 
ffffd45b 
ffffbd02 
ffffd03a 
ffffe38a 
ffffe222 
ffffea8b 
fffffaa4 
fffff0ce 
ffffea07 
000010a7 
0000000c 
00002e3c 
0000136c 
00001076 
ffffd947 
ffffdf14 
ffffed78 
ffffe313 
ffffef36 
fffff5bf 
ffffde7f 
ffffdd0f 
ffffcdad 
00000c03 
fffffd33 
ffffef85 
ffffe63e 
fffff61f 
ffffdb39 
ffffd0d3 
ffffbd7e 
ffffc803 
ffffdbb0 
00001387 
00001754 
00000253 
00001b5b 
fffff1ed 
00002bf1 
000007ef 
00003667 
ffffe9f3 
fffff5a7 
ffffcf17 
ffffdd48 
00001d3c 
0000071d 
00000c95 
000004cf 
fffff2a4 
ffffdaf6 
0000120f 
ffffea24 
ffffe55e 
ffffddba 
fffff998 
fffff471 
0000150f 
ffffed41 
ffffd104 
ffffeea7 
00001fcb 
ffffdf66 
ffffeb94 
ffffec01 
fffffb35 
00000b34 
000008d1 
000035b5 
ffffced6 
fffffbd8 
ffffe8ab 
ffffde28 
00000a7e 
fffffa8b 
0000105b 
ffffc95f 
ffffe425 
0000034f 
fffff54a 
00000326 
fffff561 
ffffeb9f 
ffffd7ed 
ffffd6d5 
fffffdde 
ffffe8b2 
ffffcf12 
ffffd728 
00000bf5 
ffffe085 
ffffe1ad 
ffffccf0 
00000069 
fffffe59 
ffffe8fc 
ffffc83e 
ffffe3d1 
ffffd6f3 
ffffded8 
ffffcc88 
ffffcce9 
ffffea71 
000007a7 
ffffe348 
ffffd645 
ffffff1c 
00000fbb 
000011e9 
ffffe8d0 
00000a82 
fffff11a 
ffffe711 
000000d5 
ffffe99f 
ffffddda 
ffffdb54 
00001566 
ffffc832 
ffffb21a 
ffff9c52 
fffff397 
fffff6e1 
ffffe138 
ffffbbc6 
ffffd4b9 
ffffc4b6 
fffff513 
fffffe33 
ffffd113 
ffffed97 
00003e22 
fffff3b3 
ffffdcb6 
fffff501 
000009e1 
000000e2 
ffffeecb 
ffffd304 
fffff09d 
fffff1e4 
ffffe5d1 
ffffdee1 
fffff06f 
000007d6 
00000643 
ffffe3a0 
ffffd5c1 
ffffa9a9 
ffffe70e 
000021ed 
00002a5f 
ffffb0fd 
ffffc4b4 
ffffbc6a 
00001147 
0000104d 
fffff108 
fffffb0c 
ffffffce 
fffff78f 
ffffd6ac 
ffffdae4 
fffff6b1 
000004df 
ffffd8e4 
fffffeba 
00000b60 
ffffe0c5 
ffffef9e 
fffffe81 
0000231c 
fffffb5c 
00000b5e 
ffffec01 
ffffea48 
ffffcccf 
00003027 
00002a78 
000019fd 
ffffed76 
ffffe92e 
ffffeba6 
000004d8 
000003a1 
000003d8 
fffff0e8 
fffffbcb 
00000079 
00000315 
fffff399 
ffffe46e 
fffffe22 
ffffecbd 
fffff344 
00001ca5 
00000e71 
fffff82a 
fffff7cd 
fffffe34 
fffff523 
00001ead 
fffff193 
000005fc 
00000466 
00002aec 
00002a19 
00003bcc 
00001274 
ffffffdb 
ffffcaf4 
fffffdbb 
fffff44a 
fffff040 
000000d4 
fffffaa6 
0000162e 
00001407 
fffff94d 
ffffeb74 
fffff265 
000009e1 
00000e2e 
0000017c 
00000184 
00002427 
00000298 
00000842 
fffffb12 
0000064b 
fffff81d 
fffff62b 
fffff1fe 
00003804 
000038ed 
00003fcf 
ffffe094 
ffffd6fc 
ffffd863 
ffffe5e9 
000012da 
fffff05b 
ffffff0a 
000018f2 
00000ed5 
fffffc8c 
0000010f 
ffffeea9 
ffffef77 
00000fe8 
0000137e 
00000e2f 
000004b9 
00003d53 
00000b17 
fffff719 
0000057f 
00000099 
0000148e 
ffffee78 
ffffda18 
00000a34 
00004880 
fffffda7 
fffff140 
fffff0ad 
000009e0 
ffffe6e0 
0000009e 
ffffef4e 
00000228 
000018bc 
000018fa 
0000146e 
0000035d 
00002ab2 
00000926 
00002152 
000012fa 
00001f4a 
00002712 
000022c4 
000011b1 
00001c8b 
00001537 
00000ce6 
00001ae4 
fffff306 
ffffb787 
00000f38 
00004696 
0000074c 
fffff2f5 
000005fe 
fffffc8f 
fffff404 
000006a1 
0000143c 
fffff286 
0000105c 
ffffe59c 
fffffbd6 
00002426 
000021b3 
000000e9 
00002796 
000018ab 
fffffeb4 
00003231 
00000347 
000015a8 
00002815 
000009c9 
00001a41 
ffffffa6 
fffffbb9 
ffffc170 
00000785 
0000258b 
00001528 
ffffda18 
000006e3 
ffffe791 
000020dd 
00001443 
00001366 
fffffb01 
0000037a 
0000072b 
fffffd57 
00000de8 
00001ac0 
ffffeafd 
000018b7 
00000d99 
ffffe928 
fffffe25 
00001abb 
000019b3 
000026a3 
00002928 
000012a5 
00001c93 
000018ad 
ffffccc1 
fffffc94 
fffffdd4 
000025ef 
000002d0 
000019c0 
00000856 
0000304b 
00001f7b 
00001880 
fffffd53 
00000c4b 
00000931 
00003a9a 
00001410 
00000cc5 
00000a26 
000011ec 
fffffd77 
00002fc0 
00001f42 
00000e12 
0000157d 
00001c34 
0000117f 
00001577 
00000b42 
00000efb 
fffff625 
ffffe97e 
ffffe82f 
000005f1 
0000142c 
fffff967 
00001d85 
00002901 
00001397 
00002d14 
000005a2 
00001fd9 
000012b0 
00001b86 
00000f2e 
fffff54b 
000001f2 
000012f0 
fffff2d1 
000024de 
000013f5 
00001358 
00000eda 
00001b96 
00000bf5 
00001900 
00002651 
00000647 
fffffac2 
fffff30d 
00000654 
ffffe892 
000029dc 
000008ac 
00000547 
00002324 
00001a18 
00001bdd 
00001e3d 
0000310e 
0000068b 
00002e3f 
00002513 
fffffe10 
ffffcdc6 
00000152 
fffff243 
0000295d 
fffffa2f 
00001244 
000002d7 
0000087e 
ffffffa8 
0000072e 
00001068 
000017c9 
ffffe8f1 
00000d7a 
ffffef7d 
00000196 
ffffe482 
00001e16 
00001697 
00000f57 
00001152 
000029e4 
00001932 
00002968 
00000f18 
000020ce 
0000132a 
ffffe8b2 
ffffd59d 
ffffe1aa 
ffffe9a6 
00001c47 
00000bb2 
fffffede 
000027f0 
00000cd6 
00001469 
fffffe8c 
fffffcc3 
000011a3 
ffffd00d 
ffffeeb1 
ffffeea9 
00000d6b 
00000e09 
ffffe4b2 
0000230e 
00000c9a 
00000ad0 
0000123f 
00000e33 
00000ecb 
00001824 
0000112c 
000020ca 
fffff4c5 
00000317 
fffff43c 
00001aad 
00001589 
fffff940 
000004ce 
fffff778 
000007ac 
000018f2 
00001242 
00000b02 
fffff06b 
ffffc388 
fffff138 
fffffcbf 
ffffe3d5 
0000329a 
00003732 
000016f4 
00000c05 
fffff90b 
0000254c 
00001a5d 
0000102e 
00002c7e 
00003276 
000008c3 
ffffd9f3 
fffff4c0 
000029ff 
000011b4 
00000dd0 
ffffef5e 
00000397 
00000b02 
00000bf2 
0000096e 
0000018b 
00000584 
fffffb92 
ffffc444 
fffff7ab 
ffffebf8 
00000af6 
00002f86 
0000446e 
000025e1 
000002c7 
00001b60 
ffffffff 
00001ba1 
000011e8 
00001aad 
00001597 
ffffe4c2 
ffffe8f0 
0000061f 
0000124a 
ffffdfe3 
fffffb89 
fffff058 
fffffa73 
ffffffdd 
00000c52 
fffffcbc 
fffff14e 
fffff1c6 
ffffe202 
ffffb612 
0000037f 
ffffedba 
00000493 
000017c6 
000036e8 
000057b5 
00000161 
00001c17 
00002440 
000043a1 
0000070e 
fffffe9f 
00000ef0 
ffffff20 
000005c0 
0000064b 
fffffe26 
ffffe876 
ffffc32e 
ffffdbb2 
ffffec08 
ffffed67 
ffffe466 
000002ac 
fffffd68 
fffff2f5 
ffffdd0d 
ffff9b48 
0000050c 
0000073a 
ffffea97 
00001713 
00000ad1 
00003d0a 
fffff698 
000012d8 
00001d5b 
00002c27 
00000043 
00000cbe 
000006e7 
fffff7a2 
fffff13e 
ffffe94d 
ffffc84a 
ffffd21d 
ffffe900 
ffffe4a2 
00000207 
ffffcd87 
ffffdbf2 
fffff57d 
ffffe2c0 
ffffe0ca 
ffffb2e2 
ffffe283 
00000b36 
000006ed 
fffff8b7 
0000192d 
00001124 
ffffebbc 
00003009 
00000dc8 
00001624 
0000163c 
ffffff4f 
00000fe6 
ffffea1f 
ffffea4a 
ffffe468 
ffffdf56 
ffffc695 
ffffdefe 
ffffdcab 
ffffe69c 
ffffee0f 
ffffdf95 
ffffe2fa 
000005e8 
fffff5b6 
ffffdb69 
ffffb43c 
fffff82e 
ffffe3c2 
fffffa80 
ffffe51d 
fffff569 
00001b93 
0000082b 
00000dd1 
0000265b 
0000032d 
fffff455 
ffffd2d1 
ffffe229 
ffffd3f1 
ffffe99c 
ffffc53c 
ffffcd0d 
ffffd847 
ffffebe3 
ffffd88b 
ffffd70d 
ffffd602 
ffff9cc8 
ffffe236 
ffffe3da 
ffffd5b0 
ffffcdce 
ffffb983 
00001149 
00000e92 
ffffe1d0 
fffff396 
fffff022 
ffffffc5 
00000ce5 
00000a0d 
00000139 
ffffe787 
ffffe4cd 
ffffaea3 
ffffaffd 
ffffaa8c 
ffffb0eb 
ffffc93c 
ffffaa28 
ffffc008 
ffffd207 
ffffcac1 
ffffe1fc 
ffffe440 
ffffa426 
ffffc1d0 
ffffdecd 
ffffead8 
ffffbdad 
ffffbd84 
00001c71 
fffffaf2 
fffff615 
fffffdb1 
000003b1 
fffff70a 
0000008e 
fffffc33 
00000286 
ffffcf0d 
ffffafcd 
ffffb8e6 
ffffd59a 
ffffca51 
ffffcc21 
ffff95e2 
ffff8e6e 
ffffa527 
ffff934c 
ffffae91 
ffffc9fd 
ffffcfe3 
ffffceda 
ffffcfb3 
ffffbc37 
ffffd3fe 
ffffc1be 
ffffb8ab 
fffff829 
fffff5c7 
fffff60a 
ffffecc3 
00000766 
ffffff21 
000002ee 
ffffd955 
ffffbab3 
ffffed43 
ffffd72e 
ffff9b04 
ffffaa34 
ffffa22c 
ffffbda6 
ffffa88f 
ffffcb2d 
ffffd281 
ffffa7bb 
ffff9896 
ffffbd92 
ffffb363 
ffffc3fd 
ffffd343 
ffffb8c2 
ffffc951 
ffffddf1 
fffff9cd 
ffffed89 
00000d9e 
fffff6ff 
fffff119 
fffff869 
000002e7 
ffffed77 
ffffdc4d 
ffffc5b7 
fffff36c 
ffffd128 
ffffc5a7 
ffffb80e 
ffffd067 
ffffbdaa 
ffff9df5 
ffffc649 
ffffb85c 
ffffced9 
ffff994c 
ffffa5e3 
ffffb29f 
ffffcde4 
ffffdf3c 
ffffe120 
ffffd68d 
ffffedf7 
fffff8b3 
fffffe4c 
000002b2 
00002688 
00001283 
000036ef 
0000327c 
00001907 
fffffde3 
00000458 
000004c8 
ffffd745 
ffffcff9 
fffff1b3 
ffffccc2 
ffffcba3 
ffffab6f 
ffffc9d5 
ffffd913 
ffffc882 
ffffaac0 
fffff948 
ffffe91d 
ffffd206 
ffffee2d 
ffffe809 
ffffde34 
0000067e 
fffffda3 
00000267 
fffffe43 
fffff2c7 
000007f6 
000018a1 
ffffa931 
ffffb611 
000005ac 
ffffd72e 
00000925 
ffffdd5c 
ffffebac 
ffffe93f 
ffffdf00 
00004a11 
00001f50 
ffffe959 
fffff491 
000011b3 
ffffffda 
ffffc959 
ffffea07 
ffffc548 
ffffe4d6 
fffff758 
000032fc 
00001176 
ffffe6fb 
00000125 
00000270 
00003825 
00002cd3 
00002291 
00003c9c 
ffffdff5 
00000c04 
ffffe84a 
ffffe28f 
0000149d 
00001bf9 
00001336 
ffffb82b 
00001722 
fffffc2f 
fffff1f1 
ffffc992 
00001db6 
0000431a 
000016a4 
ffffd30d 
00000488 
000033ef 
fffffc8e 
ffffed0e 
ffffc792 
ffffe3e2 
ffffedc6 
00001758 
00003361 
00000a27 
ffffe607 
fffff878 
ffffde45 
ffffe03b 
ffffdc6d 
ffffe729 
fffffd7b 
00000f14 
0000321f 
00002c30 
fffff481 
00000a51 
00000f84 
00000282 
fffff1df 
ffffd33c 
ffffdb1e 
fffff645 
ffffe6f3 
ffffca6d 
ffffdc21 
fffff2af 
ffffe346 
ffffd477 
ffffeccf 
fffff79e 
00001c56 
ffffddb6 
000008ab 
ffffdfea 
ffffd5dc 
ffffe54e 
ffffeb64 
0000021b 
fffff3a7 
ffffe297 
fffffdba 
fffff60b 
000015e6 
fffff92a 
00000dec 
ffffef6d 
0000167f 
fffffa65 
fffff89f 
ffffe6f1 
ffffe4af 
ffffd7b6 
ffffd0c9 
ffffde9a 
ffffd8e7 
ffffc01a 
ffffba29 
ffffd7b6 
ffffbea7 
ffffc3a7 
ffffdb08 
00001b95 
0000031e 
ffffe660 
ffffe3cd 
000005b0 
ffffffb6 
ffffe3d0 
ffffeb5d 
ffffd8fa 
ffffef85 
fffffead 
ffffff57 
0000139c 
0000039c 
000029cb 
0000080a 
00001af4 
000014ea 
ffffffc0 
fffff85e 
ffffba54 
ffffd44e 
ffff76a3 
ffff9ae4 
000031ea 
ffffc58f 
ffffb3c5 
0000013e 
0000258e 
00000a77 
0000054b 
00000284 
0000018b 
ffffed78 
ffffe060 
ffffe077 
ffffdc40 
ffffec67 
000002eb 
ffffeb40 
000002d8 
0000055b 
00001310 
0000107f 
00001e35 
00001e97 
00001ce4 
fffff822 
fffff47d 
ffffd702 
ffffa02e 
ffffa896 
00000181 
ffffc902 
ffffd561 
00001265 
00002d15 
00002478 
000011f2 
000000bd 
000018c8 
00000866 
00000f91 
0000141a 
0000053f 
00001342 
0000000f 
ffffe9dd 
00000720 
00002e57 
000017e8 
00002c91 
00001467 
00001713 
00000d9d 
0000260f 
00001cb6 
000008bd 
ffffd9cd 
ffffba9c 
00001f19 
0000371e 
ffffec8d 
ffffe143 
0000042d 
fffffae9 
fffffa96 
000017e4 
00001c4b 
00000e1b 
000000bb 
00000e78 
00001374 
0000173d 
00001a98 
0000146a 
000005ef 
00001aca 
00002c5f 
00002a33 
0000132f 
000021c4 
0000252d 
00002c46 
000014ea 
ffffed03 
ffffcf77 
ffffcbab 
000039c8 
000030a4 
fffff6fe 
0000015d 
00002f1f 
00000afa 
00003234 
000018ef 
00001d90 
00000e2a 
00000135 
00000965 
fffffab6 
fffff4f7 
fffffaab 
fffff009 
ffffe407 
fffff596 
ffffff09 
000002c8 
00000cf7 
000019d2 
0000169b 
fffff972 
00000bac 
000015c7 
fffff03d 
ffffbd77 
0000460a 
000028f2 
00000399 
00000a9f 
00002e7c 
00001027 
0000300b 
00000095 
00001eac 
000009e0 
00000c03 
fffff963 
00001883 
fffff540 
fffffed1 
fffff8da 
00000073 
fffff59a 
fffffbd1 
00000f7f 
0000098d 
00000aaf 
0000064b 
00000d91 
000018a4 
00000ca1 
ffffd21a 
ffffbe92 
00005062 
0000219b 
fffffd4c 
000004c8 
ffffff3f 
00000b0a 
00000eaa 
00000596 
000002c5 
ffffe4db 
fffff7f6 
fffff063 
0000004b 
fffff51f 
00000231 
000016cf 
00001341 
fffff3af 
fffff899 
0000061a 
0000042a 
fffff830 
00000827 
0000054d 
ffffff67 
fffff461 
ffffc1fc 
ffffb5e4 
00004f65 
fffff7cf 
ffffe022 
ffffe58b 
fffff41f 
0000180b 
00002625 
fffff6a9 
fffff390 
ffffe6e9 
00000764 
fffff273 
fffffd16 
fffff87f 
ffffd6a7 
fffff205 
fffff246 
fffffa04 
ffffedca 
ffffff26 
000007ef 
fffffc9b 
000019d4 
00001abb 
00001bae 
fffff1f3 
fffff030 
ffff7471 
ffffebd7 
ffffe7cf 
ffffed42 
fffff540 
ffffefd7 
000003d7 
ffffebf0 
ffffe75e 
ffffecd4 
ffffd7ea 
00000846 
fffffc95 
fffffdb4 
ffffc118 
ffffbf76 
ffffe50d 
ffffdf2e 
ffffe4f6 
fffff97a 
00001b0b 
000001a9 
fffff254 
fffffb2b 
fffffa8e 
000004de 
fffffadd 
ffffe957 
ffffb7dd 
ffffeacc 
ffffca3e 
0000090b 
000021a5 
000016a5 
0000115d 
00000043 
000008e9 
fffff6d5 
fffff98e 
00001eb3 
fffff829 
ffffcbe8 
ffffd593 
ffffafa0 
ffffc9ad 
ffffdc47 
ffffe706 
00000750 
000018a7 
fffffa04 
00000288 
00000788 
000017b9 
0000264d 
0000001c 
ffffe418 
ffffdf18 
ffffed23 
fffff860 
ffffd522 
00001f52 
fffffa3b 
00000fd4 
00001dde 
fffffed1 
00001655 
000011fc 
fffff612 
fffff1c4 
ffffdc5e 
ffffda21 
ffffce92 
ffffd849 
ffffdc5f 
ffffda95 
fffff809 
00001552 
00000512 
fffff87a 
00000417 
000014d8 
000032d1 
fffff832 
000026e5 
00004067 
ffffe12a 
ffffe7d5 
fffff96f 
000028b1 
fffff13e 
00001ad7 
fffff93d 
00001eff 
00000c9d 
00000906 
fffff00e 
ffffd952 
ffffc514 
ffffdce9 
ffffcd7e 
ffffc460 
ffffd7aa 
000000cf 
00000f61 
fffffb45 
00002058 
00000188 
fffffde5 
ffffff87 
000033fe 
fffff35b 
fffff1ee 
ffffc631 
000005f3 
ffffef49 
0000085a 
000008d2 
fffffb50 
00001b30 
00000ad8 
00000fe9 
000012a7 
00001ea7 
0000075c 
ffffdee6 
ffffd2aa 
ffffebe0 
ffffe2c1 
fffffde6 
fffff14b 
00001f32 
000027fe 
ffffeefb 
00001814 
000026c8 
00001e61 
00000c83 
ffffcbfc 
ffffbc81 
ffffeb29 
fffffc54 
ffffeb7b 
000011e7 
000011ae 
00000c22 
fffff349 
00000f4a 
000001e7 
00000d92 
000009dd 
00001141 
00000691 
00000a54 
ffffe7a0 
ffffca0d 
fffff310 
00000392 
000006d2 
000002e2 
fffffc99 
fffffc24 
00000764 
fffff96a 
0000058b 
0000043e 
ffffec39 
ffffee31 
00000053 
fffffad9 
000007ad 
00001e97 
00001eaa 
00002505 
0000110d 
0000168f 
ffffee62 
ffffffe3 
000002d9 
00000e78 
fffffc6b 
fffffbc6 
ffffe588 
fffffb8a 
ffffe6f8 
0000107b 
00000cc8 
ffffefd9 
fffffa70 
fffffa68 
00000043 
00001f5b 
00001604 
ffffe57a 
ffffdbe2 
ffffe925 
0000343d 
ffffe054 
ffffe112 
000015b7 
00003ef5 
0000272e 
000016ba 
00000cc7 
fffff910 
ffffed49 
ffffddb9 
fffffeab 
000015fc 
00000281 
00000753 
00000c42 
fffff7c3 
fffff919 
ffffea49 
ffffdc94 
ffffe2eb 
fffff58f 
000003fa 
000012ff 
fffff545 
ffffe241 
ffffdf9c 
fffff761 
00003eaf 
ffffc87d 
ffffdc25 
0000101a 
00001f97 
00001943 
0000062c 
ffffed5a 
00000b7a 
ffffe1e9 
ffffe2bc 
ffffeea8 
000010f1 
000017f9 
0000215b 
00002298 
fffffa68 
ffffe63b 
ffffe94a 
fffff412 
ffffdbdc 
ffffdcc9 
ffffee11 
ffffe4fe 
ffffe5e1 
ffffd0b4 
ffffd59e 
ffffd424 
00004ac3 
fffffb27 
ffffc8fc 
fffff288 
00001eb1 
00000b36 
fffff3c3 
000015f5 
fffff40c 
0000034a 
ffffec8f 
ffffeb38 
fffff421 
fffff999 
000008c9 
0000139e 
fffffa1d 
00000973 
ffffdfab 
000013ee 
ffffd093 
ffffe227 
fffff341 
00000fdc 
00000139 
ffffee12 
ffffdfcc 
fffff1c1 
00001cce 
fffff7f2 
ffffd70d 
0000095b 
ffffdf1f 
ffffe15a 
ffffe8ce 
fffff092 
fffff046 
00000695 
00000cd2 
0000091e 
00000b16 
000023fb 
00001704 
0000260e 
000012e0 
00000a6b 
00001150 
00001530 
fffffeba 
00000287 
00000755 
00001da2 
00000915 
ffffd50b 
ffffc332 
ffffc124 
ffffc1b6 
ffffdd69 
ffffc050 
fffff2d3 
ffffdbe3 
fffff3e1 
fffff57a 
fffff7e7 
ffffee54 
fffff7d2 
ffffe259 
ffffdb60 
ffffe2e2 
fffffe1a 
00000ac3 
00002898 
0000120b 
0000176d 
00000a68 
00001402 
fffff796 
00000bbd 
ffffe372 
fffffcdd 
ffffc6a2 
ffffa824 
ffffcf45 
ffffe6e7 
ffffd5d4 
0000065d 
fffff6ac 
ffffde12 
ffffe925 
ffffd576 
ffffcff0 
ffffd414 
ffffc70d 
ffffc543 
ffffd7aa 
ffffdcf2 
ffffd6b5 
00000a3d 
ffffe23f 
000000c6 
fffff745 
0000015a 
ffffe97f 
ffffd000 
ffffc801 
ffffb521 
fffff0a8 
ffffc81e 
ffffa323 
ffffc586 
ffffcdee 
fffff761 
ffffd616 
00000be0 
00000202 
000005ba 
000009fe 
fffffce6 
ffff9dbd 
ffffac38 
ffffba9b 
ffffc8a3 
ffffcdfd 
ffffd002 
ffffee9c 
ffffe1f7 
fffff279 
ffffda5a 
ffffa9e5 
ffffc86e 
ffffbb56 
ffffa82e 
ffffa37b 
ffffb288 
ffffbf78 
ffffcea8 
ffffbd93 
ffffe473 
ffffd2de 
fffff003 
fffff773 
00000f6a 
fffff93c 
fffffa67 
ffffbf87 
ffffb934 
ffff7368 
ffffa301 
ffffcd1d 
ffffcd83 
ffffc4fa 
ffffae3a 
ffff86e3 
ffff8452 
ffff832b 
ffff91c0 
ffff9ef6 
ffff950d 
ffffbf71 
ffffb1ce 
ffffc26c 
ffffc0da 
ffffcbdc 
ffffd1b1 
ffffe997 
ffffe670 
00000175 
fffff81d 
fffff598 
000002a8 
ffffffb0 
00000d76 
00004383 
00004ffe 
000040e0 
00002e57 
00002523 
fffff428 
ffffe47f 
ffffd845 
ffffe6ee 
ffffd401 
ffffc77e 
ffffa98b 
ffffaa11 
ffffc7d3 
ffffb566 
ffffd142 
ffffc134 
ffff9782 
ffffa773 
ffffb798 
ffff8a21 
ffffc665 
ffffc4a9 
ffffd786 
ffffecc9 
fffff1a9 
ffffea72 
00003a32 
00003a03 
fffffca7 
fffff27f 
ffffde88 
ffffb6bb 
ffffe20a 
fffffde8 
fffff48e 
ffffea62 
00000ab0 
ffffeebf 
0000050f 
ffffffd2 
fffffc5b 
00000476 
ffffe676 
fffff187 
ffffd471 
ffffcdcd 
ffffd489 
ffffd0cb 
ffffdf18 
00000e3f 
00002519 
00002245 
0000141b 
fffff67e 
00002e0b 
000015a3 
ffffd3b4 
ffffe717 
ffffe0af 
fffff243 
fffff8bd 
0000116a 
00000b65 
000001e1 
000000d4 
fffffb09 
00000275 
000004ed 
fffffe50 
fffff595 
fffff6bb 
ffffdf35 
00000c12 
fffff0a2 
ffffe195 
ffffeb50 
0000154d 
00000150 
ffffd944 
ffffc8e6 
ffffc823 
ffffed83 
00000f3d 
000041a4 
fffffe8b 
ffffec68 
fffff5d3 
00000deb 
fffffc0a 
00000cae 
000002db 
00002319 
0000095d 
000001c5 
fffff577 
000007cc 
00002676 
000004de 
0000238c 
000027b9 
fffffc5e 
0000071b 
ffffff50 
ffffe43e 
000003fb 
00000bc3 
ffffb71f 
ffffeb59 
ffffc345 
ffffef18 
ffffa48b 
ffffd5ce 
00001c5b 
00002c75 
00002467 
0000166e 
fffff329 
ffffe7a6 
000006d6 
00001ae2 
fffff1f6 
fffffc20 
ffffee50 
00000e01 
00000bf3 
00000b6a 
00001603 
00000618 
000006f1 
fffff967 
fffff0b3 
ffffdc46 
ffffed06 
ffffcf78 
ffffc276 
ffffa4f8 
ffff6b6a 
ffffddf1 
ffffe592 
ffffb86e 
000001d7 
00001a7a 
00001a49 
00000281 
ffffe50a 
ffffcc5f 
00000bb1 
00000152 
0000086e 
ffffd4c1 
ffffdf2d 
fffff61a 
ffffe7ba 
ffffd9d8 
000004d8 
ffffdfe3 
000005c1 
00001a67 
0000181f 
fffff522 
0000107b 
00000003 
ffffebcd 
ffffd9ad 
ffffc9da 
00003acb 
000030d8 
00002ecc 
ffffe3e1 
ffffd878 
ffffda59 
fffff64d 
ffffd1fd 
ffffe808 
00000cd6 
000003f6 
ffffd95b 
ffffe5d9 
ffffffc9 
00000ef0 
0000025b 
00001b17 
000001c0 
0000041d 
00000e23 
fffffbb8 
ffffe56f 
000013d1 
000004c5 
