ffffdf74 
ffffd81b 
ffffdab1 
ffffdc70 
ffffeb63 
ffffdf3a 
ffffc79b 
ffffbc3d 
ffff9db7 
ffffb5b7 
ffffbba8 
ffffbb9f 
ffffe679 
ffffe896 
ffffe840 
000009b5 
fffff672 
fffff973 
ffffd80b 
ffffefd4 
fffff730 
00001ca8 
00002aba 
00002f89 
ffffdccd 
ffffe9e4 
ffffeb49 
ffffd5fc 
ffffdf6a 
fffff0e2 
fffff9fc 
fffff4ce 
ffffd851 
ffffc9e0 
ffffd0fe 
ffffb80d 
ffffcd48 
ffffc086 
ffffc642 
ffffd7d5 
ffffd74f 
ffffed89 
fffffd7e 
fffffe76 
00000974 
00002383 
00003257 
00001161 
00003163 
000042d3 
00007565 
000068e9 
ffffe6fb 
00000d2f 
fffff030 
000001c5 
00000b80 
000005ab 
000006e3 
ffffe42b 
fffff8df 
ffffedef 
ffffe734 
ffffbf05 
ffffbd4b 
ffffcebc 
ffffe509 
fffff217 
fffff66c 
fffff8a3 
ffffe90c 
fffffb28 
00001832 
000018d0 
00001706 
000018af 
00002c6a 
0000294e 
00005ab8 
00003aaf 
00002ee2 
00003be5 
ffffe860 
ffffeeb9 
ffffeecd 
00000671 
00001664 
000006d7 
000009dd 
00000de3 
ffffe5b4 
ffffe183 
ffffe72b 
ffffee72 
fffff7bc 
00000c99 
00000108 
00000d55 
fffff96a 
000009fd 
000013d4 
000014fe 
0000178d 
0000262e 
000032ce 
00003684 
00005198 
00002044 
00003c51 
00004f0f 
fffff9a2 
ffffdee4 
00001821 
000014fc 
000014b8 
000009e6 
00001455 
00000805 
0000192b 
00003125 
fffff64f 
00000111 
fffffb58 
0000109c 
00001159 
000017b3 
ffffe92f 
00000b57 
00001948 
00001ee5 
00001cbd 
0000024d 
000010ac 
000007c2 
00003448 
00004318 
00003a5d 
00004a3f 
000009ed 
00003748 
000026f3 
00002246 
0000134e 
00001ec3 
00001eae 
fffffd3c 
0000068b 
00000cb0 
0000012e 
00001683 
000008dd 
00001713 
000012b1 
00001377 
0000120d 
00001a5c 
000007ac 
000037e4 
fffff2e1 
fffffb88 
fffff9c8 
000015b4 
000028ab 
00002217 
00001782 
0000239b 
00000fd2 
00001313 
00000e04 
00001335 
00002239 
0000260c 
00002921 
0000132a 
ffffefef 
00001a36 
fffffd18 
00000c41 
00000689 
000013e3 
0000187d 
0000325f 
00001693 
fffff917 
00000b75 
00000ff8 
000014b4 
0000194c 
00001ceb 
fffffea5 
fffff581 
00002792 
00003fbc 
00004760 
00002e27 
00001965 
000003c3 
ffffefc6 
00001427 
00001957 
00002bca 
0000150a 
00000dc3 
0000237e 
0000109f 
00001130 
000004cf 
00000dcc 
00000270 
ffffffa1 
00001ccc 
00000d33 
00000713 
fffff9db 
fffff563 
fffffc7b 
00000fc3 
ffffecae 
fffff15f 
00001e50 
00005f0a 
00004cf6 
00003b38 
00003441 
000024a9 
00001eff 
000006ae 
0000069f 
00001010 
00001f83 
00002532 
00001832 
0000034b 
00000f2e 
ffffe6e7 
fffff570 
ffffec9d 
00000d8d 
00000f5b 
000003d5 
fffff57f 
0000023c 
ffffe059 
ffffecad 
00000e48 
000006a5 
ffffffc8 
0000120d 
00005c9a 
000052f1 
00001fc9 
00003236 
00002c56 
00001217 
0000298b 
0000242c 
00001ec6 
00002326 
000007bb 
00002cf0 
fffff20f 
ffffedd8 
fffff675 
fffff992 
fffff71d 
000005ed 
000012cd 
fffffc7f 
ffffda5f 
fffff8d1 
000000d4 
000019c5 
00001ac1 
0000261f 
000005d6 
00000f95 
00006997 
00003435 
00001c48 
000003a6 
00001f0f 
00002159 
00003689 
00001e6e 
000008fc 
00001ce7 
00001462 
00001276 
0000042a 
000008d9 
fffff957 
fffffa55 
fffff57a 
ffffd11c 
ffffe496 
ffffdc84 
ffffd9c1 
ffffee84 
fffff693 
fffff6f5 
00000c49 
fffff96a 
00000a68 
fffff43c 
000049c8 
ffffd428 
ffffcd3a 
ffffd895 
fffffe98 
00001332 
000015bc 
000024a1 
000029d6 
0000081a 
00001af7 
00002d48 
00001313 
000016e7 
ffffefec 
ffffebd1 
ffffe3be 
ffffbc0e 
ffffaf8b 
ffffbcc4 
ffffc498 
ffffddd8 
fffff191 
fffff108 
fffff323 
ffffd8fc 
000007bd 
fffffc95 
fffffbb4 
ffffbc7c 
ffffadde 
ffffbe70 
ffffeae4 
0000032b 
fffffaaf 
fffff132 
00000b1a 
00000921 
00001dcf 
0000139a 
000028ad 
00000489 
fffff902 
ffffe255 
ffffd201 
ffffbe9e 
ffffd1b0 
ffffcd50 
fffff5b5 
fffff44f 
fffffb3f 
fffff581 
00000a52 
ffffef09 
0000073e 
00001eb0 
ffffeeb0 
ffff9e9e 
ffff8e79 
ffff7ac2 
ffffd395 
fffff668 
ffffedcd 
ffffdb4c 
ffffdd82 
ffffda27 
00000737 
ffffde9a 
00000d55 
fffffdf9 
ffffe499 
ffffe369 
ffffd3b8 
ffffd2d4 
ffffafe5 
ffffc627 
fffff261 
ffffed13 
ffffef16 
ffffdb13 
fffff082 
ffffeec4 
000001f8 
ffffef40 
ffffec67 
ffffe319 
ffffd764 
ffff6cc0 
fffffacb 
000008d7 
ffffc418 
ffff6fe9 
ffff7e69 
ffff8dba 
ffffb7cc 
ffffa92d 
fffff0ad 
ffffff51 
ffffe4cb 
ffffbdd3 
ffffbb9a 
ffffac9c 
ffffba80 
ffffae01 
ffffbd78 
ffffe771 
ffffe580 
ffffe96a 
ffffc9e0 
ffffffd6 
fffff57e 
0000119e 
ffffe22d 
fffff754 
fffffdd0 
0000051f 
00000ac8 
00001c05 
00002cf9 
00005c95 
000055f1 
000061cd 
00005b00 
00004a1f 
00001a4c 
ffffeb52 
fffff2b0 
ffffff51 
000000a3 
ffffeebe 
ffffd4a9 
ffffdcb2 
fffff277 
ffffcacf 
ffffddaa 
ffffef26 
00002b27 
0000240d 
00001a8c 
fffff833 
fffffdca 
fffff86e 
fffff38b 
00000b93 
ffffe0b3 
ffffebe9 
fffff4d7 
fffffd94 
00000dae 
00002a5e 
0000150f 
00000246 
000014c3 
0000170b 
00000491 
00001372 
00002624 
00000bcb 
fffff90b 
ffffe484 
ffffdc59 
ffffd2b7 
ffffdbdc 
0000039e 
0000230a 
00000b32 
00000aec 
fffff2fe 
ffffee06 
ffffdc52 
ffffc225 
ffffbedb 
ffffc419 
ffffe9b2 
0000205b 
0000142c 
00000aff 
0000063f 
00001f73 
00002024 
00001d85 
fffffaef 
0000168d 
0000089b 
000006df 
0000145d 
fffffd69 
ffffdfba 
fffff14a 
ffffd248 
ffffd17e 
ffffbec1 
ffffb45e 
ffffaaf8 
ffffe880 
0000057b 
fffff69d 
ffffd89f 
ffffb731 
ffffcb26 
fffff516 
fffff95e 
00001530 
fffff0e2 
fffff3fb 
00001a9c 
fffff97e 
00001caf 
00000134 
00000471 
0000024b 
00000755 
000001f5 
00000d50 
00000852 
000003eb 
fffffefa 
00000b5d 
fffffcec 
ffffef39 
fffff9cd 
ffffe34e 
ffffe8e7 
000023b8 
ffffebaa 
ffffce93 
fffffd38 
ffffe88c 
ffffe73b 
ffffe22e 
00000f51 
00002079 
00001654 
000006a3 
00001649 
0000076c 
ffffe729 
00001774 
fffff8b0 
000004fd 
000004d3 
00001270 
00001dfc 
0000116f 
000005fb 
fffff9db 
fffffa5f 
fffffb71 
ffffeb1f 
ffffbd7d 
ffffeb28 
00001b38 
ffffd591 
fffffab9 
fffff838 
00000861 
00000fc6 
000007f6 
00000a71 
00000a81 
00000dfb 
ffffe3ae 
fffff55a 
00001355 
000007cd 
000007be 
000016e0 
000013e0 
0000064a 
0000107a 
ffffed7f 
00001304 
00000cde 
ffffe4e4 
ffffeec6 
ffffeb09 
ffffe5ad 
ffffdcbd 
00000641 
00006390 
ffffebbd 
fffffddd 
ffffefa0 
000013c1 
00001fd3 
000005e1 
ffffff0c 
000002c0 
fffff60f 
000013a2 
00001bf1 
0000086d 
00001968 
00001f98 
000017ea 
0000258c 
000007e8 
0000023b 
00000dd7 
ffffdd59 
fffff5df 
ffffbf92 
ffffe19c 
fffffed0 
ffffe240 
ffffc7b6 
ffffdc87 
00002c73 
ffffdc1a 
ffffdb2a 
ffffe9cc 
fffff129 
fffff572 
fffff66d 
fffffb4f 
ffffebba 
ffffe13b 
00001fbb 
00000a63 
00001e9f 
00000c31 
ffffffba 
00002238 
00001684 
0000055f 
00000879 
000004c5 
00000ab6 
ffffe57a 
ffffec6d 
fffffa52 
ffffe6cc 
fffff164 
fffffcee 
000027de 
00003350 
ffffd2db 
ffffdd6f 
fffff862 
ffffb9bf 
ffffc80c 
000003b9 
00000a0d 
ffffeec7 
0000142a 
0000245a 
000037dc 
000032e6 
00000c04 
000025a7 
000032de 
00002678 
000029ca 
fffffa4b 
fffff9ae 
fffffb29 
ffffd5af 
fffffc42 
fffff870 
ffffd8d4 
fffffb5d 
00000e57 
fffffcce 
fffffa91 
ffffbc4d 
fffff7f5 
000003aa 
ffffdbce 
00002e16 
00002098 
00002caa 
fffff79e 
00000658 
ffffffb0 
ffffe7c3 
fffff5e0 
fffff90c 
0000224b 
00003095 
00002fcb 
000005dd 
00001059 
fffff94f 
00000405 
fffffd46 
ffffdf68 
ffffd7fa 
00000f14 
fffff9de 
000015dc 
00000d57 
000012a5 
ffffc1b6 
ffffb54d 
ffffd792 
00001384 
000033db 
00002531 
000027bf 
000015fe 
fffff1ea 
fffffb37 
00000564 
0000240b 
00003d43 
00001f99 
000027ab 
000001c2 
00001e88 
00000759 
000006dd 
ffffee4a 
fffff7a2 
ffffed50 
ffffd2c2 
ffffeea8 
ffffebe2 
0000199d 
00000087 
00000dba 
ffffe6a7 
ffffeed0 
ffff980b 
ffffe14b 
00002194 
00002e57 
00001e11 
00002e35 
000005ba 
fffff6ef 
fffff7ff 
00002367 
000019e8 
000010c7 
00000242 
00000373 
ffffe7ed 
fffff54e 
fffff407 
ffffda71 
fffff262 
00000c4e 
ffffe4c4 
00001435 
0000149a 
00001a6e 
0000330f 
00001f13 
ffffdda6 
ffffbcda 
ffffe9ae 
ffffe469 
0000025f 
00000bac 
0000335a 
000044bf 
000026b6 
0000475d 
00002f91 
00001e0e 
0000334c 
000028a3 
000016b3 
fffff694 
000003cd 
ffffe1da 
ffffe104 
ffffd8bf 
ffffd756 
fffff641 
ffffee39 
000017e7 
00001654 
00002ff5 
00003463 
00002b34 
ffffc4e0 
0000087e 
fffffb35 
00003f59 
00003516 
00004394 
00001d47 
000022f1 
00001849 
0000134a 
00001947 
00000839 
0000144e 
000002bb 
0000179e 
00003734 
0000138e 
00000675 
ffffe4d1 
ffffd0c8 
ffffea28 
fffffddc 
0000004a 
00000ec5 
0000045e 
0000354a 
00003483 
00002673 
ffffe251 
000035e9 
00003e4f 
00000b0b 
00000c0b 
0000191d 
fffff620 
000005ed 
fffff259 
0000068f 
000002b3 
fffff99e 
fffff3b9 
fffff2d1 
0000197c 
0000113f 
fffffb25 
ffffeef3 
fffff904 
ffffd84a 
fffff968 
00000480 
00001d0a 
00003621 
00001fea 
0000212d 
00003878 
000043c1 
00001021 
000029bd 
00001299 
000005cc 
ffffde66 
00000374 
fffff89e 
fffffbb0 
ffffe534 
fffff91a 
ffffe308 
fffff3fc 
000012a6 
fffffd15 
00002691 
00001920 
00000ee3 
000001eb 
fffff09d 
ffffef06 
0000261e 
000005be 
000009f2 
0000097b 
00002ab2 
00003ad2 
00001c0a 
00005f2d 
000023d3 
00001161 
000005c8 
ffffd972 
fffff1bc 
ffffc6ed 
ffffe4ec 
fffffe99 
ffffeaf1 
ffffde68 
ffffe70f 
fffff991 
ffffe938 
ffffff96 
fffff0d8 
ffffe21c 
000016f2 
fffffece 
ffffe60a 
ffffea9a 
fffffe8e 
00001fa1 
0000430e 
000031cf 
0000227a 
000022eb 
00000624 
000041b1 
ffffce19 
00000989 
0000030f 
000016d4 
00002204 
00000f6d 
00001322 
fffff506 
ffffcea0 
ffffc3bf 
ffffda59 
ffffd45e 
ffffdf47 
00000b4b 
ffffead7 
ffffecd2 
00000373 
00001164 
00000a16 
ffffffe3 
000011cf 
00000ed1 
00001ec8 
000016e7 
00000d1b 
fffff102 
fffffd85 
00003b39 
ffffdee4 
0000147f 
00001dfd 
fffff5d7 
fffff230 
fffffbd2 
ffffd299 
ffffe908 
ffffea58 
ffffdb2b 
ffffce85 
fffffbe5 
fffffa1c 
fffffbfb 
ffffee2c 
00000af4 
fffff473 
ffffedc9 
00000889 
000019a1 
00001d85 
00002274 
00004572 
00004156 
00001981 
0000177c 
000019be 
00000706 
00001e8a 
000046e3 
00003c97 
000027e3 
fffff8e9 
fffff81e 
ffffc24f 
ffffdd2f 
ffffe3ab 
ffffd920 
ffffd662 
fffff7c1 
ffffe021 
00000270 
00000477 
00000fc5 
00004aa5 
000047d4 
00002579 
00004131 
0000160e 
00000617 
00002324 
00002d56 
00001c40 
fffff69a 
ffffe609 
00001225 
fffff73a 
0000424d 
00003993 
00002db1 
0000281d 
ffffcea3 
ffffbed8 
ffffed90 
ffffc2c9 
ffffbde5 
ffffdf41 
ffffec67 
ffffede5 
fffff917 
00000f92 
00000c59 
ffffff3c 
00002348 
00003a44 
00004cd1 
00002d07 
00003537 
00003f97 
0000331b 
ffffff80 
0000131a 
000026fa 
00000248 
000035e2 
0000393a 
00004789 
ffffc27c 
ffffbf39 
ffffb974 
ffffac9d 
ffffc250 
ffffc0cd 
ffffc24a 
ffffd30c 
ffffe65d 
fffffd0d 
fffff325 
00000402 
00000363 
0000113b 
000028f6 
0000479d 
000035ba 
00003487 
00002c27 
00002a70 
00002ca0 
0000217d 
00000f27 
000018ec 
fffffec7 
0000004e 
ffffbaff 
ffff9ea3 
ffffb843 
ffff6eac 
ffff9492 
ffffafb7 
ffffd56e 
ffffec27 
ffffe0af 
fffff5af 
fffff9bf 
ffffdd6a 
fffff69e 
00000204 
00000333 
00001d59 
000026c5 
0000316a 
00002bd7 
000034c9 
0000305f 
000027f2 
00001808 
00002f0f 
00002873 
00001c2d 
fffff606 
fffff536 
ffffd861 
ffffb7d2 
ffff9d97 
ffffb420 
ffff7143 
ffffa1a0 
ffffba35 
ffffb70d 
ffffbc64 
ffffc8c4 
ffffe25f 
ffffe792 
ffffdf40 
00000ae5 
00001975 
000030e2 
00003446 
00005827 
0000669c 
00004208 
000016f3 
00003907 
000003d5 
ffffd9dd 
000034a6 
00000e45 
00000147 
fffff0d7 
ffffedd1 
ffffdf42 
ffffcb32 
ffffb92b 
00002800 
00002790 
00000c93 
0000189c 
ffffed21 
ffffeb95 
000005e7 
fffff322 
fffff430 
000021e9 
00003b70 
00004c6a 
00006a75 
0000751b 
000063be 
0000486c 
000013d0 
00004cdc 
000028da 
ffffc62d 
ffffce40 
00000ada 
00000ed3 
fffff72e 
0000059e 
000011eb 
ffffd810 
000000f4 
ffffe6fd 
ffffc336 
ffff91d2 
fffffed2 
000020f5 
00001b57 
0000193b 
00001350 
00001727 
fffffce9 
00003174 
000048fc 
00003704 
00000e41 
00005204 
00002b9f 
000009d8 
00000367 
fffff286 
ffffe0f4 
ffffe496 
000005b5 
00001b7a 
000011c1 
00000ff3 
000000cb 
ffffffde 
00000d7a 
00000cb8 
fffffac9 
ffffd05a 
ffffcc70 
ffffcc23 
ffffd2e4 
ffff98c9 
ffff977a 
ffffb928 
ffffc0e1 
ffffee3c 
00000b84 
fffff0fa 
ffffa482 
ffffa72d 
ffffc312 
fffff7ac 
ffffc646 
ffffe21e 
ffffe5ca 
ffffe3a0 
fffff180 
00001392 
00001a7a 
000002b6 
ffffeeb4 
ffffeb75 
00000437 
00000619 
fffffcd2 
ffffe660 
ffffc8f7 
fffff7a7 
ffffb423 
ffffbc63 
ffffd0a9 
ffffda7b 
ffffecf6 
ffffdc7b 
ffffd70f 
ffffca34 
ffffe33c 
ffffd953 
ffffe389 
ffffc4be 
ffffe0f0 
ffffdb0d 
fffff70f 
fffff02e 
000002b9 
fffff748 
fffff9e5 
000003c9 
00000b4d 
fffffd85 
fffffa35 
fffff168 
ffffd02b 
ffffcc6c 
ffffac9c 
ffffc4bf 
ffffd935 
ffffd23c 
ffffda5d 
fffffcbe 
ffffed64 
00000076 
ffffee6f 
ffffee4e 
ffffe0e3 
ffffc462 
ffffb80e 
ffffd2e1 
ffffb914 
ffff9717 
ffffb4ca 
ffffceaa 
ffffbb22 
fffffe17 
0000103b 
00000707 
ffffe7d2 
ffffd7ff 
ffffdf52 
ffffe112 
00000453 
00005310 
00001fef 
00005741 
000006ed 
fffff0e5 
00000bd1 
fffff74f 
ffffdb1f 
ffffe67a 
00000474 
ffffee0d 
ffffe582 
ffffe637 
ffffe5a7 
000013de 
00000df7 
ffffcc8e 
ffffa12d 
ffffbce2 
ffffd95c 
fffffa9c 
00000857 
ffffed8b 
ffffff30 
00002cf0 
00000b69 
000002a4 
00002298 
00001d1d 
00002bd7 
00002634 
00003c6e 
ffffffb5 
00000aae 
000006c3 
ffffc5fe 
ffffe7e2 
ffffe88a 
000008ca 
ffffec18 
ffffe264 
fffff081 
00000166 
000012d3 
ffffe915 
ffffb238 
ffff93b0 
ffffafda 
ffffb812 
ffffd7c5 
00000105 
00000daa 
00000e6f 
00002bff 
fffff45c 
fffff496 
00000a78 
000025bf 
ffffea6a 
fffffd94 
00000420 
00000b69 
fffff36f 
ffffe571 
ffffe3bc 
fffff8d1 
00000003 
ffffeacd 
ffffd9ff 
fffff4f2 
ffffe037 
fffff041 
fffffb8a 
fffffc62 
fffffe8c 
fffff61f 
ffffad3e 
fffffe22 
fffffe53 
00001bcb 
000008ff 
00002c33 
ffffcf36 
000000e0 
00001f8d 
00000027 
fffffe37 
ffffe4cd 
fffff0fb 
0000184d 
00000b32 
ffffffad 
0000179c 
0000127f 
000005f1 
fffff303 
fffff9b9 
00000920 
ffffec67 
ffffeead 
ffffdcda 
fffffd2e 
00001c6e 
000025c2 
ffffa0d3 
00001085 
00000059 
00003297 
00001690 
ffffedfb 
ffffcb17 
ffffdb84 
00001aca 
00001cb8 
ffffe8a6 
ffffea11 
fffff913 
0000108e 
00000483 
00000823 
00000a43 
00002774 
000000b4 
00000b5d 
00000280 
fffffd51 
fffffd0a 
fffff7e3 
fffff985 
ffffe917 
00001161 
00004bd5 
ffff72e7 
0000111f 
00001590 
fffff2a1 
0000290b 
ffffedc3 
ffffb691 
fffff131 
fffff0c3 
ffffe83d 
ffffd8e4 
00000093 
fffff8a8 
00001417 
ffffdbc7 
00001734 
00001954 
0000139a 
0000142c 
00000812 
fffffdcf 
fffff1f8 
00000293 
ffffe460 
fffff732 
00000579 
00000ba6 
00004d2f 
ffff53f2 
fffff37d 
00003bf0 
fffffec9 
ffffe4b3 
fffff6bb 
ffffd235 
ffffeb30 
ffffd490 
ffffe122 
ffffcb97 
ffffd8f5 
ffffce18 
ffffde64 
ffffe93f 
00000990 
00001641 
00002c31 
fffffe81 
00002166 
00001568 
000013b3 
0000283f 
0000155e 
fffffe1c 
00002762 
000003f6 
0000398f 
ffff4f3a 
000006e5 
00001923 
00000012 
ffffde10 
ffffcb6c 
00001c09 
00001af9 
ffffe190 
ffffe1ef 
ffffe4bc 
ffffe2be 
ffffad31 
ffffd437 
fffff396 
fffff1db 
fffff9fc 
000005cb 
fffffb2f 
0000043b 
00000f1b 
00000961 
00000198 
00000dc1 
00002fca 
000001d2 
00002494 
000004b0 
ffff9b8a 
fffffb2e 
00000c02 
fffff545 
0000307d 
ffffc0ea 
ffffe430 
fffff76e 
ffffef85 
ffffeb89 
ffffd9e4 
ffffd83f 
ffffc6f6 
ffffe507 
fffffe6a 
fffffa00 
ffffd5e8 
ffffe391 
fffff0fb 
000004ef 
00001580 
ffffffc0 
00001598 
00001c25 
00000a7c 
0000148a 
00002038 
ffffb0f3 
ffffc932 
ffffca6b 
00000489 
fffff873 
00003ec9 
fffff547 
ffffc346 
ffffca20 
ffffcb64 
ffffe050 
ffffba17 
ffffd176 
ffffbd3a 
ffffd8eb 
ffffe199 
ffffe833 
ffffe559 
fffffbec 
00000751 
00000beb 
00000fdc 
00001dea 
0000129f 
00003e33 
000033af 
00001cb4 
00002f1f 
ffff831c 
fffff8bc 
00000b91 
00000ef6 
ffffe44e 
0000465b 
00000588 
ffffb6b4 
ffffb2e3 
ffffc747 
ffffdfbb 
ffffd1e2 
ffffefde 
ffffcc4e 
ffffca91 
ffffcc86 
ffffe1f5 
ffffd57b 
ffffed8a 
fffffbb8 
fffff173 
000000e1 
fffff2b8 
000007c7 
00000151 
000008a1 
00002d29 
00001c68 
ffff7df3 
ffffdedd 
0000171e 
fffff58a 
fffff1b1 
000008fb 
ffffc76f 
ffffbf13 
ffffe05d 
fffff075 
ffffef3f 
ffffca0d 
fffff835 
ffffe4f5 
ffffcff5 
ffffa0c9 
ffffd073 
ffffe1c8 
ffffefb3 
fffffde9 
fffffa6c 
000016d3 
fffffe50 
fffff279 
ffffd88d 
ffffef33 
ffffe7d4 
00001984 
ffffe2a6 
ffffd50e 
fffff89b 
fffff6f8 
000002f0 
ffffefd2 
ffffc9a5 
ffffd48a 
ffffea41 
fffff666 
0000002c 
00000bc5 
0000070a 
fffff81c 
ffffc3bd 
ffffcabc 
fffff59a 
ffffe373 
fffff2f5 
000007b1 
fffff25c 
ffffee05 
000005c4 
ffffe1a9 
ffffe37e 
ffffc992 
ffffd146 
fffffac8 
ffffdd7f 
ffffa2d7 
fffff5a7 
00001dd6 
fffffd09 
ffffe00c 
fffff196 
ffffadc7 
ffffe0bf 
00002005 
ffffe8d3 
fffff47f 
000014a8 
ffffd5bd 
ffffd755 
ffffec68 
000013a8 
fffffef6 
fffff393 
00000d99 
00000212 
ffffddb2 
fffff246 
fffff0f1 
ffffddf6 
ffffccee 
fffffaed 
00000385 
000010b5 
ffff7c04 
fffffeeb 
000016f5 
00003a91 
ffffd23a 
ffffff71 
fffff253 
00000546 
00001386 
fffff4ad 
fffff802 
fffffbec 
ffffde41 
ffffefc3 
fffff83f 
fffff360 
00000f8f 
fffff44e 
fffff866 
fffff9b3 
000008cc 
fffff23b 
fffff868 
ffffe7d1 
ffffcd0a 
000000cb 
00001b55 
00003f42 
ffff7f1e 
fffffb67 
00001266 
00003837 
ffffe663 
ffffcf46 
00000d67 
fffff715 
00001200 
ffffdca5 
0000012a 
fffff0c2 
fffff068 
fffff385 
000007e5 
000015ca 
00000017 
00000fb9 
ffffe94b 
fffffb9b 
0000060d 
00000135 
fffff469 
fffffd96 
fffffd4b 
00002204 
00000b31 
00002c01 
ffffbefd 
0000084f 
000011b1 
00001d3a 
ffffe631 
fffff620 
00000450 
ffffcf1c 
ffffe203 
ffffeef9 
ffffe3a0 
fffff0c6 
ffffea88 
ffffd1d6 
0000072d 
00002291 
fffff476 
000008e3 
fffffa4c 
fffff423 
00001944 
fffff591 
00001bbd 
fffff778 
00001524 
0000272d 
000016fb 
0000090f 
ffffb890 
fffff53e 
00001309 
ffffe1f6 
00001d62 
000002f3 
000006dc 
ffffe63a 
ffffdd3d 
ffffd482 
ffffd50c 
00000355 
ffffeb6c 
ffffef50 
000006c1 
fffffbff 
ffffd8b9 
00000388 
ffffef00 
00001f14 
0000076c 
000005f7 
00000db4 
0000143f 
000024f7 
0000280a 
00000097 
fffff2d1 
ffff8df2 
00000dc3 
00000523 
ffffe383 
fffffdef 
00000b82 
ffffd4ef 
fffff828 
ffffe50d 
ffffff4a 
fffff01c 
ffffe6bd 
ffffdcad 
ffffc2bb 
ffffd25f 
fffff527 
ffffd6db 
fffffe87 
000022fb 
000016ac 
ffffefb9 
fffffd3b 
00000690 
00000fc9 
00002a32 
00001729 
00000b00 
000023ff 
ffff907f 
00002036 
000019f2 
00001984 
ffffec47 
fffff8f8 
000000ad 
fffff18f 
fffff19b 
ffffdb1e 
ffffe459 
ffffe79d 
ffffca31 
ffffb445 
ffffabb6 
ffffeac3 
fffff2a4 
00000c4a 
00000275 
000000f7 
000008f5 
00001613 
fffff3bf 
00000eaf 
0000133d 
0000180e 
000029b4 
00002718 
ffff8b0d 
000014b4 
00003577 
00002153 
ffffcd9b 
fffff023 
fffff010 
ffffcfee 
ffffeba4 
ffffed83 
ffffe53c 
ffffe1fd 
ffffe087 
ffffcad9 
ffffd109 
fffff0ff 
ffffecb9 
ffffecf4 
fffffb6b 
fffff9d6 
000011aa 
00000150 
000012fc 
00001100 
fffffc1b 
00003b1b 
00001298 
00001658 
ffff9db1 
ffffe384 
0000124d 
000041aa 
fffff180 
fffffd44 
ffffcd47 
ffffc58e 
ffffd033 
ffffc853 
ffffe38a 
ffffd457 
ffffe084 
ffffd43c 
ffffd198 
ffffe096 
00000f99 
fffff1b7 
fffff528 
fffffed6 
00000981 
000004d5 
00000875 
00000cb5 
000008ba 
000017ee 
000024e7 
fffff3a9 
ffffc813 
fffffedc 
0000078a 
000049a9 
fffff732 
00001c9c 
ffffe5e6 
ffffe697 
ffffe099 
ffffcdb1 
ffffbaa5 
ffffc779 
ffffcc9d 
ffffe50a 
ffffc4c4 
fffff3a1 
ffffe64c 
fffffa2b 
fffff1df 
fffff562 
00001b86 
00000389 
000004c1 
fffffb2d 
00000d23 
000009c0 
00001917 
00000289 
ffffe691 
ffffec9a 
ffffec85 
0000404a 
ffffe237 
00002cca 
00002ef1 
00000fed 
fffff4b8 
ffffdcc2 
ffffe640 
ffffe6e5 
ffffeedd 
0000025b 
ffffee25 
00001c2b 
ffffef6b 
ffffe4c4 
fffff949 
00000753 
00001876 
ffffe60a 
0000259f 
fffff823 
00001065 
000017ed 
00001a6c 
ffffe047 
ffffd67a 
000003b3 
fffffdc0 
00004364 
fffff03c 
0000088c 
ffffdf73 
ffffb901 
ffffd9f4 
000006bf 
fffff91c 
ffffff0b 
00000471 
00000bef 
000010a8 
00002eaf 
fffff1d2 
fffffacf 
fffffde8 
00001a18 
000021bf 
00001341 
00001551 
00000be3 
ffffe37b 
000000c8 
00001684 
ffffda81 
00001196 
00000ed3 
0000018a 
00001eea 
fffffbc5 
00000bdb 
ffffe994 
ffffe400 
ffffef96 
ffffe3d9 
fffffee9 
fffff4e7 
000004f7 
00002653 
00002f6b 
00003d77 
00000e69 
ffffcf8e 
00001207 
00002268 
000015c7 
ffffefc4 
fffffdc2 
fffff534 
00000dfa 
00000451 
fffff38c 
ffffb2a6 
ffffe896 
00000535 
0000153f 
00000c23 
00000bdc 
00000c8e 
ffffc8e8 
ffffbc65 
ffffd91c 
ffffcd47 
fffffacf 
fffff6f1 
fffff172 
fffffbe0 
000016f3 
000058d1 
00000fa2 
ffffd5bc 
fffff0ee 
00001295 
0000072b 
ffffebd9 
fffff1e0 
ffffda62 
ffffe97d 
ffffdb60 
ffffbaf8 
ffffde30 
00000867 
fffffadf 
00000bff 
fffffb28 
fffff5e8 
fffffe86 
fffff4dc 
ffffbdac 
ffffc351 
ffffdfbc 
fffff0f8 
ffffc8ab 
ffffe111 
ffffea23 
ffffdeac 
ffffb358 
fffff8ef 
0000123d 
fffff767 
ffffc6ad 
ffffb994 
ffffbff5 
ffffa74a 
ffffee96 
ffffca98 
ffffdd25 
000014b5 
fffffdef 
fffff29f 
fffff861 
00000854 
000007f7 
ffffee6d 
ffffb930 
00000911 
00001e67 
00003e6c 
0000614f 
ffffe453 
ffffe6b1 
00001873 
ffffe6e4 
ffffd52b 
fffff78e 
fffffbd6 
ffffeb11 
ffffeb92 
ffffebe1 
00001aec 
0000329b 
ffffeaee 
ffffb48d 
ffffd1af 
ffffe3a5 
fffff579 
fffffe86 
00000468 
00000d93 
00001cd7 
ffffeeb5 
ffffecf9 
00002682 
00001ec2 
0000136e 
fffff15f 
