3eda8878 
3e24315f 
bf3d640e 
bed47555 
bf2eb40f 
be7ee339 
be034d60 
3e8814e3 
3ee2ce50 
3de64243 
bdd6780a 
bca752d0 
bdceaf2b 
be6461ba 
3edc0808 
be4764e9 
be862920 
3e2f6b49 
bd695baf 
bf07deb2 
bf28ceeb 
3e9fcbb5 
3e2041d3 
3db8d0cd 
3dd308eb 
3ebabfd7 
3e5452dd 
3f09e9e9 
3ebd8183 
bdbc4f98 
3f0e4977 
bd645a71 
3e7da626 
bdbc9218 
be395fd6 
3e31fdd4 
bea8792b 
be559143 
3e9f0620 
be6f1da3 
be0c02af 
3ea58971 
3e2a19f9 
bde44d4c 
3e930c37 
3f094a77 
3f01c825 
3c80513b 
3e17fc81 
3d5afc22 
bdd846c3 
bcf972a0 
be8e5c62 
bf68e1b2 
3dad8fd1 
3f0bb07c 
3ea9148f 
be383e66 
3ea50b39 
3e9e183c 
bf45a17f 
bef6fa3c 
bcceb9e1 
3c488184 
bcbc812c 
3ecc455f 
be99b2d0 
3e4ffc65 
3e7da9b2 
bf2a0bba 
be8338fe 
3e9027b5 
bf4fc2da 
bf38dd8e 
be8f1026 
be979966 
bdcbbb57 
bf0fea21 
bec00f04 
bf1c2973 
bec9cbf1 
3ea42d06 
3dd4542f 
3ee08353 
3c8ecfaa 
3e923643 
3ef62c23 
3d8df5af 
3e25de9a 
3e8bfdc2 
bcc27b93 
bd9c1161 
3e0dbed3 
3e105973 
bcc40dcc 
3eb5a6ef 
3e6cd68e 
3e895231 
3e813331 
3efc462e 
3d22d033 
be1f7dc5 
3e0630bb 
3e69c184 
3e1bd23a 
3e8d9ec8 
be3dcebc 
be4aae6e 
be0be037 
be97cc93 
3e9b2e34 
bd113c77 
3cd4424e 
3e6f4b2e 
be2e1b9b 
bdc89dc0 
3e311c1a 
be8bb93c 
bea5ec27 
bdfac960 
bd97075a 
be2da74a 
bf0ecc9e 
bf1a6e3b 
bf1137f1 
bf0a5dca 
3f16f0b1 
3dd2afe3 
3d35610f 
3f31dbfd 
3cf57dad 
bd43a92f 
3e5bf004 
3e0427bc 
3c9b53ed 
3f1668fd 
3f0814fc 
3e96d13e 
3e00fb1f 
3ef92066 
3f28b693 
3d9cb92e 
3dac2991 
3dcb283f 
3e9b04f0 
3ee6e7ad 
3e11f98b 
3e8ad244 
3ef1da35 
3dadecbb 
3f4129d8 
3ed8ef65 
bdf95f86 
3df5dee8 
be339355 
beb16e6f 
3e6dd1d6 
3da22a6b 
3d171d1b 
3ee099ab 
bda03718 
3b72a916 
bdf89ae0 
3e94217b 
3e89bbd5 
3da33023 
3eff7c69 
3da25a02 
3ebcff85 
3d968d28 
3f0222eb 
bcd6a0d1 
3ca32e62 
be7f8ead 
3e48494c 
3c8526d0 
3e592e9c 
3e8b6187 
3bf96ec3 
3e9de52d 
be54c602 
be89f50b 
be62687c 
bcf53a19 
3e572347 
be34b91d 
3c0ac300 
3e23e06b 
be5aff5f 
bf285eb0 
bf092f43 
bf0c8072 
befeca8b 
bf056b81 
bf3dc25f 
3eacba3f 
3e09ffa5 
3e34196b 
bef93384 
befe22e6 
bf04d822 
bc8d8b80 
be0ae784 
be596160 
3ed85719 
3f3a495e 
3f7c604c 
bf1cc7df 
bef58866 
bf15c7ce 
be937217 
be8e3347 
be947f90 
3e3ad800 
3e053072 
3e1f1b40 
3e397e36 
3ee1a3f6 
3ec9659f 
3f3c2f22 
3f24111f 
3ee1af6c 
3f2ddafa 
3f646e84 
3f070973 
be3aed63 
3d82856c 
3f09f30e 
3e1bb03d 
3e8f79b3 
3ddc245d 
bded1f94 
3e1cdb04 
be05e111 
bdd71d90 
bf1e6d3a 
bf40bc35 
beb500c1 
b999328a 
be46e8f5 
bdf5af0d 
be24d33d 
be80f3f8 
be596ec8 
3e397411 
3d5786e8 
3da1c588 
3e8dfed4 
3e9f248c 
3dafefb1 
bd1086d3 
3ea08435 
3ed3079f 
3e9d11df 
3ed77c5e 
3ed16078 
3d216aa2 
3e8efa69 
3ec1dcbc 
3e849452 
bda4c8e7 
bcba7c74 
3e6918e4 
3e9f8e91 
3ee3feb5 
3e802f6e 
3d501169 
bcb8b83a 
3d7b3b4a 
be8c7674 
be50779f 
bed1a1c3 
be648671 
be8f3252 
bd57a768 
3df8d4a7 
bd87ffbb 
3d6d97e6 
3e7b6864 
3bec4860 
bea5bcb9 
3e5126d5 
bea25b00 
bea176bd 
3e823be8 
3e089095 
bd10e4d2 
3dbc127b 
3c2bd3b6 
3db1cf16 
3dbcba1a 
3d024425 
3dc6b328 
bdb3c30a 
bd1e75e7 
be25639b 
bd6fc258 
3c23b5fd 
bd1a215d 
bc5c3cc3 
bc172fd0 
3d99db40 
3d63450e 
3d612d09 
3c9ee319 
bd99b918 
bdc64fa8 
3be76865 
bd35f8b8 
3d16ea82 
bddd3558 
3d6496a9 
bd474ea7 
3bfc5900 
bd00c820 
bc457fc5 
bd03f183 
3e833a6b 
3c81bf25 
3e21bcdc 
3de2615c 
bd03ad88 
bda73f38 
bd9a2f9f 
bd62f704 
bdd749a1 
bdb8bbed 
be97e693 
be384bdd 
bea95618 
bdf6ff0a 
bd661f68 
bebe7143 
be533f10 
be8dced2 
bd97dbc4 
be66234c 
bdbf4fd7 
be198d2c 
3d1bb445 
be402e19 
b593c400 
3db1d2b4 
3c5e35b1 
bcce4959 
3e10aa15 
be583ff2 
beac7f48 
be0983e0 
bdbe0f0c 
be04cb6e 
be91fe9c 
be0e84d2 
be21cad0 
be04e173 
bdeccdc0 
bda1c764 
bcad7460 
bbce50f3 
3c7e97bb 
bea69bd9 
be8fbe08 
be887943 
be57a502 
be6e9456 
beb0b652 
be27d56b 
bdb4ff0e 
bdccf5de 
be42ee4e 
3de7a850 
3e512ea5 
bcbadb52 
3cc23bc3 
be8e14f3 
be36120c 
be50aaa7 
be15c6f9 
bc48a8f3 
bd6ac4b9 
bdc70a71 
be03d25b 
bc702347 
bc626ea0 
bdb2773f 
3bc6414c 
bcb06105 
bc499135 
be3eb800 
bd6cf05f 
3e0d6fd3 
3e81f39a 
3d561fa1 
3dbb598d 
3e52c2ed 
3d33d9a2 
3db807a1 
3dd61b8d 
be8179ee 
bdbadb38 
bd0459a4 
be0461d4 
be9ce985 
be582b32 
bd84580f 
be229c3a 
be22aafc 
bdd64e7d 
bdca62bc 
be4ad717 
3ba6a66d 
bcdb2a0b 
bc3e7100 
3c9cdbdf 
bd5730e2 
bd416826 
bdeaaabd 
bd8d893e 
bd8a6a3b 
bd153228 
3e35276d 
3e26b843 
3e0e8435 
b9119de4 
bd8cb18f 
3d224350 
bc7ae3bf 
bda9e338 
bbd766a5 
be9c6228 
bdfb8ceb 
bc860ab1 
3db5b3f5 
be06e5bb 
bdf9b578 
bd9f447d 
bcba8cde 
bc618a3b 
bd9d4767 
bc0a4072 
3d8401d0 
3c3068e9 
be495816 
3d862833 
3d87b821 
3dc94bfd 
3e24251d 
bda9d4eb 
3d4ce88e 
3dd7cc5d 
3dc4acf5 
3dbb8068 
3e469508 
bd15df82 
beba41b4 
becd3cad 
3c2a2feb 
be691a3c 
be70f9fa 
bd3911b2 
3de62402 
bdd07c72 
be17b401 
bd37bab9 
bc02ced1 
bd6f2ad8 
be1cc9a0 
be1e98ee 
be415285 
be0928a5 
bdc759b5 
3b7bcf68 
3e064341 
3e4ee65f 
3bef53fa 
3d9e965c 
3e3e2bbf 
3e8c9a96 
3e173a97 
3da54570 
bca30878 
3ba041ad 
3e59da68 
baf76af2 
3da34cc8 
be0a1ace 
bea42008 
bd4b74b7 
3e2fc56e 
3ce54c08 
bce4db38 
3d13ac43 
3dccef74 
bd27f1c6 
be3d82df 
be84fcf8 
bdcd6679 
bd19aed6 
bda5dd79 
3c46e913 
bd6ccc8c 
3df77542 
3e09acef 
bba8be71 
3db597c8 
3deb8907 
3e64f2b5 
3dd91317 
3cc33873 
bd471995 
be4183dd 
beaa3507 
3e79a3c9 
bb36187d 
be66d139 
bda7c032 
3cf7cf37 
3c3cae71 
3d704dbf 
3df15052 
3d9f2a4d 
3d8a12a2 
bd850ced 
bc51d9ff 
bdb3bb74 
3df1021a 
3e0f4d13 
bc0d0f7f 
3d1d84e1 
3d49d5ac 
3e5a25a5 
3e25b5bc 
3dbe8a54 
3e1bfbb3 
3e61a300 
3dafddae 
3dd058db 
3e613ca0 
3c96e3c6 
bdcc3cfa 
3e13eac1 
3e46814b 
be40c8a9 
bd727b0d 
3d91667c 
3e4b72f0 
3c816583 
bd7087f9 
3a7cd41a 
bd601d35 
bcf7cd79 
bd80e9c7 
3b8d2b9b 
3e04f4ca 
3e206074 
3d9b73c8 
3cf198cc 
3dd8b3e3 
3e1a11d7 
3e62157f 
3e057d3c 
3e3be3c0 
3e85f153 
3e5a55e9 
3d808d2f 
3dd91586 
beb053df 
bebec30d 
3e88a4ae 
3d991486 
be9e82be 
bde00cd5 
3db4c199 
bc510ae8 
3d5686e8 
bd5c4a4e 
bdc6b498 
3c969557 
3c8f0c89 
3d96f97d 
3cf31d1d 
3d9bb4bf 
3d193139 
3de53c82 
3d167ef9 
3dabcb55 
3dae061a 
3cd3de68 
3deb98a0 
3e0c5169 
3e1a04fb 
3dd5f189 
3e5d4f7d 
3e2d1df2 
3e04a149 
be7ba96b 
3e102bc4 
3db0a685 
be458d65 
bd7b864f 
3d59b6a0 
3df24c8e 
bd191abf 
be0ea3a0 
bd93bb13 
3d337e7e 
3dac0b4d 
3dba5a1d 
bde11284 
bdf827be 
3d6c2314 
3dbad5b1 
3da5694e 
3e2b78ac 
3e0a1b1e 
3c73f01c 
3dbba7ac 
3e52f822 
3e2be94a 
3db8903f 
3df59cb3 
3e4f9aa0 
be0695a8 
beada6de 
3e6e314b 
3dbc170b 
be412043 
bc981951 
3e37749c 
bcaa2a34 
bd68aab8 
bd49cdc5 
bc26b9c7 
3d88c55d 
3d2a38a1 
bd50bdb4 
bdb4e251 
bdfa43c8 
bbb47e27 
3e11a09b 
3e2e8f02 
3de39ea5 
3cff8c4e 
bd10847d 
3da360df 
3e31ca18 
3e028d98 
3d3b91ad 
3e57815a 
3da01491 
3bb1028b 
be71600f 
3d8836f5 
be101634 
bd845246 
3d723ac1 
3c0bf42e 
3d0b8d06 
bc1a8841 
3cd90c29 
3a3be69d 
3daee7e1 
3e251e1b 
3dcb9052 
3d2feb89 
bd1beed0 
bc65a9fa 
3cda029e 
3e866f6e 
bc971d04 
3da3f1f0 
3d483174 
3da8274a 
3e50819a 
3e26d688 
3df835db 
3e7434c4 
3c59b999 
bdaa042c 
be8f2a2c 
bd642c39 
be4d6db5 
bda324b2 
3e178ff1 
3de99f8c 
3da39dc7 
bb000df8 
3d781e9f 
3d102c88 
bd0746c7 
3da56ac0 
bcb70aa2 
3bb04a55 
be82dff5 
be27bfa6 
3dbc255a 
3e19c19a 
3dfca0c6 
3ddf7bbe 
3ddc5854 
3db6c151 
3df20a43 
3e361bc8 
3d815c90 
3d1cb503 
bd6919af 
bd6d87c1 
bea378a9 
bd8bde21 
be4316b8 
be02c096 
3dd42f1c 
3cf187c6 
3e1f3de6 
3e268f10 
3de1f398 
3d5bfd79 
3ddc1f56 
3e2bfc3b 
3d5b4910 
bc2f86e8 
be1d1f45 
3c75e48e 
3e3ff3bc 
3c57237a 
3d8f11af 
3e482305 
3e357bc1 
3e00d726 
3db5f407 
3d63e7af 
3de3b9cc 
3d29a0ad 
be04036e 
3e294bb5 
bda531e6 
bd955d9c 
be39d0fa 
bdc64214 
3e2739ae 
3d4824ea 
bcd36320 
3e34b081 
3d6c670b 
3db8b618 
3dbaec04 
3cb60945 
bcc594ba 
bdce5ef1 
bd8017a1 
3ce0b345 
3d20f145 
3d4acada 
bd8fc3e6 
3ce20426 
bd20e834 
3d400d84 
3d09ae82 
bd8cecca 
bd2420f5 
bd116158 
3dfe532d 
3eb9903c 
be3938ec 
bd3936d6 
bbdff7a4 
3dc8ea9d 
3d708950 
3de14f62 
3decafbf 
3d8feda1 
3e0520b8 
3e0a6888 
3e019df1 
3c1c2408 
be3cca5a 
bdd4c5ac 
bc1ba1ec 
3e030af4 
3db174f7 
3a96f9ea 
bcd10a2d 
3d00e4f4 
bcf821e3 
3d7f9c9f 
3cb65869 
be35ce71 
be60bdff 
3bbe8072 
3d40c6d1 
3d3101c8 
be869d3a 
be01fd86 
3c465b21 
3df3ea5c 
bd31faad 
3c09a099 
3e064731 
3dc83e87 
3c876340 
3d919d8b 
3de1e14f 
3d91e212 
bbd40c26 
3d8e0129 
3dbcc2e7 
3cbe2e18 
bcb44b09 
bc86ff8d 
3d755c4d 
be238e0d 
be5437aa 
bcedd66c 
bde1c6d3 
babcbfa1 
bdfa8bfa 
3d168227 
3df9dac8 
3e697575 
3df9bb07 
be3e90bc 
3dca93be 
3dcfa181 
3d9bb8e8 
3c456b90 
3d2903c6 
3ce22ffb 
bd285966 
3db22631 
3e2399da 
3e5022bf 
3d9f10b7 
be04aee7 
bd318f05 
3dac1f96 
3d7fce39 
bd765873 
bd9d10ca 
be9e9e95 
be879f48 
be171e56 
bea490be 
bea54d3c 
be561751 
3cd5509f 
3dc8dd6b 
3ddbfe1f 
3dc0d813 
be24060d 
3e2baff9 
3e9020a9 
3da9a20c 
3d913be7 
3d73dcdb 
3d94e33e 
3d0b832b 
3d03d126 
3d7f8973 
3d0fd452 
3df0af1c 
3dbc640f 
be11378b 
3d754d24 
bd6676ce 
bdb6dacd 
be38b1a3 
be057c18 
be8b4a27 
be38102b 
be14d2ba 
be988eb7 
bea87ece 
be6c04bd 
3d3b9614 
3d805f1e 
bdf4ef0b 
be6a0518 
3dcfec62 
3dc3df76 
bc473397 
3cb025c9 
3e401e05 
bc0172a9 
3d864766 
3da9b1b5 
bc34d296 
3e000bdb 
3e34d20d 
3dbd7917 
3dcdc479 
bce6a7bb 
be12bfd4 
be9abba0 
be8c8af6 
be8bd5ee 
be83b6c4 
be1583e9 
bdf630a2 
bd80f250 
be736e84 
be939356 
3da3680f 
3cdc14fa 
be806805 
be813083 
3e7ff3a2 
3db97574 
bcb2da2f 
3dc7d6c7 
3e898ddd 
3d9dffb9 
3debbae4 
3d4f3d2d 
3c8fe7f9 
bd8534be 
393bc7fa 
3e01a26c 
3da8fc71 
be721866 
be22fe4c 
be304725 
beb127aa 
bee0825a 
bec91b59 
be92d947 
be9e3f23 
be90245a 
bebe63de 
be6782b8 
3d824164 
be510b90 
bcd7d631 
be90ca2a 
3d9425f3 
bd875018 
3cc9f7bb 
bcae34c5 
bc905353 
3e0d780b 
3e1e62dc 
3dd8a6b8 
3de070b7 
3d6cd158 
3d3eea9f 
3c2e3f24 
bccf09fe 
be015f6c 
bdd59b71 
bda1aabb 
be560055 
be9ecf53 
be8c0e7c 
be2178cb 
3ce22f79 
be5fb24e 
be42137a 
bd8001db 
bd0e6e41 
be456b46 
bcd858e5 
bdad377d 
bcdb7099 
bda30ce6 
3da0e8e5 
3d97e504 
3d741550 
3d433c04 
3e2bd113 
3d950dd4 
3be25249 
3de9883b 
3e0feb0f 
3c592cf6 
bdc60657 
be606117 
be2101dc 
be2a822a 
be02f594 
bd66c072 
bdc95d16 
bdd97174 
3cdf424a 
bd7400ff 
be19fd69 
be6e9220 
be898b69 
be5ab19e 
be1da26e 
bde80e7f 
bdc82525 
bdd64e21 
bd397d09 
bb2142b6 
3d03cacd 
bc8fd235 
3e286824 
bdbc878d 
be4bbbe4 
be45726a 
be44624d 
be5e299b 
be4ab5f6 
bdca80f6 
be5b40e0 
bdf1cea0 
be3cbabb 
bdba2c62 
bc68f866 
be26e53f 
bdd44079 
be49e40b 
be5b11a2 
be1d898e 
bc4f1ef2 
be03d8b1 
bdc4bf13 
3cd2aeea 
bdba6397 
3cf18d7f 
3d3abdd8 
be3ceafb 
bdccc943 
3cecb694 
3d02fa80 
be1bee50 
be6e4f73 
be54b5c4 
be33f5a5 
bedfe78f 
bee87509 
befb4b54 
bed5e463 
be60574b 
be9f3494 
becc2de7 
bf025d51 
befe80d3 
bea717e4 
be405a07 
be01791c 
be0aefb0 
bdf721d3 
3d1eeb3d 
3c931cbe 
bd5e6af8 
bbbcacdd 
bd98a339 
be719d9a 
bed07756 
be536c8f 
be12d33c 
be37c1c5 
be2c5609 
be18ad71 
bdcd1767 
be392246 
be3870a8 
be3b4c09 
beb5b306 
becc63c0 
bee9e770 
bec47394 
beda1283 
beac8ea1 
be164894 
be1453fe 
be539d73 
be5c93c0 
bdc35b30 
3d63f562 
3db70ab8 
3d6e107d 
3c514010 
3e4a19b5 
3e6246fb 
3e44ceb8 
3e370228 
3e6f74ab 
bdda8f0b 
bd48c391 
be1e4264 
bcd7faf4 
bd9e0611 
bd39c3f0 
be474816 
beadadbd 
be2f91ec 
bdd92a04 
bdc18c90 
bdda3019 
be4f3c24 
bd9805e8 
be87ead5 
be3a309d 
bd9fee48 
bd9ed2fd 
be32220d 
be3d3806 
bd0b09c0 
3d33b168 
bd9ca357 
3e1ea77d 
bd002b4f 
be452014 
becc56db 
bea7f556 
be7b81b9 
be332b38 
bce18e02 
be05df21 
bd8dc724 
bcd2275d 
3b197098 
bc2e70ca 
be23f3bb 
be0b7847 
be887b15 
be5304a9 
be849df5 
be91f6bb 
beb281ed 
be6f8e81 
be1d1aca 
3c19b172 
bc105e60 
bd1a7e29 
3da7186c 
3de11274 
3cf4e470 
3da1a7cb 
be531738 
be5834ca 
bedf73d0 
be5358c9 
bdf9c05b 
bd392e77 
bc9db503 
bd3144d5 
3d150fed 
bb6c1c92 
3db7d336 
3d769857 
3bcf18e6 
bd2e7b2a 
be456380 
3c5339ac 
bda23e29 
bd913cc8 
be49930e 
bdacf642 
3c94d227 
3dcce675 
bd9423ba 
bdc04332 
39578e33 
3dc40ccf 
3c0ea4ca 
be8574d5 
3d32b67c 
bec11326 
be0ab0c2 
bdc160f0 
3ce7ed23 
bd0fc734 
bcf0e7fb 
ba9b6dbb 
3d238ef7 
3cf72cfe 
3c7cf563 
3da4f2a1 
3d34dca0 
3d1f0e36 
bc4476e6 
3db0f540 
3dd259c4 
bd16a3f2 
bb741158 
bd89e2d1 
3d0431b1 
3d0e8501 
3ce9f444 
bd3216fe 
bde95cb5 
3cc61c13 
be0c83a3 
be5ed2a0 
beb577d4 
be3946dc 
3dbecaff 
bcb3aafa 
bc051e92 
bdf3fcd1 
3d3e5160 
bc86de11 
bd50ce6b 
bc55a688 
bcba17d1 
3e0ba1fb 
3da39158 
bd697fc3 
bd1aa567 
bd50f4ab 
bcae38ef 
bd082111 
bdc24089 
3d08b5e4 
3da18500 
bd43cb95 
3c57efbc 
be2f60e5 
be80797a 
becfa180 
be54fd27 
be20c574 
beb55378 
3d5cb333 
3d818d5a 
3c7588a2 
3cd4a429 
be13e63b 
bcb6ac73 
bd3ae582 
bd6ad4cc 
be353fc6 
be08ad45 
bd9f8afd 
bd8a2165 
bda67627 
bd91a3bf 
bdf13663 
be34f34d 
bdf16d92 
be05787c 
3cae99ab 
3dd50d76 
3d155c85 
3ce62b5d 
be64f12f 
be656f76 
beeef745 
3e703436 
3ea34460 
be4f76b7 
bdc658cb 
3cb567b2 
bdb7803b 
3be98e1c 
3bdecb24 
bbcd73f1 
3dd568ab 
be503dcc 
be47fc3f 
bda37914 
3d8a889b 
bde7f1ee 
bd1529c4 
bd0412f8 
3d23ec7f 
bdc14383 
bdc64b90 
bd236802 
3ca274c8 
3d455131 
3e03df70 
3ddeb7a7 
3c6bf80a 
be244035 
be7c1661 
3eb9b05f 
3eab3479 
bd04bb8d 
be6c8b3d 
be31d0e3 
bd92d08d 
3c13737d 
bbbb62c6 
bd22e3ea 
be00a1e3 
3ba38f12 
bda99f12 
bda69ea3 
3d831075 
3da80cf1 
3d820251 
3da89567 
3d09828d 
bd9a90e0 
3b9bcb2b 
bd759a50 
bd681489 
3d7bd702 
3e129c4a 
3e89e9f7 
3d6550e2 
3d364881 
bc338e88 
3ec38acb 
3e9cfbeb 
3e0275a1 
bd871d0c 
bd5de404 
3d97dc6d 
3e06b8c5 
3cb3f742 
bd3b8a55 
bc22edf0 
bdd16e97 
be1d5b01 
bccadc90 
be34559b 
bdd4488a 
bd0c4cf6 
bc9c919d 
bd635c50 
bdb87370 
bd486cba 
be172c6a 
be274869 
be27ea6c 
3c5380cc 
bdead838 
bd7765e3 
be2f83f6 
be7e60cd 
3e9080e7 
3e922d51 
3d7b69df 
bd3dda6b 
bdfcf19f 
3d67e366 
bcc79c5f 
3c9e3887 
be623522 
bdd74f12 
bcd0bdee 
bc081781 
3dd533c8 
3d5b0207 
bcd299ad 
be03e853 
bdaab6a1 
bd0c8f9c 
be03e06c 
bd3d20d5 
be323c27 
be28e91c 
be5821fe 
bd6929a5 
bdbbe470 
bdfa71db 
be480921 
be9afae5 
3ea7d092 
3ecb0b38 
3ab4e829 
be38242c 
be46273a 
be128edb 
bdb23e66 
bd14b665 
bd52dc7b 
3c9bdec8 
3d69181b 
bd7a061f 
bda61c1e 
be2078d4 
be198d06 
bda703fd 
bdd10c3d 
3bf8a3b5 
bd6be441 
be65b858 
be57c042 
bce39eeb 
3d0515a4 
3dd0b917 
bcd29649 
be03d1f0 
be5722c0 
bee54ea4 
3eba9a84 
3e292489 
3c87510f 
be17cde4 
bea31604 
bd7918fa 
bd15d7b7 
bde573b8 
bdcdd815 
be0f1f04 
3c1874f6 
bbc0e0b1 
bb6ea3e5 
bdf004a4 
be479056 
be86e0f7 
be42f3b6 
be8c83a6 
bd8c8954 
bd282e27 
be0a579c 
bddcf97c 
bd839de4 
3d9d42bd 
bd61c4dd 
be0143ac 
bd5a409e 
bf02dc61 
3c9c6694 
bd8ac82b 
3d610656 
3e5d4583 
bd9348c1 
be9ba69f 
be4ce0d3 
bdbcbf33 
3c26e0dd 
3c90e6ca 
bd66bc8e 
be4bc0de 
bde233be 
be740603 
be5b3385 
be92a1a6 
be992385 
be8c26f5 
be156bb7 
bd8f0308 
3bdad008 
be072f81 
bd95f16f 
3c4637db 
3b879992 
be451f12 
bcc2f95a 
bec71785 
3b2509ab 
be20d05a 
be949a8d 
3d288ff6 
bd4542de 
be5cb4f2 
be3f5a65 
be186ce7 
3d1ec6bd 
bcb05c24 
bcc8e845 
bb0db6ba 
be49f1b4 
be859d2e 
be9b8443 
bed06f15 
bed5d50a 
be55b7a8 
bd826d93 
bd848392 
be2f7c73 
be36f4b7 
bdbdc27e 
bda03964 
bdcf188e 
be5ea6f2 
3d53d03c 
be8bf1e1 
bdccd491 
be97df15 
bd47f692 
bdad9978 
be4425e5 
3be7e9c1 
be870458 
bc8abe51 
3ce64e90 
bdf15901 
be3f22b7 
bcc7064e 
be456c7e 
bea386b4 
be9eab73 
beb580cf 
bee26690 
bec33113 
be07b86d 
3dcebdab 
3d40beb6 
bdbc8386 
be830ff9 
bbb40c50 
3db207c1 
be960381 
3d30d99b 
bebb3647 
bcd7000b 
bc9b8f36 
3daf2670 
bd54cd83 
3b1b2855 
bbc77779 
be60b507 
bd977b64 
be1c4612 
be193c08 
bdcbbaa5 
be00dbaa 
be44d07e 
be8b2a29 
bec3a1be 
be44efca 
bdda8447 
bdc4bf47 
bc1ba479 
3d6ec218 
3d67b34d 
bda4ce11 
3dbef1bc 
bdcd6eaa 
3d2a3d41 
bd036a43 
3c8eaa46 
be379eb1 
be6c0e3d 
bca5b050 
3d81495b 
3d2a0d23 
3cf948b5 
bd844e94 
be1d690e 
bdd20166 
be4a7913 
be325727 
bde1d23a 
be98cf6f 
beaa1a97 
bea6af62 
be2a5bc7 
bdb8b4bf 
bcae9b37 
bac0beb9 
bd2980ea 
3a2a2d52 
bdbfcd65 
bc568155 
bddc6263 
bdc91342 
bdd6af6f 
be389f91 
3db459d1 
bcd7ddaa 
bda90709 
3d7052a9 
3dd29714 
bd35ce38 
bd9e401e 
3c5bccc8 
3c005527 
be290ced 
be5d6a38 
bdcfe2cd 
bd9900c3 
bc6242ec 
bdc1f9d9 
bd38ed19 
bc6132c1 
bd8841e8 
3d218c41 
bd49bd29 
bc0909f3 
bde376e0 
bdaf52f4 
be20799c 
3d9b38b8 
bc633104 
bdc95bb5 
bd55a795 
3adcc9c8 
3d2b6caa 
bafcfaf4 
3d809b43 
bd3e72be 
3d932d51 
bd60dcc7 
bd92fdcd 
3b795b89 
bd1a36c6 
bd774133 
3a2b407a 
bcd0d5db 
3c95b987 
be0e4261 
bc3d4121 
3c3dc1d2 
bd17dc3d 
3e0aed2e 
3da8b7f4 
bbd388d2 
3db5ec0f 
3b4f2192 
3cb4e358 
be195080 
bdcd2ebd 
bd8d79f0 
bea11b31 
3d823119 
be4e295e 
bd909cdb 
3d4b5933 
3d14c40f 
bd106a47 
3d5bc8cb 
be538c57 
be050d37 
bd750138 
bdc066da 
bdfe1533 
be57199f 
bdaad26f 
3d0632af 
3de84cd4 
3b9d0b2d 
bd03a9bb 
bcff52dd 
3e035fb9 
3d0ae29a 
3e232477 
bcdc3697 
bd97150e 
be8dd070 
be8b0406 
bd324825 
be70573a 
bc31f8ca 
bdc7a598 
be0bdccf 
be0f8d7b 
be56f2ea 
be6f95b3 
be7396c2 
be6644e6 
be8f2589 
bec37a59 
be3bd5d4 
bbd9444e 
bb81cc20 
bcded637 
3c6bcc93 
bd46a960 
bd0c42fa 
bd322a62 
3dc0e7c1 
bdb3c4df 
bc44d216 
bbf5c39b 
bdf91306 
be24f04e 
3e01859a 
bd1e4718 
be4766d5 
be8112bf 
3e278be2 
bd88df30 
bc30b97b 
be068ef4 
beb0e802 
bed61b69 
bef6c78d 
be5fcdf6 
be9e32e6 
3c0cf710 
bd5b4aa2 
3da24b6e 
bd638e09 
bcd79817 
bdbe8f2f 
3d615ef9 
3da1a878 
3daee61d 
3e39c30c 
3a868aa7 
bd417a43 
bc31af1a 
3cfd101a 
3ccce4dd 
3e37d348 
bda9b275 
bc9a086d 
3d71d907 
3d84f8ef 
3cc2d2ae 
3d728dc6 
be4fca74 
bd81edaf 
3d31b5b5 
bef57b5a 
be9cad2c 
bdced3f7 
be3fd1f2 
bdd44c60 
bc9cb0d7 
3c8b9bbc 
3c58fbe1 
3d28c046 
3d71c070 
3db60ff8 
3d18b319 
3e1efef5 
3d8225dd 
3d86718c 
3d9d8fbf 
3d4c3f82 
3e5edae9 
3e36225a 
3defdf0b 
3bc93842 
3ddba48d 
bd665637 
be5d5899 
bc6ca1b9 
bdb21903 
3e900e67 
3e5f6a46 
3e21d7ec 
3e0b52f7 
bd0692c9 
3d67e21d 
bc77e0ca 
3dd202a5 
3dc88a35 
3da68437 
3dfcfdb1 
3d980d0c 
3e223f0d 
3e4362f4 
3e805944 
3e8770c7 
3e9255c2 
3d9c4646 
bd03dee8 
be4e3777 
be879a1a 
be863742 
be5f45f8 
be84c04c 
beb9837a 
bec59f7e 
bdc0ebe4 
bdcff3e1 
3e289bcd 
beba765b 
beefbf59 
bf21eb13 
bd264ac2 
bdad17f8 
be2c52ee 
3d9f24ad 
bd02a51f 
3cc7b3d4 
3e1ed9ad 
3e5bb7d1 
3e90099d 
3e801403 
3cd90ee6 
bd8f404b 
bd8a02c8 
bcf0f611 
3df65027 
be00e03d 
be8f7935 
be8c69cf 
be93ce82 
3cf9022e 
3c3fa7db 
bdbf6fa0 
bd283a52 
bc2f07dd 
bdf9507c 
bdd24856 
be3c6522 
bf0b268b 
beffe4d5 
befdf09a 
be54de61 
be1fd3e4 
bd5f3e4f 
3e1113df 
3dc2b1b5 
be92e636 
be850993 
3d7f344b 
3c253947 
be04b661 
bdf89a1e 
be5903ac 
bdbbbbfb 
be37fada 
bdd8fa7c 
be284879 
bd0868d0 
bcc82837 
bd9355af 
bc80e33f 
3cb2c783 
3d4e3042 
3cd21595 
bdb17834 
3d39cd45 
bcd1938d 
bdad8313 
bd1e6b31 
bdb570a5 
bd797878 
bcf66884 
bd845bca 
bdee56cc 
be0ae9e2 
be0a534d 
be02dcf9 
bd977b04 
be2c9681 
be19ccbb 
bd6a3bb6 
bd9214bf 
3d15b1d5 
bca7f741 
be1a5e2f 
bdad6aa6 
bd820cfe 
bbfd52ce 
bd8e974a 
3d049abd 
3d4954f3 
bd07bd16 
bcf350ba 
3d982a78 
bc42465e 
bd996e3c 
bd6fa22f 
bda90187 
bcea889e 
bdad73d1 
bd50a28c 
bd3749f6 
bd942271 
bdf48e45 
bd2f5bba 
bcef187d 
bc7d6e08 
bcb1c10e 
bd93b32d 
3db76ee5 
bce01727 
3b53128c 
3d215476 
bca7d7c2 
3ce8c444 
3b7bd755 
3bc21ecc 
bc54dbed 
3dae7469 
3e4fb0ca 
3e2c72d4 
3e18edf9 
3e035b53 
3cdf1ad3 
be0b8cd0 
be4bb199 
bd310c73 
be1aa2ed 
be8c1195 
bee36232 
bedf1a84 
be7e776b 
be87ebe8 
bd27bbbd 
bea88de0 
be519d94 
bd29e3ad 
be10bff1 
bd704028 
bd0c1d3d 
bbf27cb7 
bd77fb24 
bd9835e7 
3d8a7e28 
3dabc2f7 
3c9870dc 
3e4232c4 
be504891 
be918415 
bef1998a 
bed4d1e7 
beb11a8d 
be223354 
bcc40b78 
be00f302 
3c46c51d 
3d6f55de 
ba877174 
3c4236a4 
be2f7532 
be4c6f91 
be0a96df 
be3ae19e 
be8e46af 
bebe487b 
be780dd5 
be19ee3f 
bdf4f369 
bda3ec7e 
3da8e040 
3dafa0ef 
3db7cc02 
3e0c2f72 
bd4225f7 
3df21c43 
be4696d4 
be9cbe1b 
bee7b926 
bd80ffea 
3c19f9cd 
bd80946a 
bd0458e9 
be03626c 
bdc8d115 
3d15088d 
bd7ec7fb 
bd80f4a9 
be2f206c 
bdf3a912 
3da9a7e8 
3e3eba74 
3e067fbe 
3d26db5d 
3e16afe0 
3ea77847 
3e43063b 
3dc3d1a5 
bd466b5e 
3d66365b 
be581ba6 
bde42d93 
bd87cc0d 
bd1abd4d 
bed5fd33 
beb628cf 
bcec6dbf 
be22a74d 
b9bdd6d3 
bc0b82de 
bde7edc4 
bd5dc8f6 
bc983a33 
bd932105 
bdb2c38a 
bd5a2589 
bd56fc4e 
bdb5645c 
bddff2aa 
bcd71f6c 
be5b8321 
be59e4db 
3c565d46 
3d0b1f02 
3d5b3714 
3ccf9421 
bd2465b0 
3e0a2f8e 
3dc10ae7 
3d4e3a6f 
bd9bd7d3 
be16825d 
be9a1f68 
bd8b8b95 
3d002ad9 
be103c82 
bd953964 
3ca97dd7 
be042394 
bdf6a2ef 
bd8f54bd 
3affd42e 
bd38a19f 
bdb0943e 
be290ab6 
be524cc0 
bda2167f 
bd0b709f 
3c742184 
bd818800 
bc7cee7c 
bca963b5 
be7ae7e7 
bea747b5 
bd6050e1 
bd334a5b 
bd2f07c9 
be45099e 
be2892dc 
bed17850 
be9c49de 
bdec7e35 
3e03b3c9 
bd8154b5 
bd8bf1ad 
bdd380d1 
bc6c5091 
bdafcc8e 
3d59764b 
be3ff6b4 
be296890 
bcf5f8cf 
bde38492 
bcd4be6f 
3db49d1e 
bdb6b521 
be3f5e0d 
bd5e9bfe 
bd9f39b2 
be311ae3 
be358982 
be1c5632 
bd6c0d2c 
be0f2fe9 
be74bdfb 
bde4d361 
3dce1c03 
be612e1b 
be3db107 
bd089dba 
3d2bb8ed 
bd467974 
3d3b2527 
3cd90aec 
3d499136 
bda03283 
bdfd517a 
be5a2504 
bd300794 
bdeeb97a 
bd4aea39 
3d029cb7 
3bac3ce3 
be23e4e7 
bdc54b6b 
bda614b9 
3d0a4cd8 
bd09ceac 
bcaacdce 
3cac6852 
bda578f3 
be25b9e4 
be9c2f76 
be9a622a 
3e80712b 
bd170e14 
bea93687 
be00ca27 
3d1ff5ce 
bd4c58e2 
3c184b1e 
bd9ace0e 
bd39a72d 
bdfef6f3 
bc4c47fe 
bdc77cb9 
bd2e512a 
3d7a9c0e 
3b0356e2 
3d329135 
bdaa89fb 
bd6bdb9c 
3d9a883a 
bd2634a4 
3d0036ea 
be105a5f 
bdb70ad7 
3ca20a61 
3d6e2253 
bd3150b4 
bbf8f378 
be908a54 
3eb07f4f 
3e6e2ae7 
be0ea16f 
be101448 
3d9eb224 
bd89fc61 
bca3c014 
bdca9c16 
bc85a1c4 
bdd03507 
3cdddad6 
3d90ffb5 
3e359d37 
3af6d9f0 
bc4ce323 
3daf6175 
bd1b4c5c 
bc31bc0c 
bd4d75f6 
be33261d 
be7d8be7 
be4c64b5 
be8435d7 
bdacd76d 
bccee8d0 
bdd73e12 
be1e1b71 
be85eeac 
3ece2d7f 
3e7b2aa2 
bccd5302 
be1443f0 
bd92d5e1 
bc9cf112 
ba2ec70e 
bd6a07fe 
3c0e56ec 
3e21c0fe 
bb30ba88 
3cff3bd2 
3bfd77f8 
3b3d3eba 
bdfa5608 
bdcb07fb 
bd36d297 
be121731 
be2c70f1 
bd4b2ee9 
bdcb350b 
be21d7ea 
3ce13623 
bdc8c466 
bd33e2d3 
bd777ac2 
be323df9 
bef237b8 
3ebf31ab 
3e7d4b94 
be77dcbb 
be45b481 
3d97aff7 
bce6da45 
bc90939b 
3bb5b9a5 
3c85104d 
3db746ea 
3d50e26a 
3d4c0baa 
3e064d7e 
bd4cc690 
3b330a03 
bc400df4 
bd4e9214 
bd1a729c 
be013fb0 
bd744e5c 
bb64f26b 
bda95917 
bc2760d0 
bd94ebe0 
3e0479ee 
bcb6d81b 
bda10b32 
beb17161 
3e5e766f 
3dfc3762 
be5ac9cc 
bd6e872f 
3d66e8e7 
3ccb5b93 
bcc31e21 
3b47a646 
3d10164f 
3e29c839 
3dab71fc 
bc58d7cd 
bd82ef4a 
bdd78916 
bc0bd471 
3aab791b 
bb0e4417 
bca59cf2 
3cfd3626 
bdc49205 
bd61fe3f 
bd4a40b2 
bde419d5 
3cc1ba28 
bd0a11bc 
bdfdf68c 
be4fd1c9 
bea88094 
3e6e70eb 
bdafb233 
be3855d7 
be34ea0e 
3b835636 
3cb80b8b 
3c91ace0 
bc202322 
3e6558cb 
3ac2fa2d 
3e2b4365 
ba99fb6c 
3cf1d442 
bda3ca65 
bbb3f0f5 
bdcc766b 
be1853cd 
3c83aefc 
3d8d1fea 
bd7fc353 
3bc388fd 
3cc38584 
3cf32cdc 
bcbe99d1 
3c537eac 
bdc91c12 
be07dde5 
befe3437 
bc10bf5b 
bd3ed440 
be33e9a7 
bc37043a 
3e0259ef 
3de97523 
bd010ef4 
3c42229c 
3c9a9ce0 
3e232500 
3dba5cb0 
bcec3c0a 
bd438fb5 
3cfd82ed 
be15d6f8 
bac49d38 
bd45460e 
bc256df1 
3dcfaf5f 
3c8247d6 
3ddbeac5 
3e2c2378 
3da3a0c2 
bcbf54f7 
3de55fa3 
bc244c5c 
be385122 
bee7cd41 
bdc2d6e1 
bdb3ae96 
bb93fe07 
3d6fddb2 
3db513f0 
3d04c60b 
bcdc4f1d 
3dbcbb6b 
3e51bc48 
3da3b685 
3e5b2d4a 
3c8b2884 
3d8ab59f 
bd56827f 
bd2f3251 
be14298a 
bd6bd9e7 
bd7723a8 
3c51cb27 
3e2b7e7f 
bccb9c48 
3d90d841 
3d968d9c 
3e06dd67 
3dd91511 
3d3979ff 
bdb36acc 
be398f02 
bd81f31c 
be476b18 
bc052118 
3e4fac8a 
3d902d04 
3da63dbb 
3e00f2fe 
3d9bbcf5 
3e162f34 
3e22b6a0 
3e4d49f5 
bc2879d9 
3cf7ac33 
bd90de64 
be6afce1 
be0e5e04 
bd62d440 
bad4d6be 
3e025741 
3cc4440b 
3d5d2994 
3e3102c5 
3df6ef55 
3da93d10 
3d1894b4 
bd2ddad7 
bd7972a7 
ba73a22d 
bce43461 
be791b4b 
3daa2bdf 
3e85c22c 
3df3e1f5 
3dcc4f80 
3df50a13 
3d2ff790 
3da529c2 
3e23ad96 
3e1802be 
3c7e633e 
3d45af66 
bd4c4805 
be33987c 
be045e48 
bdac4a21 
bd324e2a 
3dc0860c 
3e3f28fe 
3dfb3fe6 
bbec26a7 
3d1a2d80 
bd3c82ca 
3b93cb09 
bd2bb595 
be754697 
be2373fd 
be17007a 
bda3e4c8 
3e31c7c4 
3e470798 
3d2abd11 
3d0593c1 
3d895902 
bd9008cf 
3d5ea7e4 
3d73b740 
3d916088 
3e256a7b 
3e2750a4 
bd382186 
be00ad71 
3d019ea3 
3e162abd 
3df12dc4 
3e03e886 
bd52fb4b 
3d0c9de9 
bb582af1 
3def9321 
3da19923 
3d2e2d91 
bd95e079 
be8d94f2 
bec60022 
bdac6792 
3cc36e50 
3e1c8ca9 
3d938eab 
3e05a2a6 
3d7e02dd 
bcca4b96 
3c0f3059 
3d2f0362 
3e1f0290 
3e168df4 
3de6d1f4 
3d8b46cd 
3cbfbaac 
bc689ce2 
3cc56d93 
3e28ef69 
3d95b4d7 
3d872063 
3c104eb6 
3d53c2a1 
3ce7308d 
bd31b5d7 
3d5f7c0b 
bca0ab67 
bd99f496 
be27af05 
be29a57f 
bdff13f2 
3e475aff 
3e28e7e8 
3ded0d81 
3c3197aa 
3ddbda7a 
3c9eee83 
3e1fb401 
3d865183 
3daf0e91 
3e511580 
3b97f5bf 
bcb402f2 
bccfdfeb 
bd8aaaec 
3e253541 
3dafce29 
3d0158f7 
3d84f559 
3d86a6aa 
3c6239d5 
3d01d86a 
3cd2ad5d 
bc359941 
3d950ade 
bc9691d8 
bde1ee22 
3d52d95b 
be13208c 
3e08871f 
3e258420 
3c41f7c7 
b9c2378e 
3e04fb37 
3bbecd1c 
bce4bc99 
3dc80b0f 
3da20c09 
3c936944 
bdc9dfd8 
be167569 
3da01932 
3dab7d89 
3d60320c 
3d09d83a 
bd3a7b27 
be013438 
bda50121 
3d21ec8d 
bc5825c2 
bcaea267 
3dc34345 
bd2a4dd5 
3db308a9 
3e59a138 
be6d8c65 
be35b152 
3e32ee7e 
3e83f924 
3df64943 
3dbd6110 
3e074340 
3db280c7 
ba01ce52 
bae45283 
bc184b0e 
bdec0794 
be1c2dbb 
bc3e10b8 
3dbac401 
bccb7087 
bc99dbd6 
bd60cf7b 
bded903a 
bd78f8f4 
bddd7a9a 
3d74dfc6 
bdb3417b 
bcfe81c6 
bd24ed78 
3c7efe11 
3da33164 
3e8311cb 
bd51e7ba 
be56f44c 
3e05cad9 
3cd8a718 
bcfd8501 
3e003e1d 
3df576c1 
3e39a475 
3dbea7e3 
3d8ddbc5 
3d7b84a7 
3c9d1f65 
bdba0d08 
bdb818ea 
bcca5c58 
bd73a8e5 
be18874a 
bd1d14af 
bde5e03f 
bd3b05ef 
3df6842e 
3dca0d3e 
3c9ac835 
3d26e538 
3df249e4 
3d0502af 
3e1810d7 
3e10f5e2 
bd16adb9 
be97e98e 
3e4f9ab5 
be25ac0f 
3c6c8bee 
3e062051 
3e2a8281 
3cf149e7 
3d83be6f 
bd7feca4 
bdbf3c3a 
bdb1c0df 
bdbb8824 
bdc757da 
be5791a6 
be4ce71a 
bcc40e46 
bd429f8e 
3c81dd62 
bc940cd8 
3dedbded 
3b7b377a 
bca899c2 
bdc7cbd3 
3cc8b532 
3da8adb0 
bd4efe75 
bdb16815 
bd228fc8 
be075de8 
3ca28543 
be410ee4 
3d57eeed 
3de0bc23 
3daa4d93 
3d983591 
bd23344f 
bdddf6e9 
bddef9a9 
be03aea5 
bdea1fa8 
bde85d92 
be5a7d4e 
be4505a6 
bdf22a70 
be40a7ac 
bd125a96 
bde6420d 
bc6ba183 
be318ed1 
bdb0fffa 
ba766f09 
3dee06e3 
bd7f4f42 
be459636 
be0892eb 
bd5b5dfe 
bcc12121 
bdabf523 
bd957bd1 
3d5bc29f 
bdbb4a12 
bdebcb37 
3d8ff355 
bd7ff409 
bd774baa 
bdb310da 
bdf54e58 
bde66309 
be5a638a 
be69ca05 
be8b162a 
be9c69f6 
be9945a8 
bebc38e6 
bdbffe13 
bea0dc1d 
be95d83e 
bedad335 
bdc46d2f 
bdfafa03 
be419b62 
beb83510 
be00c298 
be5f192e 
bd606243 
bdad0a07 
bbbf9ff5 
3d2c3257 
be8add93 
bd4849b3 
be425e03 
bdc770e7 
be96a6f6 
be4fa1db 
be7ccc28 
beb25bf9 
be9462c8 
bea5d660 
bec9a518 
bec2e423 
bf0edbae 
bed5a3cb 
be8ec3f4 
bee05687 
bed45d00 
be9b2b01 
be92fe76 
be402b24 
bbd788a7 
3ce2c2de 
bd1fd13b 
3cd33a25 
bd1068bd 
3a29b807 
be00a19a 
be83ae72 
becb659d 
be513b8f 
be3f5e34 
bde2e2a1 
be04cf34 
be33b80a 
be97371f 
bed00ca8 
beceab7d 
bf0450b0 
beb950a8 
becc4afb 
bee6a57a 
bea2a372 
bec12aaa 
bebb5de7 
be427636 
be3d24bf 
be044f62 
be0f1578 
be1953e3 
bdf03f31 
3ca7e293 
3d790032 
bd63392d 
3cc070c8 
3db18c2e 
3d8f2fb7 
bc5046ef 
bca5b6dd 
3b620671 
bd9e5b25 
be1f6095 
bdd82bc2 
be4ddac1 
3de29930 
bb3a793c 
bd122eef 
baf6231b 
be0c11ba 
be5f11ef 
bd862f2f 
3d231eb8 
3da89e36 
3e205ab1 
3dbc0293 
bcd56a35 
bd1854ae 
bc599213 
bd9315af 
3bbcf826 
bbb56b4b 
3dd94c30 
3cbf1d4d 
3b483a54 
3d39b638 
bdbc2a31 
bd47550e 
be3ced20 
be9b3240 
bea18735 
beb0c4c0 
be917f76 
3d760a58 
3e2ae47c 
3e2d91db 
3e071447 
3dad5ad8 
bdd99c1b 
3e1b8b68 
3e2c0f09 
3e2496ae 
bded543b 
3c5cc630 
bdb5cccd 
bd1396cb 
be69cec3 
be15e94a 
bc6cffc2 
be139c74 
3e4ea2e3 
3da08357 
3e5a7717 
bbd91960 
bc55813b 
bde46296 
bd87f078 
be3bb466 
bdae80bb 
bdd4d89b 
3a8343c2 
3d9a9768 
3cd3ea35 
bda4f2c1 
be50e85a 
be036874 
beba8a21 
be422945 
be8fa7b1 
bed67e20 
bea8c863 
be1ac43d 
beb8c24f 
bed3bc53 
be702d85 
be67bbdf 
bea4a611 
be304237 
3e65c0c3 
3e1ef759 
3d3efba9 
3db79be9 
3c7dfb46 
be665267 
3d1d8e03 
3e2a8701 
3c895085 
bd85271a 
bd4d3c72 
3e1caf8a 
3de0a1fe 
3dc08e0a 
3c89551a 
bd6c9601 
bd5ba1e1 
bbdc2ac2 
bd5ea5c2 
be419597 
bdf59085 
be0e4f3b 
bd9d9f3d 
be3816fa 
bd8efe07 
3ddb58f3 
be11941e 
be9419cf 
3e8ea93d 
3de735a3 
3d59f0e9 
3e097bc0 
3d718e6c 
bccc6b31 
3d88ade5 
3e04391c 
3d78de66 
3cbe9ff1 
3df8fc2b 
3e6cec50 
3da1c87f 
bca56e96 
be298676 
be11af9d 
bcf6add7 
3e4cd2ea 
3d8b8623 
bdc00437 
bc32e5c1 
3d5a3c07 
bcdd5532 
3ddf29f6 
3e10f684 
bdabd473 
3dd1ce9f 
bea93dd3 
3e50b041 
bdfa9241 
bb1f43bc 
3dc92721 
bc8a248c 
bdce0980 
bd54d99e 
3c859399 
3dd265e0 
3e6c04a7 
3e742cc9 
3d2b9d26 
bd0d5881 
3dfac58e 
be1fede0 
be50cf38 
bc34fc5f 
bdb0aaf5 
bd02b838 
bd668653 
bd8147a0 
bd7179c1 
be48dd87 
be8400b5 
be3c109c 
be379739 
be4bcfdb 
bef17c0e 
be8b5a19 
be275aaf 
3d6b2f9f 
3d1736da 
3e3fb295 
3dc9541f 
bd393873 
bca2b611 
3e5191ba 
3ea23bfa 
3e530d3e 
3d9b3059 
3c968545 
bd8cc0f6 
be003467 
bbc86c02 
bd192982 
3d528a3f 
bdd1284b 
be8ce276 
be20c4c8 
bcf7fc62 
b9a883ac 
bd3e4e97 
be15a8b0 
be16e39c 
bcada6a0 
be9ac071 
beb72f6c 
be7a51be 
3e37cb95 
bd5dc0fb 
bde6ebce 
3bd007e3 
bde67d83 
bc858f3b 
3e4359c0 
3dce6907 
3da0e9d6 
3db145d6 
3e1d2f9a 
3d2f99d8 
bc874b69 
bdc46b7d 
bc4ad538 
bd3c788d 
be9cac8b 
be318f0f 
be086a90 
be2a2c45 
be8599b4 
bebc0aef 
be56f62f 
be053c2f 
bdc93721 
bebc87d6 
be9b32f0 
be5a604a 
3e14cf5f 
bd2d4ea4 
3c25a243 
3dd29cff 
3da4e478 
3c62c360 
3e699ce8 
3daa9580 
3dfa0b1e 
3d9cdcbf 
3dfee6b8 
3e01a609 
3d983889 
3d24513d 
3dc0775c 
bd1d2f3f 
be901ee3 
bedf6852 
be17c385 
bded44cd 
be6efac6 
be4a2427 
beaf5f93 
bed99605 
be77216e 
becae45a 
be9f4694 
beabace5 
3e373958 
bd49dff5 
3c5ad1ab 
3e2bd1c8 
3b1e158b 
bc6f0615 
3d09863c 
3d8681ce 
bd0a5364 
bdc5dcf9 
bdb8ba8c 
3d1f02c8 
3d85d804 
3e2cd28f 
bd0efe90 
bd01b607 
bec9066e 
bebefe76 
beac6bb7 
bebdc5ce 
be7f876a 
beb47460 
be977901 
3d7cce52 
bda2d355 
be72e5f6 
be81e98b 
be240c33 
3e4b5e7b 
3c858b5f 
bda19fd6 
bba5b4c9 
3d86029b 
bdbc1f78 
3da8bc74 
bc586cfc 
be051785 
3a0c1183 
bd1bbe6a 
3da0eb30 
3d766132 
3da640a3 
3d86b43e 
bdb34210 
be256850 
3d088287 
be43919d 
be68a68a 
be6a7e36 
be336144 
3dd8d48d 
3e0a26b0 
b98fa3db 
be8db61c 
be9b283c 
be55f34d 
3e36fbc3 
3d188153 
bcc81c2f 
3b881811 
bdb38fdb 
bde2f9d3 
bcf514d8 
bcbf9b11 
be05259e 
bc054950 
3dc22d78 
3dc8b675 
3d31e27f 
3c3672ef 
bd123845 
bcfcd6ae 
bd2a9c39 
3e1e6d21 
3e1aa67b 
be7c1299 
bd14224e 
3c3dd059 
3de2e543 
3ba21d80 
bdc6afeb 
bc24967d 
be177589 
bd04424e 
3e8b4415 
3c89f8cc 
3daeb680 
bcfef044 
be840c02 
be159e14 
be22fd19 
bdfb9d9e 
be3e9af9 
3d472dd8 
bc12a858 
3b8cd1a2 
3d5843cf 
ba86d967 
be0f09d4 
bca04470 
3e257a2a 
3d75bb8c 
3e16043b 
be3f76d3 
3e0231df 
3b1a8214 
be03b379 
3da43b43 
3bcc8384 
3db9090b 
bdb1b8e3 
bdf49fb6 
3e884032 
3db2022a 
3ca1b732 
bea80388 
be63fc45 
bd827ef6 
be380991 
be9684dd 
be158ce4 
3bbc7f92 
3e1188f6 
bcbf86c2 
bdb94fbb 
bbc7edd7 
bbf10f7e 
3d3e4a7f 
3d716ddf 
bc88ffea 
3e82ab5f 
3e398e21 
3e3ba46e 
3d895a14 
3e2e4679 
3dee09a4 
3e405a7f 
3e71d952 
3e0d5203 
3da932a4 
3e9135ea 
3d1e838b 
be16c098 
beaa08ca 
bd9a2572 
bda204bf 
be62cf67 
be4fa1cb 
bdfd7d00 
3bbbb1f3 
3e3bf233 
3da5b036 
3d5de497 
3d97fbf6 
bcc1ec0b 
3e2ad8ed 
3e37dffb 
3e4f8635 
3d29591d 
be1a6eb6 
3c096271 
be871857 
be55fd7f 
befcf580 
beddad14 
bed5c607 
3e216cab 
bcc500a6 
3e6865ea 
3c949695 
be8b7e29 
be6de34c 
bd0c98e4 
3cdb6662 
be06b724 
bdcac9a7 
3d30e594 
bc8c675b 
3deee276 
3e0d8ef7 
3dbb610f 
bdbd7d68 
3d504aa7 
3e1f15ff 
3d00602e 
bd5e1c1f 
3d701c77 
bd915263 
3e1fb702 
3e2a61fc 
3e1cd1b2 
3dfdf010 
3e94ddc0 
3da245ae 
3e2243c3 
3c9c6d32 
3e3142b2 
3c303f1d 
bec285d1 
bebca5fa 
be65e87e 
be0a9477 
bd4ae383 
bd50b3b7 
b9a0903a 
3dbbcfa9 
3e944f0a 
3e89446b 
3e2e983b 
bda2cc24 
3d333703 
3d2bd4c3 
3d6ea0e5 
bdeb0d4c 
bde71314 
bdffccbd 
3c9f7fd3 
be111e11 
bd4a23cb 
be13029c 
bb8b618d 
3e00be84 
3d6765d9 
bd987f6e 
be587642 
3d83ca5f 
bea039ee 
be882633 
be2d8faa 
be1dac9e 
bdf5bd85 
3d876612 
3c36e131 
3d71d4ea 
3e555bba 
3e766dce 
3ddebe34 
bd192398 
be0bb834 
bce36ce0 
3c61d1c4 
bda489e1 
bddde1dc 
bd805653 
3d22fde2 
3d89b769 
3deff35c 
3e46110d 
3cc7d709 
bc3a7a76 
bdbb7da7 
bdb3de2a 
bee0521d 
bde110b8 
be48840e 
be236ec5 
be8085a3 
bd191599 
bdabecd4 
bb81484c 
bb32a67b 
3e67b5f7 
3e800bf2 
3e24384e 
3d9bdd11 
3d83170b 
bb3a8196 
ba8c19f0 
3dddbb17 
3d5c3d77 
3d5eabe3 
3d1cda58 
3e20226d 
3e8ed2f6 
3ec8f9a4 
3e12073e 
3e3b0c26 
3dc9625b 
bdb9e81e 
3a53637d 
be3e256a 
be8d0819 
bc1fab70 
bd03d61a 
be4d9626 
3ce08c73 
be1ae25f 
3c121b82 
bc903309 
3d7cf4ff 
3c5e1eca 
3d10958c 
bd45a61e 
bc9404af 
3c253494 
bca3801b 
3e288c32 
3deb336e 
3c57e6eb 
bd88a899 
3dcc9bfd 
3dc90fcb 
bca06b80 
bded15bc 
be535507 
3d9f3229 
bde323b2 
bd175c81 
3c9c9384 
be6a1680 
be196521 
bd7ac145 
bdace575 
bc888ce2 
3d97b510 
3a5b3193 
bd943cd3 
be14c709 
bdebbae7 
bd97b922 
be610d52 
bdfe7e05 
3e006874 
3de80744 
3d88e444 
3cca7a24 
3d53fbf5 
bd9b364b 
bdbc67be 
bd9f50f5 
bdace552 
3b9b578e 
3e5d08aa 
3d8447e1 
be19aa6a 
bdb08423 
3b8a6252 
3d9fc92d 
3c4d12cf 
3ca288f8 
bdc1835a 
3dc23c9b 
3d4c4521 
bdde106b 
3cdcdd03 
be11bb04 
3d511379 
3d15d169 
bd5b5d25 
bdb16de4 
3de17165 
3e526d8f 
3e150d5b 
3dc5a18a 
3e4ef12b 
3ddd3213 
3c508285 
bc50f6a6 
3e251306 
3dc8deb9 
bd89f5c7 
3db04329 
be6f68ab 
be2f11ec 
3e2cd507 
3e4a620f 
3cfdc5ee 
bcc7e454 
bd753206 
3d426a73 
3dd96fb0 
bd616dc4 
bc921b6c 
3d09af41 
3c65ab49 
3da7b238 
3e07e6ef 
bc779793 
3d703f6a 
3e4ad84a 
3e6c0f16 
3e379449 
3e01fb63 
3e2ff722 
3e526263 
3e44c472 
3e03e7ed 
3e17ed99 
3e0a8c38 
3d31fd38 
be61061e 
be8748da 
3d009dac 
3da1ac1b 
bd34b33d 
bd4d4ee0 
3ce466a7 
3dfaf37a 
3d9fadce 
3d04a03e 
3cebaea7 
3d9e6855 
3dbb1e03 
3e3fb53d 
3d4e9101 
3e330317 
3dcd44be 
3d23364e 
3e40de52 
3e335e80 
3d97855a 
3cb1b258 
3b9dd7ba 
bd49744d 
bdeef6fe 
be2cf4fc 
3de9e401 
bdcd87f2 
be89d5a1 
be8ec840 
bd2bcbe7 
3dbf4fb3 
3c4d6414 
bc0f6e66 
3d3472d7 
3e781ea6 
3c422339 
3c8a63f7 
3df626c6 
3e11d95b 
3e321e26 
3e6578b8 
3e320118 
3e4492cb 
3e30c1e0 
3e0715a3 
3e10ee34 
3e1c9390 
3d73de3c 
bd6a858c 
be2c179c 
be5139f2 
be806875 
be9d4d77 
3e17086a 
3e5c3429 
bc9cc9b8 
bcf4776c 
bdc3fe8c 
be1ff7cc 
be257a4c 
be02a502 
bd78632a 
3dc89703 
bdc2fe81 
bdd80c9a 
3dc7cbca 
3e59f379 
3e925312 
3e3d09f6 
bdc464d5 
bd6beb8e 
bde48e48 
bc6bb4a3 
bd6fb110 
bca739a1 
3e43f232 
3d567313 
bcb52a99 
be035078 
be7597da 
be23ad9b 
be481dbc 
bd9fdd68 
3cc96f22 
bd77ca27 
be8edb8d 
be964820 
be9b27d0 
be2a19db 
3c95a6b0 
3d9571a5 
bd6b1fb1 
3d1dc9d8 
3d05fe8b 
be3f52c5 
3cb2999c 
3dd15b75 
be1a4da2 
bd94686b 
be6c492c 
bf0ffcb5 
bf105b5c 
be1754d3 
be106557 
bed54df5 
bf00d3cb 
be80626a 
be994ec3 
be7f8764 
be1bba99 
bb084b32 
bdb70b98 
3c389870 
be36d3db 
be9de53f 
bea9feb5 
bd71a773 
3e9fafd6 
3e525456 
be8ae0ca 
bed56594 
be8254d5 
be569645 
bd0a9182 
3cc73c3b 
be619de4 
be212fc2 
3d7740cc 
bbae7fda 
bdca65c7 
be9280c0 
be94b82a 
be9d55a2 
be566340 
bdb387f3 
bcb92025 
bd10a0c4 
3cdfd398 
bda0180e 
bc6f804c 
bdcab09d 
3c70c49b 
3cbd1f16 
3d3eed3c 
bce4f7b4 
be21bbfb 
bebcd79b 
beb263b1 
bed2fbb4 
bec83408 
bdcac920 
3e4b272f 
3e8293d8 
3e4ac65b 
3de04772 
3e5aaf09 
3e9a38aa 
3e7d26c1 
3dd125d4 
3e3dd572 
3e333cfd 
3e2603f3 
bdeff0e4 
bd8462ff 
bbf011e1 
bd690cb3 
3c202673 
3db1789f 
3e8419e1 
3e9f7688 
3e4125fd 
be4152f3 
be9180d6 
be5fa880 
be843d19 
be20144a 
be2d5fd4 
be33d82f 
bd033b8b 
3aeba3bc 
3e029b1e 
bdfc91f9 
bdb5420b 
bc1d4936 
3ca77cb1 
bd92addd 
3d5012af 
bdc3a8a5 
bea57e40 
beaf05ba 
becfbad9 
be852ec1 
be949459 
be2295e7 
be5c2c01 
3e8d5938 
3e7d93a5 
3e93127f 
3e21aecf 
3d3f5a79 
bd3b9359 
bd883b7d 
3d53200e 
3d2ee9f9 
bdce8e74 
be6f517e 
bdff9d2f 
bd77a3fb 
3bcb9fbb 
be2fc3a3 
be45ce3a 
bd9fa1e5 
be1eb015 
be099369 
bda7645e 
3b1c9152 
be2b1ed6 
be274311 
bead36a5 
be90c342 
beaa5152 
beaae466 
bed4043e 
3e6f0002 
3e78e871 
3e5d3168 
3de8b328 
3df25385 
3c9029cd 
3b98bc87 
be0c1b46 
bc63bf24 
bcae688b 
3c24e1b3 
bdfa1be6 
bd6b35df 
bd55ed74 
bd4b6f18 
bda86f99 
bd7f7bf3 
bda3f75c 
3cf9709d 
3d8232f1 
bcee8faf 
3cf1d555 
3c51947a 
3c1a68c7 
bd7a896e 
bdf135c8 
be9853be 
becc40f7 
bdb8512d 
3e0858b9 
3dba425a 
3d6b5c93 
bd11377c 
bd6e00fa 
bc671153 
bcfd7361 
3d2ced60 
bdcfef7a 
bdb995dc 
bdda16c3 
be13ef47 
bd8e497a 
bda46642 
3db55314 
be0a94e2 
be318cbd 
bd7ac35d 
bddebf56 
bd28f4ed 
3d876e03 
bc89dc52 
bd146ace 
3bab3b67 
be013e75 
be4c5f4b 
bf139ba7 
be8fda67 
bec7db02 
bcfadfa3 
3d423c78 
bb060df5 
bc8432d8 
bd38f29e 
bdf95533 
be48e787 
3db6760f 
bd7f8e64 
be2b27e1 
be123ee8 
be42c6cb 
bdf92cfe 
be5136e0 
be491c5c 
be5b3e18 
be7de006 
bd6ed555 
3d128479 
bd138c2e 
3d9b4054 
3dd93d37 
3bfc6840 
bdd6403d 
3cc51885 
bf084a1f 
beac78e2 
bf03171d 
bda1570d 
3d84f376 
be0ef0d3 
bde50d55 
3be1273a 
bce0850b 
be1a3534 
bd94e7c4 
bd9f2af7 
bd8e2013 
be1fdfd8 
be4e1d12 
be678320 
be7d84ae 
be53d7e7 
be40712a 
bdfc1705 
bc3cbd68 
bcef78e9 
bdb03e1e 
be1db3fc 
be23fc1e 
be626f1f 
be2a7df9 
beae556c 
bf17d6dc 
bec48bb7 
bee215ec 
3d32beee 
3dc68b85 
3d258a59 
bd6700f0 
3e3d3e8e 
bc83b9c1 
3e6f0b30 
3d7eedf4 
bdee3795 
be1c871d 
bdd86b92 
be2601cc 
be3fb11c 
be43f071 
be82d955 
be1baf63 
bd95489f 
3c84274b 
3db68907 
3d9a3138 
bcfd279d 
be45c53f 
be426a64 
bebabdc4 
beba4c87 
bf20526c 
be5d2bf0 
be593ce8 
befbd7e4 
bddb8e48 
bcf3a008 
bd77fcec 
3c855cfe 
3e5fb688 
3e03e866 
3e050802 
be1646be 
be67f45f 
be81af5c 
bdf93941 
3cb1ba14 
bde0058f 
be0e195a 
bdbad225 
be0796fb 
bd05fe0b 
bda68571 
bc5c4eff 
bd08c351 
be1d6547 
bde74b76 
bee5e78b 
be805aa2 
bebfd5b0 
bdab1467 
b9931f91 
be3c849d 
bec3a667 
be70b96f 
be4db53b 
bd079297 
3e3a9ead 
3e8420c7 
3e8d3894 
3da93cce 
be218ef0 
bd563568 
be11b6d1 
bdb781a8 
3cb22f85 
be4008f7 
be83293f 
bdb6f29e 
b9951194 
3d31f5ba 
bce9e5e5 
be41467a 
be7f1f9e 
bec289e6 
be9d4f0b 
be9854bf 
be27081c 
3d41efc1 
be5730cd 
3c1a41f4 
be10f4fc 
be0703ae 
be574b82 
be34e515 
3c3b20a7 
3e1af8d6 
3da1a1ca 
be0f3c71 
be7b6f0d 
be5b6570 
be3a3503 
3c2ed5eb 
be245a59 
be3f2dd3 
be151a6b 
bdd16b28 
bddd187c 
bc2349de 
be82527e 
be52a47b 
be8942a8 
bcc134cd 
3e124264 
3da2aafe 
3da76752 
bda4a202 
bda22a20 
be2023c5 
3d3696e3 
bb25ff14 
3d0432d4 
bb91c900 
3d2bd457 
3d815643 
3dafd2af 
3d8f715d 
bd6f335a 
3d2af3bc 
3c2b82c4 
3d30482f 
bd2bf12b 
be1f8566 
be9e9170 
bdedb6f6 
bdd7e46b 
bdbe20e3 
bdc078ac 
3c7b8af0 
3d696820 
bd6a55d1 
bc8ae098 
be4ac81c 
bc88123f 
bda7a8c4 
3d8c9d5b 
bd1d139f 
3e9ec3d0 
3b29b82f 
bdf91291 
3e4e3035 
3e0de878 
3dd645ca 
3d92f5b0 
3c8d0fff 
be266af0 
bd943883 
bbf87d7e 
bdd6b173 
3d381e4b 
be37e44b 
be6fc658 
be92fdfe 
be84a663 
be49b56d 
3d2e66bf 
3dc2de45 
bcfe9e2f 
bdea3ce5 
3cd9b163 
3d0c1f14 
be0c019f 
3ddc71cc 
3df6eb31 
3e8a16aa 
3e6f03e4 
3cf3075d 
bdaa3627 
be1fbe17 
bc355de2 
3dd0f69e 
3deb9a81 
bce231d0 
be58ccf0 
bec2619a 
be27d950 
bd4a4b38 
be44ba51 
bdda68d4 
be217188 
be8bb291 
bdf8eec3 
be363b5c 
3dc89e1d 
be716881 
be6da28f 
3ce8a2b2 
3cad5a85 
3e1d39d1 
3dc719af 
3dc22531 
3e1d6a79 
3e50d1d7 
3e45ac62 
be78ee2b 
be69f735 
bd7987a4 
3dbf0fb9 
3e641eb1 
3d5fd6d6 
be0b4d4d 
bdc39d92 
beb8e881 
bd9c7936 
bc152d2a 
bdfffcfe 
3d1d5995 
bda4a3c4 
be2481d2 
bdbfa019 
3d2ef110 
3db178d1 
bd94efbf 
bd81cb3c 
3d994e60 
3e0d2fae 
3e724377 
3e8cff18 
3e248b5c 
3d5096b1 
3d12a335 
b9ac7b77 
bd97aade 
bdb11b73 
3a9f5584 
3e714c76 
3e5a0dcc 
3dd01e7e 
be1e4b52 
bef39d5c 
be92d911 
bc335a9c 
be2bb606 
bd9ee753 
be368143 
beb16e1e 
bdeccbb1 
be4775ef 
be157858 
bdcd725a 
be3aa710 
bcf627ad 
3cd6b899 
be166ae9 
bc61368f 
be8b11a9 
3d73a317 
3d1c350f 
be4da7bc 
be3052fb 
bb7dee60 
3d71bd1e 
3dd60bb1 
3dbebfe3 
3e1724d0 
bcd980a5 
be4e214b 
bed7f663 
be97a50f 
be1ef472 
bce576e2 
bdf611e9 
bdbf2355 
be41146f 
bd6d2aac 
bd039b38 
3d6fcdc7 
3da85560 
3e2e4559 
3dc088c3 
3e0cbdaa 
3de4c74f 
3e1b37a6 
be21a36a 
be0f5104 
be90f399 
bf120c5b 
beab090d 
be5d415e 
bd2289dd 
3c29e93a 
3e37f503 
3db1811d 
bd13e59d 
be60243d 
be6c2362 
be366385 
3cd5fa2b 
3d8cacab 
3c92f0ef 
bdbedf81 
bdeaaa4b 
3d59e9cd 
3d9a2f1e 
3e2a2588 
3d881732 
3dc6680c 
bd12d741 
bd9c2b06 
bd119145 
3bf1bf5d 
baa44ad8 
be5e3650 
bdd9bb62 
be88ee65 
bec6614f 
3a819108 
3d1f26ab 
3e1b5bde 
3d29483c 
bdd9db70 
be233260 
bdc89d25 
bd828246 
bdae4319 
be093178 
3d97c19f 
be77140f 
bde3e7b5 
be8377a6 
3d1d1f7b 
3d68f271 
bc66bf82 
bdcb7995 
3c66b3a1 
bca16153 
3c9b913c 
bd904afe 
bd25d9c5 
3dd09643 
be671af5 
3d4b312a 
3dfc4a1e 
bd064ba0 
3d407552 
3e71fea1 
3eb8bd3f 
3e3cdd27 
3e5181f6 
bd05efca 
3c3294a9 
3db33373 
3d25d515 
bd6510cd 
3cb18795 
bdaf9e06 
3deea750 
3c58c079 
3e187201 
3e3dede8 
3d9f0909 
bd623e4d 
bc65ec27 
3d94fed8 
bd2e81f1 
3d81260c 
3daa9c90 
3d52c6c6 
be8248a6 
bd82a120 
3e5c0077 
3e631753 
3d146126 
3c26ae15 
3daa7579 
bcb291de 
bdc23155 
bd9d06e0 
3ddcddce 
bc3b974f 
be0bef52 
bc6adf26 
bd3f4164 
3c92d645 
bbbfa34c 
3e3757d1 
3e60bbc7 
3e0daa24 
3dfec1b9 
3dc35b61 
ba1166d0 
3b503f21 
bdc7bd4a 
bda80c58 
bd94eaae 
3c15727d 
be892876 
beb03b57 
3df8e0b6 
3e4e41d4 
3dd5938a 
3e3e2c81 
3db8ff9f 
bd33e487 
be115d25 
bd66ccfc 
3c0cb31f 
bde4e4c1 
be3ebcff 
bd9b1b7c 
bcdc7064 
3dad32d9 
3d56686d 
3c8bbc56 
3db12420 
3e257be1 
3daab5cc 
3d77c966 
3d09c184 
bcf6e7d9 
bded8384 
bd89284c 
3df7efe9 
3da1e348 
be261471 
beac2808 
be898a26 
be92f753 
be84f0ca 
bc82a6bc 
3a963e2e 
bd8c0e46 
bdc60069 
bdcaf41d 
bda02fdf 
be0b4a2e 
3d411d87 
bcec8a69 
be16545e 
3d97edb5 
3da22954 
bd2bb8c2 
be2bf38c 
3dbade5e 
3e10e58a 
3cf2dffa 
3bb00151 
bd3adcda 
be8f9dd0 
bdecd220 
3e5162d7 
3de05a9f 
3d057891 
bd9b97d4 
be238efc 
be356c80 
bed3bf98 
beb75d9d 
beb8db72 
bde399cc 
bdcebfab 
be25045e 
be43bfc2 
bc09527e 
bd79f028 
be5cfec5 
beb0134e 
be2d6ea3 
3da52169 
bcbbb95a 
be81a0ff 
bdad8771 
3d88f07c 
3dc7940a 
be841772 
bd074cdf 
be847e03 
bd6a284c 
3e1b2b6a 
3e9371b2 
3c7a693b 
bdcd835c 
be114771 
be96290e 
beb4eba5 
beb324bc 
be9ff88b 
3dccbc76 
bd292892 
bdf703e0 
bd417272 
bdcbe16a 
bdc2c33e 
3e0eccb4 
3d906037 
bec4b01c 
be82f234 
be898ef0 
3d920bf7 
be028fa4 
3e55a59b 
3dd0f62e 
bd8c7617 
bc38b58c 
bdf62406 
be57f8db 
bc95141a 
3e18e93f 
bc570307 
bdb221d2 
3cc3f29f 
bc62a8d5 
be89df7c 
bea7c6aa 
be72b2ec 
be2bc8b6 
be363c41 
bdbdb29c 
be45ea0b 
bd03199f 
bdc0db8e 
3e5195bf 
3e326263 
3c112520 
3e57b250 
bec735fb 
bd6fdfe1 
bedec89f 
be4f8223 
bed6b19f 
beab232d 
be654c32 
be828c2f 
be98f055 
be163967 
bce060fa 
3cb8b40b 
bc2b3d52 
3d31c5e1 
bc0e9b04 
be16118a 
3b28a68e 
3dc5acef 
3d0a5631 
bcfc546e 
bc2f53bc 
3c3c95e8 
bd9b399c 
bc97502e 
3d5c91ea 
be25b194 
bceaec69 
be5f0754 
be5684ff 
3e210d02 
be4bd0dc 
be1b99f5 
bdb5a431 
bdc9aeb7 
bdbd6d23 
bd1d1f4d 
bdb62551 
bd88186a 
3da65792 
3c9455dc 
3d04cf19 
bdcb55bf 
bcb74ad1 
3d85b61b 
3be3a416 
3b3b0e90 
bcc386e2 
bd01caf4 
3c9abdb6 
bdb2ef20 
bde8fc2e 
bbac1ab8 
bdc5e57d 
bdf27a1a 
bcf329bf 
3b0bcd32 
bd95fe96 
bc92ac06 
bc732036 
bcc4f5e9 
3ca00fb8 
3d1386a9 
bd764aa5 
3d045ce0 
3cd29ce5 
bb139c38 
bddcf40f 
3cc0272b 
3c06eadf 
3c30d6c7 
3cb3c346 
b9774a5d 
bdfa08f8 
be097ec1 
bea80069 
bebf2b1b 
bebb285a 
beb58962 
3e1b577a 
3e8b7ca3 
3ea248d0 
3e0c8622 
3e9a795c 
3e2c60a6 
3e94950a 
3e87a9e1 
3e57ad9c 
3e39359e 
3cd67937 
3dc9856d 
bdbc0b6b 
bdb68e80 
bd2a89da 
bd426861 
bca00e49 
3e845db8 
3e1dcbd5 
3e938f4b 
3c418df0 
bea8ac3d 
bec0c103 
be9745b8 
be25fb41 
be6d5609 
3cb5a16b 
be37b536 
3dc6db3f 
bda6dd14 
bde7fca2 
be3cc5f0 
bc94290a 
bd8d157b 
3d7303e2 
bd664305 
bd62a574 
be5366ce 
beaecbdc 
beb0d9b3 
bea573db 
be13a30f 
be23671a 
be14324c 
be347400 
3e9fb04c 
3e77691a 
3e937ccb 
3da50738 
3bc31c2f 
be173e2b 
bdb16911 
3cff125a 
3ce99321 
be0fef08 
bdc1b7be 
3e7d041e 
3d8ac5f0 
3de701ac 
3d9417a2 
3e35bde2 
3dc5fcef 
3d6afad0 
3df66d6a 
3e498aba 
be5019e1 
be3790b9 
bd86d1d3 
bdd6b8da 
bdc0b766 
bc1b3149 
be0237ce 
be706a76 
3e8c767c 
3e330478 
3e1c99bb 
3d99f6a8 
3d94225b 
3d3bb4b6 
bd87910f 
bd57fe8c 
be048ae7 
be949c2e 
be18eed2 
3dc1f87f 
bdcc7657 
bdec41bb 
bd544247 
3e0063ac 
3d7d0f06 
3d517799 
3d48a77a 
3e6522ac 
bcb95874 
3d98a22e 
3e35bf3a 
3e131f01 
3d4521d1 
3c9c9001 
3dfed7fa 
be984206 
3e8980e2 
bbe932dd 
bc081dbb 
3dd923bf 
bca8101d 
be11b95e 
bda4f1bb 
bd72d00b 
bd5c9c86 
bd5e234f 
be2d8093 
bc7890bd 
bc9d890b 
3d7bfd44 
3d934381 
3dab4cf6 
bb9c258f 
3d51b996 
3cf8cd84 
3e56f497 
3e0ba05e 
3e04e425 
bce10acd 
be11a75d 
be963fdd 
be906299 
beae7afa 
beddab67 
bc1b75fc 
be0ae18a 
3d95a8a8 
3e130c72 
3d41d3ab 
3b9c4df6 
bc84b811 
bd358c6c 
bdc51911 
be11eae0 
be00c157 
bd263c59 
bd80ebed 
3c5b7710 
3cca5eb0 
3c0f2949 
bd505536 
bd1a7f13 
bcadc5f3 
3d855238 
3c6ed830 
bd31f7d5 
be1b41f8 
bdc6b268 
be507be9 
bdc83a0d 
be77945c 
bf08ec27 
be507401 
be4bf950 
3d967eb2 
bd0094e1 
3d8e044d 
bd6f2011 
be70c784 
bdbefbc2 
bd9b71a5 
bcc05df2 
bd491418 
bd9fa511 
3c081b70 
3da4ff70 
bda50697 
3d555d5d 
bde6f55f 
bd8c85d4 
bd8328e4 
bcfdc40e 
3c79d121 
bd29aa88 
bcd81384 
be295e2f 
3ce2cb43 
3d899d83 
be298dc6 
bed7f829 
beb44fac 
be8d9137 
3daf6885 
bd99c61c 
bce671b4 
3de92ffc 
be908bcb 
be8780df 
bd0bf901 
3bcc8ac4 
bca7137b 
3d1dadb4 
3ca7551f 
3d2ab3e9 
bafdc7b1 
bd0073f1 
3d50cc78 
39afc458 
bd23bde4 
3deb7215 
3e1e31e4 
3e449a6a 
3d198903 
bc1ec34e 
bd8daf25 
be5f89dd 
beb672fb 
bed1baae 
be738e85 
bead2bfa 
3db7e158 
bdcd42a5 
be13b843 
bd99ae1b 
bd3be842 
be1f40ad 
3c983bdb 
bc8d1326 
bb72f2d0 
3c42b8b2 
bd74f00e 
bcbd359f 
bd50cf13 
3c11d47c 
3c8fff31 
bb727d1c 
bb9325e0 
3d39ac37 
3e220bb5 
3db72d98 
3d9b7ec3 
3df7291e 
be06c3ba 
be6dd3bd 
bec7ce2b 
bf0c36d4 
beb664f3 
bed46c35 
3d99c0a6 
bddda7d7 
bcaa5a3d 
3d99040a 
bceb37b7 
be186deb 
3c0946d8 
3ccf6fd7 
bbd6bd08 
3ca5f04c 
bd96fbf2 
3c11584c 
3e3663bf 
3e0515c6 
bd07e2be 
bd86b328 
bd7b1f3c 
3d639f3a 
3df06e5d 
3e10a398 
3d93dfc9 
3df235c9 
bc537688 
bddc6e8a 
be324d16 
beffd46a 
be90af4e 
bebb3fc3 
3dcb73be 
bd06f03c 
3da341ea 
3cc58238 
3d3745cb 
bda9b97e 
bd29a942 
3d9fbbf7 
3d72b049 
bcd26d28 
bdc4c587 
3e0d304c 
3e1f1913 
3dd80328 
bd5821f6 
bcdd4177 
bbbd16f2 
bd9056e1 
3d42055f 
3c90c9bf 
3dbbfaac 
3de32fd3 
3e56c6db 
3db29e24 
bd767250 
be701d60 
bdeef5eb 
be4db78a 
3e78ba39 
bd02b5e5 
3dfaba82 
3d57c462 
bde2f0b3 
be155ece 
bc522588 
3d8430fd 
bda0c415 
bde7b30d 
bce8eb37 
3e438a57 
3e2688aa 
3e23fa28 
3c0547c3 
bd1727eb 
3d6a6118 
3daa3230 
3e13869d 
3d88d790 
3e07c068 
3e695909 
3d06e8e3 
3d5b8766 
be05961a 
3da6a5e9 
be8cf336 
bda2a9d8 
3e8af7b4 
3d6854c4 
3e225584 
3dbb6e6c 
bd200e1c 
bda3f16f 
3db51642 
3da3d4d7 
bd5255d4 
be05f3dd 
3d96bf12 
3e1f42af 
3dc3c1c2 
3e3000fe 
bb2ee2fd 
be40c2b1 
3d6ea6b8 
3e2abdc0 
3d96a650 
3c165cb4 
3d60dd18 
3ddee2eb 
bd76c1c6 
3d98e0ca 
3d9b5852 
3d800ffe 
bd44e076 
bc00e147 
3e98eb1e 
3d886f94 
bc48dba0 
bd386126 
bd88fc73 
3d030753 
bc6ba2ae 
be01e00c 
bdf202e2 
3c5f7289 
3e485c90 
3e8393f5 
3ea1b184 
3e2a3388 
bde86962 
bc31e060 
3dc2bebe 
3e347d01 
3d861790 
3db09e22 
3d1f2834 
bd90e2cd 
ba0d38a4 
3df6e84e 
3d004fe0 
be7a19b7 
3e0346ce 
3d255974 
3ec932c1 
3e441935 
3d09ddde 
bdc155c0 
bba14cd3 
3d9ef729 
bd656cae 
bc7eee06 
3d7d85f7 
3d512363 
3e3bf977 
3e3f143a 
3e51a63b 
3e2edc64 
bcec3fdc 
3bdf0797 
3da60b2c 
bd530058 
bc2415e7 
3e089a5c 
3d34b63f 
3e28ec53 
3e80f700 
3e3b0443 
3e527462 
3d5f7107 
3d95ba10 
3ddc023c 
3eab5cdb 
3e5ee6fb 
be09b00a 
be35d589 
bd92315c 
bd307f77 
bd606a07 
3c8b2c37 
3d19ec2a 
3e1c2dd9 
3d899659 
3deacf62 
3e58d16c 
3e5b55d6 
3df78834 
bd823cd1 
3d3d43e8 
3c7a9538 
3da6e479 
3db1d786 
bdeaf4a5 
bdf58fa7 
3df8d6fd 
bd23536c 
3e7854b1 
3dded7cc 
3e5b093f 
3deb9ce0 
3e005e1b 
3cd7aad0 
be5e4c4c 
be558bd3 
bd14cad6 
bd1da13e 
bdaa8cb7 
3c77dd56 
bc81916e 
3b8aa9df 
3df08343 
3dea4a94 
3e532dfe 
3e2d8587 
bdec3411 
bd4f5d0a 
bd76010c 
bd756277 
3d5ebe90 
bc1d7a76 
bd13bb2f 
3c1ce459 
bc666d54 
be20f404 
3e002831 
3e0b1154 
3d657773 
bd19e998 
be9a4553 
bd8b9ee5 
be4e8fa0 
be10e42d 
3d084c8a 
3e0abae9 
3da8aade 
3d24ab4f 
bd6287c4 
bd5fb8a6 
3dfecaa3 
3e0255b8 
3e3fa54a 
3e0ac140 
3cb8ecf0 
bd2ba042 
be212531 
bdc7f298 
3d4ed82f 
bd438413 
3bf9aea0 
bcbb69b6 
3d3f3dd4 
3d44eef7 
3d9f17b6 
be3e8722 
be13f13a 
bd8b3890 
be886423 
bdf59d8e 
be409f10 
bd888dfe 
bd43efe6 
3da0b114 
bc1f4045 
3bd3386b 
be2499eb 
bd7c2e74 
3cbe8044 
3ddc122c 
3d90a152 
bd4a69ad 
bc0d2a8a 
be07c580 
be515b7c 
be57b48a 
be38468f 
bc01fae2 
3ba64f6b 
bda04584 
bcda996f 
be3036d7 
bddff0c2 
be3fe205 
bdedfd2a 
bcef04a3 
be4c2bf2 
be4bb4aa 
bca7a90e 
3b206bcf 
3dd9a26c 
3e30b44a 
3cebeeb4 
3d9bc1fe 
3d386f7c 
bac4e174 
3da75f0e 
3df6a7b3 
3e1067d3 
bd4764ed 
bdda911c 
be219c67 
bdad7607 
bd109d1d 
be0ebe52 
bdb80aa9 
bdefeb31 
be3c4ca0 
bdce23f1 
bdf95999 
3c88566e 
3cca646c 
beb09b60 
be0f2934 
bd856525 
bde5e425 
bd6ba1db 
3da07028 
3d0ef8c3 
3cf8ab84 
3d27bf79 
3d6457bf 
3d299187 
3cec12fd 
3d99bf98 
3d847616 
3e0d1be6 
be875081 
bc6afb2e 
bd7e2d67 
3c9c00ac 
3c564d6a 
bd92eba2 
be019f1a 
bd8198ea 
bd403c0b 
bdaf61ff 
bc9a8933 
3e75a226 
3e514b7f 
be8dee95 
be7f4945 
bdc06ce3 
bd4796f1 
3d30b109 
bd92f664 
bca77658 
3e314d9e 
3e05687b 
3d5d43c4 
3d757306 
bba7f517 
3d046293 
bc05f445 
bd411f3c 
be12c42f 
bd1fe28a 
3cd528c3 
3d754ddd 
3d6fb9f2 
be40b8f1 
be40e742 
be7616ea 
bc81fd5c 
3b5d43c3 
3e244244 
3e5923d1 
3e63e190 
be8590c2 
be0f1d31 
3ca1d45e 
3d9e3a60 
3e084caa 
3daf57f4 
3dc8770d 
3d3b26d2 
3db8317b 
3d0d2783 
3defff4f 
3a02b7de 
bd783028 
bd817ead 
be483200 
bd49353a 
bd0fcf0e 
3d057ba2 
be0108d4 
bbf8bbe6 
be270ec6 
be5844d3 
bded7b51 
bdd93424 
be05c04e 
3d8a4973 
3e144c9e 
3dd676a2 
bea56268 
be47847f 
3d7e4342 
3e459468 
3d7ea41c 
3dee6992 
3e0b3fbf 
3e092ccd 
bd37bbc8 
3cb2e5ae 
3d36d47b 
bbbf1a97 
bd56152c 
bd2e67fc 
bd2f38af 
bd1d309b 
3d0f42bb 
3da4e3a0 
3d91ee56 
3d518d47 
be1ec985 
bdcd333e 
bd8dff29 
be72163f 
be5414f9 
bd56ee05 
3e01f21a 
3e7db4c6 
be97f06b 
be00a1c8 
3e3b38b9 
3d9e527f 
3cf12adc 
3dd19bf6 
3d4f6d76 
3ded8e89 
3d94eca9 
3d86a501 
3dd3e1a6 
bd8a5668 
b8d014ce 
3d0d1078 
3d7be8c0 
3dbaef98 
bd1ce243 
3d24db0a 
bbad2ffb 
bd27b115 
bd919f84 
3d91a143 
be19d18f 
be8d54dc 
be8f3921 
bd9da958 
3c598052 
3dc356a7 
bd186d8a 
bdfed0ec 
bdb8175d 
bd9ca3c0 
bde575e0 
bbca3052 
bc211616 
3dae317d 
bdaa8419 
bc7bdbfa 
3d69f2ea 
3c287f8f 
bd0cd476 
3e00f579 
3e1d3866 
3d5b2ee3 
bd676cc5 
3d897abd 
bd089db3 
bd6015a9 
bdf03183 
bcbfbae3 
bd1e1937 
be721541 
be9e0b9b 
bda3c5f1 
3d551627 
3d66e871 
bd9d573a 
bd67fdac 
be5c8c7e 
be3c4af3 
be8c2f21 
bc3513d4 
3d5928ac 
bd50ee40 
be18ea72 
3d9eb36c 
3d2f3a95 
bdcaa5b0 
be75de67 
be022f9e 
bdda8c2e 
3dfcb755 
be42c64c 
be66d58e 
be7a6292 
bd867d69 
bd264656 
3d079872 
be1f3e4c 
bec18b6e 
be8f5b91 
be38a6a3 
bd38a342 
3d73657a 
3d693e40 
3c5f71e0 
be2c0dd1 
be7cacc1 
bdfbdcbb 
be606732 
bc0c1200 
be8767fa 
3c9d4282 
3dc4b67c 
be8491b8 
beeb7aa6 
be5f4c70 
be46f9d1 
3ccbfe0e 
bdc509ae 
be9e3cc8 
be0c01c1 
be73a861 
be8c5470 
beb05a56 
be85cbf1 
be3e8b8e 
be682cc5 
be81c70c 
be0b36b1 
bdf26414 
3cbe0ab0 
3da83b88 
be20f6c9 
3ccfa80f 
3d252fed 
3d487895 
bd147b2b 
bcf67455 
3da47c10 
bbc1c7e1 
3cb739ff 
bccb95af 
3d3dae20 
3cce38b6 
3c5a4e9f 
3e31ac16 
3e2f73dc 
3e52cf90 
3d52a856 
3bb1515f 
bd3e89e8 
be525622 
bcc70937 
3baddac6 
3d179399 
398dd2e2 
3df52ec4 
3c34e974 
bc8a7557 
bd0d5073 
bd2599a1 
bde9e23e 
3bfd975b 
bd1b8784 
3d5b27c5 
3c805478 
3e89ec90 
3ea1a80a 
3e6ed197 
3e8b93e5 
3a0fd662 
3c4f433c 
bbc46642 
3d14fd6e 
3dfc6af1 
3d97855d 
bdcb99b7 
be2267ee 
bea6c2b2 
bdbfac17 
be4075f9 
bd2fa87a 
3e411e0d 
bc2798a3 
3e58c121 
3d989040 
3dcb0ef8 
bd24dd8b 
3caf3ed2 
bde90f6f 
3b77ad5d 
3e09cbf4 
bd87e234 
bd26f02c 
3dda4c33 
3dd700a1 
3e018f73 
3e150942 
bacce6bd 
bd693124 
bdcad0ba 
3d7d7fc8 
bc86b2d9 
3d82d43b 
3d8ca473 
3e7f34c6 
3e1855b3 
3e29e34e 
3da412ca 
3cc4faa8 
3dac33bb 
3e1cfdc3 
be2c7d1b 
3ca7c736 
3ccd654a 
bd1e63de 
bd5050f0 
bdf316fc 
bc9f5040 
3dd14422 
bdfdf996 
bd93ef8c 
3d80d17e 
3e60de1a 
3e6e0a2c 
3e30a191 
bdc98491 
bd803f30 
be026f8c 
3c35d58d 
bd87c1ec 
3d78fb0a 
3dd6199e 
bc93a72b 
3c2c1654 
bd5cf39c 
be14c086 
bd5043dd 
be6078e9 
be3e9c16 
be1df88c 
be050336 
3c3ba17e 
be1279d1 
3daff406 
bdb447fd 
bd8fd027 
3da03aeb 
3d8258d8 
be550617 
bd57986e 
3d053cf2 
3dff6ed8 
3df8fcc2 
3dc391b5 
3de38d58 
3d39c8bd 
3dcd90dc 
3d5cdcef 
3dba366e 
bd2007b9 
bdad7e91 
bc9b105b 
bb065787 
bd624252 
3dc52013 
3dac77df 
3d27d9d5 
bd86265f 
bf21afc6 
3ce0d081 
be2c36aa 
3dec414d 
3d5add08 
be5538a0 
bc55850b 
3dc4bdbc 
bd414e4b 
bdb78f61 
bc939a3f 
3da9695e 
3d14e4ab 
3c69c138 
3d6eea88 
bd300298 
3dc5a497 
3d07aea7 
3dbe5f6e 
3d358aa2 
bd705b74 
bdb65534 
3e039d27 
bbc42d01 
3d58ab79 
be498672 
3d4bb526 
be91886a 
be5af0c2 
bd761077 
be33acce 
3e0200f4 
bd4a560e 
bdc94129 
bd4f370b 
bda1cced 
3da8dd55 
bdac0cec 
bd295778 
3c874150 
3e2884bf 
3d8c360e 
3e2d6471 
3c844c37 
3d19281b 
3d0ad425 
3ceb4449 
3de79382 
3d53eb66 
3e3410ba 
3e1e8514 
3df9c7c1 
3ddfbf96 
3cd60de9 
bd342507 
bea1313f 
beec4fbe 
3ead1415 
be5d2b36 
3e52899f 
3df5312a 
bca70592 
bdca4794 
be437e83 
bda03497 
bdfabeb2 
3d341f62 
3c8f0bc2 
3ceddb47 
3c92c03b 
3e025352 
3d8a735d 
3d14b936 
3daec5aa 
3e143aae 
3bdbe0bf 
3d67863e 
3d4868ae 
3db5700c 
3dc374b5 
3dbdc5b7 
bdad73f8 
bdab9d83 
bd9bfa20 
befd83b6 
bec03988 
be40a688 
3e1fd601 
3ddc74b0 
3c1681b3 
bdb57085 
be1c2f85 
be38266b 
be406f5b 
3da4843e 
bc68de79 
bdc5696d 
3bd28f5e 
bd84f7cf 
3dab1085 
3d1976d5 
3c877a51 
3d40d300 
3e1b38c6 
3dd56053 
3d9eae7c 
3e2dd9d8 
3da1eb64 
3dea7921 
be05f0d7 
bec460a8 
bde265ba 
bde0dea4 
3e996352 
be7b4817 
3e361890 
be068ff4 
bca9643a 
bd6d1454 
be54859d 
be3eccc7 
bd8558d5 
3d0a3a6b 
ba68d801 
bb620e1f 
bb147d4f 
be022398 
bcf15ae1 
bc90cfcd 
3cc1cf5c 
3c6e7971 
bc16f9a1 
3d23e2bd 
3e57b95a 
3db34cbb 
3e2f8aed 
3e3d5bd0 
3bf56cd8 
bf12c38d 
bd134b76 
beb041be 
bebdd023 
be8ba16c 
3e05d4f2 
be9cd757 
bd895d7d 
be0886c7 
bdab8179 
be35902b 
be407e0f 
bd88dd4a 
bdbf595a 
bd1bf21c 
bca63289 
bdf1d4fb 
bd092e21 
3d3cd3cb 
3df23af5 
bdd81f9d 
bc8ac353 
3daeac55 
3db7dc19 
3e349834 
3e46bb6f 
3e3ac291 
be2d3f2e 
be9c0e5d 
bd82906f 
bd8a9a11 
be0ee80c 
bec3a0e1 
3de48a64 
be82bb09 
bd8a4edc 
be216971 
be1d5e73 
bccd33b1 
bdc63a4f 
bde09d9f 
bd0f0119 
bd90ecd2 
bda8e1f6 
be05b1b9 
3caba55c 
bcf3d053 
bd8b089d 
bd7f0f68 
3d8ecb9d 
3d8e34c3 
3e4c0e72 
3d92c117 
3e40c95c 
bd5f528c 
bcfb2a2c 
bea89d7a 
be181ec3 
beb4fe21 
be5491d5 
bedec41b 
3d231268 
be61a1eb 
bdb7a27a 
be08026c 
beb2f797 
bde99069 
bd2657f3 
bde6ab3f 
be3d5ac6 
bd8b651b 
be13997c 
bd73b034 
bdea1e16 
be26a39a 
bd219177 
3d737c86 
3d9a567a 
3d875c3c 
3dc7c24f 
3d8689d0 
bd49fec9 
bdaf28a8 
bd108733 
3e69909a 
3e190853 
bdd14da6 
be24d540 
bec5917a 
be34c1ae 
be3bebd7 
be968051 
be7f8c00 
be72724b 
be60c3a4 
bed9c214 
be8792a6 
bd3cd759 
be01f874 
be380fe6 
be8f6c4d 
be1d9f19 
bd87a151 
38acf0f4 
bd021f50 
bd3fc521 
bbf91d59 
be09d19e 
be21afd8 
be8e7b0a 
bea6cf4d 
beba0d7c 
beb89e10 
be2df513 
3e3a721d 
3e5077c4 
bd4788d0 
3d2f3813 
be12bb42 
be2ddfd3 
be30dcb9 
be5853d3 
beaad50a 
beef1a80 
bea72051 
be68ab90 
be7c2960 
bdf61774 
be323efe 
bdbb269c 
3e151c62 
bc57d93f 
be0cc3d0 
ba9d6e1f 
bded27f9 
be208322 
be7e0b04 
be635a36 
be15a08d 
becf06bc 
beaa4ae6 
be2c2032 
3dc5f53a 
3d70aae5 
3dae7ec0 
bbb7b0d7 
bde27407 
be937a8a 
bdb4e15c 
be5dd807 
be988543 
be541cb8 
be45b650 
be239c4e 
be800472 
bdfc079f 
be0bfbb9 
3d7b33cd 
3d8ae758 
be1a97dd 
bd95e5ac 
bdece069 
bd841819 
bcabe08b 
bd157896 
bcb37634 
bde309aa 
be392c86 
be1e6c5b 
bd563024 
bd193c12 
3e197e70 
3d9c3a33 
bdc86201 
bd8de7c4 
be32f2ff 
bd3a8615 
3d601d62 
be368b84 
be25595e 
3c0b3a50 
bd1e6b32 
be24fb19 
bdc22dcb 
bb783145 
3c4f8e7d 
3c5acf07 
bd9aa0fa 
be19d900 
bd74f0af 
bdd172ac 
bc681ebe 
bdba02ef 
be24f2bd 
bdfed64f 
bd6c732c 
3cd5f01e 
bd121e2f 
bd4fc167 
3dcb114f 
3dd1475d 
3e14817a 
3caf9565 
bd8f350f 
3cde4d0b 
3cbef4ce 
3d9e4140 
bdcd57cd 
3df6e5fb 
bd200710 
3da896a4 
bcbe6ec8 
bb558e08 
bdbb3fb2 
bdac66ca 
bcc7f484 
3d663890 
bc238d5f 
bdc2526f 
bd573def 
3d2dfde8 
bcea54af 
bda18af1 
3c94cb41 
3df54aea 
3e6219d5 
3e40f401 
3ebc9c91 
3de9c25b 
3d1ad046 
3dbdd9dd 
3dbd9e46 
3db8d50f 
3d6e0a73 
3db4dd2a 
bdd2b7c2 
3c3cffe9 
3ce03cd1 
3df60f98 
3d96e7f2 
bd0c93eb 
bb49074c 
bd6ba883 
3c3b226f 
bcc8787d 
3c988a4e 
bc5df36f 
bd9fd8f2 
bc8b6550 
3d0ef155 
3b7631b4 
be0e12b7 
bdbdad09 
3dca686b 
bda6041b 
3ecc7efd 
3d9e2f8c 
3e33a79c 
3dce3c90 
3dbffe19 
3d440694 
3d16c978 
3d8c3622 
3db6bc27 
3d90ad38 
3dd15efd 
3d977151 
3d912c8e 
bd84c484 
3da0672d 
bd0240fc 
3da3677d 
3ce28330 
3d58bf77 
bce999ac 
3dec525b 
3de00804 
3d288563 
3d093b17 
3d5e72b8 
3b969ddd 
3e0a0848 
bdbca1a3 
bd48269a 
3e4a6a72 
3e378d99 
3d76c6b1 
3e34bcef 
3daf853c 
bc39d471 
3e0a39f5 
3e12d731 
3e030c8c 
bc5e787e 
3daeebd2 
bdbfe7ec 
bdbef171 
bd655d4d 
bcb13b37 
3dc8e897 
3e36a128 
3db847e3 
3dee85f9 
3c7240ca 
3d828f4e 
3d998b45 
3e1725a9 
3e972cd3 
3e58f9e0 
bd8f4f6e 
be928117 
3dcaa1c0 
3e3d3c44 
3d79cd8d 
3d93da4b 
3d6bc589 
3d0ac115 
3d90b79a 
3db183ba 
3dcd4909 
3d7fc197 
3d9d5082 
bde1f4ba 
3c9fde54 
bd3dc1df 
bd1232ed 
bd1209c4 
3dad2bcd 
3de700a9 
3e050e4f 
3e176316 
bd526e76 
3dbdcc67 
3d22d5dd 
3e6e8824 
3decb71e 
3bc606c0 
3d8b6ddc 
3d2ccee3 
bc8dac41 
3ea24f5d 
3d92a666 
bc150529 
3cf03cb6 
3e1e5c55 
3cf01042 
3ddcc793 
bc9b95dc 
3bc6f4d8 
bd71c1f2 
bd5d98d8 
bdb4af5c 
bdf3fb34 
bdab9d0a 
bd1023f4 
3c882934 
bd454be4 
3d6c41da 
3daa91ee 
3e033a26 
3e4f1ff0 
3c563d17 
bda6ea50 
38866231 
bd8cf980 
be0df3c4 
3de947b2 
3e52abda 
3e9abd9d 
bb763717 
3c5237e4 
3de0bc95 
3d9d8248 
bc94f627 
3d35a27b 
bd83fcd8 
bdae4544 
bb507a59 
bd9ee407 
bd94856e 
bd69277e 
bcce637b 
bc1fe993 
3d006be1 
3d1fb1db 
3e1fdfc6 
3d942175 
3d91f515 
3dc65e82 
3d8e04f8 
bdbdfe33 
be3f7084 
3d95e203 
bdae1313 
bce69619 
3d5a91b1 
3eb599c1 
be26a691 
be110150 
bc023738 
bb93a4bf 
bd46232a 
3d425925 
bd16c57f 
bd6798a0 
bdca0da3 
3d2d8e99 
bdee3388 
bc021e2d 
3d87901f 
3d88bdca 
3cf223f7 
bd1f65ff 
bd7cd884 
3ceca880 
bb941352 
bd8c348b 
3d5aef4b 
3e080918 
3c722e1f 
3d4205f4 
bc3b3a11 
bd26a1d3 
be312267 
3c824c14 
beb64796 
be8fdf1a 
be60da07 
be3d301a 
be1234b1 
bdcc9b7f 
be4a31f6 
bded5ead 
bc962c84 
bcb6d839 
3d9cec12 
3e7d6ae2 
3dea0065 
3de1dd23 
3d204dd8 
be3d412b 
be7e3080 
be641138 
be32958b 
be5330d9 
be6e10a1 
be06a86d 
3c71aa74 
bd54b321 
3deaecdd 
3e595dce 
3e642556 
bad8ebe0 
bea0b662 
bed9fd06 
bf0a064e 
be1c39fe 
bd5e0a9d 
be21205b 
be62228b 
bdbeaac1 
be0c0f8e 
be170ff1 
bddbff66 
3d66d4d2 
3d1ff324 
3d98ec51 
3d073f01 
3cf43d86 
be05f8e7 
be7da54f 
beaec440 
beb5c259 
be98b8c5 
be56fbc6 
3d79034d 
3c999d0d 
bd2ebd2a 
bb988ab0 
3c9db029 
3d4bf6a8 
be002312 
be40373c 
bf0a1ae0 
3d955c50 
bda47faf 
be5af7ff 
beaf52ab 
bdfd0231 
bdb148bf 
beb72528 
be96a893 
3db64e66 
3e2de681 
bca276f7 
be854e35 
be8d7aee 
becf0c51 
bea22b97 
beab81ca 
bd26d7f7 
be14de13 
bdcf1085 
be5204ca 
3cbe393d 
bd23c805 
bcff8f67 
bd0520c6 
3cf26835 
bcad2805 
bd584294 
bb2e9511 
bc90c0f1 
3dd6ba27 
3d5c2ea8 
3e471db3 
3ea40ddd 
3e90ce40 
3ea64e34 
3e7f9807 
3d32c2c5 
bd8ba24b 
bc96c9db 
3c97d5cb 
3c40d7db 
be21686a 
be7e4277 
be3867d9 
be9f729e 
be800a44 
3d97cb9d 
3e3a7390 
3d8f4010 
3dababda 
3dc32ee6 
3d8cc24f 
bd88ac2c 
be0319e5 
bc9ada5c 
bdde67fc 
3ce45534 
bdf870d4 
bd80d7c6 
be3194e1 
3d1b6cb3 
3dea276a 
3dd3b581 
3db2f68d 
bd34f072 
bd4bc887 
3d5fa0d1 
b9ae921c 
3d96f384 
3c57761b 
bd8ea43d 
be9390ad 
be181632 
bd94179f 
3e47124b 
3e66271b 
3dcb2eab 
3df0d6d5 
3b9e4e70 
bd16a936 
3c3bdd7e 
bd5815b3 
be1b47bf 
bc732791 
3bf5e4c2 
3ce37ab0 
3cfe6c24 
bd489b6d 
3ca2d26a 
3d20f979 
3e06dade 
3dd6a6db 
3d64cc5b 
bd88ce0a 
bd3b1989 
3d2b6e72 
3debc9a0 
bc7143f1 
bd90a4f5 
be1aee78 
be1ac34f 
bdfb8fb9 
bd09ab34 
bd8754bb 
3ded7c43 
3ce0b8aa 
3d515729 
3c67cf61 
bdc73e40 
3d699dc5 
3bdf67ed 
3c065c8b 
bd9bacf0 
bcf41b4b 
3e3883e3 
3d390453 
3d6567ea 
3d2901eb 
bd73b807 
3d6ab318 
3d15089e 
3d383498 
3d321f1e 
3c89d483 
3d4837f0 
3c901b8d 
3c6a5c49 
bd07b500 
3db9cac6 
3c5cd6fd 
bc04e09d 
be236bc3 
3c659142 
bdc66a8e 
be161657 
bd36b061 
bdcc3854 
3e37db68 
3da7fbab 
bd1aa8e1 
bd123d8f 
3c0e394b 
3dfcaff3 
3ddc8f1d 
3d18648b 
bbb2ee12 
3dd91264 
3daaa4b7 
bd428df4 
bd30f93f 
3db8c923 
bc3711ae 
3d34de98 
bd8b9ad8 
3dfd7347 
3d1863bd 
3d9261a5 
bb8e8e36 
3d7217ac 
bdbca63c 
be0fcbb3 
bdef3a03 
bde09a3e 
3cc89ef0 
be330dc5 
3da55330 
3e0cf851 
3ccd38e5 
bc3858e9 
3d6c0d84 
bc9f91c2 
bbc732e2 
bd37b98a 
3da2b45c 
bd3e2365 
bce808fe 
3cc5117e 
bc91d575 
bc0512b7 
bd686a79 
bcaad3b9 
3c6c50d8 
3bebc1a4 
bcc57db1 
bd19ac14 
3d5c6bc8 
3c01e27d 
be06bd11 
bbe76042 
bcb84a59 
bde2e27d 
3e4c90e6 
bdea9a96 
bd1de6c3 
3e243f12 
3e340715 
bd025c8e 
bcb78e43 
3d90a6c9 
bd644709 
3d3e73bb 
bd8d1756 
bd313d1b 
3db98f50 
3c325243 
3cb68b5f 
3d54c86c 
3d298b35 
3891b76e 
bd8b224b 
bd3f59dd 
bde09f59 
be31bbb1 
be91730b 
be5224b6 
be8bd4c4 
be19c867 
be74703a 
bea6f075 
3e9b4645 
bd19bcd4 
bd1f2a6e 
bc292271 
bbffc598 
3d7d58e4 
3de8a7ff 
bd1e696b 
bd92c0b4 
3d8bb896 
3ce14ccf 
3dd26c8b 
3e1e7ff2 
3c93f817 
3d905dbb 
3c895997 
3cda54fc 
bd119ca1 
bd39b01d 
be10a222 
bdf3f3ab 
be2f0c44 
bdee1441 
be04c90e 
be00c0ff 
bd157a72 
3c43c63a 
bccb1343 
3e4bec9b 
be709bc6 
3e337863 
bd896be4 
3cfafc4d 
bd910611 
3d4e5864 
3c24b628 
3be90514 
3d055684 
3dafd73e 
3e2e6645 
3d200b21 
3e08f3b8 
3d8a6d41 
3ca05a95 
3d361059 
bd656aa4 
be1a7cef 
be0ea4f7 
be48bfa7 
be7f066c 
be22e967 
bddaacc8 
3cca6e9a 
bc6bc04a 
3cbf6c04 
bdf1f003 
bf22c0c3 
bf049ed2 
bd8a34fa 
3d95e8ee 
bdc8cff4 
3cc69c93 
3e302bba 
3de40b64 
3d7f1d8a 
3d857858 
3d8ba4fd 
3dd8c936 
3b8c50ff 
be021e2b 
bdd3d84e 
3d9d7068 
bd9dfa14 
bdcaffdc 
be492ef8 
be1fd95f 
be2c7c48 
be298852 
bde4c652 
baa7e1ec 
3c8496dc 
be01bd05 
3d578372 
be03f8af 
becf96d6 
bef1df5f 
bea43231 
3c84f2e3 
3dfb5709 
3e26147f 
3e5ae2c5 
3e3078ea 
3e50b125 
bd09fa18 
3ca98ad7 
3da47cc0 
3eaa2bcf 
3e4084c8 
3dc96e65 
3c4477ab 
bd982de2 
bbafd1d2 
be064b54 
be894404 
be4c73fb 
be243eb4 
be344268 
be49c155 
bd36da43 
bdf85578 
3dd4a6c7 
3d2c4e7e 
3dd4c52a 
bed0c60b 
be6c1ddc 
bd1d3a45 
3d40367b 
3e39e2cd 
3e9f07ca 
3e22d12f 
3e712a11 
3e6a0337 
3d20eb97 
3b81ebfa 
3e321205 
3d0c6ed4 
be07d9e0 
be628070 
be4fc59c 
be58ebf9 
be2db175 
3ca93bb6 
3c8623ee 
bdce1477 
bc0e6516 
bdf69145 
bd98a69d 
bd258292 
3cbb6918 
3c6253ed 
3d50bc7b 
be786c0a 
bd11f66b 
be5fc731 
bd9e1372 
3e75fda8 
3e53a87d 
3da5b933 
3e8df2d7 
3e624cb2 
3e8415f3 
3e2f97ee 
3e6251e1 
3e616916 
3d37a7ce 
bd6566ad 
be42a666 
be4dbb9c 
be567a00 
be78532a 
bde81e14 
bd7ed79a 
3de7dda7 
3dc455ff 
3d97473c 
b8cd595f 
3db23549 
3dbe9f73 
3d96a7dd 
be0bb3f7 
3d2c4016 
3e632a4a 
3e858c69 
3e4d3bfe 
3e54cf73 
3e18a470 
3e234aab 
3e05d1fa 
3d18379b 
3e35ed15 
3e13bced 
3e0c2c5d 
3c7dde31 
bd24e4ab 
3c6bddc1 
bc754f7b 
bd58a567 
bb4f1ddf 
3da0592d 
bcf9fecf 
bd70adbf 
bd053bbc 
3d5bf614 
3d976648 
3e2880f9 
3e56c32d 
3da887de 
bd5c65bb 
3d98135e 
3e3a3f4c 
3deb0c07 
3e42ab94 
3e034059 
3e3cf115 
3abb2ec0 
3d9abff7 
3e00c6c7 
3d64ec83 
bb1b6d5b 
3c9592a7 
3d719d37 
3d67f788 
3c72cd76 
bde5baaf 
be08aee9 
bd5b6ac2 
bdca519e 
3c5dc9ab 
3d690d85 
3d72a18a 
3d1691b9 
3e675a98 
3e60928c 
3e699ba7 
3e9f1932 
3d5d2e21 
3c06477a 
bcb9a6cb 
3d262de9 
3cfeaca7 
3dda2cf0 
3dc0171f 
3de80e61 
3d57a0e1 
bc52920e 
bdca621b 
bd84764d 
3d2bdc5d 
3d71e67b 
3d9303d9 
3ceddee7 
3cc05e0d 
bb9ed11d 
bcd637c0 
3d702138 
3dd83f83 
3de4ae6f 
3d82e637 
3c0e5018 
3cc79cbe 
3e1ca378 
3e7cb9e2 
3e7c122a 
3dabf999 
3daa2d0d 
3df88ee7 
bc8f320b 
bdd6f385 
bd8a07b1 
bdb87843 
bd1e8261 
bd02c17c 
bd301138 
bd2f9704 
3d654c37 
3ca4676b 
3bc00be8 
3c033105 
bd9204ec 
3bb78b3a 
bb9b226c 
3d26b40d 
bc2906b1 
3d991d9b 
3e9a0ecf 
3e5417df 
3d900930 
3e516d22 
3e5d3705 
3e939455 
3ef67bca 
bdfa367c 
3dad513a 
3e416eaf 
3cfb088a 
bc89d810 
3d1f52d7 
3d4f0083 
bc52db3f 
bd8a6c4e 
bd99e3e8 
be180623 
be0245e3 
3cd36af1 
3d99afa1 
3d88f4cd 
bd13ef97 
bd4bc91c 
3e1e96ce 
3e14b706 
bb9827e6 
3ca19e1a 
3e39730c 
3c90ba4c 
bc97c350 
bd1197dc 
bd99c75d 
be34d5a1 
3d8abce8 
bcf85d3f 
be2b318a 
ba9e9b7a 
3cfecd3f 
bc972b62 
bdf9e2af 
bc3c8110 
3c553f1e 
bd3d3cb1 
bd41deb4 
be637a1f 
be7f75c2 
bdb18bf4 
bac60b9a 
3cc2c21b 
3e2319d9 
3e185fcd 
3d4133d6 
3d5fada6 
3daa73c2 
3e268e95 
3de8bae4 
3e455e08 
3dfa34a7 
3dd62887 
3d34e71f 
bdad8166 
3e2368e0 
3ddd4bf4 
3d9e6828 
be224383 
bd72a921 
bdf24527 
bdeb4029 
be3306cc 
be17bdfd 
be3d62c9 
bd7c098a 
bdf68da7 
bd5584ac 
bda01999 
3e0bd901 
3e2847b4 
3e31baba 
3e202fa7 
3deaf115 
3e17091a 
3de936a6 
3dce3c0a 
3e092b7e 
b9ac72cc 
3d156657 
bb9c2ce0 
3d9aa213 
be132ad7 
3dc2f022 
3e3feaa0 
3e783dc8 
3e3159bc 
3de914e7 
3d2057f9 
bd81ca1a 
bddc203e 
bdcc1126 
be52d7cb 
be086f68 
bd79785e 
be089c1f 
bd3ec856 
3d7e4c0c 
3dee233a 
3d98f820 
3d985b8f 
3e1d971c 
3e8be744 
3e773e79 
3e0f1856 
3e40b765 
3e823b4d 
3e4bbef3 
3dac95ed 
3e2625fa 
3e837552 
3d093e85 
3e24a444 
3e3a13c6 
3cfe1685 
bdbc7018 
3cced5d2 
bddc46ad 
bdf30e0e 
be9a94a3 
be71e3e2 
be1cf25a 
be10a009 
bd257646 
3d52046e 
3c415992 
3db8696a 
3e06cc1c 
3df672de 
3def5eb7 
3e9ef3ee 
3e07c959 
3e381751 
3cc396f3 
3e1f4477 
3e37dd9e 
3e7d5c8b 
3e7a579b 
3d7b0a31 
3c9d36ad 
3d951bd0 
3da0fb44 
3e1f6d47 
bd882653 
be32f50c 
be22b52d 
be644e93 
bdb2572e 
be59d180 
bd5fc1f4 
3b920518 
bc26dec0 
3c37e2b9 
3b6b7204 
3dfce9a4 
3e47c7a7 
3e8786dd 
3e3e8b82 
3e661a79 
3db7349c 
3de18738 
3e085bc4 
bd8af558 
3dd23c82 
bce71cf8 
3ca69d8c 
bcb02b60 
bd1d4e64 
be401365 
be61b35e 
bef959a5 
bf1ce655 
bf3959ac 
bec7d56f 
be2604a3 
be638f71 
be400499 
be07ea91 
bc3db79b 
bd0a7d01 
3d99763b 
bd6e077e 
3e2d54ce 
3e61b6a8 
3e48e947 
3e6bfb9b 
3e7471e6 
3e074116 
3db9f248 
3d99b20c 
3d2cb810 
3d3aa8cf 
3da47936 
3d2d5695 
3df95431 
3ce78c28 
bd034241 
be9aa919 
be551be2 
bece0223 
bdbd9de0 
bd99a88d 
bb18e6f1 
3bf647d2 
3cfe702a 
bca3cb5f 
bbf777ac 
3b1b6087 
3c9e8892 
3d4ece72 
bd164648 
3e2540bd 
3eae99c1 
3ecf5409 
3ed3d8a6 
3ea453d3 
3ea23650 
3eafe1e2 
3e58c406 
3e2cf266 
3def7c0b 
3cb75e68 
3e69dbf5 
3daebffc 
bd8b3555 
bd7c12e7 
bdbd9d49 
be2bc7a6 
be016f33 
be1e45f3 
bee82fb9 
bf0bf4ac 
bdb761f5 
3d9219a6 
3dbaebf5 
3e10a8f0 
3d18c3b6 
3e07b21f 
3df6cb1b 
3e3d57c3 
3d701f5a 
3e27b3c6 
3e03cd50 
3e07c248 
3e41261c 
3e864f45 
3e6e9093 
3ddf8e6e 
3e36410f 
be1039af 
b9553d7c 
bd330f37 
bd180259 
bc296f47 
3d013089 
bd85c5ce 
bc6ad2ba 
bd92014b 
bdc11099 
be118ab4 
bbe5291e 
bc783a93 
bd17724d 
bde668e7 
be017e67 
bdd9d3e4 
bdc2b3e7 
be8020ba 
be6e588e 
be1a3e5e 
bdb6c8ec 
be3a634b 
be615b3b 
bde1ed55 
bd39d09a 
bd9daf44 
bd0ba8b5 
bd46a2a5 
bb82d2a8 
3d2a1ecf 
3afeeca0 
bcff429a 
bb0a0110 
bbd64599 
3db3a92b 
bcae2ebd 
bd37081d 
bd8b7de7 
bd569f2d 
bd8df4c7 
bc3ff343 
bbb79137 
bcf51553 
bd755072 
bdf084ee 
bd4dca69 
3c00f3a9 
3d5601d7 
bd48b080 
3ce914b9 
bd8f7d29 
3d996fa9 
3ca2d374 
bb3be5b7 
bdbddb6f 
3d8a87fe 
3cb1153b 
bda0a9f8 
3cf02553 
3d3d8242 
bd73d813 
3c35e8c5 
bd95173c 
3d0a9275 
3e18212a 
3e9c4568 
3ebcdc59 
3ecad959 
3eb1f0b1 
3cbd455c 
bdbd1707 
bda6b785 
3c49ebc1 
bdd5126f 
be23b72e 
be7d7b97 
be2a4063 
be893ce6 
be8bdfa6 
bdefe44d 
3c91aeb9 
3e355090 
bcba202a 
3d37e1f0 
3dbbca56 
bc87aefa 
bd832fa4 
bdf608ef 
bdd5fe48 
bc11f23d 
3d155d5a 
be0320b4 
be0dc3ea 
3cd1369b 
3d06a1ad 
bbbbc77f 
bc421891 
bdf14606 
3d02fb47 
bd2e20f9 
3c9b9f03 
3d66c694 
3cac1d67 
bddf249f 
bdceced4 
bdfafef6 
bd1cf074 
3eb52d5c 
3e6a707d 
3e4439ec 
3e1b6d26 
bd84eb2e 
bd133f26 
3cbee1bf 
bd7cac55 
bdb29f1b 
be2c18ed 
3d1dceae 
3d364031 
3d1efe88 
be0c1438 
3cc62a79 
3d6af7c7 
3e0a55a6 
3e0b0a69 
bdd56ccf 
3c42b09c 
bc78171c 
3deea66a 
bc815526 
bd9c44cf 
bdc076d2 
be93fad8 
be9103ce 
bd92c969 
3b916e7e 
3d89059f 
bd9d5358 
bd9e1608 
bc792b57 
bb076e5b 
3cdafe4c 
bc27d02b 
3e0d5702 
3af73d89 
bbd95b47 
bd6c397a 
bc41ff81 
bd47dfd9 
3d6e7af8 
bc34c2c3 
3e244571 
3cbabf7c 
bd4e8a8e 
bccc4378 
bc4ae7cb 
3d3f59a5 
bc01ebc5 
bcb605de 
bd819e69 
3c0c9aa3 
3cbf7c2b 
3e2c7069 
3cbaf735 
3c852722 
bd916783 
3d8ac6e3 
bc8faa57 
bd507d26 
bdc8f637 
bdc50cbd 
3ddc7de0 
3c80d692 
bd776da8 
3d47ac41 
3d7eafe2 
bca665ee 
3e1adad6 
3d85d07e 
3d488a8b 
3dcb1ace 
bca15b97 
bce1137d 
be18691e 
3cb42faa 
bdb88868 
bd5da11c 
3cf35b4f 
3d416962 
bc8f60ff 
bd8bf7ec 
be3364c6 
beb16588 
bdaf583e 
3da7f64c 
3e0dd50e 
be54e9b7 
3d37540f 
be4645aa 
3ddb45c8 
3d8473dc 
bd63ebf8 
bd0c2508 
bc259ad6 
3cfe9a74 
bdce5cb1 
3aa79859 
bccaa14d 
3d73271c 
3d5daa36 
bd9fbd42 
bd593bb1 
bcf68c0d 
b9dd4003 
bcee2a65 
3d01055c 
bd99a8ad 
bd8ed781 
bc5680da 
bdde7ae3 
beaf09d3 
be2dc6b1 
3d9a9725 
3e1d8175 
bc8be063 
3e0eec00 
bdbd0ee7 
3db78b54 
3e03e005 
bd114b1d 
bcb9bbd4 
bbbcfbf2 
3b668ffc 
bc6a0270 
3ce95512 
bd7d36a9 
bbf361ab 
3ba94ca2 
bc99f504 
3d5aa042 
3cac35ff 
bd647e0d 
bd99c93b 
bceb76fe 
bde76815 
bdd5fa40 
be804801 
bea629fa 
be47cf63 
bd9f8064 
bd8a759d 
bd1998ad 
be414326 
3d3dae54 
be896661 
3e72d08f 
3e096e34 
bd53f986 
bbeb4a79 
bd6fa088 
bd0323cd 
3d8db426 
3e275cd0 
3d9e45a0 
bbf9585c 
3d22ad0f 
3d3891f2 
3db195af 
3da67c7c 
bd68a4d7 
bdcc8b29 
be20a383 
be3d7f7d 
bd1fd387 
be55b9d8 
bd266837 
3d1ea55d 
bba07c4c 
bd21d04b 
bdadb410 
3d5cf210 
3e1623e4 
be533000 
3e48373a 
bd00f5b1 
bd6d9066 
3a40aed0 
3c6d46ce 
3db66f08 
3db712ce 
3e2d6859 
3d331122 
3db7fd99 
bde92737 
3dfd63ff 
bd162274 
3cef0e14 
bac1fb81 
bd6cfb2b 
3d18f70b 
bdf85f97 
be131a49 
be40e0b5 
bd9e962e 
3c8aec2e 
3e0801b5 
3d0d294f 
bdeb5fa4 
3e2be345 
3e83aeb6 
be74c702 
3e65f351 
bde70c3e 
3c9b7b60 
3b862d9e 
bb9c798f 
3d265c39 
3c0e09a6 
3d473474 
3b5775c4 
bcda987e 
3d03083e 
bd651434 
3d59703b 
bb15ee6d 
bd7a5a9f 
3ca0827a 
bde3817b 
b87586f3 
bd06e630 
bcbb254d 
3ce8e31e 
bcaf1193 
3d697f5e 
3e19db9f 
3ca7efb7 
3d2e06eb 
be82002e 
be9f00f9 
3e28fa8b 
be8acf0a 
3d640724 
3d0595f3 
bc7266af 
bc799926 
bdad479b 
3dcadfdd 
bd0d3d3a 
3c87bf55 
bcd5ec57 
bc98717d 
bddf33cd 
be36f71d 
bc1ab2a4 
3d427241 
bc4186be 
bd93bf84 
3c75a9dd 
ba7b24dc 
3d8b54ba 
3e1ede46 
3e4ef293 
3db6b82a 
3db973b0 
be677240 
be6a0f83 
be76eb5c 
bd2b13b2 
be931a25 
3c51f3c2 
3d0f038b 
bd80432d 
3d03b33a 
3c8485e4 
bc7f838c 
be058a42 
bc1b28d8 
bdae2d42 
bd42e936 
bce1eb45 
bded68fc 
bd843586 
3d1675dc 
3d801d25 
3ab0bce0 
be056dc1 
3c864573 
3cb09aa3 
3de8a6b5 
3e43294d 
3e8882b1 
3daa6953 
bd9a4314 
bd75f482 
beedf5d4 
bd95ee56 
be852934 
bdc6ef87 
be5aceeb 
be2cd83f 
3bb04a52 
3c6e2caf 
bc3fa627 
bd834278 
bbdac3a5 
bda1787a 
3a2b3326 
bdf7316b 
be26fae6 
be0a8f61 
3d5b590f 
3d924c5c 
bd50fa55 
3dcd3997 
3dd85365 
bc1eb0fd 
3d1eb089 
bd174406 
3e3a9564 
3e451391 
3e20f008 
3e2d4916 
bec1f63c 
bc90475f 
be21cf5f 
bd69add0 
be531685 
bd88a8a7 
bdf402de 
bdf2fc50 
be8075fa 
be39f4e4 
be656794 
be356b09 
bda034d2 
be0ec0c6 
be70bb57 
bd173bef 
bd017883 
3df792ca 
3d3b65ac 
3dad1e98 
3d4a1c74 
bc4b18ff 
bd6009b7 
3e1fdde8 
3e50fab2 
3e2595d9 
3e1c3205 
3d8746ae 
bdb29bc5 
bd9db4c0 
be860003 
be7aead8 
be4d9425 
be5e58b7 
bdd68203 
be5643e5 
be141dac 
be26d6b9 
be150901 
bd89e6c2 
bcfb0764 
be597dca 
bd7e948c 
bd4c8eed 
3ccd9ab5 
3d59e677 
3e1e26c4 
3e5594e9 
3dc07af2 
bd98d821 
bcbfa811 
3dddeb63 
3ea431b1 
3e83fa87 
3d68deb5 
bc4fb1d0 
3d078c33 
3d4e2f12 
be7d0ad0 
be8bf12b 
bdc46f4a 
bdf7808a 
be23114a 
be02a0fc 
bde31ca3 
3b379ff3 
bd819a6b 
3d161baa 
bd7b9bf4 
be00dad9 
3c640f8f 
3d435ada 
3cd271f0 
bc652180 
bd893b17 
3dc176e5 
3e0a96cf 
bdda865e 
bbe8d3aa 
3de41ae9 
3e431acd 
3e757b80 
3db2d378 
3e3a72a5 
3dd9b9ca 
3db27aec 
bdc41be1 
bdf66b08 
bd563310 
be02dd18 
bd8e46f1 
bd3bd761 
3d4779ed 
3cf67237 
3d4e0da1 
3e0ba080 
3d6ec95f 
3ddbd732 
3d97f358 
3d12f428 
3e644169 
3d88b758 
3e0118a4 
3db1d76d 
3b61f18f 
bd9a2ce7 
bb14d624 
3e02ab5c 
3e484da6 
3e800187 
3e53b891 
3e9ba9ac 
3d45a7ea 
3d8ca51c 
3d203bda 
bcdf4d3a 
3dda81a2 
bc8eaf2b 
bd24ce17 
bd2becd1 
3d8d4617 
3da19bcd 
3e217dfc 
3e7269fc 
3e18dceb 
3e25dcff 
3e2016d1 
3e0ec612 
3dff516a 
bdb965d3 
3d8e3c8b 
3d39f786 
bbe43b49 
bd9e7ac8 
bad96331 
3d95ac41 
bc7128cd 
bd642d0f 
bc983f98 
3ecc24ef 
3d9efdeb 
3e0a6f8d 
3d60a981 
3d6297bd 
3d34d84e 
3d17aa63 
3d8dc1e6 
3d909085 
3cd5cdd8 
3e305a8e 
3e0c6c9d 
3e6022d4 
3e12a183 
3df367ea 
3e50069f 
3e31cc8b 
3e1d1107 
3da52cb0 
3d597b76 
3de63d1f 
3dcf59ef 
3c4a4305 
3dd0e4f7 
3d999851 
be3b47b2 
3ca9f327 
3e1700f3 
3df15ad0 
3df22d4a 
ba876756 
3e35b8d9 
3de2d6b9 
3d809fac 
3da08c16 
3dcfb9e9 
3dbf7e24 
3e0e8a00 
3e0a4673 
3da61c5e 
3d9fec3b 
3dc6d1ac 
3da3a345 
3dc8d510 
3c7909c5 
3dab4e36 
3dd5504c 
3e47dc56 
3dd23bbc 
3dbcf711 
3cd79ea0 
3b84ac02 
bdfffa51 
bdfdaa02 
3b4cf272 
3d43d2c1 
3cd02ba7 
3df06561 
3d76331a 
3dd0728c 
3d6a5296 
3db6d4b5 
3e7e6836 
3dba4ddd 
3e1183aa 
3dcd4ad1 
3ddbf3ff 
bc82b45d 
3d872bb7 
3d83336d 
bd187e8f 
bdb27e82 
bc81c915 
3daf99e4 
bd116eea 
3cf11564 
3c8af863 
bd5568e0 
3d5a82d4 
be745de3 
be2381a2 
be3ffcb6 
bcfdc997 
bd0a95fe 
3d4ef7b8 
3ea0eca6 
3e0a4494 
3db9cf7e 
3e1fcbdf 
3d895d37 
3e334fab 
3dfc2805 
3d8fa9f7 
3daef6a8 
bcafe201 
3d295824 
bbc83fd2 
bdaef22b 
bd6fc117 
bd833a3d 
bd68daf5 
bd673d7d 
bd1f2397 
be2c47c8 
be31cf33 
bda841a6 
bdf87397 
be72f0d0 
be321ea2 
be859bea 
be065e7b 
3d347d40 
3e892b0a 
3e81e5ae 
3e15aa21 
3d33adec 
3d95f265 
3e3acf82 
3dc210af 
3e4d78b3 
3e62c789 
3d7c8aae 
3d9a63ab 
3c4191ee 
bd3da8c7 
bdb5c4ba 
bd95e072 
bcee2de6 
3d5c0cc4 
bb774b5e 
bd804e52 
bd5c7749 
bd3f68f6 
bd99cbf3 
be5f47ff 
beacf4ea 
be901e59 
be98b0dc 
bd319a30 
bd7ff0da 
3c3322e7 
3e9de539 
3d815557 
3d1ff8a4 
3dce1d3f 
3d1ab933 
3de1cde8 
3e22ef1d 
3db46127 
3e034e78 
3da45782 
3cca269b 
3a97d1c4 
3d22baa0 
3d067741 
bce5a7d2 
bc04fabd 
be25359e 
bd06c5cb 
bd24b2dd 
bdf94330 
be42a566 
be8ae524 
be87c792 
be7293b3 
be39c6e4 
bd6ef570 
bdbde20c 
be358b44 
3e1617b0 
bddbc99d 
3c5a171d 
bcffc615 
bcb18426 
bd974ca8 
3d17e210 
3dbf5be2 
3d1bb026 
bc862757 
3c8589b6 
bdbd7609 
3a76fbde 
3d88ed64 
bd7397da 
bd817d71 
bd9d6e37 
be099762 
be098f2a 
beb3c234 
be796aab 
be8e6b3f 
be57265f 
be12d5f0 
be74f11f 
bd975f75 
bce7a3fd 
be2db31a 
bce519bd 
be85a5ce 
beb8a166 
be847810 
be050f02 
be244848 
be2685e4 
be56dcd8 
be091e08 
bd34519b 
be86abe5 
be34a681 
bcb92bb4 
be348d6c 
be49e22a 
bd93dd8c 
be5a7938 
bd07020a 
be3313ef 
be6dbd93 
be660897 
be5ee4c3 
be6720b8 
be43bbfa 
be164cfa 
3c89ded2 
3ddbb464 
3dcdb183 
bcdab326 
beb037ad 
be6e69d0 
bee8bfe3 
be30cc87 
bea04679 
be90233e 
be820c15 
be707442 
bebbd2ac 
bec3ab96 
be4f3a94 
be281b9e 
be9623ca 
be31cba0 
be0f7fa7 
be6d6fd4 
be14de32 
be1715f4 
be9fdfe0 
bed23887 
be50b232 
3c5c4a1b 
be33e9fc 
3db3e5d3 
3e31867f 
bcb03519 
bb94414c 
bd205a44 
bba384df 
be0b0549 
bf09b5b0 
3d0b0c7a 
bec1aab2 
bec4e6e9 
befd0047 
bf25941c 
bf3179b6 
bf182ff5 
bf005618 
be204076 
beaff396 
be26bb96 
bdc00d7a 
be7fd28b 
be816549 
bec80cae 
bec91f69 
be805401 
be64bd25 
bd8343af 
be5fa1e2 
bd9bcc09 
3d54b22f 
bc07adc1 
bc9d7f7c 
3d1af34e 
bc84c8a4 
bde98f6d 
bce3233d 
bd48c1a9 
bd86f536 
3d08dca3 
be0d2481 
3cf6242d 
bd61800e 
bd7b6784 
bda49e43 
bd858e77 
be413cfe 
be659b3d 
be377c40 
bdfbd9d7 
be7a7cef 
be1a7919 
be895400 
bd44c47d 
bd4d39c1 
bdd5e628 
bd946def 
bc90c55b 
3c03c958 
bb6bb3c8 
bd130eac 
bd8e0ae9 
3d1de1e5 
3d190cda 
3d5d956d 
3cf8688a 
3dcd3fca 
bdf15c3a 
be019681 
3ca7bfd9 
bcfacb66 
be2151e7 
be12c2a1 
bde58b5c 
b87a87c0 
bdb4d9fd 
be22db48 
bcb2a705 
bd963ddb 
3dba5ac6 
be55d696 
be0c430d 
3d515d5e 
3d5c18f0 
be8b2339 
be84983b 
be4b8e8a 
be262544 
bd9cc148 
bd2ab167 
3d96488d 
bc855240 
3dcd285a 
bcdc5608 
3dc5b7ab 
3df4e645 
bdb1fc75 
3de82474 
bca44322 
3dafdc0a 
bce568d8 
bd2f3ec2 
3da2f580 
3d1b41e7 
bcd74de2 
3d97b0e4 
bc1ab25e 
3e09baf7 
3e3fc9a1 
3e2aed71 
3e64049c 
3ea345ae 
3da63e24 
bea0df0c 
bebd4514 
be2b1832 
bd9761cf 
bcf77279 
3e25d720 
3e0f7f83 
3dc872c1 
3dc672ba 
3dee94a2 
3d8da2a9 
be8a2929 
3d816f31 
3e2784a6 
3cc0932f 
3dde1eaa 
3def8072 
3db6f256 
bc911883 
bcb755e3 
3d9e80f3 
bc50eee6 
3d7e684c 
bd106ea3 
3ce4b128 
3c45b6a3 
3daf7eec 
bc909f17 
3d41ff69 
be7899df 
bf1dd385 
be16e6bc 
3d706512 
3d842531 
3e0cd115 
bd683610 
3d5ad105 
3d8b351b 
3de6a67e 
bdb199d1 
3d24c2fe 
3c18ce7f 
3b9c31a7 
be0a170c 
bcfd93b6 
3e017b66 
3dc2b684 
3d7fe284 
3d2c7b63 
3bf26a7c 
3dd269d7 
3db43a5a 
bd4b3e4c 
bda585d0 
3caa2ef4 
3e38a07d 
3e7a898c 
3e837d96 
3e0188c4 
bedebce8 
be00027a 
3d9fb793 
3e801070 
3e0a4bc2 
3e00f4e7 
bd7a78da 
3c95381f 
bd923e58 
3dcb403f 
3d45f878 
bcd602e1 
3cb7f6f7 
3dc9cc25 
bbb5bb8f 
3dccd305 
3d0a9ba9 
bcfd701b 
3e036295 
3d82903b 
3df819b6 
3ce89ede 
bbd92c40 
3937138c 
3e3f1402 
3daeffca 
3dad6bb7 
3d538e1e 
beff8e05 
3d7d0e8d 
3dbf5df1 
3d2d48f6 
3d469a4f 
3e0e3e55 
3cfeda83 
3adbd762 
3d9b3f02 
3c5c68c5 
bd50756e 
3d1bbe9f 
3e20a672 
3e48cb96 
3e2b909c 
3bbf424c 
bcf23c0d 
bd304e84 
bda5c6b7 
bcd12ee6 
bcffbf27 
bd177f2c 
3dab09cd 
3dd71561 
3d18e107 
bebbb27b 
be8c9fa2 
3d922098 
bef62d46 
baa38054 
3dc3bbac 
bd803dd3 
3d556848 
3d6b3f64 
bdc1ef00 
3d79dae6 
3d2614a7 
bc99bf25 
3d77db73 
3d48c44d 
3cd6c196 
bd9d1a3f 
bd045630 
3ddd1830 
3bd9c966 
3c807e84 
bc62669d 
3c1db7ea 
bdc28d6e 
3ccac9a9 
3d798146 
3e998d65 
3e9a53f6 
3e1d16d7 
be505609 
bd5abb3c 
befe8c5a 
be810e2d 
3dbe9eeb 
bd879eaf 
3ba06870 
3d1a5f6d 
3e3fc028 
3dfb09a5 
bc7b26b9 
3ba54442 
be2fdd8a 
bd3ec4b2 
3abf0cec 
bd6fc6f3 
bd8ce9ec 
bd072cb5 
3db34717 
3d967c92 
3dd29ba1 
3dd8e8f6 
3e21927b 
3dd091b9 
bcf1ba48 
3d69fac6 
bd6449f0 
be61df80 
3c309829 
bd32dfb9 
bea95431 
be2b7a49 
3caf757f 
bd43f6a5 
bdabd1c9 
bdd16d6e 
baf1983b 
bd8daf75 
be3cf72a 
bd17400b 
be1d6456 
be0a40ac 
be5e0ac4 
bda6b5ef 
be02e101 
3aef0900 
3c9bfa62 
bd9776aa 
3d97ee79 
bb86809e 
3c8eb4c9 
bde612f9 
be6158fa 
becc2a09 
be3346ca 
be06da50 
bd0ad130 
be27c9ef 
bd99793d 
be0e9be1 
3d86523e 
3d0bd939 
be30d4e0 
be5fb929 
3bcb005b 
be3a3f29 
be0bcba0 
be00086f 
be449a7c 
be849e08 
bd759b27 
be1858ed 
bd00e236 
bd3bb70f 
bd6bcdd6 
be1be45c 
bd2681b2 
bdaccde9 
bdc22113 
bdd1728d 
bed2510d 
bee4b83e 
be374650 
be5582dc 
bd31719f 
bf4dec54 
bcc30267 
be2c919e 
3c497877 
bdaf0741 
bde2beb8 
be3bc318 
be4558e1 
be58f413 
be1c7098 
be49632c 
be227926 
beb2db8c 
be2755a5 
ba02f81d 
bbb68531 
3c9cc80a 
bc8dcb86 
bd0ff752 
3c1ffcf4 
bdd27132 
3ba55d0a 
bd91fc04 
bdfaac69 
be1fb045 
bc11f1f0 
3e38b3db 
3ecc7409 
bec9cb16 
3d95067a 
be574236 
bcb313e8 
bdb6f400 
be87bd7d 
be4bfbd3 
bea3ebc7 
beb09468 
be85a6f8 
be838255 
be9439a2 
be64debd 
be22712a 
bd3fb7f1 
bdc6b013 
be3e001c 
bd8920de 
bd5840bb 
be4b94d4 
be24cc49 
bdcf795b 
bc9846a5 
be748a76 
bea4aff2 
bd0cd99c 
be5212d6 
3d683b43 
3d306117 
3e01fbf6 
bd8573e0 
be09af02 
be988dba 
be941dbb 
be72eaf5 
bea8f630 
be0f32a3 
be12af47 
be43455f 
be56a8a6 
be19b433 
bd97b043 
3d63cc24 
3c0c60e1 
bd9d7165 
bcf89393 
bdeafc6f 
be236521 
bdfdd45a 
3d1f1ace 
3d08f049 
bdad5e76 
bd9558ac 
3d199d9f 
bde89fb8 
be3129f8 
bd8eee31 
bcfe5153 
bd25d466 
be80422b 
be700fa5 
beaaef61 
be2538eb 
be5876b5 
bca13a48 
bde9eec1 
bda43fb2 
bcbf49dc 
bd58fd80 
bc8d7012 
bd0ec570 
bc240ffc 
3cbd8a6f 
be019c37 
be228829 
bbf1a5f1 
3e1176b1 
bd9f442c 
3d097d8e 
bd0e7e7a 
bd85c6ba 
3e20a3a3 
3d358aec 
bbae2676 
3e0bf62a 
bed705be 
3d1497d2 
be162595 
bdf12fec 
bdc5cf9a 
bdc47630 
be171757 
bd0af696 
bdd0664c 
bd078295 
3da27818 
bce3cc52 
3e249bd4 
3dba3803 
3cf4a857 
bc886d81 
3c73d2a9 
bd881893 
3d26d5f5 
3bdde070 
bd57ecc6 
bdebf38a 
bd7df770 
be2f9441 
be0ef5dd 
be6d9545 
be972ef3 
3e858fd0 
be9af59d 
bbd4ce71 
bd4a46f8 
bcb11577 
bda99b69 
be4068be 
be02ab02 
3d4dfbe8 
3c95f41e 
bd9e9d07 
bcb2664d 
3e35c465 
3e176f17 
3b85b746 
bd34ccf0 
bbcd511b 
3de5c3c4 
3ca59732 
bcdf1934 
3ced37f2 
bc7ec0f0 
bd455e4b 
bd8e73a5 
3cd6184e 
be1adee6 
3a2422d4 
be26486b 
bc80e509 
bea4bec4 
bd588dda 
3e27dbb9 
bc2626a5 
3d08283c 
3ca9413a 
3d8c584a 
bca6c407 
3e2abaf2 
bd4b14a7 
3ad1c220 
3dea4604 
3db9c66f 
bb6aa63f 
bd1811b9 
3b84910f 
3d73c28d 
3de52bb0 
3d10e1f7 
3d19b54c 
3da2c727 
ba7ea11b 
3d997f43 
3cf665a0 
3dc0866a 
3db81d9d 
be24c5ad 
3e6bea8b 
beda767f 
bdd3806d 
3dd7f4b8 
3ceec5cf 
bcd58860 
3d82cec2 
3da159c8 
3d585a38 
bd14a761 
bd48b218 
bd99cc01 
3d9c2559 
3d1ea2d9 
b9bbfeb6 
3d57c214 
3dba8ff8 
bb0545b9 
3c942785 
3c85e4a1 
3d649e2b 
3d81db77 
3d26c929 
bbacfcad 
3db438c2 
3dbf412f 
3ca96b3c 
be8d1d21 
3d47d8e8 
bea3fbb0 
bdf9ca9a 
3e31114d 
bab26700 
3d8bd9ae 
bd736c8a 
bc0bb157 
3dc82eaf 
3d1223d9 
bcd7ff6a 
bdaa0d9e 
bd51bb19 
3bcf2ff4 
bcf914b8 
bd8722b3 
3d8507a7 
3d8c70c5 
3d31c64a 
3dc1df1f 
3d31ea15 
bddeb470 
3cbffeb3 
3d701208 
3daca2d2 
3de6cd32 
be43e715 
bdc7ccf8 
3e17b88e 
bea21028 
be0a0713 
3d42b5f6 
bccdddd8 
3db3daa5 
bc2939ec 
3d90a9a5 
3c173013 
bcbd9fc9 
bdb484c5 
be05d037 
be052b23 
bdc6cfde 
bd471616 
bd5633a3 
bd466f58 
bd81aa67 
3de151be 
bc03cfcf 
3c350b5f 
bd5a2c77 
3bbfc674 
be34d5f9 
be6e69de 
be9e365c 
be55a896 
be78d5af 
3e4a8618 
be8951cf 
be4a43ce 
3d0e23d1 
3c4b44a2 
3cabcabc 
3dbef511 
3e02b3f3 
3cefc4fe 
3db66cb5 
bde1914d 
bd0b31ea 
bde5d7e3 
bdc03d25 
be01e73b 
bdd1b132 
bdf78fb0 
3d9d3a5f 
3d98ec40 
bd390606 
be5f9721 
be52e8a8 
bd9c1cc4 
bd5c7a62 
bdd842a0 
bbcc39d4 
bec8ff08 
3c6ced5c 
3e82888f 
be526ffd 
bdf49dd4 
3ddfdb26 
bd1ad6c2 
bcfe8db8 
bdc70b66 
bd08d65f 
bd2da532 
3ca841a1 
3d4abdf4 
3d2abddb 
bd9d782a 
bd1917b8 
be456a3b 
be24fdd0 
be78922a 
be1b1167 
be2cc003 
bdda859f 
be073bd1 
be85c044 
3d1266c8 
bbcad9a5 
bec148e5 
bea7a5b0 
bc35e9c6 
3dfb3d3a 
3d8f9653 
beaf6934 
be4bc269 
3e309e55 
3c2b2a4c 
3d05071c 
bde1585e 
3ccde67d 
bd80d55d 
bdad9115 
3d06d212 
3d0f3f8d 
bdfc4034 
3c5fe3d6 
bdbe8a4f 
be759210 
be77d926 
be809575 
bdc7d6ce 
bdc964ce 
be1d94ed 
be72113e 
be8c756a 
be207578 
bdc52bcb 
3e582814 
3e15c212 
3e6ad386 
be2f6c5e 
bdc52512 
bcabb82a 
3e72ae61 
3d83f565 
3bb103dd 
3c51cd99 
bd5df10a 
3cb3b34e 
bd690a77 
bd31c66f 
3cd8cb84 
bc12452d 
3dacf86e 
bd48e31b 
bdd34129 
bdf3719e 
be10ab45 
bd8d2045 
bcddf0fe 
bda800ee 
bceb210d 
bdee27ad 
3d7bd217 
be1550c0 
be6ea755 
3e1595af 
3e30aad9 
3d286d48 
3d6a3aa9 
3d2a9da9 
3e5cbc13 
3d90f05d 
3e2faab8 
3d84554c 
bd56df5f 
3d259a84 
bdd92249 
bd35168f 
bb7c80e4 
3cc8743d 
bdf19d40 
be3b6344 
bd92acb6 
be4c87b9 
3d1eaafa 
bc0429fc 
bc5c8bc6 
bcb9ea83 
bcb85aad 
bd2d42c4 
3e3789db 
3e998728 
3e6cdafe 
3e38bcf8 
3e2327b1 
3cc253f7 
bdd04a4a 
be203e7b 
3d81fe8e 
bcebacbc 
3e1aaa85 
3e04909f 
3d37e6bf 
3dfb189a 
bda4120f 
bc50d973 
3dec5a98 
3dd9301a 
bc4ebc8c 
bdf6b085 
bdbd3d84 
3d181e71 
3d57dbfc 
3dd13a89 
3e4c1c1a 
3e0478c4 
3e286b1b 
3e8210f2 
3ea4c2e7 
3c19a6a3 
3cdc6fe8 
bd728771 
bda4a895 
bd51ea22 
bda5ae05 
3cc13672 
bdccd700 
bdc495ce 
3e1d3b25 
3e17207e 
3d31c43f 
3d2771e8 
bd879aa6 
3c8245c7 
bc171c91 
bd2cdfb7 
3e5bfa8f 
3dea889a 
be0d9370 
bd7d1747 
3e2296b6 
3d8264e7 
3e1b4b63 
3de41e3e 
bd146f59 
bd585d83 
bde977cc 
be970c1f 
be3c1c7a 
bdb02ed0 
bcf9d672 
bdbee614 
3cac1d2e 
bd966e39 
3d44844a 
bc1029bb 
bd667a01 
bd8d1a70 
bd950a59 
bd97fd61 
bdeb13c3 
be55057c 
bdacbd27 
be1a2dc8 
bdb21ed6 
be8e4d4e 
bdf9696f 
be3ba96d 
be37a762 
be4a9291 
be71c777 
be86086a 
be737dba 
be7c3169 
be5ab81c 
be8eee76 
be37f93d 
be414ad3 
be0242ef 
bdd4c1a2 
3be49b3f 
bc087b94 
bd21d568 
be255bc6 
3d1dca03 
bd5a28ee 
3dec0f21 
3e3e36d0 
3df41a50 
bcbdbba9 
bdbea5bd 
bd791f90 
bc0d2f48 
bd093bc3 
bbdd4f2e 
bd1a83e7 
3d568559 
3d7955d6 
3ce16a47 
3d0d082f 
3df412b3 
3e1fbc95 
3d86af18 
bdc1f3ca 
beeb2000 
bf008718 
beb46135 
be809a22 
bdb9fcf4 
bd425f7c 
3d29e103 
3e61fbbc 
3e3b2574 
3dec4285 
3dd6b6c8 
3dba4b63 
bd0873f8 
bbde2728 
bd5910dc 
3ddcf6db 
3df7ef04 
3d959db7 
bca0be8d 
bb6f4e5a 
3d40b1f4 
3da7b8fe 
ba443d58 
bd03ae48 
bb4d2ee5 
3da2a8a0 
bc99b6da 
bd9bdece 
be5a3387 
bebfc5af 
bef2f7ad 
be95c7cb 
bdc1f7b9 
3d3ae45c 
3e172879 
3de58111 
3ddde4dd 
3ddc215e 
3bd4ba68 
3cd02b4f 
3d49e615 
bd07540f 
3b17ae56 
bce6d3d6 
3bbd491d 
3da920f9 
3e0ad6d3 
3d2a1bcd 
3e1a3c20 
3b870259 
3c93d964 
bd2ec787 
bcddbc32 
3d654dd3 
3cae6a7a 
3d70b00a 
3c3bcdb6 
3de44f0a 
be4595f9 
beebad95 
bee02dca 
3d54f5d9 
3ddd2486 
3e409b07 
3e07f1f6 
bc6b9e9f 
bb8b4963 
bc5cb817 
3d66ed9f 
bcd7685a 
3c5fe77f 
3d89e441 
3d1928b9 
3d8ec161 
3dbdf807 
bce370cd 
3df44193 
3daf58b0 
bccb553a 
3d27e40c 
bdd50a94 
bda422ad 
3daec80f 
bd758302 
3d3b470f 
3de712a9 
3e0cd5d6 
bd80b6fa 
bf164656 
3e09fd56 
3e6dd1c1 
3d54f0e9 
3e09a225 
3c3c5225 
bd6a15e9 
3d06b3de 
3d83a025 
3b99ff39 
3e100bd7 
3dd0a261 
3dc5c819 
3d152398 
bd29ea73 
3d7efc85 
bc2cd47e 
bd087bc7 
bdafbd73 
bdb4a52d 
bc974ddb 
bd91593c 
be0d217d 
bbae00c1 
3d4881cc 
3e06d59c 
3e0ec7da 
3d6f662e 
bf3bed10 
3db0595b 
3d9343c7 
bd64d396 
3d24ad82 
3c0a664a 
3d9ea049 
3d94c8df 
3d31838c 
3d3dd865 
3df474f6 
3dedb1c1 
3d9c8808 
3d3988ba 
3d898f85 
3e30e4aa 
bce4a1a6 
bdbf9a69 
bcb0aa86 
bd61a9ae 
389fc1a9 
bd940a2e 
bdd0f48a 
be3644bf 
be1170a0 
bc8d079f 
bdf4fbca 
3df9b9be 
bf485a02 
bcaa5ec2 
be034232 
bcd58ff5 
bd05bd71 
3db138ec 
3be5d883 
3d9478f2 
3d3113bd 
3e07a820 
3e326510 
3e0b19f5 
3e039b05 
3e2be711 
3db66cfe 
3dbdc8f8 
bb32fc24 
3ca127ea 
3bdf47ba 
bda5f5b1 
bdaee3c1 
be00ea43 
bdbbc5b6 
be74be2e 
beb9fc0a 
be1d9302 
beb4e356 
be3af427 
bf49b450 
bd2f836d 
bc7d4209 
3d9d1570 
3e19ef76 
3e00b97f 
3d1698b8 
3d732f16 
3dfe0760 
3e0b1b26 
3db55ca1 
3dfb13fe 
3d885404 
3d816b58 
3d411167 
3de1c124 
3d564404 
3ce83b49 
3dd9a21e 
bd5453d1 
bdbf87ae 
be1dfb5e 
bdab89cc 
bd107e75 
bdb2e427 
bde785ab 
bd9174c0 
bf7d9bd2 
beecf15d 
be47969c 
be12c6b9 
bc2fddbd 
3dbfebcb 
bd15edbb 
3c06ccd4 
3e9787f1 
3dbfebd2 
3bb93f4d 
3db6b9c8 
3e0fc431 
3e1246c7 
3d7d191e 
3dd316cd 
3db32dfc 
3db8edb2 
3deaf3b2 
bd793a4b 
be0d56e4 
be00a9de 
bd17ba29 
3c22b873 
3c2cc387 
3cba852e 
be8e576e 
3dea97cb 
bf31d200 
bdbcb09c 
bc84d7d4 
bde32213 
bda6d71a 
3c5ce187 
3d01f903 
3d7b60b5 
3daefa06 
3e128922 
3de3c43f 
3daa73e6 
bc84a933 
3da426da 
3e419da7 
3e2c1e06 
bcd29b0f 
3d46904b 
3e249969 
3d5fcb5f 
bd3e861b 
3c7062d9 
be1cdd97 
be898753 
bdb4267d 
be6d7dbd 
beef3888 
3d00e45d 
be5b9f97 
3e1f63b7 
bde75d9c 
be0fc0fd 
bddf16a2 
bd5999c8 
3d51c65f 
3e075d88 
3d9c3599 
3d977038 
be4032ca 
be07690e 
3d92dc03 
3dcc5c78 
3d51ad52 
3de43818 
3d8eda33 
3dfde7e9 
3d738bc1 
3e1a978a 
3ccfaa1a 
3dda3d11 
b8317d2d 
be17120b 
bcccd3a1 
beaa5afd 
bed10a1d 
be3be604 
bec3fefa 
bd5fdbe3 
bbff2570 
3d9f6997 
be0cdee2 
3cdc2961 
3e6ac177 
3e6b5ba2 
3dbec59d 
3b8e8373 
bc8e8ee5 
bc028672 
3d148edd 
3c6b983c 
3d05d738 
3e2e83f5 
3e129fbd 
3e0f1eb3 
3e6fbf08 
3e68cfb0 
3df936ff 
bc7e6530 
3d8d08d6 
3ae7c5be 
3cdaa9cc 
bd619c46 
be2ede1f 
bcfea077 
bb85042d 
bf0edaee 
3d640dcc 
bdf74695 
bd86b0b8 
3d557ac8 
3e159c28 
3df5110b 
3df34d2d 
3e44f1cc 
bcea54b0 
bd89ca72 
be6413e7 
bcb4e1f5 
bc116cf4 
3e17da9a 
3e1135c8 
3da60d27 
3e64b518 
3e16ee44 
3dccda4c 
bca26bf7 
3d86dee2 
bdc6a0ab 
bd9f924c 
bcdccff8 
bdb9a9cc 
bd9f0ff6 
3dd2f352 
bf0a380c 
bd0e2d4d 
be44549a 
3c41cfbd 
3e024f22 
3df2584f 
bc7c8d5a 
bcdbe8ed 
3c77bab2 
3d31d2b2 
bdcd7b8c 
bde3fff3 
bd538663 
bd2598e7 
3e18554f 
3dc68ae6 
3d9c62de 
3dc38648 
3dbea4d2 
3df97086 
bc81aa7a 
be289fb9 
bd34a175 
bd86e045 
3d4e42d7 
bd928c0a 
be51edee 
bd760723 
bf31f69f 
bbb87bfc 
3e3bafcb 
3d81d33a 
3db89a8f 
3e2496ee 
bc7bca38 
bc456d84 
bcaa999c 
3d14e900 
3d1f5d82 
bd25a41d 
3c9c805f 
3e173219 
3de401e9 
3de608bb 
3d54e42a 
3dfd412d 
3b92ee6c 
3d5132bb 
b9fca52f 
be0f2462 
3d14ec6d 
3d9936d6 
3d2d010d 
3db70cb2 
bd173b1b 
bd9199b8 
bf1bb751 
3bb48321 
3d917a22 
3d623e07 
3d80fb27 
bc398992 
3c89d2fd 
3e0b2586 
3e057eca 
3e3c8317 
3bb4f6db 
3d39eea7 
bd80ae32 
3e01f1b9 
3cf52474 
bbb24f24 
bccf3c0b 
3c5b8f75 
3d01184f 
bd026ae6 
bd7be43f 
be8be7c7 
bc70d397 
be35f57f 
be09512b 
be0eaab2 
bccd652d 
bdcec6c3 
bebd9699 
bd937f74 
3e602e40 
be4406a7 
bd7f1d1a 
3cc5b595 
3d3b8716 
bc861ef5 
3db103ee 
3dbdc625 
3e4b562d 
3ce6d779 
3dae41a0 
3deda23d 
3d710aa7 
3e0c1346 
3d89bede 
3b8a4f4b 
bdbee104 
be03b033 
bdf11718 
bd95d96c 
bd5d1b19 
bd7372f6 
bde82c44 
be05fe4b 
bd9ffa60 
be316239 
bece44ee 
be7bfbb5 
bd54e87b 
3d06cc81 
3cdfdebd 
bd003376 
3da35582 
3d96993e 
3d022ad6 
3df541bf 
3e113318 
3d5c1ad9 
3d8d8611 
3e4007ac 
3e137445 
3e27a370 
3df9ed5f 
3cc3fc0a 
3d6dfa16 
bc675e78 
bd985c06 
be1162ea 
bd8fc9e1 
be3a846e 
bd609cca 
3d031d7a 
bd4eae1f 
bdb0d186 
bf1b3a29 
be4f04ee 
bdc4a836 
3d7bd605 
3d8beb4d 
3e13d186 
3db5b03c 
3e148d3d 
3dc45166 
3dee28a1 
3e252967 
3d8244b3 
3d82ddaa 
3dbb8dd5 
3e47b35e 
3e343fea 
3d03d421 
3d623e97 
bd966d67 
bdabf0dd 
be001814 
bd9a4515 
bc87a986 
bdb42161 
be06b6ee 
3d846848 
bdeecafe 
bda737a2 
bef4b7c1 
bdd7428d 
bdfcf0b7 
bd8bba04 
bcb2cb4a 
3d5c366d 
3d3f830f 
3e215607 
3e15127f 
3d43005a 
3debf9d8 
3dbd5646 
3e1139a3 
3d94c4a6 
3ce278ac 
3df98735 
bcbfb89b 
3ce7a860 
bdf56772 
3d94a305 
bdb9ada3 
be122100 
be79a442 
bdb870fb 
3d4b74f3 
3d85d80e 
bd164b09 
beaf66d3 
be93b5bb 
3e2892d6 
3d1ba820 
3dd18904 
3c6e3d6f 
3d37d148 
3d618e89 
3e3556c4 
3b275c92 
bc2ad3c1 
3dbee420 
3d4b3090 
3e062f99 
3d3e6ed9 
bd1439ca 
3dc31fbe 
3e216f1a 
3d3ffb96 
bd24dd1c 
bd8473b4 
bc8ed840 
bdb80d50 
3cb1a3a1 
bcb48d53 
be852c13 
be9352c0 
be5d83d8 
beec867c 
be9ccc51 
3e4f4eee 
3e70dd06 
3ea352f8 
3e64037e 
3e2b6289 
3e344457 
3dc6be70 
3e0ad58a 
3d1d3c07 
3dedac87 
3e4e6853 
3cf55d82 
bc631dec 
bd0f6229 
3b8363e6 
bd1e5fa6 
bd49a240 
3da04aa1 
3d24e769 
3b374e80 
bcbde8fb 
beb7f8df 
be9826a8 
beca8f01 
be0bb2f0 
be217b78 
bc908e7f 
bde820cd 
be2efa9b 
bd9b363b 
3d78adbc 
3da4fd60 
3da5015c 
3c327db5 
3e1b8d81 
3e776c4d 
3e3a5475 
3de56466 
3d8d5992 
bbb91a3f 
bb8660bc 
3d53d733 
bd51df08 
3dbef53d 
3c663b73 
3c0f2cd9 
bd5baca3 
3dadd28f 
ba51027f 
3e92cd8c 
3e06dc5b 
bdcba8a6 
bc4b0138 
3e2ee68d 
3e33ea5a 
3d4c092d 
be323e67 
be8bbb74 
be762a34 
bd6f9e76 
3d49c836 
3e0ddcd3 
3dbb0615 
3e758639 
3df3fb23 
3e7c2200 
3e3613f4 
3e26ca42 
3e3b8845 
bd4175af 
bd46b297 
3c447ec7 
3d8651f2 
3a2cbc32 
bd05ed4f 
bcf420e4 
3dbe0f2d 
be4060fe 
be093ea1 
bec8a7a5 
be9c1f11 
be97f017 
bdc358d2 
bc0cb41c 
3d61488b 
be3fd495 
be619e81 
bebb49ee 
3dffc2e8 
3e721efd 
3eaa4f1b 
3ed1f553 
3eac3c8c 
3e30de30 
3e1afc92 
3e7492cb 
3e56d471 
3d819f88 
bd45316b 
be172524 
bd135e6c 
3de6f80a 
3dc6c0dd 
3d3103f3 
be9b6022 
be9fd1b3 
beadd654 
bea0d9af 
be0df061 
be8b0536 
bd8c1ed2 
3cf87cc1 
bbb97871 
bc9646b4 
bdf9beee 
3c7197a2 
be96f423 
bef9e154 
bec8567c 
be8c246e 
bed4cd12 
be408c67 
bd5ae656 
3d6faba2 
3da670ae 
bdcc2c2c 
bd09ce51 
3db4fcfd 
3df933d6 
be1d4aa7 
be259416 
bd829676 
bdd904af 
be882462 
bdf6e255 
beca7467 
be87bc30 
bdf3a3d9 
bd4145ee 
3c92def3 
3d76246f 
bc15bb0b 
bd3fcd30 
bcdba47a 
3d247340 
bc6aab76 
bda218eb 
3cc0e1a3 
bd18fb79 
bc955b86 
bd27182f 
bd895ca2 
3d707460 
3c10835e 
3db19a59 
bcc80ab8 
bd41a3ab 
bbf2c975 
bda7c175 
bd94d841 
3c8275b7 
bd4b51fc 
bd86ab3d 
bc979261 
3daa6aa5 
3df80141 
3db7ff83 
3d9a03ef 
3bcc66d8 
bcafd45a 
bd97ddc5 
bdaf955a 
bcaba697 
bd771c9a 
bd5f73fb 
be761adb 
be5911b0 
be46795f 
be04f5c7 
be5bf560 
be77bf10 
be8537f2 
be0ed9ff 
be1a9dd5 
bddfb923 
be87d1e4 
be3cc69b 
be8333c6 
be393102 
bdd2003e 
be291bca 
be230e70 
be09525c 
bc982782 
be09648b 
3cefa603 
be00fce6 
bd11c9c4 
be028aef 
bc64ee09 
bdc763c3 
3e0c68ff 
3e62f642 
3d2a33ce 
bdc71aee 
be041ed3 
3bfe5531 
be4ae3ce 
bd9972ec 
bac7b9ed 
3d7543a3 
3dd4247c 
3d476bba 
bd373d38 
3de6edc5 
3e3fde4f 
3e31ee00 
be046d24 
3c87feb7 
bdf8dfcd 
be104818 
be2ff5a5 
bdb72d8e 
bda11c18 
bc880183 
3d575f20 
3e78d5ec 
3e42222c 
bc8cfbe0 
3d7afd02 
bd19b28a 
be1ceb78 
be0b3ddf 
3c2182ef 
bcd100a8 
3b2957e7 
be0908ba 
3c1e9ef4 
bd772830 
3d8f360f 
3bcc7267 
be25c6b1 
bce77029 
be64cc4a 
be3d4b24 
be77ff58 
be9e0b66 
be5d697f 
bd38ff88 
bdc36766 
be93441f 
bdf863b2 
3b2e647f 
bc1a31d6 
3e371597 
3da5b919 
bbd47973 
3d6e97d2 
3e1622f0 
bd949a85 
bdd3aece 
bd19723d 
3c978534 
bd9fd378 
3d7486e8 
3e0851ba 
3d8838d6 
3d9c3e6a 
3dc0335d 
3b178d43 
3d6c1333 
be562aee 
be077468 
be22b257 
be2080b2 
be357096 
bded5ffa 
3c7975ed 
3cd1bf58 
be20e0ea 
3d4b4226 
3e1f1678 
3e6292fd 
3d6793ec 
bd626c93 
bb6df580 
bbe036df 
bc355428 
3e01d9d2 
3e51cb96 
3d8e3915 
3d383c21 
3abcb85a 
3da81ed3 
3c0dd139 
be185d3b 
be28adb3 
be4cca8e 
be91c78c 
be6d167e 
be929ad7 
beca928c 
bec3dd4f 
beb34838 
be9f828d 
becd9427 
be17719a 
be36a0f5 
3e2f49a8 
3e048662 
3c408083 
3d1d4da0 
3d16a770 
3cd1306c 
3d5f9c35 
3d758bb6 
bdb2203f 
3d41fa6b 
3ac6cdc3 
3ddd4e2e 
3d058a44 
bcf50372 
bd9aa1fe 
bdc557f7 
be4cef07 
be35e8df 
be39a6d8 
be4f0bfd 
be1ad415 
bdb02404 
bddf97bf 
bebcda25 
be6b44df 
bed74c67 
bec56ed0 
bea0e82c 
bc5e0a54 
3deeceac 
3bab0c3e 
bd3746ae 
bbb2f9d2 
3b907c72 
bbed9098 
bd7679cc 
3de0a72c 
bcaa6147 
3d37c1a3 
bd2dba69 
bcb0eb7d 
be2c25e3 
bd602e87 
bd395152 
bda153f5 
be42844d 
bdb1a93f 
bdfb7d7a 
be353dde 
bdb957a1 
be4ecee6 
be7d05ab 
bd520ade 
bbb2d920 
be966727 
bf03b043 
bcee79a9 
3dec873c 
bceffa95 
3d31eb86 
3d1a3053 
3e028ff0 
b96dc0dc 
3d2d3765 
bd9da470 
bba2acff 
3bc1210b 
bc3e804a 
bd3233a8 
3d9dfc4d 
bd35a2ac 
bd5128fc 
bcb07abf 
bcad6228 
be0218ee 
bcbc71cd 
bdb38aca 
be12aa4b 
be462897 
bdec86f2 
3d305039 
3e3857e0 
bdb6f36e 
bf0f76e2 
be33a2e8 
3d01e14f 
38c928a8 
3aee5585 
bd10dc14 
3d9efdeb 
3d32c58b 
bdb1aa31 
3cf10378 
3d84d18a 
bd814ec8 
bbdcdcbb 
be2d3d6a 
3d20d005 
3d974682 
3d593969 
3db57f3a 
3c032114 
3cd522a4 
3cf252b0 
bc518f85 
bd8aff37 
be05b33f 
bd653611 
bdbbdd64 
3cdd9ddf 
bdd5948f 
bf1b6202 
bde313b4 
bcf9be59 
3d2fde8b 
3c2341b7 
3cecd0e4 
bd27a3a1 
3e163c29 
3d26abec 
3d26e9ba 
3d65f33d 
bdb45463 
3dc0cc2a 
3e33bff5 
3dc83e5b 
3d6d2c03 
3d6ae770 
3d71b264 
3e04b7a1 
3dd56b65 
3d351792 
3d17c375 
3c0335fc 
bd55d76c 
bdd313e7 
bd8e848a 
be7de0bf 
bf265953 
bf1b5291 
be019aea 
3dcc0769 
3d051607 
bcf1916e 
bd9ece68 
3db6803f 
3d164be5 
3bf8005b 
3d9249da 
bc66e227 
3cf5a4e4 
3df61d5c 
bb1a148a 
3d330a04 
3da1110f 
3d8df4ff 
3da24c0c 
3d704b2b 
3e05c91f 
3e2497fe 
3e66e89c 
3e460ab4 
3db2957b 
3dbfe733 
3c417148 
be019155 
bf4eb997 
bf15d4c7 
be1db41c 
3d9997eb 
bd459ab8 
bdea8a7d 
3cd10a79 
3aff24f7 
bd495dbf 
baa6ee86 
bdd961c6 
3cd50ed7 
3cb35f0e 
3dabebee 
3d97a4d4 
3d04a1f1 
3d6d81d5 
3e33785c 
3dc9db8b 
3d6b757a 
3e098b31 
3e08853d 
3e3bb555 
3dee7d1a 
3e624eee 
3e710cf1 
3e1544d0 
bd1a8055 
be21a70f 
be00115e 
bd662efc 
bda34ca9 
be30b1e7 
bde60e62 
bd662d8d 
be16a6be 
bdb5346a 
3bfd1df2 
3d2ebf12 
bdc04616 
bb80fcf8 
3d3782ce 
3de9200b 
3dc1e6cf 
3d9c1cbe 
baac29af 
3e0a5296 
3da6959b 
3ba424c3 
3cee8206 
3d1c47ed 
3cefd10b 
bd6c72e7 
3dfbd0bc 
3e3b4316 
be112820 
bda1a9e5 
bd195cae 
bdd56e33 
be270c94 
be6e0456 
be94b6b3 
bdbb8b23 
be06652f 
bd17113f 
bd8897e7 
be0b6a75 
bd55c322 
bc7013cf 
3ce1e107 
3e17d255 
3df7ab8b 
3daa32ea 
3dbe4fa8 
3c8b3b32 
3c69fe92 
3d139464 
bd4c7bea 
bd57018b 
bd6029dc 
bd71408d 
bd9542d9 
bde3d055 
3c83f344 
be269785 
be45be0c 
bdb94924 
be986ec5 
be0d3334 
be8a59c7 
be1581cf 
be9c8004 
be4f4943 
bd8ceb57 
be2c60ee 
bd8d23c6 
3c8c4596 
ba727e08 
3d98a743 
3e18b1e9 
3da59d7c 
bd03f675 
bd94ff41 
bd9c5c11 
3b56b342 
bd858370 
bde7c167 
be0b6c8f 
be3ba5ec 
beca3818 
be98f407 
bccf0cd2 
bd82c06a 
be8356e7 
bb21ff1c 
be70ccda 
be0dd8d2 
be352c24 
be340cec 
be98856b 
be895c63 
be134625 
be2c769b 
be181221 
bd8fa7fb 
3d54c37d 
3d9eac91 
3d882db1 
bdbaa300 
bdb1cd1b 
bc6cec20 
bbb15ade 
bd3becbd 
be08ee41 
be09faa7 
bdfa55a2 
be0d0ce3 
be85e793 
be15c8f8 
bd6bab72 
be8a5247 
bea03980 
bdad379c 
bd63566f 
bd3d8874 
bda631d5 
be1f78eb 
be27aa51 
be4e9770 
be86e1e6 
be81fce0 
be69ddd5 
bda0a631 
3c6bb31d 
bc05f99c 
bd3ddf5f 
bd866551 
bcdef046 
be0a1ba7 
3cb31473 
be0b8335 
bda4a8ff 
bd3c6830 
be2bf839 
bdbfc066 
bdbddf56 
3d079d71 
3df6d969 
3d75738a 
bf0637ed 
3c101185 
3d9fcfb8 
3d3b8546 
3d0f5eba 
be1de3d3 
bda0e541 
be761b26 
bddb5788 
be52134c 
be535700 
be598b0e 
bc6d6233 
bca4616c 
bc5a8111 
3d4f39aa 
bda03a83 
bd95e75e 
be064e39 
bd560dfc 
bd499f16 
3c30b1d4 
3c4e5312 
bdff629b 
3d916413 
3e280c23 
3da40a95 
3ce6d2c4 
beeb7704 
be56976a 
3e01e95b 
bd815e68 
3d95f84a 
bda89482 
be17edad 
be673827 
be5aad0c 
be71fee1 
be1d1b96 
be280191 
bd9d39be 
bdeb4bc7 
be0059a4 
be3dd066 
bdc60637 
bd7a4bfa 
3c398f89 
3dd979b7 
3ddb7662 
bd120e87 
bc269394 
3df16690 
3ccf2800 
3e13be62 
be20baad 
bed918b3 
beec720b 
be12ec49 
3d9b36c7 
3cbdfbf7 
3cfb00af 
bda29f26 
bd9585d7 
bdf50540 
be0a99a2 
bd100fba 
bdf58fb5 
be4cd473 
be0ab47e 
be4efbc5 
bcb30fc7 
be081b56 
be0646e1 
3c21dc94 
3cf54cff 
bc727f1f 
bd8cedd2 
bd8dfb98 
3d019777 
bce4f71e 
3e0c516f 
3df3bdfa 
bda9c268 
beb39ef7 
bf06d2a5 
be6d0736 
3d496c82 
bcec9b24 
bd467d15 
3b4d1735 
bd711f9c 
bca7858a 
bd8263db 
bd328f54 
3d29ff3b 
be44ff0d 
bdf2f98b 
bdebcb1b 
be19bfa6 
bdec85f5 
bd1afb35 
3d883744 
3de3869e 
3d2e1be5 
bd71fca9 
3d03efbb 
3e3ee844 
3da93c4d 
3d8852d6 
bb17668b 
3d38c978 
3d3575f2 
bec4a669 
be5b7065 
3d523c9a 
3d33df96 
bd398eed 
bdb0b225 
bd920091 
bdb88fef 
be250e37 
bdf043fd 
bd54f0e5 
bdb4e2e5 
bd902c41 
bd89aa22 
bdfc73cf 
bcb34daa 
3d03a618 
3deaaaad 
3d8a314c 
3d2fb281 
baad03e8 
3d6eca76 
3d8e3f00 
3e3fc294 
3dc618e6 
3e588e27 
3e90cc1c 
3e599d6c 
bec9a9fe 
bd8ee828 
3cc1babd 
bc89225a 
be173f55 
bdc41b20 
bc3575ba 
bd5e4511 
be07ae6f 
bd55c5d8 
3d972b93 
bda36b98 
bd8b0bc9 
3d2db653 
3cf14c4b 
3d930581 
3cad329b 
3d2d879d 
3db44b97 
3dcd045a 
3db65303 
3e1251f2 
3e450dba 
3e46db1e 
3e44f6f8 
3e40439f 
3e4f87c8 
3dcb8e98 
be945763 
bde2241b 
3d92b10b 
bdeb8e1f 
bc808e6e 
bdc9bded 
bdb03ad4 
bc538a90 
be0705f5 
bbf8ef42 
bd71fe17 
bda29c5c 
bcd145e3 
bc945607 
bcc6517d 
3c7cf8cc 
3d2e56d4 
3de43b6d 
3df124ab 
3e1d9ae8 
3e01d7c9 
3deea3e6 
3da1a1fb 
3e237fed 
3e59ef38 
3e5cb175 
3e1350fe 
3d595357 
be0952d2 
3d0e27d3 
3e5e2216 
3c8a5830 
3c846b77 
bd6538fc 
3c25041e 
bca2b1e6 
bd6f1f85 
bd51ac8a 
3d26bbef 
bce8c601 
3df2d32f 
3d7a29eb 
3cf38b5a 
3d092fd7 
3d7c0096 
3e163617 
3d702aee 
3dad8336 
3dbffd4c 
3e1f5213 
3e252551 
3e8e378c 
3e254d23 
3c5ef6a7 
3d8f0786 
3d92bd23 
3e1564b0 
3d6be50a 
3e3172ab 
3cdcae73 
3e12396e 
3da8feb2 
bcdcb175 
bdb1bbcf 
bdd71617 
3bf4e0de 
3d88cf55 
bd257105 
3e1807d3 
3d054d73 
3d3a3283 
3ce45d05 
3dbb1fde 
3c555481 
3d877d63 
3e13b89e 
3ded3bff 
3e390b11 
3db2ecb4 
3e40a31f 
3e4d16f4 
3e424327 
3e5b9393 
bdaaa53e 
bd89b427 
bca2f852 
3e088a0f 
3cd5fd2d 
3e0bf0cc 
3e0fe57e 
bc866e7b 
3d76631b 
bda062d8 
bd2f9c60 
3bc70b8e 
3c6d9be0 
3d1526de 
3cdbc02e 
3ce7273f 
3caf3e84 
bd76ac80 
bd66eae6 
3dd3dd33 
3e2efd39 
3e715618 
3e33b47f 
3e0ece55 
3d824b4a 
3e92fe72 
3dac30fa 
bdce6079 
bda01566 
3d08e2ee 
3c9d4a33 
bda6aa66 
bb14f119 
3dc09c6a 
3c14d11a 
3d69aa37 
3dbbb0bf 
be0a5cb2 
3ddbf4c2 
bb6c64c4 
bd414795 
bd3cd3fb 
3e302a32 
3ded1d4e 
bddd240c 
be2e41fe 
bda73dec 
3e2c956b 
3e67c8b7 
3e4cdd2c 
3e1c3927 
bd5bfed1 
bdc685a9 
bdf33276 
be0f5339 
bdd27226 
bd04a807 
3c8aede8 
bb54cf0d 
bd9e18ea 
bd469480 
3d45f756 
be00a2c9 
bdaed949 
bdeb4323 
be504e7c 
be1c59f8 
be1b36a4 
be467082 
be5c3bcb 
bdf60f52 
be5e23a1 
be12c91b 
be742a07 
be80be43 
be9255d4 
bed3788c 
be2824f3 
be6b2c9f 
bea57771 
bea80a60 
be11baaf 
be39e19d 
bd5eaebb 
3d30df20 
3d791033 
bd03b847 
be944ed1 
bdb2327d 
be3c6cf4 
be172a66 
bd780f01 
be60aa88 
be45a8ba 
be9bd0a0 
bddea55d 
bd5811eb 
be2de161 
3ce73307 
bd1fdc6d 
be45ef56 
be31be5a 
be9c5012 
be7886ff 
beb3736d 
bea24b4a 
be975253 
be8ae024 
be39761e 
bebb2b2d 
be0c9568 
be00517a 
be3102f4 
bd0cd433 
bce64380 
bea73af9 
be716057 
bde97eac 
be1e5561 
be5bc28c 
beba571b 
be50aa30 
be2793dd 
be2c2844 
38c290c1 
be136ea5 
bde9ce2d 
be44464d 
bd35d6aa 
be25ce85 
be1ad65c 
bdc231d0 
bb7f9098 
bcc11581 
be041ac2 
bbacf9d7 
3cc80d08 
bdef9334 
be7c93a1 
bdffa774 
3c056433 
3d3994ff 
3d4a5203 
be2c8482 
be08649a 
bd8be60f 
be47a02a 
bc84b393 
be139162 
bdc07a68 
3c24cf96 
be01ed68 
bd59d4b1 
bc4811eb 
3d0e83dc 
bd430271 
bd363101 
be8a8e86 
be8cf4c7 
bc538de6 
3d454880 
3da33db8 
bdfdca77 
bdbae4a3 
3de24484 
3db84669 
bcf684ef 
bc588b71 
3e4b49e6 
bd5bab6e 
3c732a9d 
be8ef6b4 
bdff3f3d 
be451251 
be1d8876 
3df7eaac 
bdfc4a27 
bc382d60 
bc6889be 
bddee06d 
bcffadcf 
bca2861c 
3d20146e 
3dabeb68 
bd7e59d5 
bdb8571a 
bda8b846 
bd0b58c1 
3d9612a8 
bdc8215a 
be79b365 
3ba5ab68 
3d584129 
bdbcae3f 
bc86a373 
3c405937 
3e3f9864 
3d413ed8 
bac76adc 
be3149ad 
be420adf 
be17fc0b 
bdc2f3f0 
3c113c69 
bce3f572 
3d62f212 
3d17d8e2 
bdc0d3eb 
bb1eb432 
3dc35f06 
3da78227 
3d8385a1 
be0b4536 
bc54179e 
be5064eb 
ba2aa3a6 
bd45bf6d 
bcfd5ba1 
3c225cf6 
bd30bc9a 
bdcc3b46 
3d625b67 
3d29427b 
3e646225 
bcd39c3b 
3d9fb915 
3d555b75 
bdc7e3bf 
be0fd6bd 
3d175676 
bd443bdd 
3cdcbe6d 
bbb65e5a 
3e143db0 
3e12438b 
3dbba7af 
3d2b65d4 
3e453a87 
3e5befc4 
3e8433d6 
3e3b0112 
3df14cdd 
bcb43324 
bce93f67 
3e336d8f 
3e12cba3 
3c4bbb0c 
3ddc28dc 
3da4fe0d 
bdf1f757 
bd82d184 
3ebda4e3 
3e995c26 
3c826f93 
3d73c034 
bd3eac5a 
bcbe5739 
3d8e1627 
bd8c3168 
bde7dae2 
3c4c9385 
3e67a4ed 
3c34a36a 
3dccf347 
3e3aeef2 
b92d2b5c 
3deee136 
3e52eeb8 
3dd17fa4 
3d5ae4b1 
bda07912 
be06262e 
bd8f308b 
be151bda 
be03640b 
bdd85fc3 
bd94fbba 
be05d434 
be9307cf 
be2c8df0 
3b1851cb 
3e5498f0 
3d6ff192 
3ba76074 
bd1a390c 
bd10c7bc 
3bb09f80 
3ded2e7d 
3d982f80 
3df9e604 
3d2c1d08 
3e3f3f0c 
3dacefad 
3e1690d7 
3dfc1eea 
3c896e62 
3d54dd20 
3ce2d62a 
bd4d56dc 
be279098 
be0cea43 
bd0d4d59 
bda58aba 
be66a310 
bdf57311 
bc969e1f 
3b08d6ce 
bdc94e44 
be4ee253 
be64b27f 
3b816b3b 
3dbb1c7c 
be0bafc1 
3cc76b3e 
bdaab307 
3db8d358 
3d8bb397 
3def0c82 
bc99d1f8 
3e150bca 
3e3b04c4 
3e1c5fce 
3d6faabe 
bd6fbdbf 
3dc67319 
3d998067 
3d3452d1 
bc3617e1 
be301338 
bcd33d94 
be05589b 
be7b6248 
be990314 
bdd77e49 
bd844fef 
bd4ce7e7 
3ea84cb9 
3e63fbbe 
3d3da328 
3db819d6 
be0436f1 
ba3bc065 
bda009a6 
3d40af93 
3e0dc334 
3e1d02bb 
3e59ea36 
3d5a93f6 
3e968f33 
3dbe3122 
3d1e0131 
be061695 
3d441362 
3e20cb17 
3dfbfd21 
3e0095ba 
3e1564aa 
3e00f045 
3d05ae2f 
be974755 
beb65f25 
be9b8d95 
