3e0fff67 
3e5f2cba 
3ebc14a2 
be8efb02 
3e851c9a 
bbcc6dca 
bedf55ae 
bece13dd 
be5a35c1 
3d597eb3 
bda26045 
3e6751c3 
3e26d5c1 
bddd4da1 
be3b6c1b 
3ec8d389 
3e847808 
be2d33ae 
3e2f8546 
3df9b37a 
bcece8dc 
3e526f0f 
3df48dde 
be1bd186 
be88216d 
bec01e65 
3e8b2704 
3c1cc492 
be096587 
3cd2be6d 
be690f97 
3ea6f069 
3e998d0f 
3e8a8ad9 
3dcd360d 
3ed836a4 
3eaee9fb 
3e7d2ddb 
bc043f6a 
3ec6a6a2 
bd251318 
bee3af47 
bddfe69c 
be0751d3 
be93ba4c 
3f033002 
3c968b98 
bed3142b 
3e3a7d6d 
3da06590 
beb418de 
3c396598 
be78f2cd 
bef01d34 
beda9b58 
3e3d94b6 
3cbc8353 
3d232030 
3f0188e7 
3f330bac 
3f19d0b2 
3f0136c6 
be00b27d 
3cb3b458 
bf1befc7 
bea75557 
3de5da62 
3e5adb98 
bd70e2d5 
3d3084b7 
3ea88bb5 
3e8ad3f0 
bf6670a8 
be8394aa 
bde53953 
bed7196d 
bf0072cb 
3ddb5cbb 
bf377989 
bed8989a 
be491ca2 
bd0ab86c 
3ea5fb10 
3e90d33d 
bdb14782 
3e810eed 
3dbadfd3 
3e17de82 
3eca0916 
3e2fe8e2 
3b3bdb94 
be386494 
3e3ac7c9 
bd108672 
bc9b96e3 
3ec363e2 
bc98f5aa 
bdf063cc 
be98ec6e 
3d823845 
3eb32023 
be4df10c 
3cb83a68 
be34d293 
be929a96 
3e98122a 
3e2ffa84 
3cbc1000 
3ef4bda4 
3ed3216c 
3eecaa3b 
3ecff108 
bd83b6e1 
3ed640d8 
3e2f197a 
3e88c436 
3da1455d 
3f7c2e98 
3e4386ad 
3e3f9657 
3f24a8ff 
3ee2ce15 
3e5e0fa1 
3d4011fc 
3d96eac5 
bcbf04bf 
bde66b56 
3ec1458e 
bdb90b2c 
3e13938b 
3d495b06 
be81a782 
3ec77ae2 
bd988e18 
be8485fc 
be685752 
be90dbe9 
bf36218e 
bed61059 
bef29dda 
beb0c185 
be4f7e9f 
beca51ea 
3d12cc70 
3e90ade1 
3ec98e4f 
3e1e7dc5 
3eaf7122 
3e6744eb 
3eb3d680 
3f6424ab 
3f381f6a 
3e3bbff2 
3ca49d85 
3e036c97 
3e822765 
3ded3b6f 
3dca841a 
3dec6154 
be84da61 
bf2e8586 
be9bdad5 
3be529b9 
be23691f 
be01b0b9 
bdcd2ee3 
be6eb7cc 
3cc7a754 
3e8a4656 
3eb8ef84 
3e334a72 
3e80e53a 
3e5cddd3 
3d9f8c07 
bd664816 
3e7849d6 
be58937c 
be811bc3 
bebe0330 
beb5b283 
3e3911b8 
3e851110 
3c4fe760 
3e856069 
3eac90b1 
3ed20af9 
bd20d299 
3e4a9427 
3e946ef2 
3e5e5611 
3d8c0ad7 
3ed2600a 
3e072101 
3e98f2ef 
3ecdaec3 
3e0739fe 
bd625a8f 
3e57bbec 
3cb97170 
3e5c0319 
3e62f9bd 
bdd8872e 
bd0a2e9a 
3d89741b 
bf042434 
bf003d9f 
bf2609bb 
bdbececa 
3e73ab39 
beb2b48d 
bdfbe3fc 
3cac97a2 
bfb13a69 
bed96fd6 
bf3d7b94 
be9ba6bb 
bb1c1169 
be607b77 
3e9014fd 
bdbf5adf 
3e84306c 
bb821b15 
3e441ec9 
3ebce26f 
3e84080a 
3cfb2bd2 
3e8551d6 
bdfa8f49 
3d3dfb70 
3ea1e1cf 
3d913a2d 
3e222914 
3e46a175 
b9f454a8 
3e9a9de9 
3ea611ac 
3e33f368 
3f0ba2bb 
3ede5934 
3d68185e 
3f44af62 
3ee23ade 
3ef66280 
3e23a8ac 
bdcd2c79 
bc17e103 
3cc183d7 
3e317f8f 
be05c016 
bd26ae7d 
3d300bfe 
3de1cd03 
3e411716 
3ede1da4 
3bae5b79 
3e1d28c3 
3c7b22f8 
bca3bedf 
3d89eda7 
be8049bb 
bd838fa2 
3cac48c2 
be02dc35 
bc9503c6 
be19e5a6 
becb907b 
beb22a29 
bf576d1a 
bf3d94a2 
bee37690 
be3df783 
bb80d50d 
be697402 
be015af5 
3dd91b54 
3d8ee824 
3e7bb697 
3e916f67 
be2c4a79 
3ea58ed2 
3f01dfdc 
3ec6475a 
3f0918c6 
3f2d38c1 
3eb1cab0 
3e8af71d 
3e1ad207 
3cdbc9f6 
bccdd8ca 
bd2cb03e 
bafd079e 
bcd67ae5 
3e654092 
3e675757 
3ded96cc 
bdb880e7 
3d947f28 
bcafc30e 
be1c3e80 
be074e7f 
be947a20 
be9481ba 
be840d08 
bebf6247 
bed46a5d 
be739107 
be6f1fea 
bd9b0631 
be4823ae 
bdf8eda3 
bd9bf0a6 
bd14ac8e 
bc116a9a 
bd603394 
bb50a221 
3cb34788 
3d337d5f 
bd678663 
3c88dd93 
bcdea0c6 
3e1fbbfd 
bdad24f1 
bea23426 
bd12fec8 
be65cc1a 
bd38e9fc 
39e65dfa 
bd58191f 
3e079a1f 
be1913b9 
bd2d00bf 
bba4a07b 
bd9eef8a 
be2167d8 
bd5b450e 
3b2e91fc 
be83b42f 
be3186a6 
bdae00c3 
be4e61e2 
bd4d3059 
bb8406e7 
bc65add4 
3ddb30f7 
3cb86697 
3d429874 
bbfd6103 
bd15c597 
3e3b8779 
bd8f6294 
bed5f987 
be8b4505 
be1b4988 
be44b818 
bde27d8a 
bd99df4d 
bd5f0634 
bd18d26d 
3d9c3016 
3df90af5 
bdc77fe5 
be6ea606 
bcb387a3 
3e5ce9f4 
3e2c2708 
3cad14aa 
be1ea361 
3d9f2893 
3e8a5d26 
39c871f3 
bde5c249 
be2402c8 
3d1a1ac9 
3de354cc 
3dbd65f2 
b968a426 
bddd4014 
be1b44e3 
beb92846 
bead6365 
be8819e4 
3cff4809 
bea3e2c5 
3d4722f3 
bae13cdc 
bd93076e 
bde54416 
bd99a381 
bc439311 
be028cdf 
be55b67a 
bc1602f6 
3dbd4598 
bb47c323 
be036817 
3d6a0dd7 
3e175492 
bd4c2005 
be2c53a9 
be1969dc 
3d15fce8 
bc04f386 
3db13499 
bd1e06d2 
be5d388a 
be25f123 
becf929f 
be96182f 
be0785f8 
bd83053e 
be0939f3 
bd563d3c 
be0479d7 
be5e158a 
3b50304c 
3d6ff2ec 
3da3c973 
be338923 
be9700fa 
3cfac23b 
bc926c3d 
be35af9b 
bdf5e101 
3de45c6a 
3dfcc100 
be6940a4 
be85ffcb 
be7c285d 
3d0a772a 
bdcb6365 
3da796c3 
be3bd3b5 
be9956cd 
be637e5a 
bec4924f 
be325e2d 
be1c6ca4 
bdb1c25a 
3c2045d9 
bddf0a1f 
be1ca3ce 
bdb68982 
bdb77a15 
bd7fa06e 
3d975410 
be0cec4c 
be0b931a 
be07b30d 
3c3ffc01 
bda366e3 
bd923503 
3d14dc35 
3e21dea8 
bd4dea8c 
3dd8353c 
bd7da7f1 
3cb6ee1f 
3ead34bc 
3eab9cf5 
be871d91 
be2fed03 
be9ff442 
bd8b0e43 
bce861d9 
bd44bdb2 
3c3bbab4 
bd8f8b15 
bd8f0e37 
bd3c6cc5 
bb8b7b4e 
be2bdccd 
bdb07d96 
3d3d491f 
bdfe9629 
bd808054 
bd02cbfa 
3d1571f6 
be066eac 
bd8458d7 
bd654bd3 
3e0bbefd 
bd461248 
bca88cde 
be0e81db 
bcbc5923 
3e6c9562 
3e319972 
be547236 
bea642a8 
be9f386c 
bc4f8585 
3de32ae4 
3e0db4e4 
bdac9407 
bcccae16 
bdacac78 
bdaea7e3 
be42d566 
be0ab027 
bc8d442e 
bd885cd2 
be1b13be 
bd5b71d3 
bd8b0e80 
bd870402 
bdde0163 
be0a9411 
bda43319 
be02e2e5 
be18521e 
bc47929a 
bdf9a691 
3d85d676 
3e8f42fc 
3e4832a7 
bd7989c5 
be0418db 
bdd9b729 
3d806a15 
3d81f075 
bcbaeaaf 
bdb85dd2 
bc350697 
3d7999ba 
bdd43c69 
3c680b4d 
bd4aff1a 
3df987f1 
3d7f68a5 
bc369106 
bd43473e 
bdc916e9 
be04b7a9 
bd80e066 
bdc7fa90 
3b605b50 
3ce38523 
bbd99b70 
3be71dc3 
bdc73076 
3e9043ad 
3e85d6dc 
3ea30c6b 
3e8abfe4 
be1f4b13 
bde573e5 
bd9e9eae 
bb64e6fb 
bd2b7f25 
baeefcff 
bd1f8530 
3d8dca08 
3d960d82 
bd6ac598 
bda3ba61 
3ab1d83d 
3d9ab267 
bd8703ba 
bdab80d4 
bc66d594 
3d950860 
bdab2651 
bd28924b 
bd379e77 
bc6b6c37 
3d196947 
3cf14a28 
3d3bbc4b 
3e958c94 
3e74ec16 
3ecf7f28 
3dfcd2d8 
3cd96eb3 
3d9b3f38 
3bef3b01 
3d9de488 
3c71304f 
3c01a4c4 
bd01a8fa 
3d8de7e2 
3d43f052 
bbe9b3c3 
bccf05ec 
3c8b9ac3 
bd9c6033 
bd4636b6 
bd0085bf 
3c95d0b2 
3c4191ac 
bd90d13a 
3d38d2d3 
bd5d3e14 
bd9c85c9 
3cc6aaf0 
bde3cd20 
be9453fb 
ba7b583b 
bdb21b16 
3e8186a5 
bb0c1072 
3bb56e34 
bbbf7300 
bdb42121 
3e489f83 
3db3bba7 
3d2c5175 
3dffe534 
3ae9fcfb 
3d5fa153 
bda49c45 
3e2d539d 
3d34e9b4 
be1a5a36 
bce26137 
3dffc1ca 
3d95560c 
bd3cad2d 
bdd31a0f 
bdb767c4 
3cb335b8 
bcc62543 
bc9a1d3f 
bd94d01c 
be83f5d7 
3e1b0a75 
3ea0a54f 
3e6b2ab6 
3db762fc 
3cfafe2c 
bba7753c 
3c1850fa 
3df00e17 
3e1888b4 
3d44d04b 
3d5939dc 
3d3d230b 
3dbe01d0 
3d89fb41 
3dc105a6 
bcf02834 
bcb147e9 
bd2ffa5e 
be2518d4 
bcdfecc3 
3d852fb6 
38e3bc75 
bc960ff6 
3dc95975 
3d84f567 
3d33756b 
bb759a3f 
be901b61 
3e61dfaf 
3e5d32aa 
3e31bf53 
3dfcc4dc 
3e0b1b53 
3d773023 
3d82120a 
3e31a9fa 
3e2a3c55 
3d50678f 
3e386227 
3db3cbb6 
3d39605e 
3e331111 
3d5a2215 
be0f2b7c 
bd082dad 
be244361 
bd84293b 
3c42daa0 
3d0b4242 
3d735857 
3df0d442 
3d569432 
3d4da7ab 
bc70de9b 
3c4fcbcf 
be67f394 
bd3a36c5 
3d824e91 
3d8c2f3d 
bdb85a63 
3e32561c 
bc2b64c1 
3e4ef748 
3e289227 
3de9b6fe 
3e0da6ed 
3e2138d5 
3cab0a31 
3e45f547 
3d57650f 
bbf0904f 
be016be9 
bd75c91d 
bdf8f0cd 
bce942c9 
3df0b3df 
be0075c8 
3db8f3ff 
3defabbf 
3cc913e8 
3d459421 
3d71f5be 
bc72fc28 
be2c8052 
bcf61770 
3de2ae79 
bdc7571c 
bddd79fe 
3dc66344 
3cc854cf 
3e3c9bc0 
3da6c3a6 
3e7835f6 
3e28ae50 
3d9de647 
3d41eb14 
3d6e5e08 
3dc9b0bf 
bae675d8 
be8b7a94 
bccfffc1 
bd275bdb 
bd0b2734 
3ae0212d 
bc912616 
3de70c32 
3d3558c3 
3e19c951 
3dcd422c 
3db8051e 
3d65b300 
bdc98839 
3d7e9bb8 
bdc39e7e 
3d08816a 
3e31b486 
3c5fc407 
3de28a4e 
3e3c0cc5 
3e0791df 
3e1e76b6 
3e229511 
3e18481e 
3e1b5922 
3e7c8a1e 
3d5101ee 
bd87f6f4 
be23a41d 
bc86b4cc 
bdbafdfc 
3d4b4b2f 
3d161cb6 
3c19692b 
3d79c763 
3d133ff2 
3d45caa9 
3df8c4a2 
3e0e3834 
3d674b5a 
be0d1e46 
bd8f73d1 
3d0ee0f0 
be18aadd 
3e83c1ab 
3e95de59 
3e7f7e31 
3d94a7d6 
3da8ae14 
3e0e9bc8 
3d1f5d72 
3cd3bb62 
3e51cac8 
3e97b1d7 
3de35436 
bc03a0e9 
bd8d1498 
3b3d1fb2 
3a3aff02 
3d0198bc 
bd4ef224 
bd0d5099 
3dbc39cb 
3cfef40e 
3df35c73 
3da53399 
bd18f8c2 
3d9584e2 
be61cf1a 
bda7b31c 
bdd0a20a 
3c119816 
3e060b4b 
3e1314ed 
3e8475dd 
3de6aa5f 
3da8327b 
3deb9a79 
3e1df79c 
3dd7602a 
3e097824 
3e14d8a6 
bc29f0d9 
3d282da0 
3d9ba99e 
bd559ed1 
bdf751a3 
bd34de14 
bb9898d6 
bd303931 
3ce81eed 
3dc2414c 
3de7ecf2 
3d01a94f 
bc00d679 
3d7704bb 
bdd1660e 
bce33f4d 
3d57b20c 
3df3dd9e 
3e7c4b38 
3c5c49da 
3d0dbf61 
bdae90b0 
3def13e0 
3dc94dde 
3e84b1ce 
3d67bdb5 
3ca7149b 
3d1ff580 
3de49abe 
bd84f250 
bd0c41ac 
3d39209a 
bd4d30b1 
bd70c626 
3d860e22 
3d470815 
3dbedbb8 
38935a2c 
3dce6f30 
3dba0816 
bc033ada 
3d676aad 
3a385e2c 
bdebe4a7 
bd52525d 
3bf085b5 
3cec376e 
be38a1da 
3d6f4aa6 
bc490085 
3d897951 
3dd88a62 
3dfd025f 
3df23a6c 
bcbc4460 
bdea7f29 
bd017e65 
bd4df999 
bd53509a 
3c98fe28 
bdebe34e 
bcab2a29 
bd6ec82d 
bdb1e993 
bd962207 
3c0b9206 
3d8ed86b 
3dc238e9 
bd08129b 
3c407d0d 
3d837e4e 
bcbd5ec8 
3a2feeb1 
3d9114d4 
bd1a38ec 
be959057 
bcbd0faf 
be3ced6a 
3d56d264 
3d379b5e 
3d422052 
bdf6b833 
bce899e1 
bdcd14f7 
3c634379 
3d64e043 
3caa809b 
3b448092 
3d4cc9ec 
3d30f5b5 
3d816cea 
bd5c3ad3 
bdaafb05 
3d32c732 
3d84243e 
bca330e9 
be179298 
be0aba03 
be135263 
3d430617 
bdc4f25d 
bd9c9877 
3dd8789a 
3d2522c5 
3dc78eb6 
bd830963 
bd1ca666 
bd39cea2 
bbf50419 
be0efb1c 
be04df9d 
bc1d8f5d 
bddcfc03 
bddb8427 
bd922951 
3d578864 
3c901559 
bd814119 
bd23a38f 
bd97ee87 
bdefec9d 
3d680a39 
3d4a39cd 
bd83b758 
bd841524 
be738fbc 
be0dd014 
3d069a09 
3d27a8b4 
3dc0af56 
3d52597a 
3dc7383e 
3d4b9a56 
bd87815a 
bde4ba0f 
be3c0ae4 
bd7d0dd5 
bd2a6e12 
bdac3d22 
bdea0786 
bde460b9 
be1815b2 
be75cd53 
be218c3b 
3c7ae5fc 
bc55e36d 
bca8fee2 
be1ae803 
bd9b73b3 
bd853729 
bd8a527e 
3dcf4505 
be23c93b 
bebe9845 
3e11520b 
bd055cc6 
be57a731 
3cd426d3 
3e6a861c 
3e1a2ded 
3de06a06 
3da35019 
bdc3f664 
be06ea67 
3cf1da5c 
be4a4543 
bd3a4b13 
3c48959e 
bddf11fc 
bdca93c5 
be07b919 
be6a190d 
bdad1457 
bd94b2f1 
bc4b2ea5 
be22c19a 
be809174 
bc9be14c 
bd8cee9a 
3cb74397 
be877fac 
bec0b03c 
3d21322f 
3d4a548a 
3ca40ae7 
bdc617a1 
3cc47e74 
3e13933c 
3d49b019 
bdb71a56 
bdc0c038 
bdb65e42 
bd89eaa8 
bdcfb836 
bced5151 
3d679dea 
3c9a5424 
bded8059 
be97fccf 
be36d19f 
be0475d4 
be030238 
bddf8463 
be589fcd 
be57e549 
be30a758 
bdaccb72 
bd637fe9 
be64437a 
bed0b6f7 
bd7781f0 
bb481743 
bd882630 
3da7b229 
3df6423f 
3df7911c 
3e0b03d8 
3ccd069a 
3cba862b 
be45486a 
bc399deb 
be585a55 
bddd5dd5 
be6621fe 
bd9bd0fd 
bd84d18a 
bd6ccc88 
be2e42a2 
be7272f6 
be47eb04 
be10a29e 
be75d0c4 
bee7afc9 
beb7aae9 
bcb31de9 
bd99dc70 
bd8af6ef 
bc7e9445 
bd89d812 
bc3c3745 
3cb23049 
bce834ef 
bda0d1cd 
be36cb57 
be35957e 
bdda41ea 
3c852395 
bdb3b137 
bd45b805 
be00b70c 
be78a7b5 
bec72687 
be87640d 
be43a0f3 
be650c39 
be068c59 
bf007943 
be2f98ec 
be8cfffc 
bec3b9df 
be9acd64 
be6a8398 
be85d38e 
be3bd2ec 
bd8ad4fd 
be240233 
3c36f971 
3be21335 
3cca4f4d 
3dc33bd0 
3d083ccf 
3b9ff3a2 
3d5ba7b7 
bc91d4c9 
3d99654b 
3d1e2e27 
bc35e456 
3d2892fe 
bc3ee683 
bcede20b 
bdb12560 
bc9407ed 
bcc75557 
bd39c667 
3c7d9576 
bd839a1a 
bdc0ffb5 
bbf9689e 
3c94351a 
3b9b9d0c 
3dc911a4 
bda297da 
3d3c40af 
3d99fdfc 
3d22de5f 
3d027b3d 
bcd34ff7 
3c71d1b5 
3c7a0da0 
3cb7c17c 
bd3da1dc 
3d88f9c0 
3cc8a7d7 
bd9a7b0c 
bc6c93a9 
3ce94ac2 
bbe2ef1e 
3e12f63a 
3d8a9705 
3e040f3c 
3cd052e3 
3d6abd99 
3db5e905 
3d2ee6cb 
bca8d936 
bd490cd4 
bc5a2a87 
bd935b1f 
bd6eb863 
bda86fc4 
bd629422 
3d73fdc9 
bd30fadb 
bb965fd1 
3d7b3118 
3ca2a0ac 
bbf494b8 
3d0fbf1e 
3b9abd37 
3e47b53d 
3d80d8f1 
3d21a034 
3e01929b 
3d68b07c 
3d383d5f 
bd83c1b9 
3d4b9c80 
bc1b0eb9 
3d0d0136 
3ca32776 
bde23fa5 
bb80f7db 
be0b0123 
be826d59 
be3d89ad 
bd0e33bf 
3c812322 
3d016318 
3cce2f31 
3d5c8513 
3cb57c87 
3d73be16 
3e1cb923 
3df0abbd 
3e622c6e 
3e6d607f 
3e045ac9 
bd804966 
3d6be795 
3e3ff2aa 
3df64605 
bd88f3df 
be6708ad 
be1c3b8b 
be50e28b 
be27c7c8 
be8a1115 
3d4a669f 
bce526db 
bd20c7fe 
bc468e64 
3c78078a 
be4d79bb 
3d8fc564 
be88f3a6 
bc195040 
3cd1bffd 
3d94347d 
3e3715fc 
bd3136b4 
3e7b543e 
3de9b401 
3e06f0d4 
be1c738c 
be2aa6de 
bd3db76f 
3e188ddf 
bc8344ff 
be263ce6 
bde98ec4 
be154d8f 
3c5152d0 
bd8ccd4b 
bde12016 
bd866cf1 
bde6879e 
be61b730 
be456f17 
bcc2be1f 
bdd3d7bc 
be9fb47a 
be825bcb 
bda1c6e1 
bc6a7a05 
3c47fd66 
bd61495a 
be4382a0 
bc80b21c 
3e12abae 
bc4b983a 
bdc2888f 
beae578a 
be5fb0fb 
be961c8c 
bea4a4d5 
beae8507 
bf0b58e2 
be1bf0de 
be41f5be 
bea5a8a2 
3c50949b 
3d877dc3 
bbaca681 
bcc2ea88 
be64334f 
be37b20d 
bc8b7f16 
be52517b 
be8fd210 
bd79f831 
b98f7697 
3e1af982 
bda02e13 
be43ca5b 
be075cdb 
3c3bf78b 
be604689 
be7fa157 
be5359c7 
be403703 
be1b37a4 
be7d475b 
bed5e086 
bed39e94 
becfb18f 
bea5f0e5 
bd87439e 
be7fe3a7 
bdbce9c4 
bcbe47ba 
bdeb75bc 
be30a407 
bee3c32f 
be7fed15 
bdd568a6 
be8ef390 
be8119e3 
bd8429d6 
bd0c8c5f 
3cb1a28f 
bec969d8 
bedaf630 
bed8add1 
bd6ae7ad 
be3eaaac 
be1ee926 
be41b799 
bdb48f38 
bdcbcf4d 
be8f4182 
bf023e67 
be81df54 
bd89d21a 
bdf9d5db 
bdacb6b0 
be10f23d 
bde0599a 
bcc86817 
3d0128e3 
3c2239e1 
bd9efa59 
bd07d2ca 
be2ed3f2 
bea76b35 
beda98cc 
be8fa5a7 
bd02bc61 
3e08fa03 
3b2b5e5e 
3e1d9e6e 
3d39617a 
3e6f0556 
3e605461 
3e4f555d 
3e542055 
3d51dd6d 
bdead04a 
be87bf87 
bdeb3c7b 
3e189af9 
3d61e40a 
bdafd2d6 
bc3fec01 
3db76019 
be37b8d6 
bdbe3b4c 
be3eb96e 
3df24c71 
3d8e101a 
bd5f2908 
be9bcab4 
bea8b5bf 
bec186c2 
bdd773e8 
3d8ba037 
bbdf2996 
3d97d41b 
3d8eed22 
bd10ea39 
3e8db7e6 
3e830774 
bbc1753f 
3d285dc2 
bc8af170 
bd98dfb0 
bdb56f54 
3d8af7f6 
bd9b6b39 
3bc2f713 
bca0afcd 
bc8f453f 
bd7ca69b 
be39900b 
be4f2e3c 
be3384a7 
be12367d 
bb905e19 
bea6ce7c 
be71153a 
beb45850 
beb1add5 
be79ccd9 
bd337b6e 
bd2f2dd5 
3e122bef 
3d0b3055 
bb5c06db 
3e836976 
3ea32f24 
3d3a0470 
bda1fa08 
3d89a801 
3d72d8fc 
be0045cd 
be03b2c2 
be1f151f 
bc4d4c5a 
3b08ae90 
bd931f78 
bd9f5baa 
be3adc82 
be40fd53 
be7cdbed 
be3cc489 
bd040ac0 
bdb0bb3b 
be32322b 
be880ffd 
be92064f 
bebb13a7 
be619bcb 
bd854c32 
bcb77033 
bdc5701e 
bcfa5991 
3e920318 
3e9dc9fc 
3e00538a 
3d39bdc2 
bd1f8e7e 
be12cc2c 
beb7de3a 
bdb0ad03 
3e5217cd 
3da51304 
bd27e98a 
bd3df7fd 
3bb6b5c5 
bd081119 
3ded4d79 
3d2539a9 
bd375763 
bde27ead 
be2e6c53 
be4f860e 
bdd74cd6 
be82323a 
be62c09d 
be481d0f 
be1210ca 
bdde963a 
bd722b93 
bea20018 
3ea66c80 
3e94b974 
3e17f3c2 
3d97fdf1 
bec4d23d 
bee516c5 
be5dd382 
bc0c2c38 
3d841a85 
bd90bca9 
bdc41692 
be06a135 
bd90e7d6 
bd21b516 
bdf37ce5 
bd76ec72 
bd64c7b0 
bd4e62a0 
bde57e1b 
3d60ad40 
3cb18c0a 
bd7cff0c 
be1d48bf 
be8c381e 
be52d7e9 
be6c9a71 
be45b3c9 
bed40341 
3e9da57f 
3e9a2c7d 
be25865f 
bec4f1b4 
be10525b 
bd86d96c 
bd44c42a 
be40012e 
bd9f157e 
bd02950b 
be122223 
bd873106 
be0f6f09 
be4a671c 
be340b9e 
bdb7f2da 
3dd0d17a 
bd8999b1 
bc2567ed 
3de9a469 
3db6bc66 
3cbf78f4 
bde08794 
be2c49bc 
be0bd629 
bdf17905 
be179926 
be42fe5b 
3d10977a 
bcdcc6fa 
be6953cb 
be5d5777 
be083b99 
be2e58fb 
be2c238c 
be31e53c 
bd5d0a88 
3be0dcaa 
3d30d059 
3c1741d1 
bd238623 
be571b58 
be7419f9 
3d40c1bd 
3bd17764 
3d99eb6d 
bca2ee03 
3e5b0d87 
3d49af36 
3d966d9b 
3d0c00f9 
3c09b864 
bd4bbe2e 
bdf67dcb 
bdd99d83 
bd78daa8 
3da83067 
be761ae2 
3cabc10a 
be694fba 
be347747 
3d793986 
bb83bb43 
be4fefb2 
be89b0f5 
bcfbe49e 
3d20de8a 
bde8c5d2 
bdcfcb3d 
be17a54e 
bdd9ecb5 
be4eec84 
be9eaf06 
bd58e91d 
bd057590 
3d143a96 
3dcec97b 
3df858c7 
3dda3cc8 
bde8980e 
bd11a3dd 
bd15ac24 
bd259a44 
bdd0033b 
bcff3449 
bef2da21 
bec7e7e2 
bdc5002a 
be0bd812 
bd05aa1a 
3d4a9112 
bc8e73ff 
be8a2b21 
be8bb53d 
bdb53371 
bddd0608 
bd802b0a 
be339afc 
be6dedc8 
be8a7fe7 
be6808c8 
3dae1275 
3db43e7f 
3e5710ab 
3dd0616f 
3d099cdb 
3d5eab39 
3d852699 
bd48e2fe 
be270508 
bdeb02c7 
beb7b634 
bd30d007 
3c0d8b5a 
bdc0fb53 
3d6b4ee1 
bd38e423 
3c184888 
bd3507ee 
be2f5730 
be615c59 
be33a658 
beafdfcf 
be94a21a 
be4d9930 
bcad5459 
bc7aa67e 
3d9ba7f2 
3d5783e5 
3e0d26b0 
3e0d8faf 
3d0876cb 
3cfe80c0 
3d6f6e6d 
3dce5691 
3ce41e50 
3d0cb1fb 
bcafea24 
3cbddcff 
bdaef272 
bd91f6d7 
be10b0aa 
bd924993 
bdecc098 
bd901f78 
be7167df 
beacd40a 
bde7041a 
bdc38126 
be7a108a 
bdc0afae 
bdb3b57f 
bd9ecf12 
3d574f9b 
bb59d5dd 
3d5a7b31 
3e2b94ba 
3e50f733 
3e017406 
3dc8b16c 
bd32ad49 
3c2c60f5 
3ddad637 
3ccf7bd0 
3d3af5dc 
be231c2c 
3c8a97a3 
3a7c9b3b 
be0c159a 
be2bd668 
be2debda 
be000267 
be13bc1a 
bde81799 
be0d4179 
bd347e67 
bc888685 
3dbffc08 
3d56bce7 
bdabcf61 
bde25210 
bdced652 
3e825dcd 
3e98ecab 
3e4c6075 
3dc4e696 
3e47a5e4 
3d9be5f5 
3d0611d7 
3e072c3a 
3d890aee 
bca325d3 
3c4a3737 
3dbd3b7e 
3e8df329 
3c85523f 
3cc45006 
bc3a500d 
be2382a2 
be841a25 
bde5135c 
be663094 
bdcf2719 
bdf5ce34 
3d249ffa 
3d3d6ca0 
bd8cbfa2 
bd6c1a6d 
bd638b88 
3c959818 
3de21506 
3e7a9dc1 
3d35467a 
3e05d687 
3d14943b 
3d843fac 
3d5d90db 
3cbd15c2 
bd13c7d2 
3d2dba64 
bd83919b 
3e19fd4a 
3db12598 
be05dc6c 
3da9a077 
3d9b4e94 
3db33859 
bd6c2be3 
bded737a 
bdc969b9 
be4f214e 
be81aedf 
be6095ca 
be70654e 
be0ea8b1 
bd3b3926 
3d3d6f20 
3cf32ac3 
bc86e077 
3db75374 
b88949d4 
3da6e494 
bccbb0c9 
bd884476 
3cf3d21d 
3d32ea69 
bd5d9d51 
bd7630db 
be13c584 
3d179f93 
3c8fccf2 
bd018b2b 
bdb18981 
3e62006a 
3e57b5c7 
3e278751 
bdb769e6 
bd5e3fb6 
bdca8261 
be1badf1 
bd41c8ed 
3db4b40b 
bc88006e 
3c0f9acf 
3d596dd7 
3d801b3a 
3d516393 
3d70dd19 
3d811e06 
3aa2112e 
bd1ffdbe 
bde08739 
3d95906a 
bb6ff5ab 
bc4d078c 
39dfb8bc 
bdbaa24b 
be3c57ec 
be44aa81 
3dc3c58d 
be6b723e 
3dfbb3c5 
3ce2adec 
bccb6eb6 
bd61cd7f 
bd9a2e65 
bdd7c6c6 
bd96752f 
bd0351cc 
bda4df64 
bc83ecda 
bc435bc2 
3dcbd7da 
3d861ec2 
3da1d2e1 
3db32c88 
3db8f07b 
3d699e79 
3c803eb2 
3d2b92da 
3d51cec3 
3a91a586 
3d5431c0 
bd087b36 
be274081 
be617a0c 
bea21159 
3e22db82 
bdebd6a6 
bdbff57e 
bea33f17 
be4a1b55 
3d1b545f 
3dd538a2 
3d369aba 
3e2c45f9 
3d758ff3 
bc91e519 
bd5e5b8f 
3c6c8a49 
3ce7a6fe 
3de6070d 
3db82bfb 
3dfd30a8 
3e0c8b6b 
3dbd981f 
3d2c15da 
bd36c1f5 
be1a0048 
bd5bb756 
ba0715dc 
be361d81 
be8a9db4 
be95dce7 
bea844bc 
3d7168b6 
bdea6012 
be901f38 
be325674 
3c42012b 
3ba19f29 
bc4cf335 
3dfa3109 
3de54b36 
3d929115 
3cb6445c 
bd3528fe 
3d7811ee 
3d47aad2 
3cdd0d3b 
3d8f99df 
3c744ab8 
bd3e8bcc 
3cb13673 
bd2f3b8f 
be5a52b4 
be97cbb7 
be41f11c 
be123cbf 
be34f894 
be926531 
bece29e3 
be981ae8 
bc1eec01 
bd38a764 
be30410c 
3e0ca82b 
bcbb4d19 
bcc2d3fe 
bba6418c 
bc61f854 
bb9105d7 
be03c9a9 
bd6f1d24 
be1b757a 
be2114e8 
bcf06b3c 
bdc7fb18 
bcd9e77f 
3c848d31 
bdc4279a 
be0e0677 
bdfaacaa 
be8f6438 
becb7b7f 
bebf29be 
beb901b4 
be913cfb 
bdea9160 
bd91761f 
bdae645e 
bc9aa78f 
bc034358 
baac6065 
be3be93c 
be8b4089 
be9092a5 
be27fbb4 
bdf632eb 
bdc4e41a 
be0567b4 
be6ce689 
be4405e8 
be0537c5 
be7a3d0f 
be448130 
be9bfc72 
bec5fc7b 
bef21bac 
beb052d5 
bebc87d5 
beadc676 
beb99a2f 
be8f7e71 
be18b42c 
bdcf163f 
bde99eba 
bc8982da 
bcc4978b 
3d1c107c 
3ccf9c14 
3e92e4db 
3e8a8f03 
3e29ebbf 
3e45ff94 
3ea28a6d 
3da5782d 
bda34ebc 
be5025c5 
be5fd3ab 
be80fec4 
be6cc3dd 
be996f51 
be870a75 
bec30a2e 
be7c9a06 
be40293f 
be0e7fa5 
be4fd462 
be5ed3ef 
be2a782a 
be270842 
bd66d6c6 
3cf570b0 
bce45f9f 
bd7fbea0 
bd880e08 
baededa5 
bbad1fe0 
3dc628f4 
bd8ea49c 
3dc72b43 
bde6bfb1 
be83c3ae 
bd4fcbab 
be1ab063 
3dcf0b41 
3cab3905 
3d074ebf 
bd6aeca0 
bd910230 
bc6cad2c 
bd1bc199 
bcd2e0d9 
bdeeab17 
bbe344a4 
be1cf680 
be1f17c9 
be4a3a1e 
be46ac74 
be52801d 
bdc60da1 
3d2489ad 
3d35fd7c 
3de0b5aa 
3d6bc44b 
bc84bc38 
3e1c8c4a 
3d9fc452 
bdf82f2c 
be81e791 
be6d41d7 
be3621fa 
3dd74f3e 
bc2908d6 
3e22d514 
3d97a874 
3db037d8 
bd6a23c1 
3d836c7d 
3db30230 
3dcea3ca 
bbef27d1 
3c6825b8 
3e18ef2a 
3e0774a0 
bbacfa69 
3d02e934 
3d252993 
3e1e9d9e 
3da72baa 
bc981a8b 
bd881650 
bdc26a03 
3b2f4eee 
bd81e407 
be391f07 
be9290fd 
be97ac4b 
be406e8a 
3d9b2457 
bd3a4fbd 
3dc46461 
3da747d2 
3d923cc7 
3c30f926 
bd9ac65f 
3d944967 
bdc1fa36 
bc1ef0a7 
3d4f40f5 
3e010641 
3e85451c 
3e234435 
3dd14fb7 
3d84c93f 
3e2cc805 
3e72c0b1 
3cf6a04c 
bdbd252b 
be5c4e44 
be7b2983 
3c20439e 
3d61b997 
be743014 
be5072d4 
be549224 
bd625db3 
3d1e7aac 
3db1577d 
3d1c2636 
3c9aa01c 
3bb1f9ee 
bdd0482a 
bdd7bd48 
3d163860 
3da6c7d9 
3c71c48e 
bc566af5 
3db7797d 
3df9329f 
3e4bcdff 
3e1faab3 
3dc88328 
3a9877ec 
bd91d3e1 
bd91cda6 
be8d21b9 
beb3400e 
bee4c8cc 
bd3ccf1e 
beae539f 
bf03f560 
be83475d 
3d6df1ee 
3df3f023 
bd68d1f9 
3dbdba9e 
3c8d8279 
bcc34c7b 
bcad7d11 
bc82c6d1 
3d0ba9a0 
3cda7a36 
b9be21cb 
bd9a4e3a 
3ca4e2b8 
3e1ab785 
3d0a3bbe 
3df4872b 
3d8ce198 
3e382a74 
3d9562d4 
3c17a1cb 
3d254dca 
3e19684c 
3de11853 
3cd19117 
3ec3a862 
3e918b56 
beb1e0bd 
bd3427b2 
bce2a26b 
3d897c82 
3d7a688c 
bd200f65 
3d10755e 
bd45c12a 
3db7cbf4 
3c627fa7 
bc3d8fb9 
bc09ed73 
bd435bb5 
3e068e59 
3db85755 
3d9503e5 
3de256f6 
3d0e43cb 
3d96595d 
bd21124a 
3dd42d55 
3e0c5750 
3e537c5c 
3e222eb0 
3e458f84 
3d656122 
3e96eafb 
3e72ab5d 
3dda988a 
be90f12a 
bdfb76c0 
bd9e9c2e 
3cce632b 
bcc437e3 
3c00368e 
bc8fcc17 
bd08b81b 
bdd3f38b 
bdb4e5b8 
3b82033c 
3db322c5 
3dd7be4f 
3e42cacc 
3d9ebb04 
3e07bf3c 
3e0000b4 
3de46fca 
3e14013b 
3dcf3920 
3dda483a 
bc9c7306 
3cf92337 
bd9d4eac 
be2c9b5f 
3eb429ac 
3e8e4905 
bdf1d6e1 
be2baf98 
bdcbfbd7 
3d6a8929 
3d90f4d1 
3ce859b8 
bbd243c6 
bc3ec631 
bd89720f 
bdf777e0 
bbf13eba 
3c98ac77 
3d5cfa08 
3d90edc0 
3dec472f 
bb282d57 
3d9c9764 
3db95ad9 
3dd9afaf 
3d619f53 
bdbdee4e 
3daf7cbb 
3d5784cd 
bd85aad7 
bd1797bc 
bc3481f4 
3ea4ae4c 
3e9ac3fe 
3d7e8b0a 
be38d083 
bdcb3fac 
bd970549 
3d5a26bf 
3d1be8da 
bdbc61a4 
3cc4f045 
bd3882ba 
bd9959f2 
bdfbef7b 
ba8ee7a4 
3d1c10dc 
3d0515ad 
3dac0cf9 
3bd85791 
3dc2c758 
3d179cae 
3ac9b54c 
3d086bfc 
3e25c17d 
3e350b7c 
3caed76d 
3d9de4f8 
be06d20f 
bea02c12 
3eb4daba 
3ea33257 
bdd8451c 
be740cc3 
be13bcf8 
bda035e0 
3d34a92b 
3d589589 
bdad98f4 
3c69ad2f 
bcbdb1d7 
bdddbba8 
3d660bc3 
bd9d174b 
bd15baa8 
bd609245 
bd959336 
3c1d4d27 
bd3c37af 
be19f255 
bb816d43 
3d9de04c 
3db4530b 
3d1c464c 
3d3d4f52 
bde3a5cd 
be67cd05 
be610fce 
3e401cff 
3e311c02 
bd81e91e 
bd6fc644 
bde129e2 
bdce2bfd 
bbbd9031 
3bb2d47c 
bdd2e28f 
bd820ddf 
3d41f48c 
3d8fade8 
bc157ad7 
bddbc19a 
be49d414 
be0f1ba1 
bd96d61a 
be57b79d 
bd95732b 
be010afd 
bce300ab 
bd3c1c0e 
3d5e2730 
3ce5cc51 
3de47694 
be0ce149 
bdfc5559 
bdb7e9f7 
3e8bbb0d 
bb9dcca3 
bdc82fc7 
3dd6a619 
bdf4d797 
bdd80b2c 
bded7a4b 
3dc36a09 
3da52fb9 
3e14dbef 
3e31758c 
3de71e3f 
bd0163e9 
be34d14f 
be052e7f 
be75c3af 
bea61a43 
be592447 
bdfc32d6 
3c6eea79 
bdf10c81 
bd9fb239 
bd58955f 
bda91801 
3d028fcb 
3df2671a 
bda10489 
bea9a498 
3ddb5819 
3de91894 
bdcb1c4e 
bdec0d3e 
bc87eec5 
3d012e38 
3e097967 
3c98d371 
3e141cb7 
3e10e527 
3b97ee09 
3c674e34 
bcc23d3b 
bd33d9b1 
bbd07cbc 
beb43c87 
beae43b8 
be6efd85 
bdbf3a6b 
be01f404 
bdfec75f 
be037bc7 
bcc41311 
3c8adf29 
3da55c8c 
3d3e69ea 
bdabd835 
bf0016ff 
be01ece2 
be41601f 
be346403 
bdfb3b75 
bd77fd04 
3da9f54b 
3da60c91 
3d4764d2 
3dabbcf6 
3a21b571 
3da78116 
bba1d378 
3ce9396f 
bd519ca1 
be3e92c4 
bea8bc8f 
bedafa39 
be175e84 
be13c9ce 
bd8323d6 
bd3d9459 
bc468130 
bce41ebf 
3c061f3e 
3dab8851 
bd31d074 
bea0aa72 
bf01ce8f 
bd06f7d0 
be082d5d 
3df0d607 
bd3c42a0 
3c5784e4 
3b91b926 
3d0078bc 
3d0dba18 
bc8d04f1 
3cc35496 
3c95b92d 
bbd85dd8 
3cca4b28 
bd5e0ca4 
3b8986f9 
be32f205 
be2adb81 
be982034 
be74beff 
bd925a90 
bd8aae18 
bccba61d 
bc5d3c8d 
3d763ca4 
3d9057b2 
bdfbdfa3 
be4cdb72 
3db9e140 
be330b44 
bd9c7ddc 
3dc10dcf 
3df314a4 
3c48d4bb 
bc0e5c69 
3c9bba22 
bd06e63e 
3cb23d48 
3d8cb655 
3e35709c 
3dd66839 
bd913dfa 
bd8bcca9 
bd2206fa 
bdd0727c 
bd9eec38 
be1b7c85 
be50fc39 
be1fc5a6 
be483b6d 
bdf440fa 
bd92128a 
bd6d1232 
3d466210 
bd7c2d6a 
3d934c8e 
3cd0e54c 
bd93ece3 
be161050 
3de52c33 
3dde89f8 
396e5bb4 
3dc08fe1 
3d93208a 
bd8b7fb2 
3c7f4cc0 
3d3a1f30 
3d91ae94 
bd0cd12b 
bd36d3d1 
bdaab910 
bdb65087 
3d5cd055 
bd2bc775 
be51dc6b 
be32851c 
bdb70f40 
bdd55eb2 
be1c853f 
be4c68b2 
be6d6761 
be1d6ff5 
be0a4a52 
be86424b 
bdf89b65 
be138c57 
3de58214 
3cbd3a42 
3dcebc6c 
3e177227 
3da8aa38 
bd42dac2 
3c807b4a 
bb113560 
3d3f4a69 
3b920d87 
3d502bef 
3dca02b7 
3db93300 
3db1855f 
bde86ea3 
3c36900d 
bd668338 
be185b65 
bd2e9e98 
be792fa8 
bdc96121 
be5cc322 
be2d732e 
be2b56f1 
be58194f 
be910d57 
be5b4cf9 
3d30e782 
3dab2d29 
3e1c18eb 
3e4f5150 
3c97b2a1 
3e3ad395 
bddf205d 
bdff328b 
bcaf41f7 
bd2de583 
3cef9974 
3e0660b2 
3d733ae7 
3dccdb71 
3dbe0403 
3de50b3b 
bd20a3e5 
3ce8bb63 
3d86a56b 
bd906276 
be46fba1 
be5cd222 
bdc4011d 
be78ddf4 
be25196d 
bea2f805 
bd07d52a 
3e48e36b 
3d8e8929 
3e15623f 
3db4cdc8 
bd72822f 
bc1289ea 
bd0e91ed 
be153885 
3d0791a4 
bdb0bfcf 
bc06971c 
3b1d2701 
3d953bc1 
bd580eac 
bb82ec60 
3d7fb6f0 
3b7aa938 
3e2904f0 
bc89634b 
3bb2b67e 
bda6a7ea 
bd65de69 
bc86acc6 
b9a9cb94 
bd12b969 
be843032 
be303c79 
3e9c5258 
3e54b261 
be458187 
3cc5a865 
3da92133 
be51d32f 
be27c499 
bdcf6849 
3cab8b94 
bce85c70 
bc98d44b 
bd75a0ad 
bbc6f073 
3d695197 
3cb6fb78 
3de2fd95 
3dba5e2b 
3d5d4f0e 
3d521ede 
bd47e7db 
be1aaa3f 
3ce9d67f 
bcee9762 
3e001fc6 
3dfd3cd4 
be362a35 
be6c9946 
bda92a7e 
3d6bb2be 
3d9e9d35 
3c1c7a1c 
bde47eac 
be662c30 
be9690b7 
be787423 
bdbfaf66 
bd2ea2f8 
be077e9e 
3c5fdf92 
3c9896f0 
3d180fa9 
3df9d78a 
3da0c50a 
3dfc0632 
3dcbd51a 
3d176027 
3ce62243 
3dc4d5f8 
3d74bce5 
3d779802 
3cfecda0 
bd6c88cf 
be0e2a74 
bea33409 
bdfdae49 
bd6f803f 
be4caadf 
3de8a5dd 
be6224ae 
3ea6adc7 
3d78f4b2 
be315230 
3d8a9320 
3cad101e 
bdcf8f78 
3d68cd46 
3d122df2 
bd7f7614 
3d43a7e0 
3d1b6d1f 
3dbf534b 
3e48ab41 
3e3bd550 
3e00c872 
3e354ad8 
3e2b3890 
3dea9086 
bd028035 
bdfa874d 
be1c3609 
be34bc0d 
bd580ff9 
bd3b5888 
be7a3340 
be917b29 
3e698b26 
bd727b5e 
3cf820d6 
3de37669 
3eaa62de 
3df15ad4 
3d225271 
bdd4e2ec 
be03cf32 
bd63c570 
bd9bd380 
bd961c67 
bd0513a4 
3cae4bae 
3da741af 
3d315575 
3e15fb26 
3e42bb04 
3cbe566d 
3db2e8c4 
bcf18616 
bda1259d 
bd292a79 
bd8360c8 
bc83fe17 
3dbd1724 
bea56d36 
bec52437 
3d994c03 
3d5d0181 
bdeb9383 
bee41b37 
be553643 
bc0387de 
be9dd343 
baf83fbc 
bc0089ba 
bc92aac0 
3bea1356 
bd352084 
3dc3b201 
bda4617b 
3cba53b8 
3d4c9665 
3d5bd81d 
3de3e0f2 
3deaef22 
3cfdaa2a 
3e6647ce 
be2430dd 
be0326b0 
be512093 
bc845751 
be03f7bf 
bea3f793 
be752d42 
bd5df9e8 
bd7ab4e0 
3cde480b 
3e5be139 
3e228aad 
3de76470 
3e1d912a 
3e3add10 
3daa07a7 
3d7ede9a 
3df29d76 
3d453275 
be3fcabf 
be21ecd2 
bd843e9b 
3ce51125 
3c27df45 
3d2359b8 
3d9bb4ea 
3cbdbd11 
be70e374 
be8821dd 
bed95395 
be8f05ed 
bdde60cb 
bda5c7a2 
bcedd2bb 
be33b072 
bda6b873 
bddf6cc5 
3d9ee414 
bdf9fdd8 
be449b6c 
be74a5d1 
bdaa12b8 
be5ef639 
be3fd621 
bdf295d4 
bdd5951b 
be2298b4 
be653cea 
be1468da 
bd7695c1 
be4d407b 
be65b560 
be921c3c 
be9d8f2e 
bebc87ea 
bec8c300 
bed35d7b 
beb93e96 
be822f98 
be2e548c 
be1785f4 
bdd62368 
be012f26 
bd1a07a6 
3db39b9b 
3d6485ba 
bdb7bd07 
3d348057 
bc6eb80f 
3d19f078 
bdd993f8 
bd049cff 
3948b00a 
3b70fcc9 
be0d1704 
be514d66 
bde76cef 
be666690 
3e9e3852 
3e8e0e0a 
3ccd09fc 
bb100234 
3cfd522a 
3d952e58 
3d4425a2 
3e8af2d0 
3e08eb74 
3d0f272d 
bd93ed22 
bda171e6 
bdf84764 
3c1204aa 
3d05e470 
3bac6508 
3c044807 
3e13663c 
3e25270f 
be754d0d 
bec3aeca 
be8b3dec 
be663018 
bd209f8f 
3dbce3b2 
3c30f390 
bcf38630 
bdbdd30d 
3e866af7 
bd905bc4 
be1d38ce 
be7b9182 
bdedf43e 
bda0e408 
bdc07854 
bc76cb46 
bdaa3575 
bd7e3ffe 
3d3fc119 
be2c2c34 
bd2af2b0 
bda2a690 
b7ca1a11 
bd7ecfd0 
3cc2936b 
3dd3964f 
3e0c6c6d 
be8041ca 
3ded770b 
3e48306a 
3df142ef 
bd1e2d3f 
3eaa4fc0 
3eb22b82 
3def8353 
be84fbb8 
3e0338f8 
3cb854c2 
bca2cdd1 
3ddaf5a2 
3e2c749d 
bd93c613 
3da0b994 
3e17e679 
3c4e814c 
bd68d65e 
bbdb775b 
be2cfbca 
be4fc0a0 
be71c7c3 
3c289cfd 
bdacc2db 
3d063a8b 
3dfffdd8 
be16b0f8 
be5f36fd 
3d9874cc 
3e6dc796 
3eccda47 
3e20f728 
3d4d6aba 
3e766617 
3e452fc1 
bc1c8ff5 
3eb0b51d 
3e4c20bf 
3d4de9a4 
3e36c457 
3dbc7042 
3dd23ac7 
bc37e749 
3d820d9e 
3c154166 
3cb4e09b 
3e18c97a 
3d812958 
3d17615c 
be81d2a1 
3ada2e88 
bc82befb 
bc15d6c9 
be199360 
bd0d779c 
be2cdffd 
bed49c0f 
bd7cbbea 
3e5036a0 
3e43fe93 
3e24ec79 
3eaf7679 
3e853b88 
3ea61f11 
3e72b518 
3eae00c7 
3db5d83d 
3e25d9af 
3e0515f9 
3e386290 
3dde593d 
3d9abd9f 
3d3e2f60 
3d50e968 
3d7af7ff 
bdab66c9 
be3ecfc4 
bea78499 
bc0f3d6f 
3ba1a8d6 
bc105030 
be46cdaa 
bdb86f82 
bd3c23da 
be266836 
beb430e0 
bd1a41f4 
be87faee 
3cc96af4 
3ea884dd 
3ec0b14d 
3e8bbe97 
3e5a3905 
3def3873 
3de67b28 
3d85dd5f 
3d477107 
3e2bf8e1 
3de853e4 
3d8891a6 
3dced06d 
3d322953 
3d91ab96 
3ca0e317 
be138644 
beb10e10 
bcb07c0f 
3da8389a 
be2c9c63 
be1ac80a 
bd7f52a6 
be7bca05 
be447fc7 
bd4b6acf 
bc3ab63c 
bf009b86 
be41e7a2 
bd2026e8 
3e31c1bd 
3e330ac9 
3d98da42 
3e30f83d 
3e03115c 
3d73e32f 
3db84f21 
3e0f9370 
3e06b25a 
3de578ab 
3e165d42 
3e59ca08 
3db8b68d 
3d6d069a 
bdf592e5 
be6b4692 
bd0767d9 
bbd86ef5 
bd23f0b9 
3d7a7ae7 
3d0e7675 
3dd705fc 
be375bb1 
bded3560 
be3d2a02 
bf20ccc3 
be9878db 
3cc61383 
3d31f2e1 
3d540e19 
bd58a891 
3e3f11e9 
bb2cfbd4 
3e32e369 
3c11a830 
3dd12473 
3d332571 
3da1096b 
3e0a24e5 
3e312852 
3e163ee1 
bbc8eb71 
be12ef4e 
be8775dd 
bc0b9d5a 
ba13c98d 
3d87183f 
3d88d11c 
be38f651 
3d0832db 
bdbec31f 
bea9ebc0 
bf076996 
bec49d6d 
be723834 
bd95f46b 
bd4f4a9b 
bdd37fd1 
bd4ad8e9 
3d691355 
bd5d9cc7 
3d960f77 
3d4aa086 
3db5932c 
3c468199 
3d538858 
bd1c015a 
3dcf811a 
3c9ad8fc 
bd06d565 
be1bb5e5 
beb56333 
3cd1f185 
bdd3c2ff 
3d0181b8 
be0f1a46 
3dc32602 
3dddbedb 
3e1adffa 
be499bec 
be6a7d14 
be3da91a 
be671c5a 
be6c1bdb 
be9adfc7 
bdbb482a 
3d8b4686 
bd64d77c 
3d58300d 
bc019fa5 
3c6d0c51 
3db65380 
bbcebc43 
3e0890de 
3e088a90 
3e353aac 
3bce18cb 
3df4909f 
be126125 
be97af88 
bc178bb6 
bc4fbf7e 
3d1fe634 
bcf0043c 
3e1f3372 
3e1242be 
bc2b1498 
be469eb0 
be45e361 
bd2b58e6 
be46c706 
be808e14 
be21544b 
3d9c702f 
bc7d16f6 
3d228e5e 
3dfb3844 
3ddb740b 
3d8734d9 
3d14a999 
3c578d23 
bc2e0144 
3cfe19ff 
3d9b7c27 
3e1cda79 
3d9cd83f 
3da3943e 
be077572 
3cd136d1 
3db746c6 
3db425f8 
3d83ecb1 
3e5d4e6f 
3e102a60 
3d16bb4b 
bea1fabc 
be182d64 
3d86beba 
be4818c0 
be7875f4 
bde853cb 
3dc528fc 
3bc91248 
3e1492f0 
3d05dbe8 
3c3a24a3 
3d99beec 
bbbde761 
3c8c5a7c 
3dac7a9e 
3c1af21b 
3e097e09 
3e036e2d 
bd6baad6 
3c82393d 
be2979d2 
3d8ffaf2 
3dd7392a 
be1774b8 
bd32ace4 
3e464493 
3e3f9348 
3d7c973f 
3ccf64d8 
bdb26e76 
3b2e008e 
bdcb7968 
bdfc64df 
bdd02baa 
3de0782a 
3e1c5f58 
3e01b08f 
3d59f12a 
3d8c0789 
3d781552 
bc6403ab 
3d9d597f 
3d915eae 
3d5f5cd3 
bc8d5d58 
3cfebb2d 
3dc27e8f 
3d010401 
3d47f82c 
3cb3cf04 
3d53e1ed 
bd9340d8 
bd61c4e7 
3e41862d 
3e1ebb2e 
3dfd9a8e 
3c3e17b6 
3b8b9751 
be271b79 
bd0fbfd0 
b9c7e339 
bda75dd3 
3da5b0ce 
3e58465a 
3e34da3f 
3d434cce 
3d7fb63f 
baf68a15 
3bdee3a0 
3c9cb8cc 
3cf390d8 
3dbc6785 
bd6d9771 
bce2cefa 
be22ec2d 
be1ddd49 
3dcac058 
3d3df7a4 
3bba4ab1 
bdce25f1 
3e7cab1c 
3e2fd9ea 
3d1b5667 
3e66ae66 
bd2cf91f 
bdd09694 
bd780383 
3e0fcdc6 
3e1c31cf 
3dc27b32 
3e805888 
3e891b82 
3ded5f82 
3dfcadce 
3e03eb09 
3c52de30 
ba4aeda1 
3db264c1 
3cc114b3 
bd0f3861 
bdb51af4 
be646312 
bd89bf6d 
3d37867a 
bde3a28b 
3d148b27 
bdb2410a 
3d9057e2 
3e820761 
3e275fa9 
3e1c28f2 
3e041f0a 
be632c54 
beaaa698 
be1f32d7 
3e221fc8 
3d054965 
bd724b2e 
3e929182 
3d2c6879 
3e3fc72c 
3e3ddca2 
3e0cb361 
3d9f2e41 
3de1d71c 
bb0f23e6 
bcafa4e9 
bd49a1d7 
be4d60b7 
be57d8ad 
bde40d14 
3d894b76 
3d4f11db 
bcc08b53 
bd18538e 
3e1ead4c 
3e6a3570 
3e9c7dab 
3df9e17d 
bdf3e90d 
bec3ac96 
bf0e3af5 
bddaa444 
bc7b9d38 
bd239998 
3b199a60 
3db1770a 
3dd7552b 
3e2c19f7 
3da59c21 
3d1ef667 
3e18293e 
3e4dc927 
3e002eaa 
3c20781b 
bd785be1 
be04c203 
be5994e5 
bda35ad1 
3cf8a453 
3defa769 
3dbc6b01 
3df2da34 
3deb633f 
3e18c849 
bd0256ff 
be66f709 
bed28e07 
bec1aad8 
be874359 
be078be5 
be226e0f 
bc65cb34 
bd82a475 
bd2fb4d1 
3d9a879a 
3e63ccbf 
3e37089e 
3e3d43bf 
3d73b761 
3c9a592a 
bd25df19 
bdcaf7bc 
be872d03 
be4e8e4f 
bdcc26b1 
bd1c55a7 
bb673ceb 
3b1559c7 
bd05ee03 
bd642b4f 
3da636f5 
3e05241a 
bdcf207e 
bc2e1484 
bebdf4f3 
bea16d0a 
be6b2786 
be54daff 
bd0ad7f2 
be231ee2 
bdfc7371 
3cd1c664 
3dbad38b 
3e1335f4 
3dfff8c3 
3ddaaa76 
3d46a8ba 
bd275bfd 
3c947fef 
bdb86388 
be6b37e4 
bd5e7fb8 
bdb5f16e 
bd220b94 
3de72150 
bd2fe0c4 
3c6065be 
3d0e2220 
bd1f71f2 
bb9d62a0 
3e34dcb6 
3abfe739 
be51f170 
be136f4e 
be136c32 
bdc9f6ee 
3d7448e6 
bcb4492d 
bceece5c 
3d5ad39f 
3dd2c489 
3ddb4baf 
bc44df47 
bdc85994 
bda71623 
bd60da93 
3dd6f1b4 
bde437bc 
ba91b53a 
bda61a3b 
3aa909a2 
bd125248 
bd757f41 
3d67c114 
bdbdbce5 
3dd23100 
bda14b55 
3d0d0cdc 
bd517e3b 
bd90c02f 
bd339081 
bd8475b6 
bd467f9a 
bd1b373e 
bdb70d76 
3aabc827 
bc426144 
bd74c403 
3b8fe48c 
bd00d322 
bc8cbf88 
be1bfd51 
be55b430 
bdc14db7 
bd965f1b 
be50f491 
be02eccd 
bd24a08f 
bd792563 
bd022805 
bd89be56 
3e1a071a 
3db2f23b 
bd4a6efa 
bd8f00ad 
3e139c65 
3db8feae 
3e1575bd 
3d3f528f 
3e1cd72f 
3e4677cb 
bd7dc63d 
3e3d726f 
3defdc67 
3dd486e9 
3d7d4b3a 
3c0b588c 
bd4fcc1e 
bdceeec1 
bd1a1563 
3c8c4650 
bdf2052c 
bd914932 
bde17d0c 
3de181ec 
bd086f78 
bd7cef61 
bd81a716 
3d64d620 
3db15131 
3c7156e0 
3d5e460d 
bcd53973 
3e8851ca 
3e48a76f 
bdfdd3cb 
3e2e5b15 
3e28bcb5 
3d8fd66f 
3d8ddac8 
3d91f645 
3e11c4ab 
bdc69624 
bbcc5b64 
bc513211 
bcdf473d 
bd6d5177 
bda91e07 
bd7871eb 
bd7e4982 
bd59cfa7 
bd93e469 
be24fdae 
bdd583c7 
be0913b5 
bd1617ca 
3d8099ce 
3dc44316 
bd60df11 
3d2bcf43 
bde51eff 
bdf75ca2 
be3d60bb 
3c016b25 
3dd40d71 
3e46aa3d 
bca3823b 
3d8f5b83 
3da19eff 
3ccac741 
bdbf7d0a 
3d2d5225 
bda6d590 
bc458557 
bd4772fc 
bd203fb2 
bd8cfac5 
bd32dcc1 
3db22c85 
3d7ae884 
3e17f95a 
3d6e9438 
bea388f2 
be6cb5cf 
3e13e708 
3df09ee2 
bdcdffc0 
bdbc1f27 
be1f2871 
bcae42ef 
3de52a0a 
bd2d6ceb 
3e2febf0 
3ceb0236 
38e9d2b1 
3da75aa3 
3d06c6d7 
bd75625d 
bd8fc168 
bd593c37 
bd477cdb 
3db57ab8 
bd704a03 
3da182d8 
bdd80264 
3c3ae453 
bd9827e0 
be03f71a 
bd8a2c1a 
bd924e15 
bea16517 
be8ac18b 
3e49df71 
3dd3f3b6 
bcd6d8f3 
bd89bb01 
bdae66bc 
3c386a21 
3cfa0b9c 
3d91b460 
bac0a605 
bc91cc5b 
3ce35536 
bc1c15fb 
3c0e1bd1 
3d24fe4a 
be3619d4 
be0e0c8d 
3e0aad3d 
3e057756 
3d0998de 
3db9a428 
3c24265d 
3e5175f9 
bde7e197 
3d9987cb 
3d9e0749 
3b2d59e1 
be33ce62 
bedf571c 
bd8ffd9c 
bcae6cd0 
3da3e684 
bc2d6fd0 
3c22136e 
be70153d 
be692809 
bd8b1a29 
be1579f3 
be61e6cc 
bcc64c55 
3cd9383b 
3dfb236b 
3ca785a0 
be8299b4 
be051e8a 
3da09454 
3db6aa15 
3d37ce1e 
bdcf74c4 
be6aa356 
3c1d39eb 
3d54a906 
3db0075c 
3d8d87b2 
3e81757f 
3d6d3376 
be98b186 
be809f42 
3c33b088 
3c8965ba 
bd4195ba 
be104c40 
bd3e30e2 
bcd397ab 
bd3f1f75 
bd7047e8 
3d70ab1d 
3e0bfaec 
bd97bfec 
3d859765 
3de57f89 
bea39742 
be8315ab 
bdbb8b2e 
3e2ac386 
3e4377f4 
bdab1afd 
beba7511 
bf158418 
befa1d95 
bef5d220 
bebc4230 
be90a80e 
be91211a 
beb7d1a5 
be68a953 
3d45358e 
bb539715 
3c7d5eca 
3ca1e084 
3d308b27 
bd61c45b 
3c6d2b82 
bbe3d18b 
3d3d275d 
bb784f5f 
b800e582 
3cf28598 
3d05ab42 
3cb9740c 
bda14782 
bd376dfc 
bd8fd782 
bd396906 
3d3b3e8f 
bcc431d7 
3d93e6f6 
3cb5de83 
3db86c26 
bcb33dbb 
3c7e6018 
bd35d187 
3d5e34f8 
bd28a700 
bc7e3483 
3d7bd98f 
bdc13724 
3b29474b 
3c9cd6e7 
bd43c978 
3d1c04b3 
bcd4329e 
bd294874 
bd61c20a 
3dd2f913 
bdc5f8e5 
3d6268b5 
bd8e080e 
bd00dabe 
3ca4f8d0 
3c1727e5 
bd080b7b 
bcb95eb3 
3d957233 
bd3196c0 
3d89b9de 
393b09cf 
bd100f1e 
bcef004f 
bdb57ca3 
3b03c113 
bcd3426c 
3c045c28 
3c4d7c6f 
3c0ef9a8 
3c616fba 
bc1ed6aa 
3c0f0f29 
bcc896c9 
bce4b66c 
bd69490b 
be1308c8 
3dd5a4b8 
3e87c194 
3e6fc527 
3ebd821e 
3dfb8eda 
be106bd0 
be9e5fc5 
bec98ec7 
bd50d706 
3df7e97d 
bce787b8 
be4a5934 
bdd836a4 
3e4a2075 
bd137d43 
bda3c4a4 
3a453bd5 
be247c2f 
3b473c13 
3dcb556c 
3d0b0ef7 
3c2b29c3 
3d013130 
bdb809b4 
be10c4ea 
be8bce21 
be8ec813 
3d26da29 
3e61ce34 
3e969182 
3e2bc759 
bc8efe3c 
be4bdcd2 
bea579a7 
be9580f7 
bdca84e0 
bc5b0b06 
be6d84ec 
be70558e 
bddeff3e 
3db816d2 
3dfd337f 
be309502 
bd4d05c2 
be2a0614 
bd6af6e5 
bd09128d 
3e01477b 
3e1f303f 
3e7b7650 
3d54d15d 
bdb031cf 
bea59672 
be76c122 
be5b9eab 
bbc9f7eb 
bd913eb0 
bd120acb 
bd5366c9 
be3581d1 
bce09095 
3d0393e0 
be159462 
3d1efce1 
ba4e66b3 
3d85ede2 
be09c103 
bdf904ce 
bc05fe21 
3dc0d991 
bccf1add 
be002526 
be440f11 
be74e78d 
beb35881 
3e403c12 
3df9e267 
bdf9589a 
be7ec909 
bebbcf5d 
be391669 
be552089 
be87aa65 
becee13e 
be017f39 
bd0453e7 
bcf0aed7 
bdeae39a 
3e741f21 
3e40328b 
bd00429b 
be36a57c 
bdbd8b1b 
bdbffc3e 
bca92a29 
3d26cc73 
bdb9fd89 
be12e97d 
bd26e5c3 
bdceeb39 
be4ff5bc 
be18fab4 
be438c54 
3e289811 
bd02058d 
3e9e90ed 
3e83b64c 
3d8c0fe3 
3d9a77d3 
bd7fb3eb 
bdc2552e 
bd603de2 
bdb60bb4 
be132efb 
be09b954 
3c606937 
3dbd61f1 
3ca5473e 
3c2e8906 
be95878c 
be296777 
3bce7b2a 
be042b73 
3d6e2b9e 
3d3dd24a 
3cb2c99a 
bd89a218 
bba9daa4 
be290f5e 
bde34a83 
be954c07 
3d15efb4 
bc235720 
3e79c258 
3e96f883 
3dafe1f6 
3cf8658f 
be0c570e 
bd768acf 
bdb05a37 
bd26cc50 
bc032fe0 
bdc9a89c 
3d3e5c69 
3deb3e1e 
3dbd6479 
bbfc066c 
bb81fa61 
3d171719 
bd92417e 
bdf31b8d 
3d4cf150 
bd6b1550 
bdd0812e 
be15439d 
be2508b8 
be2eb0ee 
bdf255aa 
bea5bf7c 
be19c6a8 
be73fb76 
be829eaf 
bca9ea24 
bdc42bca 
bd4ac4e2 
be2c2cf8 
bde002fc 
be0f05cb 
bdd9e6c6 
bdcd1924 
3c15f402 
3de5cc38 
3db56969 
be3e1075 
3cea633e 
bca36d4c 
bdd420fb 
be857624 
be095cf8 
ba40d8b2 
3e06b91e 
3cb1ac75 
bdc8ce27 
bdda8970 
bd989189 
be72161e 
be899bd8 
be81bc1b 
be806a09 
bf0ebb28 
bec3c02a 
be6250c9 
bbef0c8d 
bd2e14ba 
bcfde1d7 
bd1d0b71 
bdb20fc8 
bd6b5c25 
bbd91a9d 
3e2e828f 
bd3186ff 
bd770a4b 
3ca86130 
be385bfc 
be91a167 
be800627 
be1f4cbd 
3d3811e1 
3d57c6c7 
3bdcba4b 
3cfdfbdc 
3da66842 
bdc02a72 
be1f0e77 
be87ab37 
3d918dbc 
3d5ab41d 
bf06961a 
bec3fae6 
bcdb708e 
3e09772a 
3e3b01a6 
3e4b2821 
3e624a75 
3dbb1ab7 
3e1c618b 
3db2b0b6 
3d6039d5 
3c89fee5 
bd80237c 
bd98243f 
be106258 
bddf6179 
be273121 
bdd91cb0 
bd3de223 
bba29915 
bd58a392 
3e0147df 
3dc99a5e 
bd3e2ef3 
bdb06b52 
be229341 
3d5dc153 
3e321e7f 
bead4fc6 
becc5c0d 
bdc8520f 
3c20b874 
3d86f6e9 
3ca4b42c 
3d745aa8 
3cb4f276 
3d085d26 
3d2ec001 
bc83b141 
bdd7375a 
bee2d743 
bbc0537c 
be63e3cf 
beca910a 
be5c182f 
bddee39e 
3c4e0afd 
3d912536 
3d5c8bd5 
3df13433 
3da5a239 
3cd64093 
3cdc70f5 
bcd58d56 
3e68a1c5 
3dfc9348 
be5e2b48 
bbc2bba3 
3c5ed43f 
bd6e9f44 
be27088f 
3ceba9b7 
bd952403 
3e5ea29a 
3e3a124c 
3e2593f0 
3e32ecc6 
be130ce6 
be6fd590 
bcbf239b 
bea08446 
be5f3097 
bd1e2c33 
3d5f65f6 
3c34400e 
3d8dd047 
3d5109c5 
3d96c2cb 
3da6b637 
3d291ef4 
bd39c213 
3cf61a2f 
3ddd348d 
bd93b57f 
be877d71 
3d10570e 
3dbf63e6 
3d90a0ba 
3e036fdb 
bd43b7d7 
3b87ab79 
3e28c9be 
3e0a0690 
3e5bc65f 
3df26632 
3c53b11b 
3d95bdff 
3e276d75 
bdd3c41c 
bc2cf625 
bd9dba2a 
bd136902 
bdc25d8a 
3d1c31bf 
bb1a0aa2 
3d76efcb 
bda808a8 
be4b0d03 
be90fba5 
be735037 
bdf318a6 
be6eb2ae 
3dce2ac4 
3c0cd814 
3e56e161 
3e65ab1e 
3db261e7 
3d05c212 
3ddaa227 
3e425fb7 
3e3763f0 
3e04db10 
3d38a47a 
bdce805d 
3ddc0551 
3e1aa3db 
be0e337b 
be0ddf8b 
bd87226f 
3bcb0848 
3d17db35 
3c5bb628 
3e54615d 
3e02f407 
3de3d4c9 
3dea167d 
3e4d0e15 
3e0acfc9 
bdc2303b 
3e592e86 
3e97cbeb 
3ed007a9 
3e76fc58 
3e194eb2 
3e1e41ab 
3d3e3933 
3e4fb670 
3e77919a 
3e310c25 
3e12d65a 
bc8736a2 
beabe820 
3d0968d5 
3cd0301d 
bdc8a374 
be013d0e 
bdf88c82 
bd842d8d 
bdfbca4e 
3e08fba4 
3e8acac6 
3da102c8 
3e0af111 
3e731e37 
3da7f629 
3e11192b 
3e15a0fa 
3e2f8a08 
3e1dbc72 
3dbc8e09 
bd27f7db 
be300594 
3ba79fac 
3dc3feec 
3e153214 
3e562b57 
3e2474e7 
3d8ba705 
bcf92452 
3ea0719e 
3e46658e 
3b68fe81 
bd2a302e 
be40c110 
be3dac28 
be2cb517 
bdd58a3d 
bcb4c2a1 
3d93ef26 
bdf90faa 
3e1a2122 
3d5aa8d1 
3e9b7e9a 
3e573bd9 
3e7e7e61 
bc58b4b4 
3c31719a 
bd5024bf 
bcf7f84c 
3dfb2f3d 
3de610aa 
3e1a7543 
3e530556 
3e33620e 
3d494f33 
bd3b3e80 
3e554796 
3e5228d7 
3e05943a 
3db05eee 
bde542c3 
bebeba46 
be96f763 
bc687ba5 
bd7e93e2 
3e225c46 
3e1db0fd 
3e36e6f2 
3dd3b8f8 
3ccc70c2 
3e27756b 
bec4a7bb 
3df4767c 
bda05a55 
bd4f4481 
3def16b1 
3d4b70dc 
3bcd11f9 
3daf85e9 
3ded566f 
3e4e834a 
bc2eb8b6 
be210fd0 
bda6d6e7 
3e9fba8e 
3e0f8ac2 
3e3d0510 
3e1318c4 
bd336738 
bdff42a8 
bc9285aa 
3cd7f4cb 
3dcd2917 
3e194fcb 
3dfe78bc 
bd5241b7 
bddcebbb 
be56ce93 
bd493dee 
be1cf00d 
3e005135 
bd99c743 
be330d8e 
3e5599ac 
3d8ca824 
bce89219 
bb7572fc 
3ded4dcb 
3da104d3 
3d3b2fe7 
bdd1a475 
bdd4c905 
bc98c21b 
3c494220 
bd27073a 
be2383f7 
be4766c9 
be4af33e 
bd45fad2 
bdf8c219 
be09e7ba 
bdb22116 
bd2ecb02 
be1298e3 
be007629 
bcc5690a 
bc963d96 
3e10880c 
3e6a04eb 
be1018c9 
bebaf530 
bd0132fe 
3e591d73 
3e93c58f 
3e9f4fd9 
3e0d54dd 
3db9de4f 
3dc45b67 
3c08707a 
3d55699c 
3dba4c5a 
bdd5392d 
bdb74644 
3cef647a 
bd39d267 
bce256d3 
3d93309e 
bd425a0c 
bced7c3d 
3ddb8391 
3df3a1ec 
3dc05d51 
3d41c348 
bd8efeca 
bda9f479 
3d809ee4 
3e260867 
be1362cc 
bd98b7b9 
be10528d 
bdb947f2 
bdc69081 
bca40cf0 
3d3db307 
3ded174f 
3e179804 
3deec41e 
bd3f2b51 
bd85eab7 
bd8c7fd6 
bd80d3a2 
bc5e4ef6 
bcf929e1 
3d60c0d1 
3ce572f0 
3d33fe33 
bd02738a 
3d42316b 
3c15c453 
bcd564bc 
bd581330 
3e005ac9 
3d2da163 
39870489 
bdb604a5 
bca60911 
3d6edd29 
bde969b7 
bdc513ab 
3db75f79 
bc46b13c 
bcef2bfd 
39d12359 
3dfea073 
bd8e636b 
bd58afa4 
bd82bd8c 
bcd9f22c 
3cca0cf0 
3b58f684 
bd1bd649 
3bf35862 
3d8c8345 
bce21520 
bc70dfd8 
3c9f931e 
3d5aaeef 
3d83ff6f 
3cb9e507 
3d539225 
3d998b1f 
3dcd0311 
be9b59f0 
bdf3b04f 
bcf6f376 
bda20917 
3e1b8f11 
3db5cd64 
3c60a915 
baa2d078 
3c744531 
3c9c7d81 
3d2cedbf 
bcdf6490 
bd8efc69 
bd85078b 
3dd2bee4 
3d1155b3 
bc1b3026 
3e04c330 
bc963e29 
3d1bf69c 
bc788b9d 
bdbe060b 
bdb16d44 
bdaa588e 
be3f41bd 
3bcfcb02 
3e35a503 
3e2712c1 
be7950bc 
be85b41d 
be0d16b5 
bbc44d66 
3d8ddbc0 
bd6d2d8c 
3d4faac1 
bd849a37 
3d1aaa66 
3ab29014 
3e17c8af 
3dcec9d8 
bd80862f 
bd77a40d 
3cc7ac9f 
3ca0f5d6 
3de6782b 
3da6293d 
3bfcbbbb 
3e0f7e78 
3d4e8121 
bc3abe88 
bcbe78f2 
3b46f8df 
be7bb329 
bd353f4e 
3e50cb15 
3e4f1a1a 
3d8cc324 
be064434 
beb29e4f 
bea1cae4 
be08b21e 
bd9a3d9b 
bdc0c5c1 
be49a9cb 
3da01ea4 
bc879996 
bca15a0f 
3d2db25d 
3dc5e4d3 
bd5b4fef 
3c223522 
bd666e0f 
3d607a0c 
3d100f4b 
bc4f1108 
3db58900 
bcaf5715 
3c1afda3 
3dc0be22 
bd45810b 
be60ec17 
be6ebfb6 
bcf9d964 
3e0ef4fd 
bd1a91f6 
be26d53e 
beb7a694 
be7a3fe4 
be6e634d 
be750fbc 
be213ea4 
bda5e459 
3d8425a0 
bca2cfde 
bd5c229b 
3d1afb02 
3e158a1d 
3cbe1156 
3b05bef9 
3d0055d9 
bdce35fb 
bd79fa35 
3d086987 
3b49f613 
3dcb46e8 
3de5b63d 
bd352f09 
be225fb0 
be929605 
be9f6daf 
be4f77c6 
3d4ab989 
bc3cab5a 
bd49f89c 
bdeb9ffc 
be5a1c0e 
bdd5c65a 
be60d24f 
bc54bf53 
3df962f1 
3db1ca3f 
bc73e154 
be0ddbb0 
3c1ff0da 
3cec017e 
bd39915e 
3d1eeb7f 
3d2a89bf 
bcd7a90a 
be55a418 
bf029f44 
bf13de91 
bf065a13 
bec53b94 
bea7a522 
be9aa586 
be96052e 
bea41995 
be68c6a8 
3ba6af6e 
bd80ea45 
bc983ffe 
bdc34e5a 
3bdf5fe6 
bdb7190c 
bd9a48ad 
be1c116d 
be66e230 
be4a93a3 
be33b743 
bea1a66c 
3e30585e 
3d9a9c2e 
3e90d352 
3e840156 
3e0b760a 
bcdc8615 
3c840f84 
3c851f0f 
3df7ad23 
3dd19b62 
3e64becb 
3e17b2c4 
be420ec0 
bdf9a0de 
be188fd9 
be65b891 
3cd05015 
3df9831e 
bc8322d5 
be6928f6 
be848184 
beccc919 
bee1b699 
be95b012 
bdf0ca0b 
be58ba7b 
be83107b 
be3bfb8a 
be61a0f8 
3ca5b3b4 
3d90abc5 
3d6e5aec 
be122028 
bd723bdd 
bd4daff0 
bc0dc61b 
3d506c54 
bc21be61 
bde865b3 
bdc49dfe 
be12bf0f 
bde47b96 
be1c5264 
bd8e37ef 
bbb2cf89 
3e7e1613 
3dd700e0 
3e2d78dd 
3e27fc5a 
3d05f469 
bcbf10eb 
3e5414e1 
bd340f35 
3df1d58f 
3cbfcaf4 
3daf9cc9 
bb82f20f 
bbf80b63 
bd8a0cdc 
bd7145a0 
bdfe9778 
be07f898 
be026fd2 
be0e8939 
bd9b8c68 
bc452b3b 
3d25f61a 
bd7809da 
bdc1daf6 
bd0b1ed2 
be5c4fea 
be8289c6 
be499b96 
3d907f03 
3d7fe4e7 
3e5d4f54 
3eabb66a 
3eb10b12 
3e801740 
3dfaed71 
3b3a1e30 
3da6a981 
3e5a4418 
3e08b850 
3dc960eb 
bd3e38eb 
bd832b6c 
bbf8bc3b 
bd4c58c8 
bd8749e4 
bd8928bc 
bddb3840 
bd9bccaa 
3da19df4 
bd4983d3 
3dc9fac7 
3cb62287 
3d91e72a 
bd862d79 
be2bb7cb 
be0fa340 
3cff2f1d 
bd849949 
3d247144 
3e027277 
3ea5e336 
3e790600 
3e02c39d 
bbed0128 
3c01c857 
3d8e77e0 
3d926743 
bbf03599 
bda2f71d 
be56dc90 
bce163f6 
bdda8c88 
bd3958ab 
be2ac3ff 
be13efe3 
bd945512 
3ccfbf8c 
bd19bafe 
3d3ac159 
bdb13389 
3d94e471 
bd4942f7 
be06a672 
be31fb37 
bd5fc9e3 
bea1eca2 
bdeb2437 
3c18a2cb 
3d756dfa 
3e597abe 
3d6b783c 
bc35d2a2 
3b5e82a0 
bb2ffe0a 
3d8a347f 
3dff9bf7 
bd4a5fcc 
bdb3e14b 
be24f9ca 
bdefe2f2 
bdeafb17 
be264480 
bd7711b6 
3d14db0d 
bd32c4e4 
b9fa9eac 
3cff707d 
bd0f0bcc 
bdad44e4 
be3c3c6d 
be70b55d 
be92b2c7 
be1aa003 
be4ea0e8 
be6f2729 
be28165e 
be0ff4b1 
bd68f757 
3e009348 
3da43dac 
bce138fd 
bcdc9725 
bd0dbcb7 
bd1a4044 
bdd6958e 
bdea750c 
be24aac9 
be5b5428 
be000bd7 
bd91635d 
3d520703 
3dcda134 
b9b2ebf8 
bb3d2af6 
bb1b9539 
bd6e7028 
bdbed352 
bdb57f79 
beabf4fe 
be981de7 
be3ad090 
bdb8594f 
be30325a 
be2f4ff9 
be59d0c9 
bdb5e94e 
3daacef5 
3e281e08 
3e0a9493 
3c156d6c 
be2ea946 
bd57f552 
be0b1d66 
bd55c281 
bdba019e 
be297ac3 
bdc2bbf4 
bd160179 
3c5e1022 
3ca83c85 
bc4feb09 
bc67e1b4 
bd07c535 
be04bc26 
be353ed7 
bdf2613b 
be67e404 
be4fc324 
bd30cae3 
bd10e685 
be97bdfd 
3d3510c5 
be5b73c0 
bd8b5d7e 
3d924884 
3d9fff05 
3e0a8897 
bc1e2db3 
bdb3b99b 
be1f43bb 
bddd951c 
bd101446 
be1193d5 
bd99ac3e 
bbb6de5d 
bc6e9c0c 
bd2f38a9 
be1a6cd7 
3d1257bf 
bdc092c3 
bde25dd2 
be73c1b4 
beb1b4a6 
bec6749d 
bec05c3c 
bd9688a1 
3e50f459 
3d819179 
be7122ac 
be949d1d 
be3c635e 
bdd54f82 
bca726cf 
3cb0efa2 
3d9b4016 
3d3c8fe0 
bdc5416f 
be024e6a 
be22db28 
be5e6a6c 
be2064f5 
bdad2e6f 
3d8f6680 
bcab8f12 
be6c3f82 
bde0612b 
3d49b1da 
bdac57c1 
3c4c9d4b 
bda60b94 
be43af75 
be38214c 
be34f2d7 
bde5b87b 
3e51762e 
3cae6b5c 
bed59d3b 
be9b31e9 
be743d73 
be161219 
be2d532a 
bdc65623 
be253dc7 
be100433 
bda8729c 
bdff523d 
be42e3f9 
be3e29da 
bd51fcb0 
3d84a7d7 
3cec75f9 
bde075f6 
be60b03d 
bdd80a78 
3c277611 
3dbb0bad 
3ca28708 
3da2ed58 
3dfb5f5c 
3d98f848 
3b5c709d 
be022967 
3e1d0cb2 
3d2fa1e6 
bdc28435 
3d89d829 
bd1af10a 
be6357a2 
bda5ea74 
be34f43f 
bdcb2a91 
bd6cfcf9 
be1bd9fd 
be2156e0 
be12b466 
bd954d63 
bccef2eb 
bcf97c14 
bc7a5e97 
be2ef142 
be8dde24 
be6398e0 
be2b87f4 
3d7358a1 
bdb13712 
3c1d1731 
bbb37de0 
bcff2e80 
bdd030e4 
be81c432 
3df81964 
3dd22faf 
bc73ea41 
3e576037 
3d9f4ac4 
bc7b31ef 
bcef2f73 
be38e959 
3d801cf3 
bc26c570 
be4d30d4 
be73c927 
be2341dc 
bd39fc23 
be354148 
bd3ffe30 
3d76e8aa 
bd8a8ea4 
be21c2cb 
be54699a 
bd7cbc4f 
bccd26fc 
bd944a3f 
bc07897d 
bd699066 
bcec7d37 
3dcdede2 
3e49e13c 
3e850cb7 
3d9ce2e5 
3de263eb 
3d928299 
bd7e29e8 
bdceffee 
bf058d04 
be1cb44f 
bdd80ee7 
bc428554 
be4fbd76 
be586fe8 
bdc4e65a 
bddb25da 
bdddd5cd 
3d9df4a1 
3c92ad49 
bd9788a4 
be370b3c 
bdfa9e31 
bd0550c1 
bc5accd2 
3caa2a51 
bdb4267d 
be1e953a 
3c35e51c 
3e17876a 
3e32087a 
3e2a16ce 
bc220dc4 
3e0444c7 
3e133687 
be1a3867 
be822685 
bec4597c 
be194da0 
3c92b8be 
bd33b34d 
bd59102a 
be5ab8dd 
bd737afe 
bd972060 
bda2d0cc 
bd547be5 
bcaab895 
bd1b9fa0 
3ca4bf38 
bda2248f 
bd5cde8f 
be859a87 
be1fc3b3 
bdce71ba 
bcc67a96 
3e9feef0 
3e4f44e4 
be08d6a5 
3e04641c 
3d3f4168 
3c8add2d 
bd1a29c2 
bd9f956d 
bdeae429 
bdbb4f97 
bddf7c29 
3d076187 
bd5df25b 
be23fcc6 
be8bfaa1 
be4b645b 
be869d48 
bde9dbce 
bcb44472 
bcda6cb5 
bd043327 
3d67e9f5 
3dbcee27 
bc198d68 
bd131721 
bd5923fd 
3d32c220 
3d26549f 
3d71f286 
3d901d62 
3d967d9b 
3d4bbc49 
3ce518ab 
be31c006 
bb7d09ce 
bdb263f0 
bd5f242f 
bd9bca9b 
bde39a18 
bd97dc0e 
bdb0e77e 
be34e0cf 
be62f011 
bef26ed3 
bea025e8 
bdec571e 
3c02edc9 
bcc5d1a8 
bd08b110 
3debd71d 
3dcac633 
3ca168ff 
3e6a5055 
bd4b4e9e 
3ccef2bf 
bd572792 
bdc1f6c1 
3ccb77b1 
3e2e17eb 
3d0e4472 
bd7ec2e6 
bf02d1e1 
bee8bcc3 
be33c743 
bea6ee28 
be555df9 
bc1d0ca3 
3df6ecab 
bd26f5c8 
bcf7bbc8 
beadf5ce 
bec54eb1 
be98aa66 
bdd93158 
3e119d09 
3c4d388c 
3d7d9fd1 
3ddf8e9b 
3e174358 
3dc90d3d 
3d3c63d4 
bc619158 
bdbe8631 
3c589504 
3ce85dc2 
3db59db8 
3d0f5ec0 
3df2533f 
bccc20b3 
bc970eb8 
bec3df63 
bea697e2 
be3fea32 
bd71312c 
3d3df922 
3de7a8b3 
3d3407bc 
be125595 
be826079 
bea02a47 
be8bf6f0 
bcf0e220 
3e279aed 
3dd588a5 
3dd8ae0e 
3e13945f 
3e08ba7f 
3cb7c3ef 
3d8c4c10 
3c17b5a2 
3e2ceefb 
3d658268 
3c4802fe 
3d794b84 
be9d6a4a 
3e39ba50 
3df8c638 
3dace13a 
be0bbd84 
be1a09fa 
3d99579d 
3dfac107 
3e1738cd 
3e13d754 
bca800c6 
3c56a8de 
bd0640f1 
bd2c4124 
3c0bb9dd 
bd02de30 
3d4dda29 
3e099d57 
3db89522 
3dc95d1f 
3e0d56f1 
3e171bcc 
3d49531d 
3da2ac8d 
3c86e772 
bd86fbdc 
bd13e07d 
be0df94c 
3cd76283 
be8d7482 
be546822 
3dec54e5 
3e4168aa 
bc441935 
3d35bff8 
3e047a60 
3d7d3b9f 
3bddf0d9 
3d513971 
3d387ec7 
3d6e9d36 
3cc260b6 
3d90d1f5 
bdfa9cf4 
3d96c0b8 
bb9b6e7d 
3cbb401c 
3db1448c 
3e12afd5 
3d86a922 
3dbf6dea 
3d0b3f69 
be4a4d5b 
bd7f045c 
bd0851bd 
3db51437 
3e608427 
bdbfe560 
be1a5b6f 
3c2bf501 
3d424cee 
3e605ea0 
3dd2fa05 
3d4b83f4 
3d0c41b2 
3c59383b 
bc46e0f0 
3c2b62d1 
bd8a804b 
bd86d99c 
be124268 
bdc9a2a6 
bd404a2c 
bdb27580 
3d0e2ff2 
3d1fef5c 
ba2073b0 
3e664eb8 
3e0a683d 
bcec6510 
bd1b2274 
3d768322 
3d29313c 
3d208c42 
3e18fe02 
be2eaf9a 
be8d53c9 
be285d86 
bde2d79e 
bd07d040 
3b09d5ec 
bdafc818 
bdfcb267 
bdca9007 
bcf4b6fc 
be438af5 
be50d9be 
be2fd490 
be61428a 
be20af8d 
bdcbe415 
3a9fbc78 
3dbcef0a 
bc6dea06 
3e36d6e5 
3e50f42f 
3e09c76e 
3e0fd955 
3d6bfc65 
bd8a3c36 
3e344c65 
3e19166b 
3cf92f2f 
bb262071 
bce0d038 
be407c27 
bf09c75e 
be876f75 
bebfa4d8 
be56cbcd 
be308368 
be34546e 
bd877cf2 
bd446759 
bd1a4536 
be73b739 
be8e8ed2 
be24e402 
be0b41c8 
3bb3e9bf 
3dd9ed7b 
bdd46f17 
3d123aa0 
3da46484 
3b74ec2f 
3dbe77b7 
bd3f5d8c 
be99f187 
bd96d0cb 
3e47533a 
3e04a936 
be65cad9 
be0d102d 
bdce9616 
be78790c 
be08465a 
be9d33f3 
bdf5a5a1 
3d37fe41 
3dd52607 
bdda3a0c 
be2adb22 
3d6e2471 
3dc1a5fe 
3da8335a 
3dbba47f 
3d93b8b0 
3e06d1fa 
3da52d6b 
3de9e9a4 
ba84911d 
bda05c88 
3d9d4a4e 
bd8988a4 
bdc4f6f2 
be7ee75c 
be35179a 
3e54a476 
3ea60c52 
bd0f2d3f 
be460db9 
bd8837bf 
3e3bab79 
bdd8f5c0 
be348acb 
be1fa635 
3ce3aa88 
3c9fdaed 
be0a82b3 
bd59e0f5 
3e7c79f9 
3ea4be02 
3dc099f4 
bc546dc1 
bdb43826 
3cc04de1 
3d19cc08 
3dc663bd 
3dd1bd98 
3e5df36d 
3ca35a52 
bcc6a854 
bda9f007 
be49380c 
be8ef693 
3ddd7445 
3dcb0304 
3c99f618 
bd7e9e24 
beaea537 
be9a2670 
bec585cb 
beb22382 
be934f2e 
be477c23 
be0f0b24 
bd802e7e 
3e76a7a3 
3e1092fd 
bd9c28f7 
3d1a6da4 
bdf1cd94 
3df1adc1 
bd8b926c 
bdf5eca8 
bdb31dd3 
3e4e58b8 
3e360aa2 
3e127ce8 
3d9d0412 
3e4df327 
be1c274a 
bec726c2 
be4acbed 
bd18a86f 
3d3ead2f 
bcfe8b63 
bda93633 
be8c6e16 
be0de662 
bd9514b8 
3e19dca1 
3e06b3ef 
3d0ea205 
3def728c 
3dde1418 
3d9f3905 
3d90289a 
3e337a06 
3e6a3ba3 
3e00cb19 
3d6533bd 
bdd32ba1 
bf1afb13 
bf616f0f 
bf3f4043 
bf12805e 
bf05bbb9 
be7c92e9 
be877c02 
be964ea9 
bea4b014 
3c528579 
3c4ee2b8 
3c5e932f 
bc60fd0d 
bd4a527a 
bb817993 
3baddc99 
3ce8afbb 
3e2c9963 
bd001e76 
3d4a0598 
3da72ce8 
3eb6ffb9 
3e3cc7b9 
3e556e41 
3d532371 
3d393bba 
3e14f4dc 
3defd5fc 
3d27559f 
bcbfe91e 
be607f4a 
beb3be42 
be685471 
bcf090eb 
3d8a331e 
3e6ef5e6 
3e031814 
3de5cafe 
bd38cca6 
bc10306e 
bc536297 
3d5888d0 
bc8068c2 
bd91b654 
be0a3982 
bdcc70da 
be6d5199 
beb83545 
bdd2f77d 
3e23a62c 
3e534716 
3daf4acd 
bda2218f 
3e38234a 
3e757215 
3e986cb9 
3e63833a 
3e97c518 
3de96666 
be46eea0 
be683de5 
3daa7ec7 
3ea0e619 
3e8460f8 
3e264d90 
bc5f747c 
3d0991f7 
3d2757bc 
bd8407e3 
bd57d0e7 
bdbf3479 
bd2ca45c 
be8d442c 
3da613c1 
3e1fc2a4 
3dd74bac 
bd0eb17e 
3dcc63ca 
3dc71350 
3d809ac6 
be0e399a 
be00ea31 
be0144ce 
3c1ff709 
bdea511d 
3df44f87 
3c997eb5 
3b768544 
bdadcaf3 
bdcb0c13 
3d7ac582 
be0c64e7 
be25abad 
be4221ec 
bc8734d5 
3d2b1ffe 
3cfb27bb 
bd46d782 
be64b8f7 
3e86732b 
3de3a55d 
be4de5b1 
be938336 
bce8898a 
3e2c4fbc 
3c907346 
3e649e20 
3eab8950 
3de528f8 
be4122c2 
bcc1faf9 
bddc85ba 
bced5744 
bde5cbbc 
bd9514d7 
bcfc5e74 
3de66447 
3e15dd47 
3e107682 
bcb5426e 
3d915e01 
3deebd01 
bb82b4b7 
b94f873e 
bd07306b 
bd55a67a 
bd8dfa3d 
3cf7b85e 
3e151af3 
3d851b5a 
be45c678 
be87e400 
bd60e26e 
be909104 
be1893eb 
be04fd90 
be4aa6c7 
be6de742 
bcec0388 
3c07ab45 
bd497602 
3d9bfe1e 
3c097182 
bdc7b87b 
be09c041 
3db2f926 
bb1e0424 
bdff56a1 
bca3cb2b 
3e6af538 
3cdb8c69 
3d43aebb 
ba5aeff8 
3bebec54 
bd5b2fe4 
3ddc9904 
3e747058 
bdbc6a7f 
bdc5da07 
bdb1ecee 
be63c314 
bd4aa011 
be629178 
bcef4d8b 
be13e141 
bdfb9180 
be375850 
bd0bd4c6 
3d802a16 
3d180b38 
be1e3c0f 
bdd0eec5 
bcc6233e 
3e65712e 
bc2e5684 
be436442 
3c7dcfab 
3dfce1fe 
bcb26116 
be35d542 
be7736b4 
3d903d47 
be5ec588 
3e2d9bc3 
be077134 
becfa7e5 
be9cb306 
be27efac 
be04b87e 
bdcaebb2 
bcc33447 
be210946 
bdea8b29 
be1fccc3 
be5d5be9 
be5f2763 
bdd9d418 
bd8b6b32 
3d4d6d96 
bd2a9ab0 
bd6eb41b 
3dbd127e 
bd5f36fc 
bd30fa69 
bd7a87b3 
3cabf74c 
bd18418f 
be7b5f5b 
be34b5f4 
be250176 
3c838c1c 
be0d880c 
beac0c76 
beb88e39 
be5f6504 
bdc91c17 
bd86f9ed 
be1f990d 
bdd85d47 
bd843ab0 
bdf26b16 
bdcfb7c3 
bdd5edc4 
bdf61dea 
bdcc4b25 
bddc45e6 
bc24c939 
bd97fb88 
3de11066 
3d8ad2ef 
3c990802 
bcf4b507 
bd8f73c5 
3e22ead2 
bd910c4c 
be1868c6 
3d91e6e8 
be927c1e 
be11b1c6 
be4a524d 
bd880c6d 
be0f3d7c 
bd487432 
be0ee60f 
bdd89973 
bcb94571 
3d889fe0 
bd8e524d 
be0d1bdf 
bd1e3b4c 
bd3b0bd8 
bd51496a 
be1497d5 
be05975a 
bd3b0157 
bb7f84a9 
bd2142ed 
3d8facae 
bca7aa97 
be015a17 
bd621c9e 
3d4f0d10 
be88fcb1 
be053029 
be893eea 
be8b8f39 
bda1f07d 
bbc2a019 
bde0c268 
bd5ffe54 
bdc8ec9b 
be153845 
bdee88d1 
bdf752fc 
bd65bcd5 
bda6b099 
bd55c3cf 
bde5244a 
be2433da 
3d4dbb12 
bdeca528 
bdd69ae1 
ba8051e0 
bc9b8d03 
bc9ceb59 
bd6441f4 
3cbfc490 
bd1629ad 
bd9333eb 
3d970818 
be66c3db 
be0dda5c 
be606eee 
bdb72fd9 
bca92fe1 
be81a104 
be4cfd25 
bd9446f1 
bd520a28 
bde00171 
be3bc93a 
bd827c11 
bcecf1d8 
bdbb3d58 
be0acde4 
bdd95ba9 
bc320a10 
bbce58fe 
bd1f0ae3 
bdec8f4e 
bdecf219 
bd492eff 
bd575f98 
bc255b89 
3dbb3609 
3a4c3825 
bd8a3091 
bdc1667f 
be7a2962 
bd687cd8 
bd452aa9 
3dd5003a 
be3d466e 
bdde89e5 
bddcaf5c 
be2d1e60 
be3b14f5 
be45d9a9 
be6cd946 
be964fc8 
be3bf527 
bdc80485 
bd9a3fa4 
be104d4a 
bdbf6103 
bd86bc9b 
bceaddb5 
bdc6af14 
3d20d6fc 
3c7aed96 
ba2734df 
bc750b8a 
3dc7902d 
3daf4c60 
3dddc432 
bb1087b6 
be44be12 
be9e451b 
bd4e1006 
be4cc34d 
bd1515ac 
be0e53e4 
be5897bf 
be2207c2 
be70641a 
bde207f1 
be284138 
be744189 
bdd29064 
bd2f0cfc 
bd1eecab 
be0a2304 
bca1fb3a 
bdf4b379 
3cfdadf8 
bbdf2973 
3d78b41f 
3d7e52c9 
bdcb715d 
bd6e8381 
3c69bdc0 
3c21d1a6 
3d56c2a1 
bbdb7d89 
bb101a96 
be96c0ca 
be432c8c 
be98d56a 
bd6ac243 
be50c70f 
bd3162b5 
be47b9e3 
bee06206 
be5d5c94 
be704022 
be53e6f9 
bdaca523 
be402546 
bc5ba080 
3d8c68cc 
3d1236d2 
bda0bebc 
3cb59a08 
3dcad1a0 
3d5c42cf 
3e098d44 
3d215aee 
3d192e70 
3ce045a0 
be1dd784 
3c240b5d 
3de5fc29 
bcaa47b4 
be4a54bb 
be2fa381 
3da3a6b5 
bdc0dccd 
bda8fbe1 
be15a469 
bdcaecb1 
3d8e227c 
bd147788 
bdc172ac 
bceadb90 
bd81b2e5 
bddd4a18 
bce1f00a 
bcbfb5b9 
bd0dd740 
3beb80d0 
3d849bd1 
3de94aa3 
3d08bdad 
3d6f8da2 
bbb7f46f 
3da8207d 
bcaec95a 
be36f95c 
bba1bc77 
3db5e60f 
3ce9c1ee 
bdfcae1f 
be50dec5 
3db81ca5 
3dcc8b90 
3d3e79af 
be7c72c4 
3daf2e79 
3d4382bd 
3d93043d 
bad68ce1 
3de04d25 
3e18fd8b 
3db3d7cb 
3e047046 
3c18bff1 
3e1c4a99 
3b7d1cd9 
3d858f69 
3d52b926 
3d8bde36 
3da0b93f 
3d4d8398 
3d596d67 
bcafb80b 
bccbc55c 
be5281f2 
3d7b6fbd 
bc4aa940 
3d8bf810 
3dca5049 
3e94d0bb 
3e19f8e7 
3dc88fed 
3d631806 
3e1d5cf0 
3dcc799c 
3dd4de0f 
3df8f66d 
3e96d40b 
3db1e0b2 
3ddf1f68 
3dd5ab21 
3df1d6d9 
3e50589e 
3d81cba5 
3d72ec4f 
3dcb1fdd 
3d7c331e 
bcdcd17d 
bdd36c4a 
3d2e3535 
bc00eaf4 
bc8cfd09 
bdc96fd0 
3db2b27d 
3e03cf4b 
bdd703ed 
bdcd49a4 
3d7328dc 
3e0b84bf 
3d6ef4f2 
3dcc17a4 
3ba75d77 
3d06fd77 
3c876ae8 
3e37279d 
3e75f44e 
3e3f53bf 
3e117bf8 
3e05838a 
3e73d94c 
3b1d158c 
3db82497 
bc3268c0 
bca52fa0 
bd5f67c2 
3c397fa4 
bdd93169 
bdb07951 
bdc5ffbb 
be061eaa 
bc9fe3dd 
3e3df07c 
3dc5e52d 
3cae6539 
3e24f64c 
3d6ce4aa 
3e397099 
3d58f34b 
3e4185d6 
3d9469ae 
3e3574c7 
3d7630e8 
3d8d10a5 
3e713bda 
3e575f21 
3e0ebe4c 
3daadc6e 
3cd86e92 
3d9e9048 
390bbe88 
3ca6cc48 
bd5e0fd4 
bd01485a 
bd9e1b7a 
3cb6a9d1 
bd2bc5ce 
bd2941dc 
bdf59934 
bd1c7326 
3e07c96e 
bd0aa2e6 
3c6530a7 
3e2e57b8 
bdea147d 
3cbba139 
3c407d63 
3e1a8d88 
3de7063a 
3e4108fb 
3e0bb600 
3de97dd5 
bbc80fac 
3d1d57e0 
3ddf8bf5 
3d4fec96 
3c7eeae8 
3c69fd2a 
bb1c93d5 
bd3be89a 
bdb262fb 
be0974b3 
bde9286d 
bdcc44c8 
bdcc813b 
bcb08e82 
bdccc293 
be3a4fcd 
3e2e9e6f 
ba2f17f4 
3dabe01a 
3dd26523 
bd698252 
bd687433 
3d3173fd 
3e569f97 
3e4dd896 
3e342914 
3e569042 
bc357ce5 
3c686bac 
bd4a6a30 
bca89600 
bd60856f 
bd1d4c67 
bd97a937 
bd77ff81 
bd92226b 
be45cd1e 
bd8f6343 
bd339dee 
be09a661 
be2222d8 
bcf7edb1 
bde596ab 
be130ce9 
3e1510d2 
3c898654 
be727aa4 
3d953b48 
3e5062f5 
3eae1f6e 
3e6b97b7 
3e2027bc 
3e168137 
3e2e8a97 
3da75cf8 
3d05f80d 
bce5c19a 
3c733e4b 
bd778662 
3c81acb2 
bd298569 
bd0a2cc8 
bd475303 
bd35255a 
be2fd519 
be34bbb2 
be1ea771 
be3ce013 
be326856 
bd9f861e 
bd0bb2a8 
be1fbefd 
3e00e4f0 
3d087a1e 
bd56c3d0 
3d874b16 
3d99a03b 
3eaefe9e 
3e21754e 
bd93d1cf 
3d1fe7ef 
3d934388 
3dced642 
3e0405f7 
bd6afcaf 
bdcc2602 
bd8b950d 
bd7125b1 
3c334a2b 
be031e19 
be26d9b4 
bdf78c85 
be21bef2 
bd932eff 
bda3acee 
be22aa9e 
be299875 
be1478b5 
bdee6a85 
3b594895 
3cd2f999 
bd9e88e2 
3dd08503 
3db7b613 
3e6126d0 
3ed5892e 
bd0e6516 
be10c751 
bcf0c67d 
3db21a61 
bcd1a75c 
bd21e3ab 
be00e87d 
bdcfed76 
3ce4f998 
be4d47af 
be6ae9e5 
be4d273b 
be60c770 
bdb288c0 
bd899ffc 
3b053af2 
3c0981ac 
be230450 
bd5ad4be 
bdcba792 
bc51ff28 
3dd2164b 
be1a49db 
3def29f1 
3d8c9e17 
3e023e03 
3e575f96 
bd305717 
be2b95d4 
be449d2a 
be1e4101 
bd3fe284 
bd7ca1c6 
be21e799 
be69e6fc 
bdef2ee8 
bd3a9727 
be736478 
be26b6a8 
bddf248b 
bddb471e 
bdc41b2c 
bdcddd54 
be3c42e6 
be199428 
be0799a0 
bd3dd435 
be057184 
bba763f6 
3e37e3a8 
be251ba5 
bd0a4c3f 
3d666a60 
3d3daf54 
bd864062 
bdab2851 
be383fe5 
be10e3dd 
be91ba94 
be3f2fc8 
beb7350c 
beb52ee1 
be4910c9 
bda12890 
bddb9009 
be1d560d 
be1d5447 
be1fcb38 
bdd91000 
bd8c288c 
bd69fc0e 
3cb1c2b6 
bbdc5e0d 
bd2f9d33 
bb92e3df 
bdc27100 
bcb7c4bb 
3e2b859c 
bda372c2 
bd7ce621 
be390af4 
be4e967b 
be5d0e2a 
be7f3d84 
bedad145 
be74c2c4 
bebc6326 
be1b5f84 
be9db500 
be85fdc9 
be69cd26 
be43e9dc 
3c12eaec 
bdfa3421 
be6b0be5 
be0f9e38 
3cfcea95 
bd160ccf 
bdf1a404 
3d91b851 
bdf5b756 
bda43a49 
3c6c63c1 
be225f95 
be34856d 
3e4d2152 
3df0dae5 
bd2be560 
bd7700a3 
bd6552be 
be186cdc 
be5a8c48 
3d35f40d 
bdca9112 
be42e913 
be066c97 
be883361 
be94562d 
becbac2e 
be2d5881 
be2bd4ec 
be1e2f6e 
be345d96 
bdaf1ce1 
bd9932c1 
be176026 
be0ee888 
be82e384 
be2d91a6 
bc355910 
bda572d3 
bdbd9cdc 
be744799 
3ca95862 
3c9898d6 
bcda3e78 
bdd1942b 
bd31bb9a 
bd5a888b 
bc5a8d8a 
3cd70cb3 
3d5e599f 
3cc3888d 
3d004cd5 
bd1e0f8b 
3bb01bc6 
bcca6182 
bcf9438d 
bcaf4141 
3bbd3b82 
bd54d827 
bdbd50cb 
3d5dadf8 
bd0c40ee 
3cb12aa4 
3cbc1890 
bd2b84f8 
bd4db3b1 
bbfe63b8 
bc6d39fb 
bc995f70 
3d7cda75 
3d3e323f 
bded29a3 
bd65b4c5 
bc122ecf 
bcebf49f 
bd428c6a 
bb10742f 
3d99b1ab 
bd528630 
be204309 
3c6119d5 
3bd2b021 
3c75202a 
bdc86939 
bdb50e8c 
bd92aefc 
be10820b 
be3cc164 
be18fcff 
bdf68050 
bdd030f9 
bd84c416 
bcd0a56e 
bd4dd872 
bd8bf641 
3c658c4c 
bd0de39d 
3bd408fa 
3cd664bb 
3df2c612 
3d5f872a 
3d0cc025 
3d2ec8a7 
3c774e41 
bbf5d9c2 
3cf77e34 
3d081f96 
3defb870 
bd39de13 
beb1ec8d 
bea8d47c 
be9b644a 
be69c578 
3cbc7ed7 
bd8a70b6 
bd6b2729 
bdefc980 
be9927d0 
bec8b978 
be422630 
be653635 
bebcaba8 
bd8765f6 
be075816 
bd531580 
3e777129 
bd4cad8f 
bd3e02cd 
bd2ea3f9 
bd2d77b0 
bd867843 
bdb8b3b5 
3e1be63b 
3e8b7738 
3e76b358 
3e0260ba 
bca583f3 
be5ef78c 
be8d9fc6 
be39e549 
3d348aeb 
3e0d0ee5 
be0b84ff 
beca441e 
beb4db21 
bee494ea 
be80d090 
beb62c25 
bef3d9a7 
bee3afc6 
be093b56 
3ca6866e 
3e29b9ea 
3d6c6162 
3d720d92 
bd813de7 
bda52e30 
bdab9264 
bb4e84f1 
bc5f3b95 
bd60e3aa 
bb931402 
3e9f4232 
3eb1ad2e 
3d63ff53 
be330493 
bcc6f8fe 
3e054f5c 
bd7b50e2 
be488c8b 
be5b38b9 
be10fa2f 
bd5aa2b3 
be6a4601 
be981777 
beb7a04b 
bec02b3c 
be808c9a 
be876041 
3d82f908 
3cc6a270 
be2d2a65 
be7246c6 
3c8ac962 
bea0bb80 
be8f1e9f 
be10ad6c 
3e43fa0f 
ba9872b0 
3e474c17 
3e3e0481 
3e4e3198 
3d39413d 
3d9a043e 
3e0e949e 
3dd8fab2 
bd12e267 
bdbb7aad 
3bba14b7 
bb290e27 
be69c466 
bdbdc337 
be96ed7e 
bed26055 
bee4d5d7 
be8b2a78 
becf0229 
be87102f 
be2d7682 
be154b70 
3e117dd6 
bd893c16 
3e3c676c 
3d980e86 
3d526702 
bc3625b4 
3dd67425 
3e0c035d 
3de551f8 
3e400724 
bcfb8af5 
3cc6c7fc 
3d2a91e9 
bdd4335e 
3ca59738 
3d7b68be 
bdab05e8 
bc9e4ebe 
3c14326a 
bd8095e4 
bd88adee 
becbb062 
be660e2d 
be118d7b 
be8826b7 
be9f14c1 
be836b78 
bca436e7 
3e4629c5 
bde3b00e 
3d8af971 
3df443db 
bb0df1cb 
be12d640 
3d11c36c 
3e3925f2 
3e43de69 
3dc8c968 
3e0855ac 
3dae1ec8 
3d12de11 
3def4f86 
3d75f4e5 
3dfc371c 
3d29cd2f 
3d83eb9c 
be1c0bf4 
bc1bbe0a 
beaa4694 
bf151a6a 
beb0af95 
bde1be19 
be438da3 
bd986fdd 
bd32f938 
3e1fc6aa 
3ec15bcc 
beafb5a5 
3e32c3b2 
3d9b7e38 
3de7147f 
3e215f1e 
3e825402 
3e1913a5 
3e55368b 
3d8104a4 
3c8fb919 
3de4e0da 
3d5ffc87 
bc8f8562 
3da632a8 
3e09cb44 
3d413df0 
3d223a6a 
bce8eb5c 
3c744a6f 
be08bd5e 
be17e668 
be3d428c 
be26446a 
bdd22092 
bdeaccab 
bcc0a73e 
bd638d4f 
3e4aa99b 
be75233b 
bd0b072f 
3cdc18cc 
bbdfe063 
bc823ae8 
3e2447c0 
3e045507 
3e24ae31 
3db5d20f 
3d939ae2 
3e1b65c6 
3e54cfa3 
3e2327b2 
3d0b1831 
3e2c36eb 
3d2eb2cd 
3d9a7c0a 
3d4586a2 
bdf6ae57 
be31c802 
be229354 
be85028b 
be63b7bc 
bd66bb66 
3dbbd5ee 
bd1a4f63 
be52a678 
bda5212b 
bea29866 
bdce4c62 
3d275d23 
3e3bcaa7 
3e447b60 
3e965f7b 
3e524eed 
3e4104dc 
3e25410f 
3da643df 
3d8dfbea 
bd4d9c31 
3e0dfc80 
3d1f9600 
3d9bff00 
3d3fb1cd 
3e1c95d0 
3d84da95 
3cfb1146 
bc8762b4 
bd802cf3 
3cdaa68d 
bd2954d3 
bc863d93 
3d2516c2 
bd7181be 
bd9e7341 
be9a2236 
bea0ad8f 
3d1d8025 
bd931924 
bd5cf574 
3bd7a663 
3e725837 
3e406590 
3e989e2c 
3dbfb954 
3c5503a4 
3e02fd71 
3db29b69 
3e52b8d8 
3ddef8fd 
3de6b62a 
3dcf4572 
3a0744a0 
3d40a5ac 
bd145221 
bd1ed8c8 
bcac8950 
3d2b280a 
3d663ce3 
bc20a975 
3cc709f2 
3d0a9d7b 
be16463c 
bdb7be9f 
bf0dce50 
bdc9531a 
bdc4db93 
bd57b1d1 
3e45da56 
3ec389e3 
3e8f1269 
3e839bea 
3e59ec57 
3e16d681 
3e1b78c4 
3e0ec20a 
3e15d0b9 
3dc74db7 
3df823d7 
3ded8a56 
3e0a37ff 
3b5eea5a 
3d85a32f 
bd8d8867 
bd657a59 
bd0a34f3 
bce8c47a 
3e3e5d9f 
3df1150f 
3e1efa91 
3d45a1d3 
be28bd93 
bf100ee4 
be94b195 
bd326ba0 
3e24cfbe 
3d8aea52 
3e817ab4 
3e247cc4 
3e4980ae 
3e896919 
3e5e2144 
3d9b55d3 
3db154c4 
bc8bc0a5 
be2a08d6 
be9e0971 
3d70e108 
3d79edd0 
bca48d0d 
3d12c5a1 
bd21fe0e 
bd06bd71 
bd810113 
3d03e3ff 
3dd77441 
3df480a9 
bd5261a6 
bd38c2fd 
3d5bbd6e 
bea06ae5 
bab80d94 
3dbf30da 
3c16935f 
3c35f8bf 
3e15c649 
3e8d74cd 
3cbe8aab 
3c5518b9 
3dcac2cf 
3d490b95 
3e490dfb 
3d519ec6 
bdfd71b0 
be34bcc3 
3e02824f 
3d95e478 
bb610348 
bd86530c 
bd924fb5 
bda289fe 
3b9d4264 
3e333393 
3e8238c5 
3e79c913 
3e26c2ca 
3dd7042d 
3e3a4389 
be1959ae 
3dc791a8 
be0046fd 
be2cb741 
be396e7c 
bb14819c 
3b041d3d 
bd7dddb8 
bd32bd07 
3b4012c6 
3dd974b3 
bb667412 
bd86a34f 
bd50beb4 
be2610a6 
3d4c75de 
be166650 
bd5d5eb6 
bdaa112f 
bcb89216 
be167a61 
bd3965a3 
3d52ef43 
3e5e9407 
3da99ee1 
3cc8733a 
3df1a3ae 
3e3ec2fb 
bde8d912 
bd7ec239 
bc368759 
bd00f06e 
3ca72c2d 
bcd253b8 
3c92156f 
3ddf4af0 
3d992deb 
3ac4e803 
bd9242ee 
bade617e 
bd6ab45a 
3d296605 
3d71259a 
bccafa42 
be40a528 
bd1ff4ae 
bcc9f94b 
3ce1121e 
bd674a99 
3d97840a 
3e540854 
3ea37907 
3e87d751 
3e855064 
3db889a0 
3e43779c 
3c965c83 
3e05403f 
3dedc4c4 
be5a80b6 
be515e04 
be173da2 
bd961ebb 
bbcd96cd 
3cfba859 
bd77475f 
bc424f18 
bb8ebd7a 
3e0039ab 
3ddb9978 
3da82fea 
bc71355d 
3b4c046d 
bdba6bc0 
bd2575c7 
bd5c17c0 
3b43d7b5 
3da3006c 
3e47eb74 
3e224199 
bd38966d 
bb863f1b 
3cc3201f 
3dcaacf7 
3e478579 
3de7fba8 
3d69ffcc 
bcaaca17 
bdff2613 
3bf38b86 
3cb5912a 
bdb724c7 
bd974228 
bc9af945 
3e11589f 
3d6af0c7 
3e701625 
3e0f8592 
3de85bc0 
bcd4ef58 
be02346e 
bda5109b 
3dccce0d 
bc9b751c 
3d2c23a7 
bd81b7da 
3d5d120c 
3cf51739 
3d616885 
3d4d772a 
3d484f25 
3cb1b4e4 
3e035264 
3e628d1b 
3d967665 
3e19038a 
3e1b87d4 
3d9a4e10 
3df22d08 
3d4ef8b1 
be111994 
be532743 
bcb0349b 
3da764f8 
3de0c94d 
3de67d56 
3de109da 
3d2cfd1b 
3d52c688 
3d6ba4a4 
3d92ed10 
3d8ce003 
3e0ceb06 
3e6be74d 
3daa2fb4 
3dff82a1 
3ccf16ff 
3d20262a 
be0bf7ec 
3d3e1005 
bd9fc219 
bdb2ac14 
bc60ffb4 
bbd7851f 
3ce31ed9 
3d9896df 
bd003387 
bbbeeb87 
bdd256df 
bdef1c75 
bdd69827 
3d9bfb2c 
3d765703 
bdfe06ca 
3d06325b 
3da5d903 
3c68e4fa 
bd8c9ccf 
3c87ea32 
bc85361c 
bcfe8c10 
3c564f9f 
3e7f02b6 
3e086e55 
3b9bc26a 
bd1acbef 
bd430da9 
3e7203fa 
bdce6150 
3d9f3a9b 
3e024c40 
3d244198 
3c9da035 
bc7430ff 
be15445e 
bd137582 
3c5e0618 
bd4f9953 
3dcda886 
3dc285c1 
bd6f3009 
3cb4d7af 
3d2087d8 
bd8dfe6b 
bcc9aa50 
3d95c7a2 
3d8781d4 
3e0ca0d9 
3e39fd25 
3d83e417 
3d83e4f4 
bcf19275 
bd6a472e 
bd050992 
bd88f2cc 
3e640089 
3e9b1167 
3e80f138 
3ea080bc 
3d7b534e 
3d93ad24 
bbcf8037 
bca34d59 
be055ae5 
bd35f34f 
bc0b9035 
3baf55be 
bba60f0c 
3c909c5c 
3ca632f2 
3e4b3b08 
bcbc009d 
bdc6154a 
3d8f395d 
3e0a4628 
3dba360a 
bd18c9ca 
3ce59ae2 
bd17b529 
3dfe45d5 
bd7116b1 
3c97dc97 
bc93cd15 
bd945eff 
3e388f0c 
3e7ac54d 
3e3aeb81 
3e25f147 
3d4b119f 
bd880a6d 
bb2c1906 
3d40d9ed 
3d1a4972 
badfb148 
3cb087f4 
3dd2bc9d 
3df29dd5 
3d99bfc8 
3caedea9 
bda2da22 
3ddb3317 
3d6442bd 
3b07463f 
3e0f85aa 
bcde567c 
3df45ea3 
3dbba8cf 
bc3ea512 
3b45a4be 
bc4a301e 
bc487c8d 
be139f97 
3e814be0 
3e02f70c 
3e001144 
bddfb524 
bc852936 
3cd899d8 
3d52ca3e 
bc880ced 
3dc31d95 
3b9c15d9 
3ded97be 
3e09c256 
3daaafa5 
bc5f47d8 
bc1695b3 
3cee41a0 
bc92828f 
bc421cc0 
3dcb256d 
bcb5def9 
3d106916 
3ce724ae 
3d845bb9 
3b40b3a2 
bd9f233d 
3d985ff3 
bd83b0ad 
be3b156a 
3e03ef3e 
be5ce7f0 
be8bded8 
be29af33 
be724f50 
be13b057 
bd0c28b2 
3c9aa710 
3cc85ef3 
3c4f7f5b 
3e23d5e3 
3dc49a9c 
3d84c8f3 
3e005f4a 
3dec961a 
3d81a9d0 
3d945455 
3cd609e3 
3c465df8 
bdc57f3a 
3c79e005 
bdb151bd 
bc5daac6 
3c69afe0 
3d2eeda2 
3d1bd247 
3d790e43 
bdb06a7c 
bd37dd45 
bec205f4 
beb30747 
bee11c9f 
be94ebf7 
be4022bb 
bda228c5 
3c857190 
bb46905f 
bdda1520 
3cd48834 
3d392483 
3d292ee7 
3d3d8a57 
3d8933f4 
3e49f72d 
3c3fc273 
bd4d8422 
bd172241 
bdf2404b 
bdaa0978 
3b21d8c1 
bddc99e6 
bd71b3bd 
bd8df1e1 
bdb1a813 
3e1fd32d 
bd5681da 
3d669309 
bddb289d 
bd80dfa7 
be97d986 
3c2ae9b1 
3e18878b 
3da72896 
3d138f1d 
be14b58d 
be6ae9df 
be64a734 
bdb97c58 
bd9d5a2d 
bdad084d 
3bec8d1c 
3b2f0dc0 
bdcb831f 
bda594f5 
be0a3521 
be291f68 
be3a65a2 
be21dc8b 
bcc0324f 
be3663e1 
bd8cff49 
be07277c 
3ba5d14b 
bdbd5fe7 
bb38e632 
3d0f2fa0 
3d5b2dfa 
3d262b57 
3dfd14b9 
3d27c6d2 
3e3f119b 
3eb698b8 
3e9ac334 
3eb49fa8 
3ecf064d 
3e802d19 
3eb19e37 
3e18667e 
3dab8e1b 
3e504183 
3e5c3248 
bcca5cba 
bbe98a47 
be442bcd 
beb431e3 
be9646d8 
be0b568e 
3e24cbb8 
3e573e49 
3dda2178 
3df48fd6 
3c0c8b42 
3d8fc023 
3ce0736f 
bc6a5dd9 
be0f0eec 
bd011fdf 
be7220b7 
be815a67 
be15a18c 
be087e32 
3dfb6543 
3e9468c2 
3e8c1365 
3e48df80 
3e8e5e39 
3e51e85f 
3e874085 
3e6ed9df 
3e687fe1 
3e2e8a27 
3da18a82 
bdc218d6 
be72d045 
bd5afe28 
3e83f65b 
3e50f881 
3d9d68f5 
3c7fb004 
3ceeaac6 
bd0156e9 
beaa0514 
be53e9af 
be064ba2 
bd7953dc 
3c6b8acb 
bd709716 
bdd41176 
3c6b33d0 
3ae8df72 
3dd256ba 
3e016aeb 
3dd6e8ee 
3e8419b6 
3e29dabe 
3e36f9c9 
3d8bf581 
3e1b3c4c 
3e467f92 
3d397bff 
bcea59a4 
bd31ef90 
bcb31015 
3d462ce2 
be1fde65 
be3249b8 
be2936c8 
bd6e940d 
3cb8e326 
3d89b68b 
3dcc1bbf 
be9f1f82 
be143112 
be1d6604 
bcbfb6d7 
3bf03350 
3c1f467b 
3c752158 
3dbe7a30 
3dabc8b7 
3df6f086 
3d449420 
3cf04c29 
3e0718b5 
3dab8cae 
3e454698 
3d75dc0d 
3e0bcd73 
3cf07a57 
3d44237a 
3da5c6bc 
bd2b2ecb 
3b04673c 
bda2e162 
bd0953f8 
3e16cbd5 
be1ee285 
3e3787d8 
3dc20106 
3cac3b1a 
3d74379a 
bd93df65 
bbc2dfa0 
bdadf50d 
bc435d41 
bdc17c52 
bd89cc0d 
3ca300b4 
3e1f7c9d 
3d433750 
3ca1b0cf 
3d833c94 
3e18f8d9 
3d46abcb 
3e07ad35 
3df96c2f 
3e07de2d 
3bdc808c 
3c94c248 
3c906622 
bc6ba83e 
3c4cd26a 
3d7f30c0 
3e518d20 
bbf68842 
3de1cf0f 
3e3abaf7 
3dd7db45 
bc5da485 
be07658a 
bdfc075f 
bca2c361 
bd579d19 
bcb07bea 
babf2b82 
3d35d3fd 
3df96fc9 
3d1ed234 
3e0c5919 
3d875bd8 
bc97e7c0 
3d1dbca4 
3e1f1bf5 
3da75d11 
3d68668d 
bdaa3ce1 
3d213ef4 
be34be6a 
be09184c 
be69bd78 
bdecf99a 
bd0069d9 
be6c7532 
3d90306e 
3d7e8496 
3e1d10be 
bb5e0104 
bd8f6f37 
bddeb367 
be33c33e 
bd7f1abc 
bd208dbe 
bd9f6b52 
3d0eba94 
3b47f346 
3bb8ab10 
3ca48cfc 
3d99e196 
3d413403 
3d24488c 
bb72c637 
bc67149a 
be207ced 
bdca1c24 
be042877 
be05fc3f 
be2f175b 
bde3f1b8 
bc913ab6 
3dd23cc1 
be6dbbd2 
3dae9860 
3c9416ac 
3a8a8104 
bcaee031 
bca5944f 
bdf97c4c 
be16be67 
bd82a43b 
bdc65479 
3d6d701f 
3ca13669 
3d88d6e9 
3d89bf01 
bc92765b 
3c8a1c4d 
bd042129 
3c56add7 
bdf0defb 
bd9b42dd 
be16cb5d 
be25f08c 
bd99b3f1 
bc1cc6e2 
bc02f9e0 
be6b95e3 
be253c19 
3bc2e502 
beb23ac2 
3b0085b2 
3b87705d 
bd88dcc3 
bc1f69f2 
be830c47 
be468ba1 
be614b7f 
be46af58 
bc534290 
3daa8b8f 
bd83abe1 
bb01f242 
3bb4340a 
bd5f961f 
bc6e7ab2 
bdc79166 
bb8da954 
bcbc36d6 
bd4a5486 
bd93588e 
be1f9d29 
3b9bcb56 
bb81847c 
bd187719 
bdbe700a 
bc1f095f 
3d0987ce 
bee05e27 
be20bad2 
be063ac5 
be864945 
be1906e5 
3c96b1c1 
bdff61e2 
be0a79fc 
be0d5b85 
bdccdfb7 
be1ac4d2 
bdc2911f 
be193bb3 
be04f6ca 
be3eeeae 
bdaae74f 
bd59a551 
bdcd9109 
3cd097de 
be02e8ac 
bdcab46c 
be12cbb1 
bd8c86d3 
be423b43 
3ce92656 
bda819cc 
3d10ac8f 
be46163d 
bf136881 
be2d562f 
be084f47 
bdc30de0 
bd2a31ea 
3d4991e2 
bdbc0f8f 
be2859b7 
be30017c 
be609c30 
bda08e0f 
bda9a353 
be40e1ce 
be7c2c71 
be7358eb 
be242609 
be018b20 
be4d5995 
bdc6bdce 
bd9d2992 
bddbbf96 
be28774a 
be45ae95 
be4ad38c 
be055bfb 
be203847 
bd9a89d9 
be803616 
befdd5f1 
be139ef3 
bdbefa4f 
bdb86b03 
3c89a1e3 
bda51fb1 
bd986a5d 
bd8a153c 
bdc65b71 
be1674dc 
bdd09944 
bd820661 
be12226a 
bd7f2af6 
be21a8d7 
be8140de 
be4652dc 
be093a31 
be14d48a 
3b32124e 
be1d0b6c 
be012a5f 
be26bd24 
bda32080 
bdf29ea8 
3c7fd76a 
be8f1620 
bd57d348 
bec7d09e 
3df8f9e0 
bda83059 
bdeff18b 
bddf69f8 
3d0c130f 
bd6fe004 
3d94ee1b 
3d98d5d0 
bdb8a687 
bd86690a 
bd81fab2 
3cc97156 
3d3f1a0f 
bc6f68a4 
be4749f8 
be437c38 
bd22019b 
bda5839f 
3b53207f 
bd9b34c7 
3d93b87f 
3d6ca53d 
bd402cfc 
bc52c9ff 
bc9c59b1 
3d9c0020 
3e721af9 
bb1674eb 
3e0a0fad 
bcc6bd1d 
3d0e6424 
be0b6091 
bcf55a5f 
3e08284a 
3e394efc 
3de3977d 
bb4301cf 
bd35de6b 
3d30a54f 
bd683a9d 
b95bef31 
bd82256a 
bb76e18a 
bcfebba8 
bd164312 
bb382902 
bdd44a92 
bd7f306c 
bd85bdd0 
3da7e389 
bd82e05f 
bd859f3f 
bcb8fbff 
3e5df8a0 
3e421e22 
3e008c28 
3dba1e7a 
3dc3f55c 
bc8a56b3 
3cd79aaa 
3d110052 
3d2f5e62 
3e2e17b3 
3d56c30e 
bda7a563 
bd47c800 
bdb5584b 
3b28f0d8 
3dc0a78a 
3c8d7be3 
bd0c8aa0 
3d6dde28 
3cf56a1c 
3ba4654c 
bdc9bc13 
bc9c4693 
3d038411 
3c4e5cb5 
3d7574f4 
3bf379f9 
3da1f9a3 
3e374855 
3ecd8543 
3e315737 
3e502655 
3dd2c7fe 
3d4f3f79 
bde09cb5 
bda8b57b 
3d4f684f 
bcff9259 
bc1144b4 
bc55c7a0 
3d3df567 
3de1c703 
3b04f4f9 
3e00475b 
3d630762 
3dc8ec27 
3c06b983 
3d0d0af9 
bcaf55a3 
3d5fe97a 
3d167312 
3dfabe29 
3c9221da 
3df241fe 
3d810053 
3dcce785 
3e51d944 
3ea9fc59 
3e139988 
3e7cb36f 
3d29fb66 
bd351495 
bdade43e 
be2d0209 
bc2b29e9 
3dbec516 
bc97a418 
3d1f6d5b 
bcf06034 
3d69fd77 
3d60ed81 
3deeebd8 
bcc86172 
3c709b15 
bcfb509e 
3d8ca85c 
3dc83aec 
3d67bd5a 
3da46401 
3cef5fe2 
3dcc5387 
3d7eb3d6 
3c72285b 
3dc2a2ea 
3de04a19 
3c561369 
3dd98d25 
bd3eb179 
3e1c67bf 
bb8bb919 
bd5b2754 
bdc3aa49 
3d26de09 
bd6e36cd 
bc0f32de 
bd594634 
bd317d1e 
3ca9a2e5 
bcb52c3f 
3dd036a8 
3e17ae0e 
3d72216f 
3c49f908 
3d4a6fde 
3d898f2f 
3daaad59 
3db443a7 
bd5f419a 
3da48b00 
3d2006ac 
bd0fc73d 
bd85e6ba 
3d0561b5 
3e84f4e6 
3e0ead2d 
3dbe7358 
bbc38b5b 
3e3d3c4f 
bcfca9c3 
bde094bb 
3ca81469 
bd95966b 
bbc89049 
3cf82356 
3bd6cffe 
3d358291 
3e19e1ab 
3e4581f0 
3e0b353b 
3e41cc0e 
3df79471 
3e0fb5cc 
3c8b5b68 
3d293882 
bca8ce16 
3d99ffaa 
3dfcb5f5 
3aa34752 
bd9304bd 
bda82e39 
3e2d97f8 
3e0667b9 
3e6a9e20 
3db86024 
3daae00f 
3cbaca0c 
bcf4eec4 
bd943739 
be07627c 
bd3e0441 
3cdb879b 
3d201d2d 
3cfc22b8 
3e26b091 
3da8c8b7 
3d1f30ea 
3dc928da 
3daba2e9 
3e20c263 
3d994bbb 
3e3f0524 
3da9a06e 
3ddfe642 
3d0f1bec 
3d5a1524 
3c9a4b28 
bcc0a674 
bd527282 
3ca3ad97 
bcb85b98 
3e5c38c6 
3e911c37 
3e70a21b 
3df0d949 
3c0a3c34 
bd073c1a 
bdd024a8 
bdc249d3 
bd4cf8ac 
bd645953 
bb3123b1 
bca54053 
3d8429ed 
bcbfcf3d 
3df60fe6 
3e2a7a42 
3dde7273 
3d8df851 
3e5161aa 
3e1197b4 
3d29c7b9 
3e05f4b2 
3dc0ff6e 
3e1e91d8 
3eacf92a 
3c660131 
be18ac95 
bd267eea 
3e0a84ff 
3e55aef8 
3e4573f4 
3d42d1ff 
be1dd649 
be6a607f 
bd6edb7a 
bd0d6392 
bd8853f5 
be37a092 
be06fd86 
bdccb5f6 
3d459220 
3cc2ce05 
3d657c0e 
bc478e79 
bcbebb40 
3dfff860 
3e1cbf66 
3d41646e 
bca0d5be 
3d207074 
3dc4b16b 
3ea302fe 
3e59f9bb 
3c6ea4ca 
bd868b89 
3dbc2272 
3d7011a5 
3e82d6e0 
3e5b05ae 
be13b506 
bdfd78b6 
be3d6cdd 
bd95d804 
bdf35d5d 
bde49d11 
bdcedf80 
be1feb97 
bdd844ef 
bcce2e24 
3d667e30 
bb25d272 
3d33f555 
3cc26be5 
3c41e3f9 
bbf70c82 
3d9f2bd9 
3e25249b 
3e1e4257 
3e8dd659 
3e0b937f 
3dfb6d09 
bdbf15b8 
bd05385a 
3e4f795c 
3e53f214 
3e3d49dc 
be176c20 
be10ff66 
be683150 
be227b1b 
bd70f094 
be720bc6 
be36ea16 
be406cc9 
bd64d2ec 
3d22498b 
3d6dcc6e 
bcb68644 
3aba075f 
3ae5e00b 
3d8c57f1 
3e339218 
3e8cc64a 
3e4c21c9 
3d99c3b4 
3e960fe9 
3da86583 
3d8a0b66 
bd48aa19 
3e008ad6 
3d9e435e 
bd4a29f1 
3e8afd4a 
3e4092ef 
bc540601 
bd6e8801 
be4a604d 
bd808841 
bc9a5ac2 
3d55fc26 
bddd0b1a 
bd15f98d 
bd62f91c 
3d93f921 
3c8b44e3 
3d1fef12 
3d16a836 
3d8968a5 
3deecd83 
3d834e21 
3e020d4e 
3e2cefd3 
3df9b1c5 
3e09b112 
3e0d3ef8 
3ca9ea08 
bd00379a 
3e269fa4 
3daee27d 
be3188bc 
bc00dac9 
3e9c27f4 
be140094 
3d409ff2 
be129c1a 
3d2f028c 
bd1e864d 
3c89924f 
3d32e1b5 
bacf3096 
3e011512 
3dd39172 
3e00b330 
3e3691d5 
3ddac606 
3dfa5e6f 
3dec44b1 
3d739b93 
3c88229b 
3e2db3c9 
3e3c60c1 
bdc708e5 
3dbab714 
3d70c772 
be159d6b 
3dad86a3 
3cbecaf6 
be326e10 
3c341f9c 
be941884 
be8c2464 
befa0a2e 
beaf610a 
be862419 
be1a3be3 
bd6cfb35 
39bbf95f 
3d3973d9 
3d399f6a 
3ddac9bb 
3e88f1ea 
3e48d021 
3dc3109e 
3de2a1ee 
3e1c0992 
3dbf6b2f 
3d889867 
3e0b6eab 
be214a4d 
be5e18ba 
bdfebbf6 
be0c589b 
be851b6e 
bda69639 
3e7f43f1 
3e043301 
bd09096a 
bd8b24e8 
be1d9769 
bf0043aa 
3e4dbeff 
3d9ce39f 
bd5e604f 
3d8b00f8 
3cd63165 
bd3d2be0 
be478dc0 
be007fbc 
be01a596 
be3853ae 
bdc8fae4 
bbd7a30d 
3d661044 
bd1b8184 
bc8c5e9a 
be2ea065 
bd8ae94e 
bda17489 
3c5f651d 
3dc76f9d 
bdabf2e6 
be92261e 
bdbe80df 
b8d4966e 
3d81e077 
3d0b65f7 
3d20f95c 
3be40889 
3c6930ae 
3d696956 
3bc0b2b0 
be46d36b 
be08ab05 
bde8bd30 
bddb77c8 
bd806399 
3d3fe3ba 
3dfd58a6 
bdc348f1 
be781d00 
be963ebe 
3d5d5837 
3ca985ce 
3d475571 
be1984a7 
3d0a0e1a 
bd55fbc5 
bd17c0c3 
bd66ae4d 
be15f0f9 
bdf1a496 
3c917302 
3c36f7f5 
3b45b51b 
bb745a15 
bd14a2c8 
3ae8fb0d 
bd910972 
3e34058a 
3d1cdae4 
3e833372 
3e8bb6f1 
3e867c1f 
be15174a 
3c024847 
3d96d9b8 
be84ed5c 
be5d24d6 
3e76538c 
3e3645b5 
3cb60a9d 
bd7c51be 
3d5dfefc 
3e63e3b5 
3e2223e7 
be18c8ad 
be75ac87 
be3fa850 
be1c900b 
bdd7dbd2 
bc84c550 
3d64e553 
bb95a477 
3e075e06 
3e153797 
3e1245d5 
3ebd8e44 
3cc62d12 
bdd60c7b 
3e589f01 
3dacf977 
be63d238 
3cd6c7e6 
3e43a4bd 
bce88c3a 
be389f28 
be1ab1d6 
3db5b152 
3c219626 
be2b83ca 
bdd0438c 
bc5b3127 
3d8e5abe 
3db0db65 
3dcc7eb5 
be87dd10 
beb53b2e 
be2c7eda 
bcaa84e8 
3dd7ccbc 
3c87261d 
3dc82b80 
bcdb0626 
bd8eefe2 
bd69bee9 
be3c163f 
3e8e1d94 
3e66417c 
bdc258c4 
be456236 
3cfe435f 
3c958a7e 
3deb9a18 
bb354692 
3cb81f2d 
3dbc473f 
bc8bfd88 
bdae6c1c 
bd3a1479 
bd87d8c1 
3bde8990 
3daef8c7 
3e42c247 
3e2cabf1 
3dc9c287 
bebb330c 
3d7b9367 
3da3a5ad 
bddea836 
3c018812 
3e0318ca 
ba8a8f8c 
bda75d26 
3c1e208c 
3e64882b 
3e529031 
bc9aefa9 
3d32f9eb 
3dfce072 
3de30219 
be55784a 
be8467fc 
3d9acb70 
3c587256 
be0578e1 
bd4e0238 
bcd6c340 
be13084d 
bcc0c77b 
be020437 
be1aa5d5 
3dc405dd 
3e54725f 
beda16c7 
3d3bf6c2 
3d9c95d8 
3dafb9ca 
3dddf886 
bd8be411 
be8e3bee 
be820e70 
3d71f582 
be762eae 
bd960898 
bd6e372e 
be4166d0 
bd9a61dc 
bdbf1976 
be8d5b20 
bded2ee9 
bc11ee2f 
3c86cc04 
bdcdc346 
bd881f4c 
bd86ba16 
3c955d89 
bd29962e 
bdad54ca 
bdaaa47c 
3d24ac62 
3e830f4d 
bed2aed0 
bde40306 
3d7a4981 
3d936517 
3b8d81e5 
3ca78bf1 
beb23c18 
3d070486 
bd37c28f 
be92b8ba 
be8ac559 
be40f552 
be5f20b8 
bf05b54c 
be921a84 
be280f72 
bdb3e476 
3cb0bda7 
bd1c04fa 
bdc4659d 
bd8c8285 
bd1fc585 
bbbf3b8d 
3c507266 
bda179ba 
3d923986 
3de960bd 
3c8487c2 
bed07734 
bbb0255f 
3e034ea8 
3da88934 
3dd5dbd9 
bd9e7daa 
bdd93d3b 
bda19b26 
bdeb4dad 
be533caa 
be9fe5bf 
bdb7bc58 
be2468b9 
be9071e8 
be46cad4 
bda9b70d 
bdfcfca7 
be142ccf 
bc14d7b4 
3c9d1559 
3c8fa573 
3d288fb1 
3d925eec 
bdc2b338 
bcb17a79 
3914845e 
3d88b257 
3de4d26c 
beda5ec8 
bcc43ea9 
3dc89fba 
3d017aae 
3e72da30 
bdb4752c 
be8e2a8d 
be779580 
bdb89dce 
bded4ae1 
be75fd79 
be4df0f5 
be6b63c6 
be59f1b5 
be0eff8e 
bdca6318 
bce77005 
3cb143be 
bcfabc15 
3d105f3a 
bcf827a4 
3bde693e 
3d4c1026 
bd86dff5 
3d05f3b6 
3db94d08 
3cea109d 
3e1d078c 
be6ecc18 
3d63d57d 
3e23043b 
3c4a1535 
3ecf545f 
3d1271a4 
be4ea55a 
be282c84 
be70de4e 
be2a8f1d 
be5be9c5 
be43582a 
be739590 
be389caf 
bd927dbb 
3d761bdd 
3d1c732b 
3d5dc0d7 
3db53144 
3d498660 
bcac2126 
3db234a7 
3df2a65d 
bc0cc24e 
3dac043e 
3d375980 
be03b2d0 
bd82f8cb 
bdf3c0c1 
3d29f564 
bd1a1390 
3e6a5a23 
3e9ca2ae 
3df6cd4a 
be23d15b 
be43a482 
be953e52 
bdc04b59 
be3f1517 
be15fd84 
be2b434c 
be035da9 
bda25b4d 
3d6bdffb 
3d321467 
3d13fdbf 
3de99965 
3e400201 
3dd4e892 
bc423eed 
3dec25e5 
3e0bf544 
3da69fd7 
3e2d989f 
3a2409f7 
bf00ac43 
bdc51e8a 
bd63d1ab 
bdf096b1 
3e7dac17 
3df2ebb3 
3d369993 
bc874244 
be26b740 
be14e1f9 
bd13ae0d 
bc8d5086 
3dbeb6ec 
bbc5b1c5 
bd847850 
be5c9e00 
bc23025d 
bd42b041 
3d1c65af 
3d8da658 
3ce882a4 
3d1d3711 
bd099c72 
bd24ac4e 
3e07d843 
3d6fc936 
3e2a05c5 
3e142aa5 
be612c5a 
bd121114 
3dcd925d 
3d2dc32a 
3c96de95 
3dd13e44 
3c7ef8dd 
bd0a01c3 
be31afe4 
bd591b01 
3dd5e31f 
3c9ed0b6 
3e21d240 
3e049c5c 
bd0b5857 
bd078704 
3dbdb867 
3b5ef30d 
3cc44ffb 
bd9e7f86 
bd44b2e9 
3cf9a92b 
bd4468dd 
bd87b95d 
bdb6a348 
bd37c93b 
3d95e53a 
bd881fb4 
bd751a72 
3e09069a 
bd87adaa 
be18db26 
bb53dd39 
3d114c8f 
be99888a 
3d1cb6a1 
bdf64237 
bd8aa9bb 
3d027718 
3e07fba8 
3e24a6a2 
bd3b56f7 
3c460bac 
3d9ea006 
3d62da13 
3d324254 
3ca1afe9 
bcb0cb9f 
3ca38ef9 
bdd425df 
bd25b5cc 
b9e52e08 
bca6eccd 
be3dc633 
3b310d25 
bdab60f3 
bd8077f0 
3d9e8364 
bddc63b5 
be698de4 
bde5a7b2 
3cf04bc1 
bd9b3fce 
bdb90c2a 
be61cd53 
bde8afe4 
be3b923d 
bdca049c 
bd4048f3 
bdae7262 
3c3a7538 
3ddae796 
3dcc0066 
bda2645f 
bd25818a 
be222378 
bd093f8a 
be062efd 
bbe35d84 
be183496 
bdc703d3 
bd3bf69d 
bda6efac 
3d48fa4d 
3e0c3201 
be15220c 
be28adc4 
bdbac44e 
bda76571 
bdd2eafa 
be30dec6 
be5fc5b7 
3cb8b770 
bdc4d53e 
be448761 
be0bc15e 
bddc0c79 
bd61aed4 
be067c2a 
bd113615 
bdf1b4e7 
bca6a72c 
bd88ba07 
bdb9b6ad 
be0bb5dd 
bd34923d 
bd5a5584 
3d79629b 
3d128c48 
bcb7fddf 
be1ce016 
3d64af47 
3df54670 
be72025f 
bd6256a0 
bd669cc6 
bd98b317 
be3055fe 
be3a2211 
bdaacf2c 
be3fb69c 
be2974cb 
be68b106 
bea48c4e 
be945e93 
bdcccc76 
bd6849a2 
bdf1a7c7 
3d92e6c0 
3c3f340e 
bd3db377 
be236531 
bdc1b369 
bcfbfe47 
bda5da7e 
3db1fd1e 
bcfb35b3 
bbd69ddb 
bd265af6 
bd1ce482 
3d579063 
beeede72 
be5a45b6 
bb29a6ee 
3d8fd063 
be0479a9 
be2b3231 
bc11ae93 
bdc281b0 
be6a66f9 
bea2d791 
be768be8 
be63409f 
be6974b7 
be870b01 
be2bb289 
bcdf028b 
be0559e4 
bde4ea87 
bdf137e3 
bcf9683c 
3b69720e 
bd52872c 
3d946ae2 
3cb5016f 
3dd94aa1 
3ced78f6 
3c18a98a 
3d664f33 
bee650fc 
bce78d29 
3d8f46ee 
be00e31c 
bdc694c6 
bd9ea651 
bdfc059e 
be3e436e 
bde8fc7f 
bdd9792c 
bdd8d558 
be32fd9b 
be84ce65 
be9844de 
becb8dcd 
bea0d425 
be01766d 
bdc152ee 
bd4179f9 
3c771d90 
3bb19747 
3ce73e88 
bca3151e 
3d219b87 
3e0ab59a 
3bb1fca4 
bd5201e8 
bc8dcef0 
bef15394 
bdb6d16f 
bcb3af04 
be81b7b6 
bd472b8a 
3cdf7bb9 
be06fcd8 
be53a6b6 
bd71d603 
be026ecc 
bdf2ffa0 
be09fd0f 
be1b91c7 
be14d5a6 
beaf34ef 
be108197 
be2c2bd0 
bddc97fd 
bd90f18f 
3c582e3b 
bc0ec3f8 
3ca24616 
3dcb92e1 
bca2a5c0 
3d82b9b0 
3b85dd2c 
3d8048e6 
3dbb1c4c 
befe8aba 
bd8e15f1 
3e1fa4b9 
3c92f958 
bd95e8c8 
3e72c384 
3d19751d 
beb5bcdf 
be8013e2 
be5f4a67 
be3246b8 
be3fcfb6 
be6ca1dd 
be0b482f 
bdb2ca60 
bdc9f1a8 
be1ca47e 
bdb69549 
bd8008cb 
bb398110 
bd0edea0 
bbc36590 
3c904a8a 
3dc32298 
3d2c7b42 
3dac86c6 
3af03c26 
3d4fb426 
bf07a900 
3daf4d4a 
3e4a66f0 
bda7bd8a 
bdf965fa 
be9aee5d 
bea4745b 
bee4c013 
becee100 
bec6c165 
be718358 
be9d770b 
be4132c6 
be054384 
be0624e0 
bd95d715 
3cabae6c 
bd23bb8d 
bd473472 
3d50c647 
3db1a302 
3d1f18a5 
3d019533 
3bef4c4d 
3d5b854a 
3d329003 
3e0b2954 
3e145f08 
bef89a41 
bddd5343 
bd94118c 
3cc9eeaa 
bdff0d38 
bde0e8c2 
be5bff71 
bec4e864 
bedb93dd 
bec31ceb 
be86b571 
be78ccb7 
be89732c 
be65585a 
bdb8e1d4 
bc8c23be 
bd928f6e 
3db61e8c 
3da07dc1 
3d99a03e 
3e0a66fa 
3d0c777e 
3d6ba059 
3e20185a 
3d836884 
3e1ce76c 
3dbf9583 
3e19d8e7 
bf0b1f70 
3e2bf446 
3e15fe11 
bcfdbb65 
bc8fe602 
be51e20b 
bdf29468 
beaa31c8 
be359dad 
bdca6e78 
be058699 
bd5d859b 
bdddf0bf 
bd0f90b0 
bc14402b 
3e01b5bc 
3c3cfdec 
3ce8627e 
3da98ab2 
3be5c084 
3e1f33f2 
3d7498c6 
3e0e61c2 
3d046605 
3c2f0263 
3dc45b32 
3c64b246 
bd8404d3 
beada3dd 
bdfc0277 
bdfe256f 
3da73c49 
bc98cc0e 
3e5340f7 
3df9d3a8 
bce8f9df 
3c953ef8 
be036136 
bd989ba8 
bd6ab7e9 
3cbeb1f5 
3d5a0314 
3d5a6710 
3d90f446 
bd1354ed 
3d8b5a99 
bdacb964 
3da6a8ca 
3d4f4f67 
3d69bf4a 
3d9e4107 
bd86c0f8 
3d755885 
3bdfa2c0 
3ca4b4b8 
bda241e3 
bdb36f01 
bd562714 
3dc2e4bc 
3d6b1813 
3e439a60 
3e08d0e7 
3e1ca483 
3c82a0a2 
3bb452b2 
bc370902 
bdf55df6 
bda31921 
bb1c266a 
3d14375d 
3dd11bc8 
3d49ad62 
3dca29c4 
3c226d53 
3d146b32 
bc83abdd 
3d7f9bbc 
bcd41a99 
bdb634e0 
bd402678 
3d9cb25b 
bd584885 
bc5dc403 
3e1c6781 
3daefd74 
bd1a6703 
3e07d159 
3e842dcf 
3e19a67f 
3e456fa0 
3e592b25 
3b93fc9b 
be06512e 
be1b3fb9 
3c07abb9 
bdc0b029 
bc13840b 
3e1d365a 
3d936d01 
3d97815b 
3d306c35 
bda6bd74 
bd682467 
3d920cc7 
3c454a03 
3d2b9c3a 
3d994687 
3ca2017d 
bbba343b 
bdade1e6 
3df170d2 
bdfdb15f 
bd3c005c 
3d327019 
3d3f2ec8 
bd944539 
3d43715b 
bdce0b79 
bea4d7dc 
be6aaa4c 
be0fc22a 
be57c5bb 
be1eed60 
bdff0c56 
bd855818 
bd5ecd2a 
3dab124c 
3d62bbf2 
bd5284a3 
be9930c2 
bd9a392a 
3d98b927 
3db3b78c 
bd59b61c 
3df9356a 
3ccce69e 
be0e37d6 
be213b0c 
beb7f1c3 
bd21ebe4 
3cb5cf22 
bcd87a00 
39c1f973 
3c4c9789 
bd0bef0a 
3d3854c9 
bc389857 
bc0dfaa0 
bd7fbc9d 
bd5c8e74 
bdae19ea 
bdb9282b 
bc40d7fb 
3d70ce35 
3cfdcdd3 
bcc572f2 
bd3a2ef6 
3d4c64fd 
bc8485f7 
bd05139b 
bc88bf6a 
bcc02c8c 
3aeb52da 
bc10facc 
3d77024c 
3d89b455 
3d91f5ba 
bc4fb932 
bd1df5c5 
3c9cf026 
3c8ff462 
bc913ddb 
bdf30fa2 
bc860245 
3b011d76 
bd4cb383 
bd131697 
bd462efe 
3cb0d21d 
3dc9d5ae 
bdd12c56 
bdaa1aae 
bcff4ddd 
bd8ea6fb 
bd80e5d3 
3cc15f5b 
bd95be4e 
bc1b6250 
bd1e8865 
bd964263 
bd873012 
bd35694c 
bdb6794c 
3cc6bc47 
bc45a40e 
3c99f60a 
3d9bc18e 
bd81e3df 
3d304f53 
3c4e9ad9 
3d5b7eea 
3ccbdaca 
bc118f44 
3c100c90 
bd2c57f1 
be09b18a 
bdd1418c 
bd6fef1b 
bd832d95 
bdbf59a8 
be140fc0 
bcbc476d 
be233806 
bd1e2711 
bd81f019 
be13b704 
bdfaffad 
be64c230 
bdc892dd 
be29dfbd 
3c24130d 
3cac26d3 
bd415b07 
be1b64f3 
bc092414 
bca9ee6f 
3d02b7f3 
3e03d0d0 
bca684c2 
3c0e9e2f 
bda0dcbc 
be42da4e 
be148195 
bd0f6538 
bc3f0939 
3e90e2e5 
bd746c6c 
bbdaaaf1 
be97401e 
3e0a50ba 
3e04a0de 
3e1760cd 
beaeae85 
bef322d1 
beba9164 
bebce4be 
bea066d4 
bdbd9362 
bdc8a915 
be81423b 
be2d43fd 
bd013dbb 
bd8b7903 
3d7df935 
3c8b70a0 
3d403790 
3c6813b0 
3d837471 
3db7b7fe 
bca95aa7 
3d69ee77 
3e4598c0 
bd4033e1 
bd0e209e 
bcb22d91 
bd5ab937 
3e003071 
3da091a2 
3ccd06b7 
bcfe6177 
be7a4ee8 
bea3ce8c 
beef3472 
bed77eab 
be71034b 
be5068cf 
be84e86c 
bea0a471 
bebcbc7d 
be420916 
be81245a 
3e1e42dd 
3e63c88d 
3eb10b84 
3e9e42b0 
3d7d8861 
3cc46d8f 
bd07edee 
3e6f304f 
3e1929a4 
3e1627b1 
3c2b4d25 
bcb05e94 
3d13ccc0 
3d461aa3 
bdfcf74e 
bd5742d9 
bc1427eb 
3b503de0 
bdc121c3 
be55aff6 
bdf7ed01 
be5d264e 
beb6f317 
bf192a84 
bed2f2e6 
be9596f9 
bef81b4a 
bec7cd55 
bd8812bd 
bca2294c 
bc53130d 
3dfcc837 
3e9324ca 
3dcfcd4b 
3dae85f1 
3d5e70fa 
3d8c68e2 
3e1df867 
3e0aef52 
bc45e2b2 
3dfaade5 
bb80d871 
3d31effa 
3c777d2e 
bdf4569b 
bd06003b 
be04951a 
bd52cc9b 
bdb02809 
be9e2761 
bed37c82 
be8a1090 
be908d1d 
be894028 
3d93c810 
beea5278 
3e201366 
3e80abdd 
3e93b815 
3e5b8e8a 
3eba1b5c 
3ea15a63 
3e0ed801 
3d968a81 
3ddefd50 
3d893524 
bca29bf6 
3cf018da 
3ce16969 
3af2fd6a 
3d40d595 
bd1c47e5 
be559a8b 
be327774 
3da48d9c 
bd877601 
be78df18 
be8745c0 
beac8702 
be91b51d 
bdf540ec 
3e3caba5 
3e44d3b2 
bf094a7a 
3e027d6b 
3d81a911 
3d478752 
3c47ebd0 
3de8552f 
3e7d2631 
3d7bb1b7 
3e2f0ffa 
3dd8a807 
3dd8d75c 
3e524da2 
3dd664e5 
3db08366 
3e3de602 
3dd9b4e5 
3d59efd4 
3d2a1794 
be1063fc 
bdf4b27b 
bdef4225 
be279646 
be74a52d 
be486de7 
be0a92a5 
be43fa02 
bdef1892 
3e05055d 
befbdcb5 
be2e1b85 
be4a7309 
3e1a2024 
3dcdb387 
3e729301 
3e34af7f 
3deace00 
3e6526bc 
3e7ff5c4 
3e273ba4 
3da2db09 
bd10bbc6 
3e2721b4 
3c2afeba 
3ccd2a7e 
bc4ef931 
3d167220 
bca5504b 
bda5c652 
bd9459c7 
be1ff986 
3dc44a38 
bdcfa340 
be1e3228 
be31f55a 
be816457 
be556870 
bedafb35 
3dfe1285 
bdf69f93 
bd0e80f9 
3db06b6a 
3e36a675 
3e4634a8 
3e36b67b 
3d9e8404 
3e69f0da 
3e2813a9 
3e429e8d 
3e2f3475 
3e004556 
3e00fa9b 
3d17b6fb 
bdac807a 
bd183745 
3bb50e3d 
bdaed38c 
bd9966b4 
3b9e2464 
3d196f7b 
bae942b5 
bd46a643 
bd99eaf4 
bd8d9912 
bf144183 
bea73e92 
bc9ce70e 
3d7452f5 
3d9d23c6 
3e0dba46 
3e45b943 
3e6e32ba 
3e1435b2 
3df7d78c 
3e45cafb 
3e44b8c7 
3d74706f 
3e0e2332 
3d51877f 
3c60d166 
3dfb76c4 
3de8afd0 
3de75bad 
3de9a3ac 
3da0200b 
3d7370ee 
3ddc892b 
3e1f5139 
3d8b1d0a 
bd237d6c 
bd2e4239 
3cbb0654 
bf43a9cd 
bd4e2cf2 
be8381aa 
3cbbedde 
bc3b42d7 
bd009982 
3dc47783 
3e07c507 
3e8186b8 
3dc41fda 
3d77c956 
3e277016 
3cca0dc0 
3d159b4b 
3ca1dc3f 
3bee1ee4 
bcd72497 
bda3fad4 
bd1110af 
3ce014c2 
3de3f844 
3d2ce36c 
3d6f4fdf 
3dd0e242 
3dc1fb12 
3d2e0e04 
bccb77ed 
3d56f4c7 
bed439b0 
bcacd045 
bebde4b6 
be8e002f 
be8eee8e 
bc9fa53c 
3e9c1156 
3e87cc1b 
3da7d745 
bd7795fe 
3d45c572 
3d61fdff 
bd2ed3d2 
3d7f31bc 
3dc72650 
3df92295 
bc672427 
3dc669e8 
3b554c8c 
3d958e31 
3c919626 
3daece19 
3d72a697 
39aef343 
bc6c2d05 
bce2988a 
3db6a762 
be04f43c 
beac9661 
3d066091 
bed0d9ad 
be498225 
bdaa1690 
3e416d7f 
3e334bb7 
3db053f5 
bc1cfe0f 
3dd7a7a0 
3df8cb84 
3e01fcad 
bded943f 
bd5393a7 
3e0912c2 
3da4ead3 
3c2012ed 
bcf7d7d4 
3cf3673e 
bc831a03 
3e2093b9 
3c8a7ade 
3d2805b8 
be1f1e81 
bda4112e 
bdb4bfbc 
be5d42a6 
be78a939 
be631fff 
bdba17ed 
beb9c2c9 
be36486c 
3e14f90d 
3aab1d72 
3b00148d 
bd787786 
bdd59f7c 
bcdae962 
bb9468b6 
bd053240 
bd2f3c35 
3cae63ff 
3d8ba08c 
3e167a83 
3d18af22 
bc95f9e7 
3da5842b 
3d66c1c3 
bdc5e42c 
bc2739f7 
bdb234e5 
be284be9 
be86b823 
bec3e2cf 
beb3f0f7 
3d1b5604 
3ca98f94 
3c995f27 
be178fe9 
3e16a2e3 
3d06b03c 
be5fc807 
be737194 
bda0e290 
bd89e813 
bd4dd743 
bc9970c1 
3e131a93 
bcb4dc15 
bdc74a13 
bc816b05 
3dd7a052 
3d641b3d 
3da066e2 
3b6e5bd0 
3da77319 
3e0647cb 
3d089eac 
bb0e2524 
be413d2f 
bddb4812 
be9a7053 
bcae93b7 
3e203936 
3e60502d 
bbac5045 
3d386c4b 
be91d3c7 
becb4e70 
be9d9ddb 
beb75e87 
be3c56ff 
3b194a1e 
3de36311 
bca21cc8 
bd9bf3c9 
be5f8948 
be1ecf9a 
3c51a3b5 
3df18be8 
3e48c346 
3d8e1fd8 
3e39020a 
3e7d3914 
bc81d275 
bdbd9f73 
bc7d7e3b 
be3b810a 
be0a9a73 
bdb200f7 
3c69a372 
bd8a452d 
ba8e584b 
bdd385c0 
bdf926b4 
3d5259be 
3ca7c058 
be4748a6 
be515550 
be54ee4a 
bc82f68c 
3caf8163 
bab4780c 
3b477ffe 
3db70e63 
3d9d2553 
3e1bd2ea 
3df823b0 
bdcbafb0 
3d755c0e 
3da4511b 
3d8532ce 
bd900cf4 
be092d7f 
be39c1e8 
bdfd86d4 
be2fe43f 
be1dd483 
bd8c1797 
bd597288 
be750b60 
be990828 
bd1620fb 
3e6fa62d 
3c2a94c2 
be374329 
bde432e9 
bdaed7c8 
be6fd701 
bdc4144b 
bdbe3e53 
bd61f315 
3aa22b35 
3e05754e 
3d545b19 
3d4596af 
3d9d804d 
3e1b86e3 
3e3d753b 
3e313581 
3c0fb631 
bd3dc908 
bd54f8fa 
bddbb04e 
bb3e43b5 
3cdf62a5 
bdd06fd8 
be242c8d 
be642b9c 
bec4323f 
be0bf46d 
bda93aa3 
3bd83c2e 
3dc97820 
3da7486a 
3c5c6deb 
bdc1fb87 
3b3d832f 
3c5d3d97 
bbfa59ed 
bd1be6bb 
bdcbe3ce 
bd5b4865 
3ccbfd54 
3d99ce83 
3d8e20b7 
3d264505 
3e009fb0 
bcde1109 
bd9954c8 
3cac3ad0 
3d8fe11a 
be19ceb7 
bdfc44c5 
3c1b5a0f 
bc8b4b8c 
3dc5447e 
bf0467dc 
bdc4a082 
be36b768 
bd4cb763 
3cd25abb 
bd4602fc 
3cd0d534 
3d43986f 
3d56a930 
3d2211b7 
bc1ef78b 
3c85f02c 
3d96706f 
3cd6073f 
3e1d6bbd 
3d3f8225 
3dc3675d 
3cc01524 
3d9e1a29 
bc514f4c 
bc0cd03c 
bd54dc06 
bcf13419 
bc39c325 
3c9504a2 
bc8d9a9e 
3d1f394f 
3e343232 
beae20be 
be467fb9 
bdec18bf 
3d538a18 
bdf87673 
bd9b01ba 
bdf0ddb3 
3d002256 
3df5de76 
3d233976 
3d23b33c 
3b22e689 
3d9444ae 
bd4bc9c4 
3d384fc6 
3dc94579 
3d8dacb6 
3d041bd5 
3c73bcaf 
bcfc4c24 
3cd2132f 
3caa8fc8 
3cb19b13 
3c840341 
bdf4316a 
3b822141 
3d1f7156 
3df15e9b 
beab5374 
be26be06 
be2cdf5d 
bdc25698 
be273806 
bd8f6f32 
bcea342c 
bd6800b0 
bd494393 
3c422220 
3df4a968 
3e08853f 
3d9bd190 
3deac0fd 
bd20c3c1 
bdbe4eb7 
3d92ec54 
bdc38a60 
bdbbccf3 
3cbbfe8e 
bd70a0ab 
3dfc9340 
bcfa7475 
bd409e87 
39978d1b 
3d3ab04a 
bd528cc1 
3db56db7 
3c489a8f 
bc056e21 
3d3f1ee6 
3c9fa221 
3da4bf6c 
bd7c4039 
bd989001 
3a4f075b 
bd636853 
3ccc3b01 
3d651b35 
bd07fd1b 
3d81869d 
bc4092a8 
3dc17874 
bb8122d5 
bbdb805c 
3c4ca001 
3d866ee0 
3c53eb2e 
bd0c8a02 
bddfdf5b 
3dd5a7db 
3d85c3ba 
3d88cf2c 
3be1f5e1 
3d3ecd38 
be27eac3 
bdd93468 
3d3ad075 
3ec9b5f7 
3e81ec91 
3dc022e5 
3ddda836 
3e19dccc 
bd7f51e1 
3d861667 
3db60549 
3c3797af 
3d1e91e3 
3d1650c3 
3d9d2ece 
3dfbc594 
3d67c1b1 
bcdf4bbc 
bca70077 
bdbd5bcf 
bc17636f 
3cd1960f 
bbdc430a 
3c974b33 
bd0234e4 
bd6c29d5 
be030bd3 
bd094d5a 
3d48a102 
3bfba591 
3c1e7277 
3e115796 
3e8e5fb9 
3e76b4ac 
3e8274d1 
3e57d50a 
3df430a1 
3e05f653 
3e12fb58 
3de07ed0 
3d61e5f0 
3e206a5f 
3e02c3ac 
3dacb975 
bd54d92f 
bcf47d23 
3d792bbe 
3ce43390 
3e09286d 
3dc61585 
3d6f792a 
3da3317b 
bd820bb0 
3d1ce0a2 
bdf74c20 
3d82747c 
be1a0324 
bd9ec436 
bd49423f 
bdd9860d 
bd622586 
3d637695 
3d29e5e2 
bbb59507 
3e80dd38 
3dccde51 
3c224fbb 
3dadd381 
3d73a1bd 
3dd70aa2 
3e0f2399 
3e190a3e 
bda333c3 
3da00273 
3dcac3bf 
3d86d5d8 
bd61e68d 
3d7b6115 
bd768e64 
3d94ca83 
bd68b205 
be3d4bae 
be0a4659 
beac4745 
bd930d77 
bd8b5ea8 
bd944d2e 
bc2664e8 
bc845708 
be31f28e 
bd97ce63 
be1b3616 
be4d6d98 
be2e32a5 
3b8f4345 
3960340d 
bdef6b14 
be31c3e9 
bc1077b8 
be096af5 
be74ed04 
3af5b797 
bd066a92 
3c86a5b3 
bda4ee7a 
bde846c6 
bb8eb440 
bda8ac8d 
bdb6c523 
be2ccf57 
bdde7fff 
bdd11015 
bdcaf7f2 
bccf1bc7 
bd63defc 
3cdfc80f 
be1c7eae 
3e0ab5bc 
3e261d25 
3ead1d99 
3e2e0e92 
3e836da7 
3ea4e116 
3e508b56 
3dc427bc 
bde15e70 
bd89ed23 
be3ac05b 
bd4c41c4 
3e45120c 
3e173599 
3debb679 
3e32e8e5 
3db4fecd 
3daeefbf 
3e49b644 
3d2a2b08 
be0eb2ad 
be881c67 
be66ee88 
bd6f4215 
bd871726 
3d77a3d6 
3e975ef9 
3ec49273 
3e7e7bb1 
3df2cca3 
3e5b9776 
3e12d69f 
3e41ff9f 
3e06c49f 
bc464ad9 
3d90d124 
3e027078 
3d363255 
bcc14223 
3de3d4ac 
3e4e5dbc 
3e070a0b 
3df0d2ab 
3c4ac4be 
3e0a70c6 
3df9af33 
3e354d37 
3df8e4a8 
3decf20f 
bd390f51 
be9f27a1 
bed42dc0 
be311aaa 
bcb5baf4 
3db35d79 
3cef7334 
bdcaec95 
3c4edf9b 
bc62c496 
bd011bcb 
bdc1dd5d 
3ce7ce79 
bdac83c8 
bd70ca98 
3dad0088 
3d845aab 
3dd581b5 
3e2bfb1f 
3daeaeac 
3d7bd253 
3e2c297a 
3dd41204 
3df624ba 
3dcaace7 
3de03a08 
3db85535 
3e1878a8 
3e2c3ed6 
3df31a0b 
3da534af 
bec5462f 
3db7d74f 
bdfe4fc4 
3db626a2 
3cd5a7c5 
39bc0d2d 
be57889c 
bd5ef3fb 
be021c22 
bdec76e1 
bdac0344 
3e0e18a8 
3e265f5c 
3e159641 
3dfd35ab 
3dae554f 
3d82e04e 
3e18d82b 
3a8412fd 
bca6f2d6 
3c66435c 
3d5d2385 
3e152350 
3e1066a2 
3d780317 
3e35be40 
3e346715 
3e9fa49f 
be8f936d 
be1922f0 
3d795b49 
bc83cc8e 
bd8ed07d 
be0ae3dc 
bd6221c3 
bde9dc7a 
bd33172a 
bd3cba11 
3d44ae70 
bba2b562 
3dc18ed2 
3df3e749 
3d168d8f 
3db94300 
3d59a82c 
3d37d27a 
3dce43e4 
3d8421fd 
3d26c64f 
3e010de3 
3d874d76 
3d66ea0d 
bc514b09 
3d5f92bb 
3c81f7a9 
3c618086 
bea8ab17 
3d49dd2d 
bd0522cc 
bc942b2a 
bdac1156 
bd003133 
bc63fa53 
bd146662 
3d501c8a 
bd809104 
3ddc54f1 
3ca71826 
bd8f98ff 
bd00b796 
3de25da4 
bc5474ff 
bcb4cdf1 
bb65310e 
3bcb8988 
3d14a85e 
bd336375 
3d182e0f 
bdcd47c7 
bca30ec8 
bc3ceefb 
3bdb2684 
be46f56e 
bf4921b1 
beea1f3e 
3e20f1c8 
be2d5773 
bde48c87 
3c6907e5 
bd20c648 
bbe114f9 
3bc84b31 
bd1183d5 
3d3aaf1c 
bc9d9b2a 
3cc4fec9 
bc3ef5a9 
3ce900e4 
bdd8d069 
bdaa7119 
bc103cec 
bd3064d4 
bca8543e 
3c3479ce 
bdce355a 
3d1e48af 
bd825a15 
bcc9acfc 
bcea8c86 
bc0915dc 
be536875 
beb4a664 
be9ea6cb 
be605101 
3d23db83 
bc463d17 
be098605 
bd0ae47a 
bddf7b91 
bd917306 
be22738d 
be1a51a8 
bd7010a3 
bd03a8e9 
bdd0c09d 
3b2a86e6 
bd856376 
bd3f7a4c 
bd842b61 
3d591b76 
bd756cc5 
bd066693 
3c101269 
bb96b693 
3c7c1552 
3d81072d 
bd4f97ab 
be46300c 
be8e0f85 
3e20987e 
bd0f1b9e 
3e09610f 
bd2e0247 
3e0af6bd 
bdd0e18d 
bd3b2923 
bdfcb6e9 
3cbb3d55 
be35d584 
be39b084 
be05b68d 
be1c0392 
bdf39b6a 
bdb21cff 
bcc0b8d1 
3d095976 
3d2a3657 
3dd11bc9 
bce07521 
3d9e5706 
bdcb77db 
be0b92bd 
be0fab18 
be37955d 
be102c20 
bedbd4e6 
bef36f8a 
3d33298e 
be972f5f 
be97d6a6 
be0888ea 
bc2d5e26 
be05dcd4 
be7c432b 
be2eb827 
be4af8b5 
bdd38a44 
be33fe34 
bd924d80 
be26e275 
bd916319 
bda39d59 
3ddfbaa8 
3d27105c 
bce25814 
3e0e200c 
3d5c5c3e 
3e058194 
bd475bc3 
bdd361ec 
be206fcf 
be7a2514 
be7e85b0 
be6f4fef 
bea7e4c7 
bea5f13d 
bf254c35 
be5cdef4 
bef4d580 
be207f28 
be3f0118 
be17677b 
be24c3fe 
be07a294 
be347630 
be348a29 
bd8a015d 
bdb5e377 
bcab573b 
3c36d99d 
3e0e51dc 
3d2765a4 
3e3c3ecf 
3e1b98de 
3d80a38f 
3dd376a5 
3d17e8f4 
3d22013d 
bcbfa7bf 
bdc4e750 
be1228e9 
bde216c7 
3d049ad4 
be246b05 
bf18c724 
bde50eed 
bea952bc 
beb2dc11 
bdcde3d3 
bbceeff5 
bd68ec06 
be0023c0 
bd243287 
bd4396e1 
bda0fb31 
bdc91b05 
bda8fca0 
3e12f4db 
3dd26164 
3e3e3b60 
3e470c55 
3e832dce 
3e0f30c4 
3dc6cd4a 
3c90341d 
3b3c5ceb 
3de1a1fb 
be305bfe 
bdf36f2a 
bca2fdf2 
3d9298ee 
bd460351 
bec4c1de 
3bc320ba 
be16a4a8 
3dabeb80 
3cbc57c0 
bc80904b 
bdb3d3f6 
bd5aed19 
bd216400 
3b580fc3 
bd54e8e5 
bdc67402 
bbc27807 
3d145d06 
3e19808e 
3e4cbe9e 
3e336514 
3e1df333 
3e5103a3 
bd91125b 
3d5b55be 
3c966505 
ba401bdc 
bd939d5e 
3cf8bba8 
3d2916fe 
3d0f65ac 
bea4779a 
3e2cd95f 
bd45d08f 
3da7b533 
3d0d351d 
3d618592 
3d241ece 
3d1a7000 
3c54031a 
3d0bbc40 
bd940708 
3c4e184e 
3bfcada5 
bca1d864 
bb860169 
3e0d1e80 
3e5de607 
3e99bf56 
3d86fd13 
3c8a57c2 
bd1452b5 
3ce50f4a 
bd44e92c 
be1c1921 
3d8db398 
3c7512ec 
3e003233 
3e2881ff 
bde789b1 
3ce5d408 
be194031 
3d8720ee 
3c85a6bf 
3db581a2 
3e557455 
3c9d252e 
bd9dae27 
bdd2fdcd 
bd209cda 
bb5f2bce 
bd7585e7 
3c5aba50 
bbd751bd 
3d9d236b 
3e0fd145 
3d50101c 
bd1e2fb4 
3d9fd025 
3da4dfc4 
3dcd28f4 
bd043204 
3d47ceb3 
bdc0bdfe 
3dad84b3 
be0032e4 
bd936638 
bca96e5d 
be0f5de5 
3cac32e6 
3e1254f2 
3df3fe56 
3e2a7607 
3dedf25c 
bc8d1fb0 
bd214855 
3d99cb79 
3df333de 
bc119fde 
bd11ae93 
bdaadd09 
bd0ca447 
39f32d1e 
bd8ab929 
bd92345c 
3bdcf3c4 
bca46e77 
bd1c2533 
bcdf8162 
be0bece7 
be0dfbc6 
3d3876a4 
bc24db6b 
bcf79d67 
bd3965fd 
3daf1767 
bcd56157 
be63bf36 
3de0fa6f 
3dee17ef 
bd7129c4 
be108497 
3d2f9c86 
3e355e88 
3dd5f96f 
3cbb9900 
bcffe280 
b99685bb 
bcb4054c 
bcf9e4bb 
3cefa6a2 
bd1bf4bc 
3c7fa265 
3c86491d 
bd22a796 
bdb088ae 
bdb7dc46 
bd7d6d86 
bdadebc0 
bdcadfa4 
bd10c872 
bca60030 
3d537e79 
3df78bb1 
be326523 
be7c8117 
bddb344c 
bd3ee881 
bd69d972 
3d408128 
3e1e2af6 
3d6d368f 
3d67b653 
3d4e682b 
3d571d48 
3d16b3e8 
3d524d40 
b916c837 
3cef875c 
bbddd095 
3d3e4126 
3ca4f7e9 
bd1bdabd 
be0fc463 
bd00b2d6 
bd6f4fba 
be23443a 
bd95d84c 
bc3d57ad 
3e2dc3d0 
3dfd22b8 
be6151bd 
bee4ca04 
be75c970 
be8572a6 
3c1bed42 
3d7ae6cc 
3dbbabbc 
3e0a8e4c 
3dd9bbea 
3ce67cd8 
3d940430 
3d18e96a 
bb3f9b81 
bd4f517c 
bda09653 
bbe98388 
bc682bba 
bd827924 
bda1d051 
bd6ffaf1 
bdcecfe3 
bd4ddfb8 
bd91bcf8 
bd9c3d2f 
bdfa6879 
bd2544b5 
bcdd8e2f 
bc5724bb 
bed65533 
beb401d3 
be18a1b8 
be674fa5 
bd465aa9 
3d10ea2f 
3c038b3d 
bdcccc25 
3da473b7 
3dd6abfa 
3cd19ac6 
3df98862 
bd88514f 
bd8c796d 
bd0052e0 
bc15c7ea 
bd55661f 
bcc769ec 
bd8e06c4 
bd97ef3e 
be4bf6c1 
3db90c2f 
bd76778f 
be428886 
bd8fe18b 
bd05842f 
be51ee2e 
bed3f4c0 
be6c27e0 
bef332c1 
bd66e339 
bcc8b088 
bca30562 
3e0053ef 
3a8818c3 
bc1c0f3c 
3cb61e28 
bd837a81 
3bab8e8a 
bd4b60e4 
bd099685 
bd2e5f9e 
3bfe1a5d 
bdd416b2 
3bf93b05 
bb6d9fef 
bb13e5ea 
bd68670f 
bd3e019b 
3cf36b5f 
be1b4278 
be3d9fd0 
be33b976 
be8a0cc1 
be88be2f 
be856d36 
3e1672df 
bee73350 
be5cd2fb 
3cacc334 
3e5e4209 
3e336e4a 
3e1cf3e5 
3d0b24d5 
3d3296b6 
3e1fb0a3 
3bb2922b 
ba460810 
3dd3e54f 
3d038770 
3d22bfa1 
be1d3fda 
bc091426 
3d480401 
bc83495b 
bcc1260d 
bcb1efb6 
bdefb832 
bde94dd8 
bdd2c02d 
bdb9c2c4 
bebf4c94 
be495a00 
3dbe9b5c 
3e51a581 
bedb0c52 
3dc00548 
3b4f9a3e 
3e628dcc 
3e598c9c 
3dd95098 
3e209562 
3e434a29 
3e65da10 
3d23ed0a 
3e0478b5 
3d68625b 
3d1874c0 
3c2172b7 
3c32ffee 
3dc3a230 
3d1b600b 
3db80d03 
3d413722 
3b4cbd1b 
bd81fbeb 
3da3d492 
bd6803f9 
be2c69f2 
bdefb16e 
3dbf74f0 
3d1446d9 
3cf92bfb 
be8fd230 
be88a7ff 
bbce130e 
bdb6411e 
be167209 
bd1ddaff 
3dd776db 
3e1df492 
3e83ee0f 
3e20902f 
3e22ab4d 
3dcabc51 
3e1c367d 
3e2b246d 
3d5fb7a3 
bc091759 
3db323da 
3d9763fe 
bd9390da 
bcd02bde 
3de5dbd8 
3da27ef1 
bd94c16d 
be0c540b 
bdb1eb9d 
bba502a5 
bcb60935 
bdaf6a0e 
3d20c3be 
3def12d9 
beaa0c96 
bd8f6f5e 
be6bcc68 
bd0a6575 
3e37d874 
3e785992 
3e4f292b 
3e13beae 
3db2ddbb 
3dd381be 
3cf34d41 
3d9b39a6 
3dd3e4ee 
3dab922e 
3e5b9f32 
3cf49a48 
bce69315 
3cd4edd2 
bd5a613e 
be3bb56c 
be2ea137 
bcc94f83 
bda093f3 
bbc11ff6 
3d6735d1 
3de34d41 
3df46c8f 
3dea7c44 
3ec0726a 
3cde2ea8 
3dc02e34 
3d987e4c 
3d49c88f 
3e69f194 
3cc87aaa 
3b879691 
bcbe05e3 
bdc6066a 
3e03ce40 
bd5ecf39 
3cd565ab 
3e2ea3f0 
3dc84503 
bc8cb414 
bc8b9f1b 
3e00beb0 
bde55024 
3d39ce60 
3e4bd35c 
3dcdde82 
bd4aaeeb 
bccf7b63 
3dff5f78 
bdf11f31 
bc79634e 
3cf9da70 
bd5e34cb 
bc5c2b70 
bb2d33e2 
bdbd0227 
3e114edb 
3dd0b937 
3df49c1c 
3dea17db 
3e5782c7 
3de71c5d 
bd023c79 
3dbfed28 
3d667571 
3bc8bf91 
3dcfff76 
bd03db0c 
3da32044 
3e75595e 
3e1d4047 
3c0bfc15 
3d8b5caa 
3b6cf907 
be51d2a6 
beb7a060 
bed092c7 
bd9e83b4 
ba3b32c1 
bb11acc3 
3b8e28fa 
bcc4aed6 
3d6ad442 
be586b6d 
be67c9e8 
be11527b 
bb9f3096 
be41c0c1 
be728294 
be59f2f6 
be9c73b3 
be84ff8a 
bea77b54 
bdd65edc 
bd9b5785 
be52e3c2 
be8cf50f 
be361896 
be5ffd1c 
bec36284 
bede7af1 
becf18fe 
be2c4f73 
be4d45bd 
be7d07b6 
be0c181d 
bdee83ff 
3e00660b 
bd61f877 
bd0c1888 
3c9505ce 
be6937fd 
be97e573 
be92dded 
be822d6b 
be05c4b7 
bdee404c 
beb94f3e 
bf043919 
be4763f3 
be6a7405 
be1c9b84 
beabaa2a 
be28e9c2 
be058d4c 
3daf45d4 
be47674c 
bee65be5 
bdc1ec78 
bd4b2170 
be8b6ed0 
be88712b 
be9f7347 
be524c1f 
be82a1f5 
3d4d2f05 
3c835e10 
3cebfa42 
bd0b1ae8 
be8c3b33 
bd96313e 
be03ba1d 
bea2c6c1 
be96b3af 
3cfa9f73 
be809379 
bec839a0 
bead520a 
be03a140 
bd32865a 
be02b102 
be9426d6 
be5e7265 
bd7cf606 
be1da28f 
be77d6e7 
bdb35a3f 
b9ddbf9b 
3d4171a7 
3c9a0d33 
3e23bb83 
3e7cdacc 
3e094ffc 
bcb329e3 
3cdc4ea8 
bd400e08 
3ca619e3 
be8f2b2a 
be53f764 
3dd39da8 
be37459f 
bd88ef22 
3d405605 
bd1ce95d 
bd1e2674 
be4bf5d6 
3bb2020e 
be167ee2 
bd2c8816 
bde6bd29 
bdcc50aa 
bdb671d5 
bdcfc879 
bd9ad24b 
bcccdfb0 
bdde1660 
bdce3498 
3cdf4392 
3ce175c7 
bd18a23f 
3d2167bd 
3e127f1d 
bcc9e2e6 
bdd87b6b 
be8b618a 
beb7f4a4 
be71539a 
3d082996 
bdc99aa9 
3b97a938 
bce5920b 
3dee5433 
3e18f554 
bc3098ee 
3de92e3a 
3db306ab 
bd65560b 
3c04c024 
3c9b174c 
bdfdf801 
bde24962 
bdbf9038 
3d78fa2b 
bda50f2c 
3c35ecb6 
3d6efae2 
3e2c3c4c 
3cb90b67 
be139370 
3ce3e841 
bd9d6ca9 
be8008ab 
beaac6e7 
be8a5cf8 
be60bc31 
bdaf3a12 
3e4179a9 
3e6dcc22 
3d2c78a3 
3e6b2319 
3e939a83 
3e58e67d 
3e945f39 
3e54e245 
3e485499 
3e352cf2 
3e126f2c 
3e550f13 
3cecb3b8 
3de3bb7a 
3e12cee7 
bc210121 
3c92e34d 
3c7b1252 
3d676c59 
3ca868b9 
bb4e5c42 
3d8f922e 
bd93a505 
be62f3e8 
be967250 
be656b4d 
be8d22a2 
bda79bb2 
3e837efa 
3da93f47 
3e216d97 
3ea2cb9f 
3e7cf926 
3e6dfa3c 
3e585603 
3e9238d4 
3e32b2f9 
3e329dd2 
3e94d873 
3d7fc840 
3d90d60e 
3d8bb8df 
3dc07fbb 
3e131beb 
3db090d4 
3d224763 
bd9bb1a6 
3c85c5fe 
3d8ba827 
bbe8b4eb 
bdfa3013 
be3b5e5d 
bd2c7c2c 
be60a513 
be82fb73 
bddbf1d4 
3e7bdf2d 
3d795385 
3e78897a 
3d92d895 
3dd7f1ed 
3e33cd1b 
3e1cc59d 
3e79b54a 
3e8cf685 
3e90e805 
3e3d22c1 
3e6d28b6 
3d41f699 
3d86e23c 
3e0a38c1 
3df56e32 
3c84fa0e 
3d0fcd05 
bdad3e7c 
3ce17009 
bd0cc8c2 
bda4f26f 
bdf5453a 
bdf8e305 
3dc515e9 
ba37e9a8 
bda0a15c 
3e0c7037 
3dfd8cf8 
3e1726df 
3e26c883 
3e52763f 
3d623355 
3e56ed1a 
3e2ca25c 
3e67cebc 
3e70e7be 
3e6b4bf8 
3e47cdb8 
3e317e2b 
3e0fcae1 
3d633298 
3d9fc502 
3e412403 
3ca463ed 
bd652fed 
3d1ce2f6 
3cd47e4c 
bd84537d 
be3353db 
be43a8a9 
bdf10f61 
3e09143a 
bda2d484 
bd5ac005 
3d6803de 
3da97ae8 
3d8302fb 
3e4f4bbd 
3e71eb99 
3e731358 
3da63c0c 
3e2ddc27 
3dfdf04d 
3cd12fd0 
3ddb5041 
3e3bce1c 
3e347596 
3e4d3d53 
3d8174bf 
3ac1b589 
3e0d40d6 
3c28f17b 
bcf0f6f9 
3c091a69 
3e08902b 
3e394b2b 
bde7e9df 
be17fc7a 
bd8100ba 
3ddc7a0c 
3d98a692 
bda50ec7 
3d9a7865 
3da56ad1 
3df9b9d7 
3de7f2c6 
3e239aa6 
3e1bf92f 
3d9bbd5a 
3e1030ad 
3d96a2ca 
3d39ac33 
3e10438c 
3e104379 
3e52955e 
3db70f7d 
3dd30361 
3df932ba 
3e23722b 
3d0fa06a 
