7b
c2
82
c3
fd
40
be
40
be
02
40
02
bb
7d
c2
83
3d
82
ff
3e
c1
3e
7c
7e
40
01
fc
82
81
00
01
be
7d
bd
06
01
83
3f
80
7f
81
41
40
c1
c1
fc
bb
43
c7
7f
40
ff
01
bf
7d
3a
03
01
41
ff
bf
be
ff
3f
80
ff
c0
be
00
01
be
c0
bf
bf
ff
81
c0
c0
be
3e
c0
be
c0
c0
c0
7e
7f
bf
fe
fe
3f
fd
7e
ff
3f
ff
c0
01
00
00
ff
ff
00
c0
3f
ff
00
3f
41
fe
00
3f
01
c0
ff
c0
00
00
00
3d
c0
3f
01
01
c0
01
01
c0
00
40
80
00
c0
00
01
00
ff
40
00
00
00
01
7f
00
41
7f
c0
3f
00
40
bf
c0
ff
3f
00
00
3f
3f
bf
41
01
80
c0
00
ff
01
00
00
ff
ff
00
40
c0
bf
3f
3c
40
01
ff
3f
ff
c0
01
c0
be
fe
fd
3f
c0
bf
be
bf
c0
00
7d
bd
7f
7d
3f
80
be
7c
7e
ff
3f
3e
bd
7d
be
ff
be
bd
bd
be
ff
41
80
7e
fd
bf
ff
3d
ff
ff
bf
c0
41
ff
3d
80
c1
3f
bf
3f
00
fe
ff
80
ff
ff
3f
bf
7e
3e
c0
ff
01
7f
81
00
ff
3f
00
7e
3e
00
00
01
40
3d
c0
00
00
01
c0
c1
01
c0
ff
00
7f
40
00
ff
3f
00
42
00
ff
00
c0
bf
ff
ff
ff
ff
00
fb
3f
3e
fd
00
c0
3e
00
bf
fe
00
bf
c0
00
be
3f
40
ff
c0
bf
be
01
ff
00
00
fe
40
00
ff
3f
00
3f
3f
ff
00
ff
ff
c0
00
c1
01
fe
c0
ff
bf
3e
3f
00
ff
ff
be
00
c0
00
80
c0
bf
ff
00
00
00
be
bf
ff
3f
00
bf
3e
be
be
c0
7e
be
00
7d
ff
7e
bd
ff
7d
be
3c
bd
ff
c0
42
fe
bd
7c
be
41
fd
c0
c0
be
01
fe
00
00
3e
00
3f
3f
01
01
c0
fd
3e
ff
ff
00
fe
bb
00
00
ff
00
c0
41
bf
fe
00
3f
7f
ff
ff
3f
01
c0
81
bf
ff
00
c0
bf
01
c0
ff
00
c0
bd
be
be
fd
ff
3f
01
3e
fe
ff
ff
7f
01
80
7e
ff
ff
ff
7f
ff
7f
bf
00
00
7e
c0
be
ff
3d
80
be
3f
ff
3f
7f
ff
be
c0
bf
3e
7d
ff
01
c0
c0
ff
fc
ff
00
bf
c0
bf
3f
00
c0
7e
ff
7c
00
c0
c0
be
7f
3f
00
3f
bd
40
7d
ff
ff
be
00
ff
be
81
3f
7d
7d
7e
3f
00
7c
7d
c0
ff
41
3e
bd
ff
3f
ff
ff
be
bf
00
c0
ff
ff
ff
c0
ff
00
bf
02
41
3f
01
7d
00
3f
be
3f
3f
fe
3e
00
ff
bf
00
ff
c0
40
7f
80
41
01
3f
ff
c0
bf
42
00
40
c0
3f
01
41
c0
40
fc
c1
3e
00
3f
01
bf
00
c0
3f
3f
3f
3f
be
3f
c0
00
40
c0
be
00
c0
ff
be
7d
ff
00
ff
c0
01
be
00
00
3f
3f
c0
fe
01
00
01
80
ff
41
00
ff
3f
80
c0
01
00
7f
40
7d
40
c0
bf
ff
7f
be
01
c0
ff
ff
7c
3f
ff
bf
40
80
be
3f
3f
bf
ff
7e
ff
ff
c0
00
3f
ff
c0
7f
3f
c0
bf
7f
00
00
3e
3f
01
00
41
41
81
fe
40
3f
7f
bf
c0
bf
80
00
3f
3d
c0
80
bd
ff
3f
c0
ff
01
3e
3c
fe
ff
bf
bf
42
bf
c0
7f
3e
bf
be
be
c0
3f
c0
7f
c0
be
bf
c1
c0
be
00
7f
c0
00
3f
fe
be
41
ff
ff
c0
ff
80
00
3e
80
be
fe
bf
bf
00
ff
ff
7c
c0
be
3f
c0
80
fd
fe
ff
40
c0
00
3e
00
bf
42
00
fe
bf
3f
fe
00
ff
7e
bf
00
00
41
41
00
00
ff
ff
bf
fe
c1
00
01
41
02
40
3e
7f
00
00
81
c0
ff
81
3e
c0
c0
ff
3f
80
00
01
3d
3e
3f
00
ff
3e
3f
ff
01
00
00
fe
40
ff
40
00
7f
3f
c0
3f
00
00
7d
00
ff
00
c0
40
3e
7f
00
ff
fe
41
c0
ff
be
41
3f
bf
3f
00
fc
ff
40
be
80
80
fd
ff
00
7e
bf
3f
7e
ff
3f
bf
c0
82
81
c0
7d
fd
ff
ff
3e
01
ff
ff
be
ff
7e
40
ff
ff
ff
3f
3f
01
bf
ff
3f
c0
3f
3f
ff
bf
ff
fc
ff
3f
bd
ff
bf
bf
3f
80
be
ff
3d
3e
01
fe
be
fe
01
3e
80
3f
fe
c0
00
bf
be
ff
c0
00
80
c0
00
bd
c0
ff
ff
fe
80
00
3f
c1
c0
bc
7d
80
40
c1
bd
00
3f
41
41
00
3b
7e
00
c0
00
ff
c0
00
3f
7f
3f
be
be
00
00
bd
ff
be
00
c0
ff
01
40
3f
41
00
3f
3f
c0
00
00
40
41
00
3f
42
fe
fe
fe
be
02
02
41
3f
7e
ff
c0
bf
ff
3d
ff
80
01
3e
ff
3f
bc
7e
3d
ff
ff
c0
3c
3f
c0
3f
ff
c0
bf
ff
ff
c0
41
80
fe
3f
ff
ff
41
3f
80
c0
bf
00
c2
40
bd
ff
bf
00
ff
bf
ff
ff
c0
00
ff
ff
7f
7f
ff
ff
c0
c0
ff
81
be
3f
c0
fe
c0
bd
ff
00
c0
01
40
3e
00
00
00
3e
fe
bf
00
00
c1
00
3e
3f
00
01
ff
fd
fe
ff
01
41
bf
bd
be
00
00
81
ff
bd
ff
40
00
ff
3e
ff
ff
00
41
80
be
3f
00
c1
c0
fe
3f
3f
00
bf
bf
ff
c0
3f
ff
c0
3f
3f
01
c0
ff
ff
01
c0
c0
ff
3e
40
41
ff
c0
fe
00
41
00
3f
00
ff
00
00
ff
ff
fe
ff
c1
c0
fe
ff
c0
00
3c
bd
bd
bf
c0
3f
3e
7e
be
c0
ff
3d
7b
bd
7d
3e
c0
7d
7d
7e
7e
ff
ff
c1
00
bf
01
00
bf
3e
c2
7f
3e
c0
01
01
80
bd
ff
bf
00
01
41
c1
bd
00
ff
00
bf
bf
3f
3f
3f
40
7e
41
ff
ff
00
c0
fd
00
c0
00
01
fd
7e
3f
3f
c0
00
3f
00
ff
ff
ff
3f
40
ff
ff
fe
c0
40
80
c0
fe
be
00
00
3f
00
7d
3e
00
be
be
7e
fd
ff
40
bf
bf
be
ff
01
c3
00
ff
ff
3f
41
c1
00
ff
00
00
42
3e
00
c0
3f
00
81
01
00
00
40
40
00
41
3f
01
00
41
c0
00
00
00
c0
42
00
00
3f
c0
3f
41
40
ff
c0
00
43
41
00
ff
fe
3f
be
41
00
7d
ff
ff
3f
00
ff
fe
c0
3c
bf
3e
be
ff
c0
fb
3b
ff
7d
bf
ff
40
82
3f
bf
01
3f
3f
00
c0
3e
ff
fe
00
00
fe
7d
7e
c0
00
00
c0
7f
ff
00
c0
00
ff
fe
00
3f
00
c0
3e
3f
c0
00
00
ff
81
ff
00
01
c0
ff
fe
c0
01
c1
ff
ff
7e
c0
41
3f
c0
7e
41
40
00
ff
00
fc
01
00
ff
3f
80
00
42
c0
be
40
c0
40
00
00
3f
41
00
3f
3f
bf
01
40
c0
ff
00
01
01
80
ff
ff
ff
42
82
01
be
ff
3f
c0
00
fe
ff
ff
81
00
c1
bf
00
81
01
bf
7e
fe
c0
41
40
82
be
ff
81
41
3f
3b
ff
00
41
41
7e
7d
ff
41
40
00
7e
c0
7f
c3
81
3f
bf
00
81
01
3f
c0
be
7c
7f
fe
00
00
7f
bf
fe
ff
00
be
be
ff
7e
fd
be
80
bf
ff
7e
c0
40
c1
ff
3f
7c
00
40
c0
c0
ff
fd
81
ff
3f
3f
3f
40
3e
3f
01
ff
c2
c1
bf
3e
c0
3f
7f
fe
be
40
40
40
80
ff
fe
3f
40
fc
fe
be
bf
c0
40
c0
be
bd
3f
40
fc
02
be
fe
3f
40
c0
fd
ff
ff
ff
c0
c0
3f
be
c0
bf
fd
7f
3f
c0
fe
3f
40
00
fe
ff
ff
c1
bf
3e
00
3f
7f
00
80
ff
3f
3f
00
3f
be
3f
3f
40
3c
80
ff
bf
ff
00
00
ff
7e
00
3f
01
fe
ff
fe
3f
7f
3f
be
fe
c0
00
c1
c2
bf
bf
ff
3f
ff
41
ff
c0
c0
00
bf
bd
00
ff
00
3e
3f
ff
41
01
00
00
7e
ff
80
ff
bd
ff
be
bf
bf
bf
ff
3d
ff
ff
40
ff
c0
c0
40
01
ff
fe
00
00
82
00
bf
40
41
c0
41
fe
bb
02
ff
3f
c0
80
3d
c0
c0
00
3f
bf
00
00
ff
00
bf
c1
c0
ff
c0
bf
00
3f
00
c0
bf
ff
7c
c0
3f
3f
00
ff
be
c0
ff
00
00
3e
ff
3f
7f
00
80
fd
fe
c0
40
40
80
bf
be
00
00
bf
fd
bf
ff
41
ff
bf
ff
bf
3f
00
c0
bf
fe
be
40
ff
3f
41
ff
fe
c0
3f
ff
fe
ff
ff
3e
3f
bf
3e
3f
be
ff
ff
7e
fe
c0
ff
ff
ff
be
ff
3f
ff
c0
be
fe
3f
ff
c0
bf
40
c0
c1
00
00
01
01
00
41
00
ff
00
80
40
80
c0
3f
bf
41
43
40
bf
3e
ff
3d
ff
7d
bc
bf
7f
c0
3f
00
be
00
00
00
01
c1
3d
00
c0
41
c0
c0
40
c0
00
00
c0
42
00
40
01
ff
fe
41
c0
00
00
c0
00
01
00
41
ff
ff
3c
00
7f
01
ff
bf
3f
41
00
c0
ff
fb
40
bf
ff
00
fe
ff
02
ff
ff
ff
7f
40
ff
fe
c0
bf
3b
81
80
00
00
ff
80
00
fe
c1
c0
40
00
01
c0
01
3f
3f
01
ff
3f
c0
3f
ff
41
c0
00
ff
bc
40
00
02
3f
3f
fe
01
00
41
c0
3f
3f
c1
c0
80
fe
81
41
c0
00
ff
bf
01
40
40
ff
7c
be
00
41
c0
bd
40
bf
00
00
bc
bf
ff
3d
42
00
40
be
00
7f
bd
ba
7e
c0
3f
bf
80
be
ff
ff
be
7e
bf
fd
fe
80
be
bd
bf
fe
bd
7d
be
fe
fe
c1
3f
be
bf
ff
ff
00
ff
00
7f
00
00
c1
3f
41
00
00
00
3f
3e
82
00
00
00
ff
81
81
40
00
bf
00
01
41
40
3f
3f
40
01
41
00
c0
3f
00
40
00
ff
ff
c0
00
7f
00
ff
ff
3f
c1
00
c0
3f
7f
00
3f
01
7d
80
3f
3f
01
bf
c0
01
c0
ff
c0
be
00
3f
ff
c0
00
3f
3e
c0
be
ff
c0
7f
ff
3e
ff
ff
fe
be
bf
ff
bf
ff
fd
be
3e
c0
3e
bf
7e
be
00
40
3f
be
7f
00
00
00
00
ff
be
01
40
00
c0
ff
00
00
00
00
3f
3f
7f
00
c0
bf
00
41
00
bf
be
3e
00
c1
bf
3f
ff
80
ff
3d
be
be
ff
7f
ff
3f
3f
bd
fe
fe
3f
7e
3e
01
7e
be
fe
ff
bf
fe
be
7e
ff
fe
c0
7f
40
40
c0
00
80
ff
ff
ff
be
00
00
41
bd
be
ff
c1
00
bf
ff
ff
ff
41
ff
bf
ff
ff
00
3f
bd
ff
3f
c1
7e
ff
fe
ff
c0
40
fe
ff
00
ff
00
c0
ff
7f
40
fe
41
c0
3f
40
00
3f
ff
ff
00
01
c0
c0
c0
42
c0
3f
c0
ff
41
00
80
00
00
c0
00
00
ff
3f
00
7f
80
c0
3f
40
3f
7f
40
ff
3f
c0
be
ff
00
3f
40
00
3e
00
ff
ff
00
c0
80
ff
ff
ff
c0
c0
fd
80
ff
ff
bf
c0
c0
bf
ff
3f
ff
41
fe
fe
80
be
00
41
3f
fd
7c
3f
80
bf
bd
3e
bc
fe
7e
7e
fe
be
7d
7f
fd
3e
ff
3f
7f
80
ff
7e
be
c0
c0
ff
80
bf
fe
00
fe
c0
bf
fe
ff
00
00
ff
7f
bf
c0
00
41
00
bf
ff
00
00
00
be
bf
00
41
00
00
be
be
fe
80
41
bf
bd
3f
7f
3e
3f
ff
fe
00
bf
bf
c0
be
40
ff
80
3f
00
ff
40
ff
fe
00
ff
c0
c0
80
be
00
be
c0
ff
c0
3f
01
3f
00
3d
ff
7f
be
3f
bf
81
fe
01
ff
00
3d
00
00
ff
00
bf
be
ff
ff
3f
00
be
bb
7f
3c
00
00
ff
7d
bd
fd
00
ff
3d
fe
fd
01
00
3e
41
3e
40
c0
80
bf
81
00
00
fd
fe
ff
ff
ff
c1
bd
c0
3f
3e
fe
bf
c0
c0
c0
bf
3f
7e
00
82
bf
ff
82
7d
3f
bf
3e
40
40
40
7d
ff
fe
40
00
7f
01
00
c1
00
00
40
00
bf
00
c1
c0
7f
41
be
3f
ff
3e
41
00
be
ff
3f
3f
01
c0
be
be
c0
c0
41
ff
7d
3f
ff
41
01
be
3d
c0
01
00
ff
be
be
c0
3f
3f
ff
7e
fe
c0
3f
00
3f
be
00
fe
3f
00
bf
3f
be
ff
00
00
c0
fd
be
3e
3f
c0
00
c0
ff
3f
ff
00
3f
3f
fe
ff
3f
01
bf
ff
ff
3f
c0
c0
3f
fe
ff
00
01
c1
bf
ff
bf
00
01
c0
c0
bf
c0
01
40
80
ff
fe
3f
00
00
ff
00
c0
00
7f
00
7d
c0
ff
3f
c0
3f
fd
be
c0
41
3f
ff
be
3f
7e
c1
00
bf
be
01
ff
00
c2
c1
81
42
01
00
be
ff
40
c0
c0
00
ff
7d
c0
40
41
fd
ff
ff
7f
40
c0
3f
ff
be
80
41
3f
3f
ff
ff
c0
fe
00
00
00
ff
01
ff
3f
40
c0
ff
bb
00
40
01
c0
c0
00
c0
40
00
00
be
c0
c0
00
c0
00
ff
3f
3f
ff
bf
00
7f
3f
ff
be
be
c1
00
c0
ff
bf
bc
3e
00
ff
fe
ff
fd
be
ff
fe
3f
40
bf
c0
7f
ff
c0
3d
c1
ff
fe
3f
bf
3f
c0
fe
fe
00
80
c0
00
fe
00
c0
80
fe
00
3f
00
00
3f
00
3f
c0
3f
c0
c0
40
00
3f
01
40
3f
40
01
c0
3f
c0
c0
42
00
41
3f
3f
41
42
00
3f
be
fe
ff
80
be
ff
c0
be
7c
c1
fe
40
81
bf
ff
41
3f
42
bd
ff
40
40
ff
ff
ff
ff
c0
00
c1
bf
3f
c0
00
c1
00
fe
fe
00
c1
80
3f
ff
00
01
40
7d
ff
3e
00
c0
7d
be
bf
3f
00
00
3d
3e
00
41
00
00
3f
3f
00
40
00
00
3f
c0
01
00
c0
3d
ff
00
01
01
01
7f
3e
01
00
c0
40
41
00
40
c0
7e
81
00
01
c0
3f
fe
42
00
c1
c0
80
01
41
00
00
ff
41
00
01
ff
fe
3f
00
01
01
ff
3f
00
00
3f
ff
c0
ff
ff
01
00
ff
fe
40
00
ff
ff
be
bd
3f
41
00
c0
bd
3f
c1
01
ff
7d
be
3f
41
3e
80
bd
40
3f
80
3e
fc
3c
c0
ff
80
bf
80
7d
ff
3f
3f
3f
82
00
c0
01
7f
bf
00
00
01
c0
00
7f
01
bf
01
01
00
00
ff
3e
41
00
3f
ff
3f
40
40
ff
00
00
c0
40
00
ff
ff
3e
40
00
ff
ff
c0
ff
00
00
ff
3f
be
7e
c1
3f
be
7f
3f
00
00
be
fe
be
ff
00
ff
bf
be
fd
40
c0
bf
fe
3f
ff
41
c0
ff
3f
c1
7f
00
c0
ff
41
3f
42
40
00
3f
00
ff
00
41
c0
01
01
00
01
3f
00
3f
ff
41
40
01
ff
00
3f
41
00
3f
fe
ff
ff
01
00
ff
ff
ff
3f
00
fe
ff
01
ff
00
c0
fe
bf
ff
ff
00
bf
41
fe
ff
be
fe
ff
bf
ff
ff
bf
fd
40
fd
c0
ff
be
00
3e
ff
c0
ff
ff
ff
ff
3f
3f
02
c0
41
00
7e
80
bf
01
41
80
01
80
fe
00
fe
c0
c0
ff
00
c0
c0
01
be
ff
bf
fe
3d
00
ff
ff
c0
ff
80
c0
ff
c0
00
bf
00
fe
ff
00
ff
01
01
ff
fe
bf
fc
3e
ff
ff
c0
7e
7f
3f
be
fe
fe
bd
bf
c0
ff
01
bf
bf
3f
c0
3f
fe
7e
ff
00
bf
ff
ff
fe
00
00
ff
00
ff
7f
41
00
00
c0
be
40
00
be
00
c0
ff
40
00
00
ff
80
01
00
01
3f
ff
ff
c0
41
41
c0
3f
7f
c0
41
00
fe
00
c0
00
41
ff
7f
ff
ff
00
3f
3f
7e
7f
ff
c0
3f
bf
fe
7b
bf
c0
00
be
c0
bd
ff
c1
7d
ff
ff
7b
41
7e
fe
00
fe
bf
fe
c0
ff
c0
c0
c0
c0
83
3f
81
c0
00
3f
41
bf
00
00
3f
00
fe
00
3f
bf
80
00
80
00
bf
ff
3f
00
00
c0
bd
ff
ff
fe
be
7e
bd
ff
c0
80
bd
7d
ff
40
7c
be
7d
7d
00
c0
3f
7e
7e
3f
40
be
7e
bd
fe
40
c0
fd
7e
7f
3f
00
00
7f
7d
be
40
00
bf
fe
3c
fe
c0
00
c0
bf
be
40
c0
3f
00
be
3f
40
c0
c0
be
7e
00
3f
c1
7f
bd
be
3f
3f
3f
c0
fd
c0
00
ff
ff
bf
bf
ff
ff
00
bf
3e
3f
ff
00
c1
7c
ff
00
bf
80
c0
7b
bf
c0
3f
bc
c0
7b
00
3d
c0
00
ff
be
bd
7b
be
c0
bf
3f
c0
c0
3f
c0
fe
c0
3f
80
3f
c0
ff
c0
ff
ff
ff
ff
bf
ff
00
ff
fe
be
be
ff
fe
ff
3d
be
3f
41
ff
3d
ff
c0
bf
7f
80
be
ff
ff
80
7c
c0
fe
ff
3f
c0
40
00
00
fe
ff
bf
82
40
ff
ff
00
3e
7e
c0
3f
00
40
81
c1
c0
3f
40
fe
7d
bf
80
00
00
c0
ff
3f
00
00
bf
c0
fe
c0
40
01
c0
c0
bf
01
01
bf
00
bf
00
ff
00
7f
ff
ff
3f
3f
c0
00
3e
c0
3f
c0
00
01
3f
ff
ff
00
3f
3e
c1
7f
bf
fe
41
3f
c0
3f
ff
01
80
c1
41
c0
ff
40
3f
40
00
fe
3f
c0
00
00
00
ff
3e
fe
00
41
c0
7f
c0
40
00
41
c0
3f
3f
00
40
40
00
00
be
81
00
41
fe
00
3f
00
01
42
3f
ff
ff
ff
3f
3f
3f
ff
be
bf
bf
c0
bf
7d
3f
bc
fd
bf
3e
bf
ff
3a
be
3e
bf
c0
c0
c2
ff
41
3f
40
bf
c0
ff
40
01
ff
3f
bf
ff
3f
c0
ff
00
82
ff
00
40
fe
ff
ff
c0
00
00
c0
00
c0
ff
3f
00
3f
3e
ff
bf
ff
00
40
c0
00
be
41
c0
40
c0
bf
3f
00
41
40
ff
be
3f
ff
40
c0
ff
ff
c0
3f
01
ff
bf
00
3f
7d
00
c0
c0
3f
3f
80
ff
ff
00
ff
40
00
ff
3f
00
bf
be
ff
fe
3f
00
3f
fe
c0
ff
00
fd
bf
ff
bf
3f
00
ff
7e
c0
ff
c0
fe
bd
c0
80
ff
ff
ff
7f
41
ff
ff
c0
be
02
7f
c0
c0
00
ff
be
01
00
40
41
00
ff
ff
fe
ff
00
bf
7c
7e
fe
7d
00
7c
fa
ff
f8
00
3f
3f
ff
00
bd
bc
00
00
c0
c0
ff
01
41
40
c1
ff
be
c0
00
41
01
00
bc
00
40
c0
ff
00
01
41
41
c0
ff
c0
00
81
41
c1
00
7f
3f
83
ff
ff
ff
c1
41
fe
c0
bf
01
00
ff
fe
c0
3f
7f
ff
00
3f
c0
ff
ff
3f
3d
40
ff
80
be
ff
00
c1
c0
80
fe
ff
00
fe
80
be
ff
3f
01
40
c3
00
3f
fe
ff
80
80
ff
be
00
ff
bf
7e
80
fd
bf
7f
fd
be
be
3f
c0
be
3f
3d
7f
fe
7c
41
bd
bc
bf
c0
fe
c0
fc
bf
ff
ff
ff
7c
bd
ff
01
fe
3f
7d
bf
ff
81
ff
ff
41
c0
81
02
ff
ff
3d
bc
ff
ff
bf
bf
00
00
40
c0
fe
c0
00
bf
00
be
bf
3f
00
ff
ff
ff
bf
bf
bf
c0
7d
3f
ff
3f
c0
00
be
00
c0
3f
ff
7e
80
ff
ff
c0
01
fd
ff
3f
3f
3f
80
7d
00
c0
ff
3f
fd
40
00
ff
00
c0
3b
00
00
ff
3f
ff
c1
00
ff
00
00
7c
00
00
fe
ff
c0
fc
c1
80
ff
bf
be
c1
fe
ff
fe
ff
7f
bf
ff
00
be
ff
ff
40
3f
00
40
be
ff
00
00
00
fe
00
01
7f
40
00
bf
00
01
00
00
7f
fe
01
01
3f
c0
00
02
01
ff
ff
7f
fe
01
ff
c0
c0
fe
ff
3f
be
3f
3f
00
bd
bd
00
c0
bd
ff
bd
3f
c0
7e
3f
be
bc
80
3f
be
c0
ff
3d
fd
7f
ff
80
ff
00
fd
40
ff
c0
ff
fe
81
3f
fd
ff
ff
3e
fe
7e
ff
00
fe
01
ff
3e
ff
c0
40
ff
7f
ff
00
3f
00
c0
7d
00
01
c0
c0
be
3f
40
40
ff
c0
fc
3f
00
c0
00
80
ff
c0
00
bf
c0
ff
00
00
c0
fe
bf
40
3f
3f
ff
ff
c0
ff
be
00
00
00
3c
ff
ff
c0
c0
7f
fd
fe
3f
00
c0
bd
ff
bf
3f
c0
7e
3d
ff
3f
40
fe
fd
3e
ff
00
be
c0
7c
80
00
ff
fe
bd
00
3f
00
c0
00
7c
00
7f
ff
3f
3e
7f
c0
00
3f
00
7d
40
ff
c0
01
c0
3e
bf
ff
00
c0
40
be
fe
c0
7f
fe
fe
fe
00
c0
c0
fd
3e
fe
00
3f
be
3f
00
7f
fa
7e
7c
ff
7e
c0
00
fe
80
7e
3f
00
00
3f
be
bc
00
3f
ff
fe
be
00
00
00
c0
00
ff
3f
00
3f
c0
3d
3f
bf
3f
00
ff
3f
ff
ff
00
40
80
ff
ff
be
40
ff
fb
ff
c0
3f
41
40
00
c0
41
3f
ff
7d
fe
00
ff
00
ff
7a
00
00
ff
7f
bf
3d
41
bf
01
bf
3d
00
3f
fe
3f
ff
c0
00
c0
c0
00
fe
c0
fe
3f
c0
bf
3d
fe
ff
40
ff
7d
bd
7e
40
c0
3f
fe
fe
fe
c1
fe
fe
7e
fe
ff
ff
3f
fd
fe
c0
ff
00
7f
bf
00
c0
3f
00
fe
be
7f
c0
ff
01
7f
00
01
3f
7d
be
7d
41
3e
c1
bd
3f
ff
3f
81
c0
ff
c0
ff
7f
be
ff
3f
ff
ff
ff
fe
c0
ff
ff
be
7d
7e
ff
fe
bf
00
c0
7c
00
be
3e
ff
ff
7a
bf
ff
00
ff
c0
bd
bd
7e
ff
ff
bf
7c
3d
bd
fe
00
fe
7d
3e
bf
c0
be
3d
fd
ff
c0
ff
ff
fd
3f
00
ff
ff
ff
c2
00
00
00
ff
3e
00
00
ff
fe
00
40
00
bf
ff
00
bf
41
00
00
00
7f
7d
00
3f
c0
c0
fd
41
00
3f
ff
c0
00
00
ff
3f
c0
fe
3f
00
fe
c0
3f
7f
3f
7f
00
40
c0
fc
ff
ff
ff
3f
fe
ff
fd
ff
c0
01
7d
80
ff
c0
01
81
be
3e
3f
c0
3f
ff
40
00
00
3f
40
fe
00
40
00
01
ff
bf
c1
00
00
3f
c0
00
01
41
00
c0
00
81
c0
02
bf
3f
3f
3f
be
ff
c0
c0
ff
3d
bd
ff
3f
bf
3e
40
3f
ff
bf
7e
40
fe
7f
bf
fe
fe
3f
80
7e
ff
7d
c0
3f
bf
fb
7e
c0
ff
00
bf
7e
ff
c0
3f
01
80
be
01
ff
3f
40
be
3f
41
00
3f
bf
fd
40
40
bf
00
3e
3f
3f
42
00
3e
02
01
41
41
80
81
fd
00
40
00
00
7b
c0
ff
41
80
7f
bd
ff
40
00
3f
7e
c1
ff
00
3f
00
ff
3e
00
00
ff
3f
be
ff
fe
3f
fe
fe
fe
40
3f
00
3f
7d
ff
bf
ff
01
00
fe
ff
be
00
00
7e
bf
bf
ff
00
01
00
ff
ff
c0
3f
c0
00
00
ff
00
80
fe
00
3f
ff
3f
3f
7f
7f
fe
3f
3f
00
01
c0
c0
41
be
ff
ff
bf
be
3f
ff
ff
7f
7c
3c
fd
ff
3e
fe
41
fe
be
7e
fe
41
3f
7e
fe
7c
01
c0
00
7e
7e
3f
00
40
c0
bf
be
bf
c0
01
c0
7c
c0
be
01
3f
bf
ff
be
40
01
ff
7f
be
bd
fe
c1
7f
ff
bf
3f
00
ff
3e
ff
ff
bf
ff
00
be
fe
01
7f
bf
fd
bd
ff
ff
bf
fe
fd
bf
40
00
fe
7e
ff
ff
01
fe
ff
bc
3b
40
c0
7d
ff
7e
fd
41
be
fd
7e
bb
7f
ff
7d
c0
7e
ff
00
be
fe
01
7e
7f
00
be
c0
c1
00
00
01
fe
ff
3d
00
00
bf
3e
c1
3e
ff
ff
3f
40
ff
00
7d
00
ff
80
40
ff
3e
01
41
ff
ff
00
c1
80
80
c0
00
40
c3
c2
ff
