00
00
3c
3f
03
3d
01
02
02
02
01
02
3e
02
3c
00
03
3c
3f
3f
01
3e
3f
3f
3e
01
3b
02
00
3e
3f
3b
3c
04
02
00
3e
00
00
3d
01
3e
03
3f
3e
3f
05
03
01
03
3f
01
00
00
3f
01
01
00
00
3f
3e
3e
3f
00
3f
3e
3f
3e
3f
3f
00
3f
00
3e
00
3e
3f
3f
3e
3e
3f
3f
00
3f
00
3f
3f
3f
3f
3e
3e
3d
3f
3e
00
3f
01
3f
3f
3f
3f
3f
01
3f
00
00
00
3f
3e
3f
3f
00
00
02
3f
00
01
00
3f
3f
00
01
3f
00
00
3f
00
3f
00
00
01
00
01
3f
00
3f
3f
00
3f
00
00
00
01
00
00
00
00
3f
01
00
00
00
3f
01
00
00
00
00
3f
3f
01
00
00
3e
02
00
3f
3f
3f
3f
00
3f
3f
3f
3e
00
00
3f
3f
3f
00
3f
3f
3e
3f
3e
3f
01
3e
3f
3f
00
3f
3f
3e
3f
3f
3f
3f
3e
3d
3e
3d
00
3f
3d
3c
3d
00
3f
3e
3e
3d
3f
00
00
3e
3e
3f
00
3d
3e
00
3e
01
01
00
00
3e
00
3f
3f
3f
3f
3e
3e
3f
3e
3f
00
3f
3e
3e
3f
3e
00
3f
3c
01
3f
00
00
3f
3e
00
00
00
00
3e
3f
00
00
01
01
01
00
00
3f
00
00
00
00
00
3f
00
3d
3f
3f
00
00
3f
3f
01
3f
3f
3f
3f
3f
3f
3e
3f
3f
3f
00
00
3e
3f
00
3e
3f
3e
3e
00
02
3f
00
3e
3f
01
3f
00
3e
3f
01
3f
00
00
3e
3f
00
00
00
3f
00
00
3f
01
3f
00
3e
3f
3e
00
3f
3f
3e
3e
3f
3f
3f
3e
00
00
3f
00
01
3f
3e
3e
3f
3f
00
3f
3f
3f
3e
3f
3e
3d
00
3c
3e
3d
3d
3e
3f
3e
3c
3d
3e
3f
02
3f
3d
3e
3e
3f
3e
3f
3f
3e
01
00
3f
3f
3f
3f
3e
3f
00
00
3f
00
3d
00
3f
00
3f
3d
00
3e
3e
3e
00
01
3e
00
00
3f
3f
01
3f
3d
00
3f
3e
3f
00
00
00
3f
02
00
00
01
00
3f
3f
3f
3e
00
3f
02
3f
3f
00
00
00
00
3f
3e
3f
3f
3e
01
3f
00
3f
3f
3e
3c
00
3f
3f
00
00
3e
3f
00
3e
3d
3f
3f
3f
3f
3f
3f
3f
3f
00
3e
3d
3e
3f
00
3f
00
00
3e
3f
3f
3e
00
3a
3f
00
00
3f
00
3d
3e
00
3e
3f
3e
3f
00
00
3e
00
3c
01
3f
3e
3d
00
3e
01
3c
3e
3f
3f
01
3d
3e
3f
00
3f
00
3f
3f
3f
3e
3f
3e
3f
3f
00
00
3f
02
01
3e
00
3d
3f
3e
00
3e
00
00
01
3f
3e
3f
01
3f
3f
00
00
01
00
00
01
01
3c
3f
01
00
00
3f
00
00
02
00
00
3e
3f
3f
00
3f
01
00
01
00
00
3f
00
3f
3f
3e
00
00
3e
01
3d
3f
01
01
00
00
3e
00
00
3e
3f
3d
3f
00
00
00
00
00
00
00
3f
00
00
3f
00
00
00
01
3f
01
00
3e
00
3d
3f
00
3f
00
3f
3e
01
00
3e
3f
3d
3f
3f
00
3f
00
3d
3f
3f
3f
01
00
3f
3f
01
00
3f
3e
00
00
3f
01
00
00
00
00
3f
00
00
02
01
00
3e
00
00
00
00
00
02
3f
00
00
01
3f
00
01
3e
00
3f
00
00
3f
3f
3f
3e
3f
00
3f
3f
00
3f
00
3d
01
3f
3d
3f
3d
01
00
00
3f
01
01
00
3f
00
3f
01
01
3f
3e
3f
01
00
00
00
3f
3e
00
3e
00
3f
3f
3e
3f
3f
3f
3f
3e
3f
3e
3f
00
00
3c
3f
3f
00
00
3f
3f
3f
00
01
3f
3e
00
3f
3e
00
3f
00
00
00
00
01
01
3d
00
00
00
00
3e
01
00
3f
3f
00
00
3d
3f
00
3f
02
00
3f
00
3d
01
00
00
00
01
00
01
3e
3e
00
3f
3f
3f
3f
3f
3f
3f
3f
3e
00
3f
00
00
00
3f
3f
00
00
00
00
01
3f
00
00
00
3e
00
00
3f
3f
01
00
3f
3e
00
3f
3f
3d
3f
3e
00
3f
3e
00
3f
3f
3e
00
3f
3b
3e
3c
3f
00
3e
3e
02
01
3f
3e
3c
3f
3f
3e
00
00
3f
3e
3f
3f
01
00
3f
3f
3f
3d
00
00
3f
3e
00
3f
00
3f
3e
3f
3f
00
00
3f
3e
3f
3f
3e
3f
3d
00
3e
3f
00
3e
3e
3f
3f
3c
01
3f
3f
00
3f
3e
3e
00
3e
3f
3f
3f
00
3d
01
3f
00
3f
00
3e
00
01
3e
3c
3e
00
00
00
3f
01
3e
3f
01
3f
3d
3e
3f
00
00
3f
3e
3e
01
3f
3d
3f
3f
3f
00
3c
00
3f
3f
00
3f
00
00
3e
00
3e
3f
00
01
00
01
3f
00
00
3e
00
3f
00
3e
3d
01
01
3e
3f
3c
3f
01
00
02
3e
3f
00
00
3f
3f
3e
3e
00
3d
3e
3f
3f
3e
00
3f
00
00
3f
3d
3f
00
3f
3f
3f
3f
3e
3f
3e
3f
3f
3e
01
3e
00
01
3f
3f
3f
01
3e
3f
3f
3f
00
3d
00
3f
3f
3e
3e
3f
00
00
3f
02
01
3e
00
3f
3e
3e
3e
3f
00
00
3f
00
3f
3f
00
00
3f
3d
3e
00
3f
00
3f
3f
00
01
01
00
3e
3e
3f
00
01
3f
3e
3e
00
01
02
00
3d
3e
00
00
3f
3e
3d
3f
00
00
3e
3e
3e
3f
00
00
00
3e
00
3f
3f
3f
00
00
00
00
3e
00
00
3f
00
3f
3f
01
00
3e
3f
3f
00
01
00
3f
3f
3f
00
01
00
3f
3e
00
01
3e
3f
00
3f
00
00
3e
00
3e
00
3f
3e
3e
3e
3f
3f
3d
3e
3e
3f
00
3f
3c
3c
3d
3f
3f
3d
3c
3e
3e
3f
00
3f
3d
00
01
00
3f
00
01
3b
00
3f
02
3f
00
3e
3f
00
01
01
00
3f
3f
01
3f
00
01
00
3d
00
3f
01
3f
3e
3f
00
00
00
3d
00
00
3f
00
3e
02
00
3f
3f
3f
00
01
3f
3f
3e
00
3c
00
3f
3e
3f
3f
3d
00
3e
3e
00
00
3e
3f
3d
3e
3f
02
3e
3e
3d
00
3f
3f
3f
3d
3e
01
03
00
3f
3e
3f
00
01
00
3f
00
00
01
3f
00
3f
00
00
02
01
3f
00
00
3f
01
01
00
00
00
3f
00
01
00
00
3f
02
00
01
3f
3f
00
00
01
3f
00
00
00
00
00
3f
3e
00
3e
00
01
3f
3e
00
3d
00
00
3e
3f
3f
3f
00
3f
3f
3f
3e
3b
3f
3d
3f
00
00
03
3f
3e
01
3f
3f
00
01
3e
00
3d
00
3f
3f
3d
3f
3f
3f
00
3f
3f
3f
01
3f
00
3f
00
00
3f
00
00
3f
3f
3f
00
00
3d
3e
3f
3f
3f
00
3f
3e
00
01
01
3e
00
00
3f
3f
00
3e
00
01
3f
01
3f
3f
3f
00
01
3f
00
01
3f
01
01
3f
00
3e
02
00
01
3f
01
01
00
3f
3f
00
02
3e
3f
01
3f
01
00
3f
3f
00
00
00
00
3e
00
00
00
3e
3f
3e
00
00
00
01
3e
3f
02
01
00
01
3d
00
02
3f
01
3d
3f
00
01
00
3d
3f
3f
01
00
3f
3b
3e
00
02
01
3e
00
3f
03
02
00
00
01
3f
02
3f
00
3f
3c
00
3f
3f
3f
3e
3e
3f
3e
3f
3f
3e
00
3d
3e
3f
02
00
3f
00
3f
00
01
3e
3f
3d
00
3f
00
3f
3f
3f
00
00
00
3f
3e
00
3e
3f
00
3f
00
3f
3f
00
00
3f
3a
3f
3e
00
00
01
00
00
3d
00
00
00
01
3f
3f
00
00
3e
3e
3e
3f
00
01
3f
3e
3e
3f
00
3e
3e
3e
3e
00
3f
3f
3f
3f
3f
3f
3e
3f
3f
3f
00
3e
3f
3f
3f
00
3f
00
01
00
3f
3f
3f
3d
3f
3f
01
00
01
00
3f
3f
00
00
3f
3f
3f
3e
00
01
01
00
3f
3f
00
01
01
3f
3e
3f
00
3c
3f
3f
3f
00
00
00
3f
3e
3f
00
00
3f
3e
3f
00
00
00
3e
3f
3f
00
00
00
3f
01
00
3f
3f
00
3f
02
00
3e
00
3d
3f
00
3d
3f
3f
03
3e
3f
3e
00
00
00
00
00
3d
3f
01
00
01
3e
3f
00
00
01
3f
3d
01
3f
3f
00
3f
3c
00
00
3f
00
00
00
00
00
00
3f
3e
00
00
3f
00
3e
3b
00
00
3f
3f
3d
00
00
00
3f
3f
3e
00
3f
00
00
3e
3e
3f
3f
00
00
3e
3f
3f
01
01
00
3f
3e
00
00
00
3d
3d
3e
01
00
3f
3d
3e
3f
01
3f
00
3e
3e
00
3f
00
00
3f
3f
00
3f
00
3e
3e
3f
3f
00
3f
00
00
3f
3e
3f
01
3f
00
3f
00
3f
3d
3f
00
3f
3f
3d
3f
3f
00
00
3f
3f
00
01
3f
3f
01
02
01
01
00
01
3e
00
01
01
01
3e
00
01
02
01
3f
3e
3f
3e
3e
3e
3c
00
3e
01
3f
3f
3d
3e
00
00
3f
00
3b
01
3f
00
00
00
01
3f
00
00
3f
00
01
3f
00
00
00
39
00
00
00
3f
3e
00
3f
01
3f
3f
3e
00
00
00
00
3f
3d
00
00
00
3e
3e
00
00
3f
00
3e
3f
01
3f
3f
3f
3e
00
01
3f
01
00
3e
3f
00
00
00
3f
00
00
3f
00
3f
00
00
00
3f
01
3f
3d
01
01
00
00
3f
3f
01
01
01
3f
3f
3f
01
00
00
3e
00
00
00
00
3f
00
00
01
3f
00
3f
3d
01
00
01
3e
3f
02
00
00
00
3d
3f
3f
00
01
3d
3f
00
02
01
3e
3e
01
3d
01
01
3f
3d
00
3f
3d
3d
3f
3f
00
00
3f
00
3d
3f
3d
3e
3e
3e
3f
3f
3d
3d
3f
3d
3d
3f
3f
3e
3e
00
00
3e
3e
3f
00
00
3f
3e
3f
3f
3f
00
3f
00
00
00
00
3f
01
02
01
00
3f
3f
01
02
01
00
01
3f
01
02
00
3f
3f
3f
00
01
01
00
00
01
00
01
00
3f
00
00
00
01
3e
00
00
01
01
00
3f
3f
00
3f
00
3f
00
3f
3f
00
00
3e
3e
00
3f
00
3f
3f
00
3f
3e
00
3e
3e
00
3f
3e
3f
00
3d
00
3f
3f
3e
3d
3f
3e
00
3f
3f
3f
3e
00
00
3f
3f
3d
00
3f
3f
3f
3f
3f
00
01
00
3e
3f
00
01
00
3f
00
3f
01
00
00
3e
3f
01
00
3f
00
3f
01
00
00
3f
3f
00
01
3f
3f
3c
3f
3d
3f
3f
3d
3e
3f
3e
3f
00
3e
3d
3d
00
00
3f
3f
3f
3d
00
3f
3e
01
3f
3f
00
3f
00
01
3f
3f
00
3f
01
3e
00
3f
3e
3f
00
00
3e
3e
3e
3f
00
00
3f
00
3f
00
3f
3f
3e
00
3f
00
3e
3f
3e
00
3f
01
3e
3f
00
00
01
3f
00
01
3f
00
00
00
00
3f
02
00
3f
01
00
01
3f
00
01
00
00
3e
3f
00
01
3e
00
00
00
00
00
3f
00
3f
00
00
3f
00
00
00
00
00
00
00
00
3e
00
3f
3f
00
3f
00
00
3f
00
3f
3e
00
3f
3f
00
00
3e
3e
3f
3f
3f
00
3c
00
3f
3f
00
3f
00
00
3f
3e
00
3f
3f
3e
3f
3e
3f
01
3f
3f
3c
3e
00
3e
3c
3f
3b
3e
3d
3e
3f
3e
3d
3d
3e
3f
3f
3f
00
3f
3f
3d
00
3f
00
3e
00
3f
3f
00
3f
00
3f
3e
3e
01
00
3f
3f
3e
00
01
00
3f
3e
3e
00
00
3f
3e
3e
3f
01
00
00
3d
3d
3f
3e
02
3f
3e
3e
3f
3e
3e
3f
3e
00
3e
01
3f
00
00
00
00
3e
00
3e
00
3f
3e
3f
00
00
3f
3f
3e
00
3f
3f
3f
00
3e
00
00
00
3e
3f
3e
00
00
00
3e
00
00
3f
00
3f
00
3e
01
3f
3f
3f
00
3f
3f
00
3f
3e
3e
3e
3f
01
3e
3f
3d
3c
00
01
3e
3d
3d
00
00
3f
01
3d
3f
00
00
00
01
3e
01
3f
3f
00
02
01
01
3d
00
00
3e
3e
3e
00
3f
3f
3e
3e
3f
3f
02
3f
3f
01
00
3f
01
3f
00
01
3f
3e
3e
3f
00
01
00
00
3f
3f
00
3f
3f
01
00
3f
00
00
01
00
3f
3f
3d
00
00
00
3e
3e
3f
3f
01
00
3e
3e
00
01
01
3f
3d
3e
3f
00
00
3e
3d
00
3e
00
00
3f
3c
00
3f
00
3f
3f
3e
00
00
00
3f
3e
3e
00
00
3f
00
3f
00
3e
01
3f
00
00
3e
3e
00
00
3f
3f
3d
3e
00
3f
3f
01
3f
3f
3f
3f
3e
3f
3f
3f
3f
00
3e
00
3f
3f
00
00
01
3f
3f
3f
00
3f
00
3e
3f
00
00
3f
3f
3e
3f
3f
01
3f
3e
00
00
00
3f
00
3f
3f
3f
01
00
3d
00
3f
3f
3f
3f
00
3d
3e
00
3f
3f
3e
00
3e
3f
02
3f
3f
02
3f
00
3e
00
00
3e
01
02
00
3e
00
3f
3f
3e
3f
3e
00
03
00
3f
00
3f
00
00
3f
00
3f
3f
3f
3f
00
00
00
3f
02
3f
00
01
3f
3e
3f
00
00
00
00
00
00
00
00
00
00
00
3f
3f
00
00
3f
01
00
3f
3f
3f
3e
3e
00
00
3e
3e
3f
3f
00
3e
3e
3e
00
3f
3e
3e
00
3d
3f
00
3e
00
00
3f
3f
3f
3f
01
3f
00
3e
3d
00
3f
01
3f
3f
3e
00
00
3f
3f
3e
00
3f
3e
3f
3f
00
3f
00
3d
3f
00
00
00
00
00
00
00
00
00
3b
3f
00
00
00
3f
01
00
01
01
00
00
3e
00
00
3f
01
00
3e
02
00
3e
00
3f
3e
3d
00
3d
00
02
3f
3f
02
3e
02
3e
3f
00
3f
01
3f
3f
3f
00
00
02
3e
3f
3f
00
00
3e
3f
3f
00
00
3d
3f
3f
3f
01
00
3b
3e
3f
00
00
3f
00
3f
3f
00
00
3d
3d
00
00
00
3f
3d
00
3f
01
00
3f
3d
00
01
01
3f
3e
00
3f
01
01
3e
3e
3f
01
3f
00
3f
01
3f
01
00
00
00
00
00
3f
3f
3e
01
01
00
3f
00
00
01
00
00
3f
3e
00
01
00
3f
00
00
00
00
3f
3e
00
00
00
3f
00
3f
3d
00
00
3f
3e
00
02
3f
00
00
3d
00
01
01
3e
3d
3e
00
00
01
3e
3f
00
01
00
3f
3e
3f
3f
3f
3e
3d
3c
3f
3f
3f
3e
3e
3c
00
00
3f
00
01
01
3f
01
00
01
00
00
3f
00
00
00
00
00
00
3f
00
00
00
3f
00
00
3f
00
00
00
01
00
00
3f
3e
02
01
00
00
3f
00
01
3f
3f
00
3f
01
00
3e
3e
3f
3f
00
3f
3f
3f
3c
01
01
3f
3d
3d
3f
00
3f
3e
3e
00
3f
3f
00
3e
3f
00
01
00
3e
00
01
3e
00
3f
3f
00
00
3e
00
01
00
00
3f
01
01
00
3f
00
3f
01
00
00
3f
3f
01
01
00
00
00
3f
00
00
00
3f
01
3f
01
00
3f
3f
3f
3d
00
00
3f
3f
3f
01
00
3f
3f
00
3f
3f
3f
00
3d
00
3f
3e
00
3f
3e
3f
3e
3e
3f
3d
00
3f
3f
3e
3f
00
00
3f
00
3f
3f
00
00
3f
00
01
3f
00
01
01
3f
3f
01
00
01
3f
00
3f
3e
00
3f
3f
3f
00
01
3f
3f
3f
3e
3e
00
00
3e
00
3e
00
00
3f
00
3f
01
3e
3e
00
3f
00
3f
00
3d
3f
3f
3f
3f
00
3e
00
3f
00
3f
3f
3e
00
3e
00
02
3f
3f
3f
3c
3f
01
3f
3f
3f
3e
00
3f
00
3f
00
00
00
3f
3f
3f
00
01
00
3f
3f
3f
3d
00
3f
00
3f
3d
3f
01
3f
3f
3f
3f
3f
00
00
00
3e
00
00
02
00
3f
3f
00
01
00
3f
00
01
00
01
00
3f
00
3e
00
00
3f
3f
3f
3e
00
00
00
3e
3d
3f
3f
01
3c
00
3d
3f
01
3e
3d
00
3d
00
3f
3e
3f
3f
3e
3e
3f
00
00
00
3f
00
02
3f
3f
00
00
3f
00
3f
00
00
3f
3f
3f
3f
3f
3e
00
00
3f
00
3f
3f
3f
00
3f
3f
3e
3f
3f
3f
00
3e
3d
3f
3f
3f
3d
3c
3d
00
3e
00
3e
3d
3f
00
3b
3f
3e
3e
00
3e
3f
3e
3d
00
00
3f
3d
3e
3f
01
00
3f
3e
3e
01
00
3f
3e
3d
3f
01
3f
3f
00
3d
00
01
3f
3f
00
3e
00
3f
00
00
3e
00
01
3f
3f
3b
3d
3f
00
01
00
3f
3f
00
3e
00
3f
3e
00
3f
01
3f
3f
3f
3f
3e
00
3f
3d
00
00
00
00
3c
3f
00
00
3c
3f
3c
00
3f
00
3e
3f
3e
3c
3d
3d
00
3f
3f
3d
3f
3f
3f
3f
3e
3f
3f
00
3f
00
3f
3f
3f
3f
3f
3f
3f
3f
3f
3f
3d
3e
3f
3f
3f
3d
3e
3f
00
3f
3d
00
3d
3f
01
3f
02
3e
00
3f
3c
01
3e
3e
3f
3f
3c
01
01
3f
3f
00
02
01
01
3e
00
3f
01
3f
00
01
00
00
00
00
3f
00
3f
01
00
3f
00
00
3f
3e
3e
01
00
00
00
3e
00
00
00
3e
3f
3e
3e
3f
00
00
3f
3f
3f
01
00
00
3e
3f
00
00
3c
3f
00
3f
00
00
02
00
3f
00
3f
00
3e
00
00
3f
3f
00
00
3e
00
3e
3f
02
00
00
00
3f
3f
3d
3f
3f
3f
3e
3f
3e
01
00
00
00
3e
01
00
00
00
3f
3f
01
01
00
3d
3f
01
01
00
3f
3e
00
00
3f
3f
00
3f
3e
01
00
01
3e
3f
3f
3e
3f
3f
3f
3f
3f
3e
3f
3f
3e
3d
3e
3b
01
00
3c
01
01
3e
3c
00
3f
3f
3f
02
3e
01
00
00
3f
01
3f
00
00
00
3e
3f
00
00
00
00
3e
01
3f
00
00
00
3f
3e
3e
3f
00
3f
3f
3f
3f
3f
01
3f
00
3f
3e
3f
01
01
01
00
3e
01
00
01
00
3f
3e
00
01
02
3f
3e
00
3f
3f
00
3f
3f
00
3f
01
3f
3f
00
00
3d
00
3f
3f
00
00
3e
00
3f
00
3f
00
3f
3f
3e
3f
00
3f
3f
3f
00
00
3e
00
00
3e
00
3e
3d
3f
3f
00
01
3f
3f
00
3f
00
3f
3d
3e
01
3f
3f
3f
3e
01
3f
3f
00
3d
01
3f
3f
00
01
3f
3f
01
01
01
01
00
3e
3f
3e
3f
00
3f
3d
3d
3e
3e
3f
3e
3b
3e
3a
01
00
00
3f
00
3e
3b
3e
00
00
00
00
3b
3f
01
02
00
3f
01
00
01
3f
3f
3d
00
00
00
3f
3f
3f
00
00
3f
00
00
00
01
01
00
00
3f
3f
01
00
00
00
01
01
00
3f
3f
00
00
3f
3e
3f
3f
3f
3f
00
3e
00
00
3f
3e
3f
3f
00
3b
00
00
3d
00
3f
01
3e
3f
3f
3f
3f
00
00
3f
3f
3f
02
00
3f
3d
00
3f
02
3f
3f
3d
00
3d
3d
00
3e
3e
00
3e
3e
3e
00
3f
3f
3e
3d
3e
3e
3e
01
3f
3b
3e
3f
3f
02
3e
3f
3e
00
00
3d
3d
00
00
00
3f
3e
3e
3f
00
3f
3f
00
3e
02
01
00
3f
3e
3c
3e
3e
00
3d
00
3f
00
3d
3f
3f
00
00
3f
00
00
3d
3f
3f
00
3f
3e
3f
00
00
3d
3e
3e
3f
3f
3f
3f
01
3e
00
3f
00
3f
00
00
00
00
3c
3f
3f
00
00
3f
3d
00
00
00
00
00
00
00
00
00
00
3b
00
00
00
00
3f
01
01
01
00
00
00
3f
00
3f
3f
00
3c
00
3f
3f
3f
3f
3d
3f
3f
3f
3f
3f
3f
3f
00
3e
00
01
00
3f
3f
01
00
3f
00
00
3f
01
3d
00
00
00
00
3f
01
01
00
00
00
3e
01
00
00
3f
3d
00
00
00
3f
3f
3f
00
3e
3f
00
3d
3f
3e
3f
00
3f
3f
3d
3f
3e
3f
3f
3f
3d
3e
3f
3e
3f
3f
3e
00
00
3d
00
00
3d
3d
3f
3f
3f
3c
00
00
02
00
3f
3f
00
3f
01
3d
3f
3f
3e
01
3f
3e
00
3f
01
00
3d
00
3f
3f
00
3f
3f
00
00
00
01
3d
00
00
3f
00
3f
00
00
01
3f
00
3e
3f
00
00
3f
01
3e
00
00
3f
3f
3f
00
00
00
3f
3f
3b
3f
3f
3f
3f
00
00
3f
00
3f
00
3e
3f
3f
3f
00
3e
00
3f
3f
00
3f
3d
00
3f
3f
00
3f
3e
3f
3f
00
3f
3d
3e
00
01
3f
3f
3d
3f
00
00
3f
3f
3e
00
00
3f
00
3e
3f
3f
00
00
3f
3d
00
00
3f
3f
3d
01
00
00
00
00
3e
3f
3f
3f
01
3f
3e
3e
00
00
3f
3d
3c
3e
3f
3f
3e
00
3e
00
3f
3d
3f
00
3f
3a
3c
3c
3f
3e
3f
00
3f
00
3f
3e
3f
00
3f
00
3d
00
00
3f
00
3f
3f
3f
3f
00
00
3e
3f
00
3f
00
3f
3f
3f
00
3f
00
3e
3f
00
00
00
01
3f
00
3f
00
3f
3d
3f
3f
00
01
00
3e
3f
01
3f
3f
00
3f
3f
01
00
3f
3b
3f
01
3e
00
3f
3d
00
00
00
3f
3f
3f
3f
3e
3f
3f
3f
00
00
3f
01
3d
3f
3e
3e
00
3f
3b
3f
3f
01
3f
3e
3f
3f
3f
00
3f
3d
3d
3e
00
3f
3e
00
00
00
00
3f
3d
3d
3f
00
3f
3f
00
3f
00
3f
3f
3e
3b
00
00
3f
00
3f
3a
01
00
3c
3f
3f
00
3d
3f
3e
3e
3f
00
00
01
3f
3f
3f
3e
3f
3f
3f
3f
3f
3e
3e
00
00
3f
3f
3c
3d
3f
00
3f
3f
00
3f
3e
3e
3f
3f
3f
3b
3e
3e
00
3e
3f
3d
3e
3d
3f
3f
3e
3f
3d
3b
3e
00
3f
3c
3e
3e
00
3f
3e
3e
3f
3e
3f
3e
3e
3f
00
3f
3f
3f
01
00
00
00
3f
3f
00
00
00
00
3f
01
00
00
00
00
3f
01
00
3f
3f
00
3f
3f
00
00
00
3e
00
00
3e
3f
3f
00
00
00
3f
00
3f
3e
00
3d
3f
3f
3d
3f
3f
3f
3f
3f
3e
3f
3d
00
01
3f
3d
3e
00
3f
3f
00
3f
3f
3f
00
00
3d
3d
3f
00
00
3f
3f
00
00
3f
00
00
3f
01
00
01
00
3f
00
01
00
3f
3f
3f
00
00
01
00
3f
01
02
00
02
3f
3e
3f
3f
3f
3f
3f
00
3e
3e
3d
3f
3f
3e
3f
00
3e
3f
3e
3f
3d
3f
3d
3e
3d
3f
01
3f
3e
3e
00
3e
3f
3d
3d
3f
00
00
3f
3c
3d
00
00
00
01
3c
00
3f
3f
00
00
3f
3f
00
3f
3f
3d
00
00
00
00
00
00
00
01
00
3e
00
00
3f
01
00
3f
3f
00
00
00
3f
3d
01
3f
01
3f
3f
3e
3f
00
00
3f
3d
3e
3f
01
00
3f
3c
3e
3f
3f
00
3f
3e
3f
00
00
3f
3d
3e
3f
3f
00
3f
3d
3f
3f
3f
00
00
3d
3f
3f
3f
01
3e
00
3f
3f
00
00
3c
3f
3e
01
3f
3f
00
00
00
00
00
3e
3f
00
3f
00
3f
3d
00
3e
3f
00
00
01
3f
00
02
00
3f
00
3f
3e
3f
3f
3f
3f
3b
3c
3d
3f
3e
3c
01
00
3b
00
3d
01
3f
00
3b
3e
00
00
00
3e
3e
3e
00
00
3f
00
3c
00
00
3f
00
3e
3f
3e
00
00
3f
3e
3f
3f
00
3f
3f
3e
3e
3f
00
3f
3e
3e
3f
3f
3f
3f
00
3f
01
00
3f
3f
3e
00
3f
3f
00
3f
3e
01
3f
3e
3c
3d
00
3f
3e
3e
3e
3f
01
3e
3e
3d
3d
3f
01
3d
3f
3d
3c
01
3f
3d
3f
3c
3f
01
3d
00
3f
3d
01
3f
3d
00
00
3e
3f
3f
3f
01
00
01
00
3f
3f
3e
00
00
00
3f
00
3d
3f
3f
3f
00
00
3e
3d
3e
3f
3f
3f
01
3e
02
3f
00
00
02
01
00
01
00
00
01
01
01
00
00
